[PAD]
[UNK]
[CLS]
[MASK]
[SEP]
!
"
#
$
%
&
'
(
)
+
,
-
.
/
0
1
2
3
4
5
6
7
8
9
:
;
<
=
?
@
A
B
C
D
E
F
G
H
I
J
K
L
M
N
O
P
Q
R
S
T
U
V
W
X
Y
Z
[
\
]
^
_
`
a
b
c
d
e
f
g
h
i
j
k
l
m
n
o
p
q
r
s
t
u
v
w
x
y
z
|
£
¤
ð
œ
˜
‘
‚
“
†
…
€
™
##i
##K
##h
##u
##s
##n
##d
##o
##k
##r
##e
##a
##g
##f
##y
##m
##l
##t
##N
##D
##I
##A
##M
##O
##U
##b
##J
##T
##c
##S
##R
##Y
##L
##E
##x
##B
##F
##H
##C
##p
##w
##z
##P
##v
##W
##j
##X
##Z
##q
##G
##V
##Q
##5
##8
##2
##4
##7
##3
##1
##9
##6
##0
##ð
##˜
##¤
##£
##€
##™
##œ
##ar
##ha
##ai
##hi
##an
##at
hai
##ay
##in
##er
##al
ki
##am
##on
##he
##um
##as
##ur
##ab
na
ho
##ad
ke
me
ka
to
##en
ko
##ak
##ta
##us
##ya
se
##is
kar
##or
##es
##ah
##ti
##os
##na
##il
##ag
##ee
##ch
##ol
##un
##han
##te
is
##ap
##har
##ir
nahi
bhi
ap
de
##ik
mein
##ne
aur
##ye
ra
ba
##ho
##it
kh
##om
hain
##eh
hi
ne
par
##le
##ut
##og
##di
##az
##fs
in
cha
##fsos
##ic
tum
sa
##ul
kr
##ush
##aj
##ain
##hai
##id
##oo
##ing
li
##se
##ki
aap
ha
##si
ab
ja
ya
the
##da
tha
##ga
##kh
##re
mu
##aye
##li
##la
an
hu
##ter
di
##ke
##sa
wo
le
##hum
##ll
##ata
be
he
log
##aya
lag
##and
ye
##ard
bol
kya
##ana
khush
##ra
afsos
##ri
##lo
##uch
##hat
##ko
un
jo
hum
##ast
##ari
##ara
ac
ma
mer
##ou
ghum
##ati
##hu
raha
bhai
##ni
us
##me
##ka
or
##ve
##ist
it
nhi
pe
sab
liye
##ge
##wa
##ath
kha
wal
##ht
##ot
hon
##ind
pr
baat
so
do
koi
re
kuch
##ate
ban
sha
##ud
##aq
##ly
##abard
##ani
##ahi
thi
##ang
##abardast
dar
and
##ent
tu
##ada
rahe
##are
ham
mil
##hara
##jhe
ag
##iy
sam
##llah
##ce
kis
bo
##wit
##aa
apna
##cha
##ub
pic
mo
aik
##witter
##ty
##ma
toh
Afsos
hota
ga
##gi
##th
##hir
ky
of
kam
##com
ch
sir
##af
##akist
ni
##ussa
##ere
##ue
sak
woh
##ash
dekh
Tum
In
pict
Allah
##ali
##ane
ek
main
ais
##wittercom
pictwittercom
as
##man
##aha
lagta
mai
##ow
kisi
bat
you
##ala
rak
bar
lo
##de
##up
Ap
##kar
##ais
##hy
##hab
kahan
st
mera
gussa
##ig
##kin
##era
##esh
yeh
##dia
dil
com
Ka
##ers
Ab
bolo
lik
aa
Bhai
##akistan
apne
al
##eet
##end
te
##aise
##eri
##ck
##tion
tumhara
rahi
bad
kab
har
##mi
gaya
##ayi
rha
for
sath
##ood
Hum
mujhe
zabardast
Cha
achi
tak
##ro
no
##ong
##ed
##HA
mar
##ess
hy
Hai
jis
##aw
diya
##ans
Ki
bah
ji
tar
##chi
##oor
jab
##est
pa
##ct
peh
##lay
##abi
aaj
##ry
Ye
##tay
sun
##ver
##ation
##op
##adi
phir
##ey
am
rah
##uk
##our
##nay
kiski
jan
jaye
##ost
bha
##ja
mat
##ny
##st
chu
man
din
##ish
on
da
reh
Kar
##hen
pas
nai
dek
##eed
##hr
per
Ko
Me
##ust
bohat
Pakistan
keh
kiya
Kh
Is
##od
##et
en
den
hoga
si
ar
##ham
khud
ta
sy
De
mas
say
agar
ti
karne
##hin
ro
hua
##hay
##vi
##pe
pata
tr
don
##ame
mus
##ase
nik
baad
##iya
##jh
but
apni
##zar
##AR
la
##ant
sahi
##uf
##ore
##sh
tw
lekin
Zabardast
che
Mo
##ba
##ji
bi
waq
##ci
##mp
kaam
Mu
##app
##ort
vo
dik
con
logo
hoti
Aur
##ice
##za
##ill
sal
itna
at
cho
karo
nah
sar
sirf
Sid
chal
##ake
##one
##hiye
gi
##ment
kaha
fr
Jo
kabhi
meri
jata
naam
are
Nahi
que
##sim
##enge
tab
##oon
##hal
um
##ide
##aza
ad
abhi
far
du
chalo
##esha
##che
##ia
Khush
aj
sho
kit
##ail
Chalo
##day
Ho
##rat
##AN
go
##lam
Se
Kis
To
##ity
desh
karna
rhe
##oun
Sha
##ks
gaye
##agi
##hari
##hna
Na
##nd
es
they
saal
sh
##ama
##ith
##gar
soch
karte
kia
##bar
ter
sb
tweet
Aap
mere
##huk
th
kal
ge
##ena
chahiye
pad
bh
fir
##ran
##bi
##kay
##tar
##fe
##hot
pol
Sa
we
##alat
##agar
time
##mat
day
pak
##haha
kho
bas
this
hm
ex
ins
##kk
##ure
##ura
su
kyun
Par
It
##eeb
##wal
gu
py
acha
##low
##all
##ine
##ber
gya
Sir
wala
shar
##AH
dun
my
##eel
##im
aw
that
Kya
##je
##port
##hil
ghar
Mera
maz
pl
bahut
taq
khan
##art
##aan
nazar
##du
##ek
was
logon
ur
wa
##IN
pai
mul
##ff
she
karta
##zz
##aat
kare
sid
kon
##age
##akh
hue
##indagi
Wo
##had
hay
##ew
aisa
##alo
Tu
all
band
##ool
##shi
iss
bana
up
ker
not
bhar
##war
gayi
Am
##ng
##el
jal
##iyabi
sup
##ori
mad
##lim
##dar
tho
wale
chan
##ii
##ollow
pro
rahay
wor
kyu
##ale
HA
##zi
hun
khus
meh
Ar
##indu
sakta
yahan
af
Hain
po
liya
has
with
jee
his
##to
hui
##mo
qu
##ami
##ress
fa
##fi
Be
tou
wali
baar
jin
##do
waqt
##eem
gha
zar
##aisay
Kahan
ny
ut
Ghum
bhe
##ss
bht
##wab
apko
your
Mai
##appy
raho
Dil
##ally
##hh
gy
##bat
Or
itni
##ug
gir
##ray
waj
lad
##uru
##ese
##yada
##AA
samaj
##asi
India
##ein
like
chor
khat
Ya
##ted
tal
ak
bil
sub
az
##amil
jag
hn
##ina
chah
cr
##ary
kay
laga
jaan
sat
dono
tm
nikal
yaad
jai
Le
hog
##alman
hona
bola
##hon
Sab
jaise
her
##va
##ega
##gr
Te
##uri
##ER
##LL
bu
im
##oot
use
rhi
khauf
jay
tara
Ham
sm
Dar
##lease
##wan
magar
min
hote
shi
pi
##hukla
bak
Kam
##pa
Ba
kro
Al
co
Ek
##tic
pehlay
sk
##ction
##her
lg
ay
Haha
Koi
##mir
pay
hwa
Ke
ata
##oge
khi
##yan
##qu
##ung
aise
beh
new
can
Khan
dikha
##der
The
##ez
Mus
sad
bl
Tumhara
bach
tas
have
##ome
chi
##ait
##ona
dekha
Yeh
rakh
##AT
##saan
Main
##qa
##pp
##ight
##way
##my
yahi
bag
##so
Im
Asim
kn
men
dos
aata
##ade
res
mut
Modi
aaya
Re
##meen
So
isi
##harth
PM
##ram
##iye
Kuch
bata
##aray
##ount
##qi
khar
We
She
bn
##SS
yaar
lar
mal
hone
dost
zindagi
##tu
Us
love
##oss
hogi
mis
pat
tere
maj
gay
nam
br
##und
sahib
Aaj
will
shay
##ashmir
##ass
nay
##hare
gai
Apna
app
He
##EE
##sha
##kul
jati
##ene
baap
Ha
dia
follow
Bar
##daas
##ket
by
Bo
##ence
##tr
##ideo
##ble
##we
dete
##aid
Ma
##yo
##rr
nas
##lic
As
saath
ae
dena
##out
pta
##sion
Pr
##AY
Ja
Lag
karen
##ST
##HI
haq
nahin
Ne
##eef
Kiski
##AL
tam
hamesha
##AB
jao
##ld
##irth
##iz
##akistani
gh
Mujhe
bt
war
taraf
him
Bol
##lab
jawab
pehle
modi
bs
hoon
##ous
##uda
kamiyabi
##AM
mam
khe
##ora
##tiya
pasand
teri
##habbat
samajh
comp
##AK
##aba
No
pass
##ON
bus
##ula
##yon
##ca
Jab
from
hal
An
##hnaaz
Jan
You
party
vote
dr
##liye
##ise
show
walay
know
##irthday
##Sid
sc
But
aam
jit
Kha
bacha
than
##andi
ziy
ver
support
num
##ongress
aaye
khushi
##ahe
##fa
##JP
dal
##asha
muj
likh
aapko
##ile
maa
##TI
duniya
##jo
vi
##ero
##kha
##ts
ph
eu
krna
Un
sakte
media
##nya
bho
video
bal
##hak
##gh
see
wajah
##In
one
ziyada
mun
ach
##mar
paas
dus
sach
##ike
usko
je
##hant
##isa
##riend
##yat
tarah
police
##KK
##use
##eng
mush
out
Bhi
may
mulk
Har
##res
##abhi
han
##ting
##uld
##be
mei
kaise
insan
deta
##ook
##ose
##LLAH
##hing
il
Khu
terhan
rep
##uj
des
ik
sp
##ila
##dian
Lo
##mal
cheez
##jiye
just
##ull
Happy
Agar
agr
karti
##ion
kai
##mad
aye
islam
our
BJP
dan
dai
And
##very
aisi
##eek
shuru
Are
hindu
BB
##vt
aag
dukh
##hut
##ven
fe
mila
##ank
udaas
kut
##iyat
zaroor
##UM
Raha
bagha
poor
el
fil
##ft
dekho
gal
kahin
off
id
##for
bta
krte
Bhar
##aish
mujh
ila
bahar
Ram
chale
##uran
tumhe
ras
pah
movi
gar
muslim
sarkar
##umb
Mar
##aki
sana
honay
##awat
theek
Hi
what
HAI
Af
Ro
tera
krne
##nat
urdu
uske
##iv
pakistan
kitna
too
aad
cor
life
##no
cl
Than
##osh
##omat
usay
mur
uska
samj
##kal
op
Ky
likha
Mein
qab
gr
good
##tice
ada
##uq
please
##osi
apki
KI
bet
tor
##mb
galat
##ky
aati
post
##ob
dua
##ory
Bah
Ali
tumhari
howa
khatam
##ont
jana
inter
saf
jagah
##abad
uski
faz
Man
hos
##ica
##AD
aya
##wi
jb
##ople
kat
##ando
bul
bilkul
Temp
##his
sur
##afi
sahab
dis
nh
##ach
##reat
wat
Pakistani
##azi
hen
##ys
wah
jahan
##andir
Aj
aq
Lagta
Rah
##ushant
##chan
##led
Ch
haz
krta
##igg
##agh
20
##eep
##gn
##zam
##anay
raat
hamari
pra
ALLAH
##ute
hein
Imran
bhag
Kisi
por
had
##ult
fan
##ublic
haal
jar
##med
##azaar
tan
##bhi
acc
Di
##icket
mak
##Na
any
Sana
##unj
mi
bai
##jp
##esa
##ght
kiye
##ici
Log
Mere
ghab
dy
tumhare
tk
##erson
sakti
hat
mn
##ua
ele
rakha
news
##ond
##air
##inda
##amily
##ning
Gussa
Jis
yaha
wap
km
ku
##weet
diye
##TA
maar
mah
##kan
##yaar
Ameen
unko
##hs
india
kahi
shayad
Kara
who
##ars
Go
KO
col
haan
Meri
##wn
##ader
##yar
##oof
matlab
pyar
Pak
kita
##ado
khila
aayi
lagi
team
hazaar
dur
sik
##OR
now
##ful
ghal
##ents
Lekin
kan
##mm
##een
Sam
IN
iz
jeet
feel
phr
##log
jaa
yar
gye
mang
##UR
##alam
jaane
ve
##waz
koshi
jayega
pag
best
##ehli
chup
##AS
real
walo
people
mum
##tey
jyada
##andhi
##EN
##ingh
##kam
awam
##nk
Sar
Muslim
##nt
##ogi
bech
khaya
##Shukla
tujhe
utha
parh
aas
movie
##co
samjh
Hindu
about
ang
bay
##ameen
##aal
baghaawat
##For
##lp
hath
##uss
janta
Kiya
##akar
hotay
Kamiyabi
hoj
poli
##asht
##umbai
dikh
rahy
Karachi
ud
##ukh
Sidharth
##eeq
mehf
mon
##pect
Apne
Bi
ah
##ism
roz
##hq
ty
dho
farm
##maan
char
Achi
##orry
jam
jho
beta
lena
dim
##On
##lhi
chala
teh
maan
##ors
hamare
bara
Kashmir
Kabhi
##urat
dhar
##kari
ber
##any
Raj
Tha
mt
get
rhy
wahan
##ls
Itna
##oob
##kil
fans
musalman
person
itne
##int
##ustice
koshish
##hammad
##AI
pur
##ord
zam
zyada
##kr
##OL
friend
back
maq
song
Ji
len
wahi
##OS
ul
pee
shair
apny
san
family
happy
##une
lu
##ok
Kia
ladki
pap
##daar
St
##orat
Bharat
pre
rahen
Sahi
number
kehte
mubar
Bha
Jai
##AP
##yy
##dan
kah
again
naz
##unga
et
Tr
##br
puch
Wind
##hid
##ister
kaun
mohabbat
Dehli
##urn
mile
Ad
##oli
ake
exp
walon
##cho
bhut
Abhi
Acha
##eer
hind
sec
##ente
##yal
##uz
##pt
aisay
qat
##min
its
##asa
boht
##yi
waisay
##abu
every
##tt
karke
##jid
##cial
bohot
##She
##lu
sawal
salam
##ways
tamam
only
##hee
##kum
dont
Ah
##ww
asim
ser
if
help
##kaar
##ney
pura
para
yg
AP
kee
##par
ram
##ES
plz
##ire
badal
jate
Kit
Desh
name
##akin
Shah
##Allah
pm
##ika
##kt
birthday
jat
##here
##asil
shadi
jaldi
##bs
HO
Kr
ms
some
##kat
##was
##ance
est
naa
mm
film
unke
more
moj
wohi
##rana
baj
##rahat
Pe
ly
hamara
##ole
gad
Bas
mor
think
##ron
mubarak
##vo
Teri
pan
khel
unki
Ra
##kkkk
##udi
##Tum
##maal
Mat
bna
isliye
sen
honge
bada
warna
##HAN
New
unhon
kas
Hy
##ini
poo
##tain
thy
##asat
Chi
Islam
str
##ban
##xt
ng
pal
chho
very
##ida
##chay
case
yang
janab
bare
##uu
ri
bro
##tive
inko
##US
##cy
govt
count
dain
##ves
##san
##ther
iste
##Asim
gali
em
gun
pri
reply
aks
ce
hr
twitter
comment
bura
Do
IS
malo
##alik
Rain
Han
seri
khayaal
shu
daf
nar
ini
much
##per
aan
them
##tem
##ital
hey
##anat
lete
KA
dh
muq
##BI
rehta
##ushi
larki
nae
##vel
##lf
##bu
how
kehna
##oll
##ikar
suna
##ds
##kht
kre
bang
Hahaha
zara
##blem
baray
yr
maine
##aja
##zzat
SE
##bo
##India
##IR
Sun
paisa
same
Far
##iyan
##vern
fi
fake
tweets
dard
lay
umeed
##pan
dha
aapke
##odi
##que
rakhe
teen
der
fav
##esi
Wah
Shar
##lb
muh
kuchh
Phir
apke
son
##ated
##jay
Tere
kara
wr
kitni
hamaray
##ze
##ito
daal
play
##gu
want
Amer
##ayega
##uti
malik
##aiz
krty
mehfhil
##haar
big
Congress
bjp
##get
Good
##ten
##has
dene
car
##andar
peda
##ady
##Khan
Hind
Mil
trend
jayen
raj
##bha
##eez
Kal
dam
deti
chuka
account
pagal
right
hamein
Bad
Mas
##go
gand
leke
mushkil
##bal
khuda
Indian
Mohammad
##ror
unhe
Haan
Twitter
##shad
TO
gyi
##urt
##eshan
ju
##als
jaisay
##DI
problem
##aar
##awaz
sare
KAR
kitaab
May
insaan
hak
##HE
##oc
cour
##ner
Shi
thik
imp
##ps
fat
usse
##bad
zab
##ahar
Dekh
##SSR
dec
##htay
##Fans
paise
kaafi
Mad
##ahir
Ban
said
Ni
##Naaz
Woh
##ener
##dd
##pl
khoob
This
##jhy
mandir
lam
kitne
Ex
##DA
##oth
aeye
Bahut
##ph
Dr
##ikh
pu
vir
kharab
mahi
ME
sol
##pr
comm
jitna
congress
fai
bina
##fir
##hane
##aaaa
ati
dush
alag
##eech
sale
Diya
public
waqay
Zindagi
##wood
##other
bur
fal
apka
ir
What
##ations
when
bahot
yah
##sy
mana
waz
baqi
insa
guzar
nd
##able
krti
##liFans
##Pa
##isha
America
##Shehnaaz
aurat
bc
last
##AHI
did
fais
##Mahe
##chool
bhool
Nhi
##wat
pani
Hu
mash
##cle
##olice
##Mahesh
zi
work
##isi
dekhna
##jar
sabko
army
nahe
##aji
##OO
##zal
whi
##ashmi
beti
way
khu
##raad
chahta
Tak
##HAR
##YA
doos
isko
bait
##ink
abadi
aapki
Sham
meu
milta
##appu
Salman
cal
mamu
##ton
##Ri
madad
Bil
##rup
Bigg
##cc
then
bolte
beg
dimag
##say
##endo
nat
their
Toh
##tik
Ga
dee
##diya
bab
Abe
##zai
##vid
taree
tb
##aka
start
sai
##ason
Gaya
##kho
even
##ussain
##NA
Rahul
qad
##lywood
Bohat
banaya
zind
inte
##hri
##ctor
##indi
kashmir
gan
sah
miss
lage
haasil
Fir
politic
denge
skta
qo
sara
##ukan
##col
such
##kn
maza
thoda
##ower
##oooo
mili
Dun
jaisa
##hra
istemaal
Love
waha
ikh
jaha
aja
jane
##unjab
pich
also
paish
##nel
Mumbai
aage
kere
##uly
khabar
izzat
Yaar
##tak
Delhi
mau
jese
rho
##pi
Ghar
mara
shehar
phot
afraad
always
##Boss
##lock
##Ke
##AJ
##hty
mare
hahaha
Li
##aim
qatal
lagti
naf
sud
##uma
exam
##reen
##vernment
lga
kaisay
##IS
My
##ular
##ters
##ational
mojood
os
##ving
Chu
hee
ten
##dul
phone
Thank
##BD
##ream
PTI
itu
stud
Baat
##hand
##ery
##char
Umar
aate
Ak
baki
cont
call
##rah
chand
khul
Com
Peh
mom
yad
bhiya
##heed
lia
iska
yehi
world
##zaar
puri
guz
hogaya
Aa
##istan
leader
allah
Lah
sabse
siy
##uth
aadmi
pyaar
need
##eni
khol
##ather
##esy
pehli
why
change
##hah
##ked
##les
sti
##oshi
dekhte
tra
line
yani
galti
chod
KH
via
election
##sed
karenge
Tod
jail
sorry
aapne
##fer
rehna
jung
TV
SS
Ghab
##mber
AAP
lai
kala
chaha
##cause
Per
amal
Nawaz
qis
job
behtar
##koomat
naya
huwa
mazeed
over
int
Masha
yun
##ons
spe
khilaf
##pital
##Of
come
mukam
bhot
rehne
masjid
##CH
##ashi
Bolo
should
##less
game
batao
hukoomat
bud
angre
free
##areen
##aro
##UN
##arat
##wai
##hone
bolne
##ING
##act
fin
aak
sem
##nab
chahe
shakh
La
mean
nehi
##ID
##cer
Pata
uss
unka
##ube
laf
ache
sil
khana
Khushi
##TE
Vo
test
##hn
paida
act
##wari
sey
country
sari
sing
share
bolna
ameen
KE
##jy
Apni
##ira
muje
balkay
##dy
ghabrahat
On
Hahahaha
En
DE
##naak
##oga
Karo
maloom
##ces
jani
zaroorat
def
##azat
##abar
cri
chutiya
baith
Don
ghair
masla
bayan
samne
hus
##omo
aane
##FS
gham
##rey
kyo
##indh
ass
cham
Shehnaaz
wait
rec
##Hum
fun
qa
ghalat
Jin
rang
bhul
tod
##PP
##harif
match
after
lye
haar
kbhi
try
ghr
neta
barri
##anya
Khud
##khon
##reer
##riya
Kyu
sit
hora
chuti
How
well
##heen
##por
inhen
##ayat
Tar
##wk
kyon
hoty
##ved
Wa
##inha
dah
chalta
really
batain
jais
##tif
cap
Si
qar
uma
bole
banda
MA
respect
bade
##osa
##anch
Cho
Rak
##qeen
##IL
Khuda
##vers
##urs
waise
##bl
atay
class
##As
Follow
fo
mard
against
smjh
##ger
Su
##mes
school
##dit
##con
##hana
atta
halat
##yed
##king
ij
AM
##He
jhoot
utar
##ties
##ano
andar
SidNaaz
##own
usi
201
pahle
list
khub
Tera
rakhna
wapas
apnay
rkh
zul
##ustan
asal
prop
subah
ign
imran
baba
sharam
##haz
Pa
##po
channel
jud
kese
Hm
ela
Ta
there
##KKKK
Hussain
##ehr
jari
tay
saaf
Ahmed
sham
mol
Oh
##aram
nafrat
bun
##trol
eh
##ace
Cong
hame
##oup
das
##YE
Sup
deen
##key
##The
make
rap
Sub
aapka
win
year
socha
wish
gae
av
##ler
dushman
Reh
satke
##UT
##oud
ilm
##abiq
sabhi
kayi
many
pen
bac
##oom
##Ar
karwa
Shamshad
krny
state
ol
##ign
##ubar
##umar
Az
##tand
bin
Maa
bes
first
Maine
##qt
great
fazer
hand
cle
hissa
NA
Today
##Babu
dekhi
Es
sr
care
mukht
thing
ghazal
bhej
dosray
jama
Sy
dekhe
chuke
##hain
tag
##omb
aat
lgta
##gan
rh
Kay
##lat
bolta
padh
minha
##Ye
##ili
##ual
badi
ziada
Bht
Fr
hume
khoon
Khauf
##oh
All
lain
##tal
ai
shakal
los
ishq
##Like
##amat
##em
usne
other
sharm
lekar
hala
chahte
##pur
##IT
##asti
ilawa
##FSOS
##view
##apa
va
ze
##afa
##jri
##ship
upar
##anoon
Ay
lat
##ical
##angan
pari
saat
##ivers
khil
##dr
kijiye
##ude
Yar
kahe
shak
##Ka
karega
nhe
BiggBoss
kch
door
mutabiq
waly
government
Che
bari
##ching
jald
##Cha
##van
kyunkay
cam
God
karni
shukla
Sirf
Chal
chat
##hani
bhakt
because
Kho
anay
ok
##HAHA
prog
mag
Gaye
##wami
##Ab
##lete
shab
##ings
poori
chuki
air
kash
kmh
##uck
key
kry
##colate
##duc
nak
ans
mukammal
naseeb
##hor
Agr
##AG
musht
##eee
phe
##iri
dari
##ric
Hota
##its
chaar
##iyo
Sho
kak
hoo
##estion
Dew
##ott
200
kap
##IC
##deed
still
##tiv
lakin
##waj
pha
Rahe
##uh
daur
oh
kur
##Me
sip
ahe
Iq
CM
##adar
top
##Re
##wala
kir
Ti
corrup
thay
Son
farma
hoa
##IM
##iness
If
##tici
##NE
take
Ur
Yes
check
Lahore
##joy
cricket
sher
milega
accha
Aise
US
##din
SidharthShukla
Gandhi
##ode
Itni
PAK
jae
majmo
mit
##put
##taq
hazrat
##line
Sushant
shr
face
angrezi
inki
chay
photo
##khuda
##wara
kehta
cre
rakho
mushtamil
ghan
lafz
Please
San
mph
##aaa
aleh
qoum
fou
Aisa
RA
##orr
jaate
side
##Ko
nee
tujh
ara
mob
##iyon
nawaz
##lish
shaam
chocolate
Ake
##hea
ret
Thanks
saari
dusre
bik
Kyun
pure
abi
##reak
shah
rehti
khusi
Sak
tri
Bang
At
aao
bharat
down
tumko
##gy
PR
##far
##ms
yaqeen
Pl
Sal
aayega
##uka
hosla
lol
##ahab
##ite
Meh
##LE
Gu
rup
##lection
chaiye
##cal
##aisa
##tir
##EEN
##asir
##urr
##ative
Its
tau
##bah
##MaheshBabu
Tab
##lie
##pal
kafi
mout
himmat
pun
##dh
##awan
Da
bir
##thing
Kon
bb
star
kher
##mon
kil
##gaar
Dewp
pooch
dekhne
here
##ooo
idhar
NE
prof
##Riaz
neg
live
##dk
##Gill
mr
za
choti
##lar
##ulam
##arch
AFSOS
taha
behan
hospital
##str
Shame
jaaye
sipahi
block
quran
##come
waja
lene
abad
kkhuda
ese
BHA
Kaha
akh
Bat
rish
lie
most
shan
sahe
bane
Waq
##bani
indian
##layLike
samjha
madam
shame
sang
ensaan
Sad
##tha
##asam
better
paye
Magar
YE
happ
##UL
##qui
rab
##khe
posi
aza
##odh
dega
##pis
##layLikeShehnaaz
##bas
##ardari
ali
ignore
##hit
these
taj
zabaan
mehnat
awa
hpa
saza
terror
##gak
sala
been
rahega
##icial
##De
##henge
cele
power
poora
Baro
shakhs
saab
pres
##nak
Punjab
##lon
kham
##rop
paid
##ligi
aakhir
done
##ision
justice
Birthday
ghabrana
esa
##ave
##main
humare
chali
leta
kaho
huye
RT
court
Nam
roo
##jan
mene
##rar
Bu
Bs
##IK
look
##Aur
BHI
Sarkar
Aik
barray
##ley
##alif
rat
mind
agay
dharm
##With
gl
##mu
UP
##rad
duk
next
del
##var
kami
pos
##alim
action
Nai
muta
##nn
karw
ikhti
wi
comer
Pat
shayar
pakistani
cop
##ola
##Ki
Mubar
isse
Dukh
##ungi
month
Say
hei
Sach
NAHI
Keh
smj
uth
eng
mujhy
faisla
om
today
samnay
##OM
##cia
jahil
guys
##wo
##wer
##ens
chahye
##fr
aai
##ously
##yaan
##RE
##ukat
Ishq
lang
##fnaak
tuk
##but
asli
boy
##ikas
Qu
jaga
##cted
dep
##form
gum
##tan
boss
iske
drama
##anti
hero
chak
jum
pareshan
pho
Bhag
were
road
Br
##TH
That
##ayen
part
haath
##aur
piche
##azir
##ayenge
inc
sikha
anda
Bilkul
CHA
fail
SA
stand
Eng
maaf
mans
##asta
rel
insani
##aste
shuk
##BDMaheshBabu
##aty
##naaz
chalay
promo
plan
report
som
zinda
Bh
tabd
jaisi
Tal
iski
thori
##ooq
gaali
tareef
For
bisa
rehte
chahi
dum
Ag
shum
tumne
dunya
ane
mood
##LA
##ident
Pehle
sada
##aron
##otest
Aw
Dost
jaz
late
dear
lot
War
tang
never
bit
would
Ac
nuq
##alu
khaas
followers
Iss
##may
##ker
honi
achay
level
pada
pehla
##awal
LO
nis
mtlb
hae
##ins
loo
politics
Nik
inke
Amit
##bil
Din
##round
##Hai
##pon
ghus
musk
Naam
Rahi
##don
ide
saare
majmoi
sap
##igh
Kab
##tw
heart
mazhab
law
##Pr
program
BOL
khair
haram
khubs
chaye
high
como
##RC
##ashtra
full
##weer
achha
##auti
##ie
ru
bless
taa
##lion
gener
chun
bhala
Liye
##atay
give
tabhi
skte
cong
dou
aman
hor
jayenge
jha
Hamesha
##ashami
##add
##mis
chl
ajeeb
##fat
bache
doosri
##Singh
##ghan
##HO
qabil
kl
awaz
##av
##ullah
being
##ugh
juga
##stan
hukum
##gal
rakhy
AN
##ards
got
week
nya
afzai
sw
akele
buri
meter
point
Waise
##wah
##ded
Tm
##hein
tehreer
let
end
Chor
##zaam
sama
By
isme
jayegi
TUM
kin
question
naye
khayal
social
Just
tasweer
##cin
papa
naan
dijiye
emo
inka
word
bataya
salman
sus
aakh
lah
sin
##ulad
##unty
corona
lakh
milti
kaa
jaati
wak
karain
und
Bus
##zoor
bachon
##ught
safha
yout
does
##nam
nu
acting
##autiful
ala
temp
kaar
hit
##sad
yo
##self
bank
hope
bel
rakhi
##adesh
##wahi
Sb
gari
##jriwal
##ews
gol
dor
keep
##oz
##iliye
pais
##ists
##mani
##ratul
AB
Mir
clear
##Ap
aar
##Voot
##olog
##itr
kht
##men
Tho
##iki
KR
Apko
Duniya
cen
eid
pti
Cor
conf
bachay
##oos
##ogle
diff
satah
AL
Stay
##Raj
admi
karty
GH
hmesha
kb
tala
##To
bd
##anda
##aiye
Mul
rakhay
Mr
##Be
##OnVoot
kaisa
##eeee
ruk
aor
taleem
bhagwan
qanoon
hoi
kardiya
##iss
Mubarak
rok
fit
journ
saha
Tweet
hate
mukhtalif
##taar
##allah
Hos
paras
mais
sake
chin
sils
jaata
aksar
##hoor
Kitna
##shan
##endram
Mohabbat
##lop
##aliq
todo
##rio
AsliFans
##aga
They
##aqi
tareekh
Sath
link
sys
padta
Mahar
ise
##the
cons
ana
CBI
##bt
##lack
nor
##lah
dainay
hans
##Sushant
religi
god
##hyan
##meer
thr
karein
qaum
maf
night
##qat
##endramodi
farq
##Sana
##eeqat
##of
##Is
Sindh
##leef
BBOnVoot
years
##iiii
kary
Justice
IK
asi
watch
educ
baare
thank
lead
Asi
aakhri
Udaas
##soos
##den
##UB
age
##baad
##ria
vai
Jahan
plzz
##vs
open
Aam
AUR
vis
##mer
bhaiya
dhan
days
tune
##ao
kutte
Stop
system
##olo
parta
##ailer
##arts
epis
Arey
##lib
thodi
lak
bachi
##manshi
aqal
shairi
ghatiya
##TV
khule
ris
islami
##TS
##usi
##abba
zulm
namaz
##oni
Dal
soorat
hist
aab
bap
pappu
stop
maang
bard
una
zub
##aqat
##atein
##ahira
dire
Nahin
gul
pand
pls
Res
dub
##cept
##tra
Cr
zim
mgr
##hair
dak
enjoy
chutiye
AsimRiaz
##rig
Kahi
##itna
las
Army
Jal
Police
aana
##Lo
Ny
etc
wit
zameen
itnay
story
shareef
apa
kamy
China
##Di
marzi
##gir
bich
azad
Amr
akela
Azam
Sur
Min
wapis
friends
##ality
neend
bigg
dem
mazak
called
Ghabrana
Tan
krke
shukar
##usam
fut
##hadi
##ehmi
banana
bhee
##qay
abb
##nah
##ats
tig
##haan
##dhar
wom
cant
##andom
YouT
tur
##IND
Lol
stay
naq
which
khilaaf
jara
luck
Why
##uary
##sta
kyuki
MO
super
mobile
girl
Hal
biwi
kabi
##logo
##KeAs
chore
kad
vid
tax
vou
BE
bor
qui
Now
fl
##Ba
##illah
##ope
baha
Naz
Jaan
##erstand
tell
kalo
mir
rona
##eeen
##tum
journal
##hoom
##ajaj
hoja
sarkari
durust
##iter
yeah
cute
send
##RK
banane
zal
##Win
minister
Day
Th
tap
##band
AS
##alth
##VE
chori
##eray
banta
Bollywood
qaim
MER
Vi
##jli
behen
mery
gyan
hour
daikh
##iro
##unjabi
##dah
##ratulations
marne
##RI
farmaya
padega
Mandir
var
chalega
##esai
ahem
liy
##ject
bulandi
usme
mast
seekh
##ooz
baaz
##hoo
Jam
##hti
card
Po
land
bani
yhi
##ple
##aikum
thak
lagey
beech
siwa
theen
chil
##KeAsliFans
single
##cott
buhat
aqwami
dham
##wana
##hik
BHAI
Rashmi
##hib
##tit
tarha
narendramodi
dhe
##hta
Paras
##inho
Maz
Yaad
Eid
##ork
##mit
jatay
uncle
janib
Char
##afsos
copy
hogya
saam
going
Mi
Dua
##GE
chut
YouTube
##bh
fikar
##tage
##Do
Matlab
##tions
##aine
baby
faida
bero
nal
group
Gul
Hun
aulad
pade
kaat
##AND
Jaye
Howa
andaaz
DO
##mas
##gg
morning
##tari
sl
##ough
requ
paanch
darya
must
##Hi
thora
Mam
zahir
Sahab
ev
##zad
##chy
true
Bihar
words
zikar
##ees
nikla
seen
Wal
ao
##ling
lenge
add
##ating
abbu
Iqbal
Beta
##oto
mumkin
hoge
khid
dosti
CH
control
maal
doing
##io
pil
##aab
delhi
moht
thanks
##conom
##LO
##Chalo
hard
chai
##Te
lau
##EET
record
opp
Soch
tash
##Jo
murabba
fact
##ju
fay
pati
yes
jabkay
yak
##bot
cer
fic
Not
wrong
safe
Sh
Pro
##idar
bakwas
NO
News
fight
##USH
jur
##lain
arab
Jaise
Raq
##llo
##hout
daar
colle
suppor
set
Con
Pri
ib
Haa
##lia
Haz
Kare
##rif
tv
##ustr
Mun
gus
chahti
toot
izhaar
Singh
put
tah
##ick
HUM
Shukla
##And
Dear
deser
ci
kartay
haqeeqat
khal
##ness
kren
Haq
ayega
##RA
break
jaty
Bhut
##naam
asa
karay
##tikhab
yu
waqe
akhir
##haram
##koon
##hel
RE
both
##yak
##tim
qisam
##tific
jad
val
##iden
hawal
##fficial
Que
hony
result
bande
Bab
tall
OF
hPa
PAR
##orld
##oy
bhak
train
Best
fas
nikaal
##SE
humari
##ento
Insan
Afghan
Gha
bandi
##ishe
home
karoge
dast
lijiye
baz
miley
meet
jun
mand
##dha
gunah
Hindustan
samandar
Sat
magh
chara
##ABAR
cm
Raqba
mann
Was
jas
##reme
inv
ind
tat
##angi
Hay
samb
saying
kun
tai
zada
January
beth
hisab
##akhmi
##ready
dusro
dey
type
shaheed
cu
waqai
##upport
banaye
##ril
Chan
episode
baton
Hon
phle
ghalti
kahani
crore
issue
shaamil
##ania
##ameer
Ras
##lan
##hhh
under
tre
run
mutahid
sure
haa
Dono
##ping
khail
understand
MU
Sorry
zor
##orrow
##Dil
##Le
ShehnaazGill
Je
parre
krwa
nice
##wad
##awab
baghair
ammi
msg
oop
Jane
baithe
office
##eria
Zar
ry
import
##haa
ghareeb
yh
##akan
##ression
proud
mjhe
umar
July
tareen
jisko
mes
##GA
##let
Ass
hawa
won
Insha
Madam
aal
fouj
##site
students
AC
tem
hojaye
raah
btao
soo
own
huk
##aari
hogaye
humara
HE
differ
aukat
sans
inn
##tertain
##ased
Can
ait
bolti
##ority
intikhab
dog
aawaz
made
##agr
##net
Karne
bhad
jarurat
nan
##Go
seek
##bus
dp
inhe
iq
tarj
##sible
beht
scene
wese
##Day
##chha
Hoti
Lad
##khi
##KI
##Se
##ague
##etry
khane
dala
##titu
tumse
kutta
soon
Jb
indi
roti
siyasat
UN
muna
dunia
bhae
##arah
laa
nikl
##hakt
##udo
dul
##hayi
##hnaz
attack
fehmi
Roz
old
secular
##AC
rape
Akela
siyasi
saka
##bsite
ksi
afs
rai
insha
hot
##hre
baal
Maj
kbi
Muslims
##chod
unf
##dharth
##ato
mim
##itt
saaray
bananay
mutahidda
darr
Guj
##hsas
cas
behn
pain
Hoga
##semb
##pir
##ln
mem
##DAST
hasil
##chara
Boht
##wesh
sum
waf
money
##RP
##heer
skti
halaat
Yahi
jitni
harkat
##fiq
##Sidharth
maqam
respon
fak
##land
##Kh
future
sweet
masi
religion
##pik
chhod
khr
Dekho
bajaye
##wali
##hary
watan
##ABARDAST
##OP
##aida
##yn
rahenge
haha
##harma
zeh
##ef
kyunki
Amrici
##cu
##ahil
##ots
jante
gareeb
khofnaak
kilom
Mah
pes
saya
trans
mud
coun
pop
where
beautiful
join
When
##IST
manz
##ches
Jana
pehly
BC
sci
paya
sard
inti
Tumhari
aankhon
##forman
##Shah
##cent
read
##ns
##ething
wasal
reason
Ok
bss
mausam
strong
dosra
CAA
##gha
##barah
kilomitr
jesa
##pat
rahain
HU
Wow
talluq
Ib
##alog
parha
##ita
humesha
Wala
interview
##Al
Zind
##anki
Jee
bnd
##eeli
gayab
DM
long
JO
yha
PS
reg
ZABARDAST
zamane
##ump
jadi
barish
history
Time
lab
ajj
##ates
takleef
Hamare
insaaf
kaisi
ent
##ict
dafaa
##inal
ameeen
SHA
##wani
sabit
husn
karkay
dein
feeling
jannat
##fect
jhut
tension
gandi
blog
ticket
house
##waar
rasta
##Par
teach
##uman
pq
##Ra
ikhtiyar
##chistan
sahih
##down
##maag
##ikha
##tention
##cel
##vice
protest
##vin
##read
koe
Nas
khandan
bhu
apk
already
Mujh
Bal
actu
##hb
##fore
jamaat
Sharif
Govt
nic
dekhen
bhat
maqsad
yay
insaf
Kash
Muj
SC
kitab
aay
gang
##cri
request
Aameen
judge
PPP
##jgar
##ui
maut
jisay
mumalik
##enda
khobs
karan
ST
ney
khali
Tumhare
##ayed
Bach
##uV
##gham
##ac
##tin
##uage
gaddar
karam
##load
##ondon
haye
##hey
Baki
##pend
Bin
##hesh
yaa
bardasht
##BB
##raat
ijazat
lin
##wadi
##nu
rahein
##Sha
##son
##Or
matter
Karna
raye
likhi
JA
nir
masoom
##taf
Col
Dur
##raf
national
mess
##ashta
GHUM
##Rhea
##sembly
WO
##ures
anivers
araha
Maharashtra
dist
nabi
gaand
##oura
mari
politici
Co
NRC
bukan
lagaya
Balo
KHUSH
barh
##kl
##faz
Waqt
Shuk
ps
##rani
hes
##HAT
mark
Jay
SSR
wh
terrorist
##ken
##ikr
china
Pyar
##omi
award
Eu
##taz
masr
Well
HI
YO
bijli
##iii
Haf
zur
zail
##Tr
rasool
ear
##del
those
jitne
dhyan
sth
##Police
shik
nggak
sister
karlo
Hua
Rab
Media
socho
Gir
Team
fiz
season
parents
##uty
##weshnak
hogayi
something
chair
liay
pare
ob
##yani
##waja
fark
PE
ben
Tujhe
Um
bhab
loot
##adat
comments
##waal
nizaam
could
tumah
##itu
chacha
##formance
##dhi
pehchan
imaan
##cil
##ku
##gree
someone
Mujhy
leti
jisne
kehnay
rishta
##khan
##Mera
qarar
Your
data
shir
prod
banay
samay
rakhta
murder
Bart
##oso
##oori
utna
kalaam
##ues
tali
inta
##blis
One
jy
net
nikle
chhu
muk
humne
##veer
sob
letay
tees
marey
vot
saddar
gam
majb
##lot
qub
esi
sis
pel
##tig
##omin
Men
##Bhai
##him
haf
proof
Iblis
reha
dila
##ency
##piku
wasallam
kind
##cter
##botpiku
JI
haya
Baad
##You
Inter
Iblisbotpiku
bomb
lanat
karnay
Yahan
##pai
ataa
ayen
bachpan
KHAN
##Ya
khawab
##maat
Aapko
fam
hmare
khubsurt
thaa
karachi
mujy
dhund
belie
douran
gur
bihar
haj
##gli
##anj
achy
##wak
##adh
##ARI
movies
##moc
dm
tik
kii
jawan
rahiye
DI
##akat
thought
AK
##ret
##essed
##oshan
didi
##shah
Kaun
ever
mel
medi
nab
LE
Ghabrahat
isiliye
without
PML
Mor
rashmi
khas
HAIN
chuna
Gal
suk
##ailway
kali
##rap
khanay
chahay
##waan
##nee
econom
kkkkk
##St
karde
batana
ghulam
bahir
waale
bhr
positive
logic
khobsorat
##ande
##ender
MP
kisne
ghalib
##iyasat
Hume
boli
bhaag
qaumi
Maha
##Ram
##yaad
Kap
milna
says
zila
App
black
business
LI
##HT
sidharth
allag
bill
Wat
##Li
sac
##ras
seed
##chn
gandhi
##oshni
chakkar
bewa
mehsoos
dafa
hoye
sehat
##bb
personal
hme
##book
Very
mos
##MAN
Tumhe
lock
Baap
feb
IT
##UD
##jj
andaza
##Modi
##wate
mey
Ge
fees
##anon
##oro
yrr
##La
##struly
##mari
##Salman
mauqa
language
##lip
##liya
chill
final
Bata
##unch
SlayLikeShehnaaz
##ned
doctor
ask
bom
mug
##owo
aisy
##Rajput
Yah
##hahahaha
hurt
goli
Lam
rahey
bawaj
##lace
kum
lkn
##RO
choro
azeem
saw
press
Fais
haina
Sher
Pappu
taw
baaki
10
##cl
##eeh
aara
##iko
cent
krni
guf
Rep
##gah
aankh
ca
##val
Website
cenoura
zurori
gard
Urdu
RAH
muf
Great
##hamdul
dya
##least
ayi
##agal
##chal
Lar
dab
esse
baatein
badh
##akeen
Bro
self
jala
aadat
Had
zamana
##onk
##akht
##date
saboot
everyone
Salam
##rest
aunty
##erv
##cie
chur
pab
##tri
##urity
paaya
taraq
Congratulations
##ziz
OR
##habat
##mission
Bho
marna
jes
Friend
nauk
saja
##SHA
azaadi
aniversrio
Beh
series
##baar
##ology
##boss
Mal
syed
##haad
note
Muje
favour
aalam
dev
zari
##hiya
brother
AR
sadi
captain
commun
Tash
boo
hawalay
Yaha
wow
mashhoor
unse
peeche
jub
hii
haalat
pray
les
##Desai
Apki
##ideos
lambi
qas
##light
dino
##uVaari
hokar
hif
##ED
##waya
pero
wan
##Ex
imam
paper
##Paata
qay
##aman
deegar
corruption
non
##abil
crush
Bhagwan
Let
qubool
hisaab
tad
##lect
troll
deb
Gh
##MA
maro
##uVaariPaata
##osition
##tel
HBDMaheshBabu
oopar
##arti
barabar
phool
Kat
##zor
janwar
emp
bangal
##vr
##pk
defend
Rashami
aesa
##sr
dhon
kise
bahan
death
##ladesh
chain
##ody
peechay
padi
inf
Shay
qur
##oj
##car
##ony
kor
univers
BAA
muz
RSS
##tam
##azing
##thi
bacho
##tiz
chehra
maloomat
dekhta
celebr
##uba
Kai
Pas
health
simp
##kkk
##ib
pit
##reek
college
##enay
##reeb
Nar
khamosh
mjhy
Insaan
hmari
sharif
##ango
shit
dikhta
Plz
kamyabi
ou
mention
zay
##jaan
sbko
Big
Gar
target
hab
##KH
girls
wazeer
intzaar
piy
general
rakhtay
mutaliq
ll
##rohi
performance
aapse
Abdul
political
leaders
Ik
natee
##tta
naak
Sm
bye
seh
##AZ
dill
maghri
date
sel
skty
ilaqa
dukhi
ase
##gum
vc
salamat
talaash
molana
Mon
ghat
unhi
TL
Every
##Us
##hoon
BOLO
Logo
chaand
bhen
usy
##wahish
##if
##qeed
agaya
Logon
##kaan
Uni
paa
##haaz
happen
##bara
##ru
jada
hur
barbad
##das
tid
##hehe
sakht
##hhhh
peace
Of
nazam
arz
##hhq
fati
##vie
Ter
##abowo
Our
##apan
foot
izat
##kir
##jab
Zara
##OD
karu
##member
harry
fara
jesy
Bohot
Face
Mur
##yam
##anto
##jha
konsa
##adees
##kon
##kaam
##ores
##Tar
milne
Abey
##ral
buat
edit
ishhq
company
Raat
Halat
##OIndia
kri
agree
##dio
corrupt
SAB
behas
humko
##buster
milegi
##hli
chota
opin
##GI
##harat
Khair
keya
##adaad
dad
##nal
kamaal
Ri
##arif
Star
gak
actor
idar
sim
##ugust
##ccess
pyari
parhnay
bharosa
Shan
##pak
singh
proper
##We
##ajh
ahal
dimaag
##ForThe
jany
mumbai
hours
Only
Jag
muslims
Has
khara
Song
##akay
##zo
muito
##ido
##UP
##ultan
masroof
karny
##esome
zuban
meng
Raho
gen
mot
##yega
samjhe
market
dunga
khula
Real
sul
sd
human
busy
Bana
bula
waal
smile
parti
jaoge
##indo
##An
##umat
lr
##ges
talk
idea
fandom
arsa
hoke
before
buk
rakhen
era
##NG
##inc
##uruji
roshni
##cked
##Un
ulta
behtareen
##agay
screen
taraqqi
Hey
rahul
doston
Siddharth
##amos
##UE
sex
##ajah
sih
league
Saath
Dont
ehsas
degree
rest
##hilpa
SidharthKeAsliFans
light
binod
##aap
##erat
attention
masih
Indi
Khat
faltu
##ments
shamil
Hoon
head
tadaad
Pal
nada
means
bachan
Janta
room
internet
seat
seriously
nuk
##hok
load
Sonu
gaa
##Case
Election
situ
Sara
Yeah
##ppad
##lif
jarur
Shr
videos
produ
shaadi
pd
##ciety
haii
cup
##Birthday
uni
sukh
Ameer
Bak
tareeqa
##abe
Off
bnda
dety
saale
dinon
udhar
Gr
##Mo
left
bail
doll
city
##Sar
March
zindgi
Hindi
Zardari
kirdaar
chalein
saj
sakty
saheb
Bina
few
##DAY
banne
hyn
Yr
##wam
Baar
safar
phat
##No
##hate
khatir
##chor
kra
book
anti
janti
taar
Bc
##edy
##ForTheWin
##ulana
dhoond
THE
##ANA
baja
form
ray
board
Bahot
Corona
university
beha
decision
student
Dus
bary
rakhnay
Pi
##las
gost
chahtay
bawajood
Modiji
disc
darj
Mt
dri
buland
##moon
bollywood
Uske
rs
yai
bhos
tehreek
Afghanistan
vikas
##IP
ready
##Kya
online
##ressi
##oobah
nation
##ched
nasal
##tna
darmain
pathar
trah
hata
normal
ate
mental
##dam
##racy
Jaz
##alah
naw
Band
women
geh
degi
shehnaaz
mata
##rit
Masjid
##actly
sushant
Shri
##reci
badla
##jaam
Video
janam
Itne
Tashweshnak
maam
Qat
Saf
aaz
bhara
nos
##ONE
There
delete
kesi
likhna
Keep
maha
khtm
##lis
##adav
aaghaz
qabal
ami
##ilay
##mak
kok
blessed
mujhse
casa
##khen
##adu
##iday
chance
Dan
speech
makh
##gun
Musalman
jaissa
hara
hindi
kafir
bete
picture
##hank
retweet
aula
##hsin
doob
##zan
##asib
Ins
sidnaaz
ley
##ForSushant
RHA
arrey
Dard
##FF
assembly
things
shaya
aamdeed
##Maine
##alous
##idd
dialog
expect
Aks
ain
gente
##SlayLikeShehnaaz
##wale
kari
banai
negative
fer
##Ha
bow
thats
Isko
times
##ukaat
Some
##ries
##oman
coz
##taa
opinion
met
##icide
buht
bate
##laf
order
aath
shoq
tarjuma
##Aap
speak
ale
punjabi
##ista
jahaaz
##Pakistan
##old
release
Dena
##ession
##omorrow
##alia
Islamabad
cut
##rim
khay
##lick
Mahira
bra
##idad
oper
wife
Ibn
rukh
##Ta
##chalo
##fan
sense
vale
Iran
umm
milte
dikhao
Quran
##vaj
khidmat
##gay
London
##bay
accept
serious
loog
kasam
##tah
mart
Gad
##ourt
ld
joke
lgti
##QM
##harm
ImranKhan
bartari
bandh
character
bee
cat
insta
##KO
unfollow
##taqil
Baba
Thi
stat
##aghera
##Ne
##LI
##amer
abd
fore
jism
education
##sak
nhn
everything
believe
dekhnay
relation
##dad
##hav
memb
pohan
saamne
##baz
manzil
kisko
harami
jise
Mis
##astay
sambhal
jake
ppl
misaal
garmi
After
deserve
Pta
treat
tot
sabka
Hamari
##yu
English
##iski
tareeq
Kan
pya
Sr
SAL
Wahi
bain
##aib
##Hearts
TU
##PTI
body
frnd
##KE
gos
waghera
kismat
stream
##tional
manzar
Khur
shy
unhone
##hed
isti
art
sikh
##ference
Ku
Ker
ey
jang
rt
Waah
naik
Use
qismat
Akh
##osed
Karte
##hamdulillah
##waye
nuqsaan
Aye
dig
asar
##endra
jesi
acche
sukoon
zaat
Jeet
Naa
er
hadees
ungli
##tyle
actually
Dev
Kut
pegham
##ween
baq
sabki
pakar
course
Hmm
reham
jiska
answer
deve
tafs
Nyay
Mila
Same
##ior
seb
guy
riyasat
dobarah
mohtaram
Jaa
##ishi
lagte
gana
##udh
##baat
mjy
##seem
##PR
HAM
##cion
taham
##oray
betha
IM
darja
##cks
kehne
arabi
Arnab
Pyaar
leg
rakhne
balo
##ayak
jaega
foi
chee
##itish
mazaq
btw
Vote
muqab
2013
station
waste
qader
sahafi
##red
pakka
kang
##mn
inse
lap
##News
##ound
Pad
karegi
Google
special
##ISTAN
Faiz
KHA
##wane
##strulyMahesh
uk
##nai
##asthan
likhe
Tam
Id
tabdeeli
cancel
Puri
moo
pir
bass
buz
nih
Isliye
SO
kill
Shehnaz
##IY
aese
##gl
Ash
Bl
laya
zain
anything
BO
Kaise
##pone
science
##action
sabr
dhaagay
Il
patwari
Like
Mak
chap
babu
##PO
ish
Kaam
Aapke
ghanta
19
##ilah
tanqeed
punjab
Usko
assar
leye
Malik
likhte
save
##CBI
bohut
kamya
town
huzoor
farz
bano
dulu
railway
##alm
anj
uskay
trust
azam
##vind
least
naukri
Her
aut
##bert
Dos
sou
Car
##atan
taqreeb
whats
Iz
##asy
keliye
Sharam
itny
##hoot
Inko
##eeqi
laye
##IA
##vir
##vate
alm
hojata
worry
MashaAllah
dharam
task
Act
kata
det
##uqaat
noon
##Gandhi
##uter
Rhea
##So
nara
Mei
nothing
Shab
Win
kehty
Arre
##cul
dit
raf
used
aulaad
vs
rehe
voice
minute
##OW
rul
society
joo
##IG
##laq
##Ch
Ane
##aly
nikala
chalti
chez
mou
LAG
tuh
music
sindh
chiz
Show
farmaye
##rophy
silsila
thek
zarurat
suni
oC
jaanta
kamal
Shiv
Pura
mante
watching
listen
##wateen
##arsOf
ste
##Ek
dream
wicket
pet
Cl
into
isso
message
##Im
kamzor
##awad
##ARS
layak
important
Sp
tom
fehr
Facebook
dada
kard
Kitne
Zakhmi
##lman
##loy
sahb
elaan
##mocracy
Lakin
gin
##SinghRajput
fayda
hin
thk
sudhar
roza
##aisy
Pres
Pah
jain
low
##wast
pics
##ustani
Bangladesh
Hahah
hathon
aalmi
Any
Party
fehrist
##inya
iam
sor
##dari
##PM
typing
ryast
Fil
##HBDMaheshBabu
patr
##ote
##But
atha
Up
dara
##list
shukriya
badha
hindustan
haazir
##AAAA
Binod
hamla
div
##waab
##ATA
celeb
tapi
##JEEN
hij
Shahid
##By
barbaad
zak
##oosi
entertain
Var
peng
##Sharma
khyal
Suna
##len
unt
decide
father
une
tut
speed
second
pake
##vestig
SH
Sai
alaikum
laakh
Raza
lega
##NI
##illed
##ered
Sheikh
Uski
journalist
pabandi
roj
mahira
##PS
mae
IND
tabdeel
dir
##icy
Saal
##saf
Being
apse
raaz
click
##ern
##ants
rooh
mazmoon
option
kanoon
ghad
##AF
taqseem
##Main
thee
##bih
##titude
##cially
##AJAJ
taala
lost
##ix
##esia
##KKKKKKKK
cult
tukde
tudo
chhoo
situation
Jitna
##apna
##raa
waah
Sol
Who
PMLN
##Tu
meray
Meer
mahine
gain
##zr
ani
Ind
adab
Hosla
Khi
muash
##upta
fb
Super
Chin
##ledge
bewak
Air
kos
Baj
Hame
##cas
success
khatm
##SalmanKhan
pin
ager
##unt
##abib
##Tumhara
awaam
##Afsos
##asim
mauz
kid
raja
hadd
Abb
Isra
KIS
experi
cry
kardo
saktay
lainay
##coz
tl
Tarah
Awam
jor
humein
forum
Aziz
zameer
##jat
hta
saken
view
HappyBirthday
Mol
##ament
banao
Alla
bahi
maat
##niti
Mulk
zariye
Aya
##set
whole
##afir
score
sei
aake
Nazar
taliban
getting
crimin
nama
##now
##lik
##Tomorrow
##Bad
##opi
dance
##dil
Afrad
Vikas
##ris
##cs
##jad
padha
PMOIndia
aqui
yogi
Saeed
jh
hoy
subha
##ATI
aasaan
shai
orang
mb
page
##hele
dare
sambha
##aaf
Dub
##ense
ahm
##ooda
khata
paani
debate
file
AsimForTheWin
prime
mukh
talent
Dia
winner
##girah
nem
tarb
tasave
tasaveer
Chand
au
zardari
amar
dehs
daily
dengan
##uff
tasaw
Shu
tehat
pita
likhnay
Lala
reality
xD
two
##Ho
##eshawar
Dekha
place
##siyat
kissi
##yun
tabah
dhaga
mashri
gov
bechara
shareek
kag
##aney
zehan
hil
izaf
##sar
##eno
oth
##rica
PAKISTAN
bekar
cover
mauzo
##azz
hmara
songs
burai
bis
jhan
bhari
##how
atleast
##Back
##yaa
Didi
##yad
jealous
acchi
##ursat
economy
feesad
Phr
##chu
shadeed
ilaqay
betay
##tics
dusra
##ehru
Om
doo
zr
##haat
World
##poc
##eshak
##fiz
guru
konsi
jali
rate
dikhane
janay
Really
mujhay
naraz
Fe
dece
azadi
thar
April
paar
jinko
YA
jiske
Mary
Kuchh
virodh
##vish
##cing
Sala
bhan
##koi
imag
Accha
##Love
kamyaab
rakhte
gor
##nge
##Am
##bul
hinduo
##lig
pakad
El
Fake
lal
chupa
Whats
topic
aukaat
youn
Kitni
sochte
gira
##ocus
randi
##ding
##odhya
supporter
PO
fuck
##loom
gaon
tea
##gram
martaba
##Bi
offic
phail
KY
raaj
Muhammad
Jao
tidak
##Kasam
##hm
##ino
rahte
gey
glt
##mood
GA
fund
##kri
inform
##vert
##ayan
Aamir
##ward
jaat
##urrent
twit
##egi
##tia
million
tanz
srf
each
##taab
jiski
##ctive
khareed
shumaar
Chart
##DE
farak
##rs
Nikal
##oomat
sochna
alawa
ran
##ert
suno
poch
##AYE
writ
##Sa
amazing
##body
security
Chr
lut
dhoka
fes
##mos
banke
area
Balochistan
Vis
deal
zindabad
Aata
##mana
##Ag
##zzzz
MAN
payi
RAHA
Bhe
gayeen
jangan
##wards
horaha
Yogi
tumahray
Lu
daw
##Pres
sudah
shree
Mari
kiun
font
liber
banti
NS
##angg
jim
LOG
Aisi
##national
Seri
fek
trha
satta
CO
DP
wada
lagega
bheja
##iry
aank
zalim
##ante
phan
##qal
KAM
dl
##dum
purana
Dy
akal
talking
funny
Kumar
##mai
##arma
jaag
##bin
deh
Chahiye
sarkaar
handle
Warna
ml
mily
bhula
bsdk
##pet
##qam
chaat
##cto
TAR
##SC
##hhor
DAR
ilaaj
kahte
Kah
gut
Qad
lge
##fil
dekhkar
project
Tou
khwahish
biar
##yanka
##CE
hoje
##hray
Dim
sabar
hamza
poanch
nakli
Ohh
complete
jisse
dusri
Mashallah
Saj
##yap
##laa
##archod
teacher
##anka
##chin
KOI
Hafiz
Gi
##cket
hari
malum
ama
kush
adv
muskura
chinta
andh
Aapki
zindah
##DiKasam
Eur
die
nii
months
##lekin
kiss
Save
Boy
Isi
##Sood
##JEENEET
muhabbat
##abardasti
samjho
udah
Thoda
mughal
deep
mama
##deep
Right
kaya
##ults
Bhaiya
Even
##II
hifazat
dalit
Sakta
lou
##NU
idol
pmln
naj
##cture
pori
##kta
##Pl
##itan
masha
bachy
##CK
khab
nisha
##haj
mazay
##artment
Life
ub
ses
soft
ibti
direct
##asih
kharid
##KoMaine
##bata
hoc
uper
promote
noor
Os
##Sun
appreci
wazeh
kareem
##rem
sabke
AND
##bab
bnaya
paha
##una
##KoMaineDiKasam
##ws
##zada
##AYA
salo
Jit
jaana
##room
apn
lif
##VER
ppp
##KA
once
dhamki
okay
aajkal
mehfooz
lockdown
Fran
##eeda
sochta
##badat
return
##ually
##pad
meme
hogai
dkh
bolega
Sec
ganda
##hayat
bacche
boqt
masail
##ESH
##PL
bhonk
##SidharthShukla
Faisal
Hn
find
sona
##by
##Sab
sae
Sabse
##tv
tuje
taamer
Chartbuster
Liya
Tas
fouji
##Ti
##hez
##ussi
Inte
##Sarkar
waiting
Bhot
musalmano
Za
##chen
gift
zair
##chas
taki
izafah
Hat
Press
aakar
hais
agenda
mahar
##Chak
##ersama
pote
favourite
aug
##ury
Movie
Ajeeb
##time
cara
cool
tun
##tii
Raja
Vir
bhik
khwaja
Hello
mummy
hamary
Hamara
ill
##Support
##ushman
sakay
hasi
Khurram
dehshat
SB
cur
chhor
Guys
different
razi
huay
sardi
##EST
rum
##maar
daari
##oti
deni
agora
asy
##ishna
Yehi
gia
ChartbusterSid
remember
jus
dedo
humse
guj
silsilay
Miss
baru
famous
Mene
krega
dikhaya
##engal
Dunya
fez
investig
waris
rupay
##ishes
aba
##esso
twee
Chup
bunyaad
dawat
ped
fatah
Sep
others
jaake
kitney
##mente
##llenge
rece
Karen
Iska
EK
##Jai
jalan
buj
Hazrat
##yab
##maa
##ostan
enc
vic
gufta
Aww
##gat
##ridi
Ach
MQM
audi
role
baari
marri
garam
Lena
Py
lagaye
chha
contin
##titution
khate
Bari
ID
dakh
salah
neechay
##olat
##uli
didnt
##Targe
Bor
Ce
Cap
Sc
ks
##ging
achan
##azrat
##laat
##oodh
Austr
##ared
dikhayi
##tee
khawateen
##aseer
bibi
##ticle
intel
zimma
##sol
aayegi
fursat
mra
scan
##ontade
interest
garib
His
Nor
##anga
conta
moment
Indians
fel
behar
##takhib
boycott
miyan
kiska
kerna
develop
Oye
MERA
Bade
haik
meko
ladai
##neeti
##Str
rakhti
Afs
following
programme
##eemat
##iyaat
numaish
mano
jeete
pesh
##used
##ories
zaati
Asif
##ico
##ativ
##indhi
##fied
##AAM
Bahar
BAN
Ph
Pur
vez
##rd
##yor
prove
computer
##PK
##ager
shikaar
Have
player
Sum
inspir
MODI
Huk
rkha
opposition
karle
pucho
issi
##gin
##mand
baji
gon
sta
##ural
giri
image
Mirza
Bjp
Wese
##pen
macha
khaali
mahol
FIR
fall
##Hero
##oobi
making
Ut
ghhor
ref
waqat
cases
##ME
##bir
##donesia
##ograp
chalte
Wel
sek
##afat
ainda
mandar
tir
parda
shuda
Sharm
intahi
##vember
##arey
trying
YOU
##raj
politicians
GO
baate
kehti
##back
##hsan
credit
Rs
SW
jaoon
TE
krr
##onga
##taan
##medari
SonuSood
bath
##tember
##ics
##uddin
##deer
Kyon
Karta
waqea
Kahin
Assalam
focus
waza
chad
insaniyat
laz
##Kahan
Papa
mje
##rats
ship
Banda
koo
Laga
untuk
Sada
##aganda
confir
Asad
Himanshi
Court
notice
##halat
Alhamdulillah
sleep
chhootey
With
##MM
bhol
dialogue
jn
less
lebih
double
##TT
farmaiye
##lin
##aze
makan
taqreeban
ghoom
BH
##daan
##riors
2009
lari
##Sam
##haray
##ajar
##aseen
since
Kejriwal
##uni
Hein
rd
##istry
while
baitha
hesiyat
foto
hell
Apny
Mom
##SA
dikhana
taaruf
camera
bed
achhe
##DIA
toda
milnay
policy
thinking
King
##liz
Gun
avi
hosh
ladke
dat
ton
##enti
dobara
gho
##gari
##jor
inno
marte
service
profile
Mer
org
August
suru
##Cho
koun
bey
uspe
hongi
##pas
Uska
Dho
##Res
mill
chud
rkhy
youtube
niche
THA
##hl
##lega
##awar
tym
##qon
tumlog
##Kara
kiu
attitude
##SSRCase
bot
hou
karwai
Uff
lea
techn
Saab
##SidNaaz
county
bees
daba
##Dr
banate
AmitShah
past
krn
madar
queria
payega
##deen
manta
foo
##tab
##LY
soul
##oorat
qareeb
##Arnab
WA
bon
status
##ago
wel
magr
ground
##vil
baraye
mane
##DP
##pu
MAS
Bud
##tiye
lagana
knowledge
mauka
##ulat
away
blood
phly
ladka
Dai
irr
knows
muntakhib
##jit
JAI
likes
Ata
Peshawar
##ittle
DIL
Aapne
pucha
usool
khao
##hind
bhabhi
AA
Public
truth
looking
AG
jl
tare
complain
##ctober
Rakh
Du
##hud
khamoshi
ss
prom
plus
muskur
baje
hockey
##faaz
musalmanoon
unhein
Pagal
pon
##hte
##tire
November
##tizen
Israel
##waad
Saood
2012
sena
baithy
Sare
wai
parli
GU
Gali
quero
poun
roshan
qais
jaiso
Morning
culture
bataye
##igar
att
short
else
AJ
##andan
janoobi
##derabad
##akhil
agli
chote
gird
First
gf
##akta
hakoomat
##kes
ankhen
##angana
added
kijiyej
##Koi
##Apna
through
flop
##amente
bei
September
##fali
dair
##ddat
##oshish
##tification
ron
##mpre
faila
due
pate
##dat
shows
sanam
hands
##CB
unn
sayarah
indust
came
gra
##ATE
dosto
Ul
aesi
##taad
another
tavaj
husband
Shayad
AD
SAM
atau
bechare
biryani
##June
##WS
Unko
uj
##ming
Always
experience
KYA
kesy
##vey
12
##azon
sacha
##meber
chalu
liter
##SSA
fazendo
tanha
Zul
gw
ns
qaid
zaya
##annya
molvi
KU
Mang
mukha
brain
wrna
anyone
Khofnaak
FOR
Naya
##tm
##arn
coming
Nabi
mj
pot
##Ga
##mpion
bhoot
People
slow
##pic
##tery
akan
##gon
##Mu
##ann
leave
comedy
voc
gyaan
career
biased
sbse
Australia
Soor
jhu
##KAR
##HR
tey
voh
sonay
gala
muft
berojgar
Anees
badnaam
sadak
english
nateeja
Gai
gaz
mother
sant
banyak
##upid
Wi
##ankwadi
##illedOn
guftagu
##lee
tavajja
Aag
king
kejriwal
##esay
chla
umdah
##MI
##aik
hoe
khade
esta
quer
zarur
SRK
adalat
See
##drohi
##illi
##ulation
##sive
##vez
arti
khai
hear
rehmat
qadar
Maan
##ishta
##addas
Mum
Poli
##00
adhi
padhe
##hahaha
wafa
##unca
hiday
ann
chowk
quando
zaleel
rahta
khanah
Fat
gust
##sat
##CC
walid
alfaz
jisme
##pected
Jazak
Muk
##ALLAH
##ayet
jaiye
statement
Zam
porque
Trend
youth
tafseel
kul
krenge
dimagh
dawa
salt
Albata
gusse
dollar
Pan
force
##yyy
##iddle
tarbiyat
Mush
RAM
qud
lady
##ujood
Sunday
akhbar
##ahim
till
vol
Aad
vida
##lle
##baab
decemeber
Gay
##Wo
poetry
ash
Sing
chhut
kursi
doge
Supreme
Ae
PA
##gue
baais
Akele
rehn
prote
playlist
FO
##SH
ashaar
##anshi
trailer
JAN
Yo
##jawan
laita
HIND
Ret
ee
choice
CHALO
Dam
##ution
##laaf
rahoge
##amaal
BA
vish
##eshi
abba
conne
mulaq
uda
##india
##idence
Khar
##erman
parhi
##afar
munh
##Ro
aku
jurm
apky
pyare
nasha
Hui
riz
soobah
##Kar
model
Chill
Lanat
##jal
##uro
conference
awesome
coinc
solo
dom
##akho
kardi
lagao
blame
trophy
##Kumar
##ARA
##rrrr
achcha
chairman
rahegi
Shadi
Dis
lgi
saki
mazhabi
Bara
##ksha
kalau
awaaz
RAHI
##shukla
kariye
Amir
Ang
Last
houn
##kayat
##vis
##amar
hmm
Wale
likhay
kashi
Exactly
##almaan
karunga
Isse
trf
Aray
Hahahah
Arti
SAW
wonder
Sang
leh
##Yeh
##Bechara
CON
parr
bem
sayad
hanya
Shree
SAY
essa
aty
##wati
Buhat
Bhutto
community
Mery
chahie
paiso
ficou
Bhak
pour
sabab
saalo
Bada
mohsin
Sanjay
Him
batein
##hiq
inkaar
Btw
##qar
##ices
dalal
Mash
Rana
mani
samjhta
DU
WAL
injaam
badnam
##sss
doesnt
##ndi
##SK
##aku
suicide
content
himanshi
amo
taang
billi
kharch
simple
vontade
##cum
##rite
INC
Hus
cy
##dood
isne
maidan
saalgirah
Aapka
jaao
bachane
##aam
nazd
##Targeting
dram
jeeta
views
kek
##waas
Jaha
aankhh
ahmiyat
##akhir
##dition
achanak
HBD
Koshish
tamasha
##eq
mojooda
kark
baten
Gust
Hona
gas
mc
mist
style
jinhon
fix
##ativity
krain
saray
##En
ant
sag
MEIN
shanti
Des
Naf
vahi
wind
poll
Get
gadhe
vala
mehar
behna
klo
private
Rozgar
SIR
wishes
##Hg
##War
incre
##Presiden
theke
Nay
riv
##pot
nigah
achhi
Bartan
cul
hj
rad
##aks
jihadi
dekhiye
Gujarat
wiki
##asan
huyi
ustaad
kama
hindostan
vajah
##tn
lein
##ighter
Ladki
##ider
qabza
ball
pk
##astic
talab
Ly
dang
iti
iqt
##gger
krlo
bolenge
shor
Weather
zah
shiv
Mahesh
happiness
educated
NY
##chai
Indonesia
##dex
Hope
chawal
saans
dekhke
baras
##adio
spread
RahulGandhi
Hero
dest
kom
##khwast
hazar
pub
##TM
##haq
muqa
master
wapsi
Paisa
Tara
sig
apney
tery
tashr
More
idi
abe
##alib
Apka
upload
rule
Raf
around
saa
paon
chuk
hojati
##amp
milay
Mut
jr
baara
##ites
modiji
outs
chhota
##ren
kahna
moazrat
madarchod
engine
haiK
krtay
move
##bie
dhak
##lad
##bra
BAAT
Nice
##ota
tmhari
##SarkaruVaariPaata
##EC
lagay
amma
mereka
yourself
phele
##hip
nibha
cheap
countries
Fin
pesso
##iste
muslman
Ary
##utanki
suar
##pper
Many
aala
hasti
propaganda
Aan
doodh
##iyam
##abla
chalne
Afzai
rishte
seper
max
ander
Hospital
##gai
##Min
##cess
guess
mulaqaat
overs
smart
shikar
##kash
##boot
##vy
qaisrani
##Ja
##odhi
niklay
hahahaha
doubt
##aij
##athi
##raq
##loud
##baaz
Sahib
sachi
perfect
dikhai
##quiry
seedha
##ervation
Kur
peet
##UST
sidhe
code
bhook
qadam
rkhe
boys
##ckeray
tent
nahee
review
shehr
corre
hukm
Gand
lala
farsi
England
inst
##udents
adat
Rohit
##rt
##tttt
##uuuu
aun
vah
haiA
salary
augst
Khal
pariv
Namaz
##illedOnJune
Sud
vaise
##kuch
##leem
##aho
munasib
address
enough
muqad
Bet
dukan
##tical
Shukriya
thu
galt
Africa
Maryam
jaayega
Isme
arsay
tasveer
##ABI
Rad
Zub
kesa
chahy
saltanat
mach
##athy
Kamal
ibadat
##anp
kiske
close
Av
High
##ako
Kashmiri
jaisy
11
Aunty
##TW
##aria
khrab
maghribi
qeemat
##hark
kru
dili
Jata
saz
##ree
##Nis
Apke
possible
obs
##tian
##adah
larai
hidayat
aapas
khada
zaroori
Cricket
aans
##khush
taz
cheezon
ON
jaruri
##ENT
kud
##mind
kashmiri
Minister
COM
##abh
##HAHAHAHA
Pap
mahan
reaction
tark
Mit
##heb
awwal
Aaya
##dani
daad
caf
puran
andaz
gobar
muqaddas
secularism
Disha
pou
pct
pora
box
jumla
orig
##yda
##MP
##eedom
##ometer
qayamat
bj
##App
##boob
koy
trh
sapna
information
equ
##oron
baazi
##azeer
zehni
kumar
port
##ape
Karan
cell
playing
Waseem
Nak
dra
pul
pyara
ilaj
2008
Such
##kur
##she
##jee
chus
lines
##bhai
##Ys
kisiko
pasht
shri
##Da
deya
aglay
bhakti
Khab
Lik
PER
kyaa
Rajasthan
shakhsiyat
MAIN
rain
shaks
morad
jul
##raha
Kyunki
Fa
bure
##tie
bcz
##adhan
waali
Zindabad
hh
Mota
waalid
Akshay
Wazir
ua
purani
##where
follower
mahs
ail
banna
nikalo
##lt
ente
jakar
##lahi
Samajh
##MS
Tumne
tayyar
smjha
HAR
##UK
##GG
##medi
tuj
MON
mab
##maye
##asal
bahr
Saudi
pair
DiL
SING
Hamid
Aman
Bur
June
##oples
arnab
herat
Bola
jug
##MY
Hass
Mana
##maya
##ainst
##alian
chamcha
##bility
Pahle
Achha
civ
##Ham
bhaij
Hindus
TH
##bon
##quer
kadam
ladi
told
jeena
Bartanwi
Bes
karey
red
##shit
SALMAN
pack
semua
Pay
kach
##chon
hotey
Bt
aayat
hall
##cam
khaye
Unki
expose
melhor
Deep
suf
kena
toge
roop
fitrat
##tty
pressure
##iq
##boo
shikayat
hazraat
qatil
plzzzz
larioon
Galat
Uss
uff
##hes
lets
Hahahahaha
todos
nafs
feelings
dikkat
##enci
##ahiza
##orite
Pani
rom
##akr
yahin
lekr
darkhwast
From
videsh
JNU
Ran
##Har
hmary
half
Fahim
liked
harus
Sabko
Ben
cir
seg
bulaya
jadeed
aitra
kerta
IQ
bri
Mtlb
qom
##atha
rajniti
cc
search
rahne
study
confirm
Hr
maalik
15
Ada
jaya
##gya
##jaj
sunne
khari
koyi
anak
loan
chamche
chunkay
together
Chai
pod
##Mat
sunta
dikhe
bharti
Islamic
common
Duk
Wali
fast
##orty
mulahiza
value
eyes
##riorsSSR
##ison
shb
##Hain
##ams
ishara
##Army
petrol
scri
mian
punya
Mast
Qa
pue
haiB
##utes
mesmo
Dikha
halala
Welcome
Faz
Rang
hamlay
matlb
tareeqay
Nis
##rak
Acc
TR
teer
Ze
##hos
##chari
lety
haqooq
offici
##asty
Mile
faat
##PAK
##ator
arrest
food
taiz
##WA
aasani
##qeeq
##sey
##STP
##gs
alfaaz
Chala
Kala
bda
fu
compare
Government
started
RAHE
wazahat
Boss
RO
School
Aurat
tatti
Tabhi
haiaur
kidhar
##ollywood
trending
Ber
nei
##isten
banega
Mian
faraham
##non
##vn
Insta
batting
##hadat
thode
dalam
##rics
Rum
chahty
tabs
apkee
vap
Azad
hs
tava
dalali
qalam
active
mota
allama
##eld
covid
crime
khiladi
Ahmad
bahad
buil
##Ma
krde
bhartiya
Ans
##ForSSR
Babar
BTS
tour
baab
True
relationship
France
Haw
Maza
wesy
nabeel
Fan
Feel
van
##wur
baa
Sooraj
Str
##ardar
hasta
mafia
contact
industry
##Sh
##eney
##Rashami
ist
ext
nikalta
##alsal
Exa
##vad
tauba
##ffic
##vani
andhe
batata
base
##alay
democracy
loge
sardar
Galti
Mgr
bne
zero
unkay
shaan
##quad
zeeshan
Baby
Sen
fool
##UF
##atar
uthaya
kehtay
##ADA
naraaz
shara
##It
taaza
Kyuki
RozgarDo
Badi
aayenge
sent
##kte
maara
tmhe
humain
##dev
kamyab
Mahmood
Ais
THI
deli
rae
##waaz
bien
allow
##alees
visit
##kah
machi
Karti
Trailer
##nels
shikast
Bartania
kes
##cep
poore
guzashta
rehaishi
TER
bday
##official
seu
aae
nazr
Thats
##STPONE
hati
##urag
deu
stupid
suit
Janab
Badal
investigation
pareshani
##xi
karn
sheh
Sri
october
##jis
##indabad
Arab
Qatal
SP
Sus
bg
sand
zakhmi
deke
samny
president
irrit
Then
rhay
##zaaj
tasleem
bechari
innocent
honest
##atees
demand
Aaye
Tri
##aran
Chahe
ilzam
sapne
##Govt
##Bharat
##Heart
Fight
Lai
Youn
marnay
khatoon
seekha
##het
##inde
tarf
viol
colum
agy
yap
looks
##TY
behad
maafi
##otay
aajtak
halaak
criminal
Sah
##Bersama
##Po
khaa
##dardi
jhag
bhakto
bewaq
##kara
sunna
example
##fort
##NW
nihayat
border
MAR
little
##TO
barha
aasman
sahara
mandarja
Meray
dekhti
cancer
namak
lana
##Sir
##ays
sau
dif
##abita
lahore
Lamba
shyd
mz
TUMHAR
##till
apno
ussi
laun
##ports
bheek
##yah
safai
didn
bener
duty
gee
ven
Kaash
##ounce
ALL
member
##SidShukla
TAK
##eron
Inka
##igo
virus
aah
lake
##win
##dict
itte
##star
esy
update
larka
NAI
lan
##Ah
orat
##mao
mundo
MUS
sign
##wr
dib
mahe
comi
pasti
sary
Kyo
VO
cow
daa
lon
lagne
Max
lrki
Dab
ei
aisha
amit
sathi
LA
become
##ged
article
between
mudda
Pic
hA
tari
##sab
agarchay
sahet
child
tweeter
##Jab
krein
##POSTPONE
National
##xy
moti
bato
##ishra
daftar
Bhakt
##kya
##yari
##ishing
##tition
##orever
Muhabbat
position
##harkhand
##gical
##wish
##ikan
muy
##waa
##chodi
mukhtasir
Kapil
##jun
##apne
dilana
##ZA
subs
##phone
##tivity
Pre
dhr
##ncia
Aree
##oya
anchor
khusoosi
rivayet
bk
kand
Mard
hik
##lling
lagane
laat
izhar
invol
Eh
moh
track
Bhat
bahana
kehl
Sultan
##Justice
##dim
##ically
asked
kartey
muqablay
waisa
krdo
APNA
##kkkkkkkk
blo
yakeen
sele
##ooh
##mein
haters
##UBG
EX
mantri
halal
Jhoot
wqt
##ians
rakhiye
crash
nikalna
rabt
Sari
wujood
##amaat
##pace
aamad
Look
##Are
maamla
middle
##Mus
mehez
daant
Bacha
Ju
Por
maqb
##omblo
property
valo
##ply
gaari
pairo
pehen
pehn
govern
##lama
contest
raste
Jawab
Pawan
bhaga
rota
##Lekin
gonna
Kham
found
##zeeb
BDAY
gher
waar
##zieq
favor
##Exp
kadar
##mil
mustaq
##ugg
jaante
Ai
Thik
UV
math
##ctors
Bharti
JusticeFor
rus
##ording
Bhula
whatsapp
nunca
##uine
##qq
khabr
novel
geya
water
solve
Larki
dn
dead
joh
##indah
##engy
welcome
FEST
##ilet
muntaz
##rab
kea
waley
zaror
deewar
needs
Free
quied
##Ni
##cation
huwe
jinke
strike
SINGH
Full
Shilpa
Wait
nach
kyonki
dhu
jon
rahna
sharma
pedao
##versity
officer
##usion
Bibi
mubarakbaad
##others
chhutti
Zee
nge
##bum
##zza
mafi
ess
Most
##friend
kaay
kagak
issues
kutto
baik
Jaldi
Nat
Poo
##Mere
nikah
majab
Road
##ariyat
international
appreciate
footage
faateh
14
EV
lund
inhi
maienay
sanghi
MONTH
##TING
##heel
kuf
pher
##Br
##ikta
inHg
##otes
##ately
alg
##zzati
brah
Subah
aitbaar
DNA
GHA
MIL
Pure
club
difference
Night
bolnay
Prime
Danish
niyat
muam
alam
daan
Hen
NHI
Ve
raast
giving
ghul
chas
##sel
grow
Aao
ALI
woman
BS
cast
##ints
mazameen
##pping
##Alka
nazdeek
thappad
tabiyat
##ails
jhooth
hojao
nanga
politician
karena
##icha
Pakistanio
##shat
lout
daakhil
sugg
tameez
Zinda
##Habib
incl
##DO
##mel
patt
Dushman
MAT
miya
##nan
hahah
marr
cheen
qadri
clean
paidai
Pls
Tw
##uin
##vat
exci
hissay
cross
mutasir
pathan
##abaad
waqeat
Dubai
Lg
Okay
##khar
##tf
Jaane
Next
aurton
maare
bante
bator
biggest
##Baat
unwan
Tumko
elect
##Shi
##ented
badle
mulki
finally
##solute
MC
eff
vill
chaman
##ARE
##wwww
##RPNis
##xx
##uel
shoot
khela
parivar
##lye
krnay
##thy
maryam
##hrat
umer
##ityan
fazai
turkey
abdullah
tit
##haal
abt
##atey
buy
favorite
Yaq
##wise
saky
daman
congressi
inshallah
josh
##Kuch
sunte
pariwar
Kaa
sch
##HY
weather
##inite
paidaish
Yaa
turn
##gen
dekar
##ostpone
masti
SiddharthShukla
Europe
Aab
Ms
ameer
##Agar
##yeh
##ungkin
tul
##itas
##inge
huaa
##saar
deny
##TAPOSTPONE
Colors
Tujh
maja
hakumat
emoji
Haye
Hans
aani
##Roz
using
leni
KAHAN
##walaat
##Prabowo
Fl
gud
gitu
##yaada
taqat
quality
offer
MI
bilal
phen
##Si
##pada
##zon
##ados
##eebi
comes
amir
Chutiya
Guzar
##Out
##llu
esc
hazaron
tasawwur
SU
bakh
##NS
##ised
roka
HAPP
Arvind
idaray
##tho
##Mumbai
ummat
nayaab
operation
##TER
##Pyaar
hamain
##ANI
Adi
BI
Qur
Spe
arif
dic
##tao
appe
maana
agent
ashok
##waisi
gila
candi
Jud
lya
rub
ug
##atel
##urav
btaya
mizaaj
dhoop
Rat
gulam
##ASH
citizen
MLA
dress
##lai
quem
azaab
Bura
aahi
##uhan
##can
##lly
markaz
Jari
Too
##fiyat
##poor
SidHearts
##Real
##HabibRi
jaen
musta
muqar
working
Est
rastay
##gill
##enes
bethe
Vishal
Whi
lee
##unya
saaz
shehri
##tok
fine
##iyab
tayari
beroz
SAA
##gam
##nif
symp
Rona
##alis
##tega
baaton
##ANG
plane
bring
Ami
ghot
yadav
zan
nikalne
Office
jldi
fra
##waq
having
depression
##sam
##gil
##bed
##tap
chapp
sawaal
16
##jao
##mmmm
Support
PSL
Bul
##hne
Abi
Prabowo
##yyyy
paidaiesh
bund
##laah
amer
##oriat
Tweets
Hath
##badi
hair
mumtaz
kitabon
##SHAYs
members
til
##bet
gel
fire
Unke
ghantay
Akhtar
##RPNishank
##HabibRizieq
Punjabi
haseen
jeh
nakaam
tol
soche
pait
intikhabaat
Sik
##Lin
##til
yet
hypoc
eso
LambaAlka
DA
Jum
##door
sarah
este
ayegi
##firat
kyoki
18
##jah
mass
chehre
zare
sakun
forget
Marne
AAM
easy
nus
##bm
kids
frustr
balki
cheezein
Raees
2007
Qar
ehad
push
sawalaat
##met
musalmaan
himayat
emotional
chunav
mashriqi
inspiration
auqaat
##yana
##pok
##ono
gaal
majak
friendship
##paign
aff
##arant
kaan
##raan
dilchas
taras
Terror
BeingSalmanKhan
##Gi
Haar
Farooq
Zi
fikr
wad
##nF
kero
Also
nasir
rapist
Nah
##sung
##BC
maze
makes
YEH
jye
loss
##baan
Nav
akhri
nishan
DG
##ogo
##essor
hukumat
##asub
netw
peoples
guna
haae
DESH
lug
oo
##saas
prac
Luck
MAA
##dayi
##aker
##aniyat
compe
paal
rehtay
aaraha
Hog
Poor
##Kashmir
##agini
Haider
lamha
saabit
##bse
##jadi
##api
##dega
mazboot
waala
##TAPOSTPONEJEENEET
darta
maras
##via
lao
rkhna
Yous
hada
##daa
manga
supporting
katora
players
##yadi
##erna
detay
extra
Arrest
##aaaaaaaa
karwaya
totally
Tur
saala
##rrest
supporters
outside
Bag
sn
##dos
##adan
sehar
##fy
prin
population
Riz
##des
##ested
Sem
cric
mujrim
hansi
##harraf
lehaaz
Baaki
##tificate
Hone
##Manshi
##Bar
##pay
##lies
masa
farmaen
##anna
##ume
##ustom
feels
original
##mia
Humare
Manzoor
weekend
##akak
##oups
##oty
thin
dusron
INDIA
ahbaab
sikhaya
Boycott
literally
seperti
moqa
pach
deshdrohi
Imam
mustaqbil
##ityanath
QUE
Republic
Nafrat
Bir
##utan
Wohi
zarorat
Gham
##My
##tead
##hoos
itti
khasi
##ently
dikhate
##urnol
wants
##DJ
##Mai
khoobs
maghrib
tabsaray
fair
laj
qaw
wont
pilot
Mujhay
bika
saara
##cell
guzra
##wkwk
KAB
RAK
##mun
Deta
Dhan
cab
chir
##huri
##RAN
parties
lagata
mufti
zayada
##zay
nautanki
raksha
version
BHAR
uns
khati
comendo
laal
khuwa
Dimag
##bak
pizza
SarkaruVaariPaata
wha
pey
istemal
Live
mahswara
Mara
dhi
karsak
qadeem
foj
##Badami
KUCH
Guru
Hina
thuk
##baha
soy
##ished
Chinese
development
HM
Wish
##fo
hawala
insult
khitaab
##ATH
aagaya
khuli
negativity
wafaat
bala
dup
##Now
##Ali
##bhar
jaakar
##khor
##istr
tarz
YearsOf
wao
mujhko
qabar
Pm
bike
##hade
memes
compar
mien
beghair
kapde
13
Dhon
Gener
phu
##cking
##rigade
Hassan
nao
##naz
dele
agla
ener
##appo
satu
Ajj
pandrah
muashray
rese
tumhain
ilzaam
hukmar
jet
##dal
ajaye
Thappad
Geo
rag
dekhenge
laate
##hatay
majority
wazir
Akhir
##Strong
nayi
motiv
sakoon
budget
Jani
coup
dedi
##depend
kerne
Haal
RashamiDesai
yee
##naa
bolu
matti
Saheb
during
senior
##HAND
##Imran
Kun
eht
##kti
abu
Watch
taweel
Gol
Ganti
hindustani
Pehli
vr
##ijo
##KB
##lm
##EY
Sharma
Seriously
gale
ia
##arde
##vete
barah
##odo
channels
Minha
pend
piya
honey
badshah
talash
These
ikhtilaaf
Mans
Ste
karun
yea
ilaqon
mohtarma
bf
rone
##ball
##chana
marks
niklo
##ounter
urstrulyMahesh
phela
wanna
##HeroArnab
##Linked
batane
panah
present
doesn
Sale
##bes
kion
##nap
shumali
MS
##bol
apun
concer
Beti
dikhaye
jeene
##AndSSRCase
##Fr
##utt
paste
galiyan
Chief
Ill
nain
Usne
utaar
##Pe
##ission
Waha
ger
pers
##Com
nojawan
hayaat
MAI
kk
mehak
chaly
##walo
Ask
photos
##ISH
tahaqeeq
bewakoof
Hak
kate
path
##mol
##lal
##iran
Social
intezar
##KoMaineDiKasamTomorrow
##MG
##eny
khuch
##rahim
Khubs
Jar
##ador
mend
shohar
Beautiful
wakt
AF
zabardasti
##itar
##ariya
gayarah
interact
Lage
Zyada
jel
ple
ankh
##qaal
Haram
kahoon
StopTargeting
##mail
##Man
lagai
lok
kitny
##kyou
ukhad
##ences
rehty
##ilih
response
ldki
young
tanzeem
Ris
##Pro
Iske
##EES
meeting
Film
ts
##maid
muha
##ands
sabaq
##hton
assim
Shaheed
acho
Subha
dhang
Winner
##AndSSRCaseLinked
Iraq
Send
sindhi
##faq
bolke
sour
jiss
musalsal
Fal
Jyada
dap
mq
##EO
Javed
Comp
Kas
SHAR
##Hind
##py
kaka
kart
jinda
exams
critic
##Against
Nehru
bond
kt
##CAA
##kok
siapa
##ssss
wahid
technology
German
HR
##Mandir
kerte
dushmani
actress
biggboss
pouncha
##cen
diy
Shahzad
pichle
jame
##astra
##upa
pohn
payar
official
phansi
Ir
KIN
repor
lucky
dumb
rg
vali
amain
mahila
facts
jod
samaan
taking
hv
zra
pelo
##chey
gayee
Dh
kore
##azy
confidence
MUJ
Aq
Ghaz
##haza
fauj
likhta
##uuu
rajneeti
pichlle
abbas
likhne
Jub
Pass
pane
tumha
##OOD
Beshak
##Ji
##ware
padhai
celebrity
Kbhi
##ece
##cast
##agin
jahalat
ekdum
supreme
jinhone
shabash
entry
Pasand
BAD
tail
##New
##ours
goes
##agement
sidharthshukla
Babu
Gayi
SM
lash
##see
hova
##fie
gandu
zeher
Baha
Sena
##TR
##inon
karr
##rei
##rees
##lamat
espe
MumbaiPolice
runs
popular
WB
##pya
lagtay
Mujy
yuva
Hit
##uji
##Sandi
nature
tajur
Bhab
##akhi
dip
TRP
total
inch
##llow
lagy
aram
awaami
cricke
yan
##lok
rote
mehboob
Mann
dale
sair
##mh
##vas
##karang
foran
pahunch
mentality
step
##raar
rey
google
phel
script
Lia
##arA
##amb
howe
loved
ic
maya
neh
tadi
##uc
##ghar
##mus
##iyc
jinhe
AAJ
##RAT
tel
wazan
behavi
Izhar
zakham
ND
pehan
##iyor
coisa
markazi
Pand
SID
Umat
##aidi
bahen
shahadat
amjad
small
network
Yout
chahat
##idge
maazi
asking
doosre
Enjoy
center
audience
##initely
Happ
##rik
##inah
##hanay
chehray
Muhib
sidha
pouch
KHU
happened
bcoz
##mera
likho
ayy
explain
Naseeb
mukhal
##Aaj
##wama
guzray
piyar
Kami
##not
##Nahi
##daad
##wao
Insaf
sas
taf
tanto
jaon
asha
Take
current
tarif
##ooj
jour
repe
andhb
admin
##END
Hmesha
##ICE
InshaAllah
##ftar
##zu
kavi
bataiye
Proud
##solutely
CAB
Where
pant
##IF
parhay
youre
khushiyan
Uncle
cake
Leta
Ser
dong
##usa
leya
baato
chot
ikhlaq
AMEEN
questions
Top
saad
##idade
karney
duayen
bandmaid
Altaf
rhta
Actually
##aser
krdi
ones
ef
kabil
Sabhi
films
hrs
layte
qiyam
##urstrulyMahesh
jaey
##andari
darte
marta
chora
dubara
Thora
GantiPresiden
Ty
shop
YEARS
medical
Power
Waj
##VI
##oma
##lex
jau
loyal
Shaheen
Because
mutfiq
pesey
LIYE
##JI
bologe
##riti
##ario
gawar
Humne
salute
Maar
bhok
almost
HAPPY
FB
PK
sani
sdr
ting
hogal
Theek
famil
##oi
##Toh
##jam
haip
weak
ghante
Aas
Rpt
##CO
sabiq
sound
andr
##garh
begum
Dosto
TARGE
OK
challenge
bemari
bimari
bunyadi
Mola
Tor
ego
wja
section
Chale
frm
25
zyda
##Ragini
##ilo
##oobay
sitam
sharminda
##ayakRagini
Noor
jg
##uat
##guru
##qe
hamne
thn
##bees
Taj
##ae
##Mas
##zabardast
dilon
tabeer
Wahan
Khel
wk
wag
##UG
raam
tume
Iski
tabahi
usey
University
zainab
muqaabla
hina
sed
tart
plat
taqreer
republic
##hatever
ot
##tiyan
##itya
mitti
journalism
certificate
nuksan
foreign
Fak
Mn
Mjhe
Sw
nzr
limit
abh
chalna
##rrr
zeeshaniyc
Tay
jd
kasi
##yee
naaz
##azmi
bolty
sune
##oooooooo
Nal
SAR
Sim
##rati
##Fir
hug
Asli
##Trailer
entertainment
NI
##AAN
##iso
##aqa
blind
Rajput
Sadi
##waish
##zat
parast
freedom
Nepal
Jisko
entre
victim
Zain
eik
##Teri
##Wa
kaum
##ither
muqam
Suno
##prise
suspend
##Rozgaar
EN
Will
cos
yog
##Kiski
##yer
##BJP
paap
Shaam
##ESHA
daikhta
zzz
##eye
##mt
##vent
##World
##hati
##adaan
nyay
rights
ignor
bujey
##aisi
##hinandan
##ffee
Adam
BornF
Bengal
bore
stage
##weez
##zy
remo
taakay
choor
chodo
chip
misar
##fully
##liau
qurbani
KINNG
24
Der
lelo
price
##ishtey
arha
narendramodiN
cuando
Bap
Fans
Niz
##mah
tow
haad
anho
andher
DilBechara
hotel
fatti
WhatsApp
Come
Family
Wm
##hart
gave
Hote
Saleem
alehe
AT
zayed
##fit
##Dry
##olan
Rehman
naqal
Umeed
naukriyo
Ager
Ten
cere
hainlogo
##sia
shahid
milke
dukaan
##DoRozgaar
NyayDoRozgaar
LAGTA
correct
hogalakho
BAR
Baqi
js
puj
##WC
ispe
mask
##ailable
Samjh
khidmaat
RIP
ful
kahen
raftaar
narendramodiNayakRagini
Fi
iman
jindagi
map
##Oo
kae
topi
bhale
Match
Ayodhya
terah
utni
express
##cribe
handsome
teng
pernah
ibtidayi
IC
mna
##Ad
##aldin
##abhu
parte
gaana
Bilawal
meharbani
22
Gari
sone
seats
##gia
Dek
sahiba
smil
##jarat
balat
phy
##dir
local
tele
Mob
actors
profession
Tamam
##fli
jihad
nikli
wanted
Cont
Jun
Yad
sche
##dom
##Ay
##MO
##YY
meny
tanhai
driver
tarteeb
Muf
Rub
##public
##ander
##indgi
uthe
darasal
Sheh
personality
nuqta
boltay
though
ginti
KK
##cca
##tein
bazaar
bant
hamen
##ppar
akshay
congratulations
##ground
##Ameen
docum
Insa
Jour
inaam
parhai
nhii
agya
tenho
##pois
Aat
##Ak
kio
##utam
##lying
bhasha
neeche
bowling
##bertura
puranay
Block
Em
jhel
##ghi
##bit
##Shuk
najar
nizam
prov
Unhe
IStand
yrs
iradah
voting
majboor
##khs
mulle
##asion
Call
HY
Lal
Nitish
##eela
conver
goya
dikhata
missing
aahista
##Guruji
kroge
rela
esp
South
pandit
TARGETING
Num
adi
##uta
Dharm
Nd
bott
dher
##kana
##owat
sunn
Saare
pode
##tify
ShameOn
Jagah
Piy
jhot
west
harf
aagai
BornFighter
Kabi
deix
leay
##gel
hama
nigaar
hatya
natak
Sril
##bur
##GO
worst
jyda
Nir
hag
qal
Chacha
##hahah
##luie
Tanha
chhupa
Tune
vik
vaha
##uv
menos
Butt
veer
emang
jungle
announce
Inki
achie
Back
##ize
##kumar
guzara
USA
intizam
##num
bae
ajkal
Farhat
Priyanka
Dham
Pee
hah
##tern
reservation
kiijiye
##Stop
Gur
Taq
ghi
tbhi
##mple
brand
babar
Respect
votes
ave
palat
##wy
##ages
takhl
janty
Maulana
##AsimRiaz
ijjat
chilla
##arAaya
17
##CHA
##itay
parhna
##uto
hukam
banget
agle
guzaar
bagh
danda
BornFighterSana
beb
react
trab
thand
etna
jah
nst
pache
chukay
jinki
zaruri
hatt
Rasool
nagar
##medar
##YearsOf
professor
psnd
UmatBersama
Khy
##sd
##gas
##chh
trp
Doctor
##mano
Humari
cobertura
later
promotion
invest
product
21
nomin
ruj
##nB
##wx
select
jodi
Apnay
banday
Usse
fear
StayStrong
##rrestRhea
sampai
paiir
tmhara
pahu
disappo
MY
Ob
PTA
##SRK
tumari
tumhary
lemb
##eedar
feliz
forever
Seh
West
sain
##aina
boleh
##range
repres
2010
streaming
aitraaz
hang
##ux
##bhal
muzam
arey
lyn
Inshallah
Mata
##vement
shot
horha
##hajir
Sey
##Forever
##zim
##itos
##kahan
Mahi
##comp
##dey
##OOOO
Fati
Hah
NAB
himat
shaed
paaye
given
mita
dharti
pichhe
afsoos
bos
giya
##pres
##asar
mulla
Neta
tumhein
dainee
LOVE
Germany
Saha
vel
##rol
##bari
bea
janm
baccha
Srilanka
##ghe
##usse
Inke
##LLOW
Socha
Maut
Jannat
numain
muntaqil
nazri
##kit
##CI
##harti
musallah
Muna
pooja
ImranKhanPTI
Fiz
jaj
oye
uh
qual
Samaj
aksariyat
intezaar
Hard
pehlu
Year
compr
aqwam
continue
engineer
bhuk
##Official
##jye
##jana
paray
Karke
cheeni
farmai
charge
create
Bhool
Aakhir
Tim
chum
vin
vas
##cak
bakwaas
irshad
semoga
varna
Lion
##naye
##cr
muddat
##cken
##vaar
chief
hakomat
belum
Solar
KAMIY
muqarrar
UmatBersamaHabibRizieq
anim
Deen
Aldeen
bhutto
returns
nstaliq
##dike
##zn
##sibility
##habra
Meu
##aloom
muamlay
aaram
##chiye
ghazi
connection
##oswami
white
effort
Kangana
Mos
tin
##new
Sidnaaz
Bel
Fawad
##BA
bnta
duaon
makhl
hila
##Vi
sabe
gire
sdraldin
Hogi
Puch
##esel
Part
behno
khelo
puhan
##aaaaa
safhaat
director
shirt
Cri
Play
Pet
lalu
##Bas
##js
kaaf
sekarang
ajata
Krishna
##ughter
couple
FR
QU
Thak
gn
tinha
mehr
hark
pao
Muh
##feen
Akbar
becha
bahhar
azhar
tmhare
##gust
##cre
nib
akun
Sikh
##Desh
##Bha
##illa
amli
arakeen
khatre
btana
Chat
Ela
##Not
kewal
elections
majaboor
tajurbah
caste
##aaj
##kowi
milni
site
sarhad
madat
jinhein
kuttay
problems
Brah
Usi
fari
went
##bai
##FC
mareez
bahu
##ffi
insanon
naheen
##Kejriwal
##KoKara
Jate
Rha
bug
##inder
saman
shut
##orities
pahuch
jesay
Gya
Wap
krd
abuse
##love
churr
makers
Check
##vsena
EVM
Mag
Yu
kus
haat
jawaab
##assar
cost
juda
##mor
##Ia
##ende
##rib
paoge
godi
thread
bandy
chanda
letter
Yousuf
##giri
##qy
parheen
inj
lehaza
Shakir
aagaye
jazbaat
Bank
custom
##haas
tujhy
tujy
milenge
donon
khoya
lamba
Net
mp
might
dahai
##ANS
mehdood
kharcha
campaign
celebrate
gosht
tashreef
Pol
jhuk
##qaf
##anc
##ater
##hop
chata
bolay
##jaat
pasandeeda
Entertain
hussain
##Wala
alone
dikhti
khelne
ACHI
Nation
sav
samna
tareek
##alea
uthaye
khabri
officiel
Ij
Thy
Yun
cuma
##lla
inhone
Bechara
watched
puchna
##Protest
TA
rhna
##LAM
jaahil
bewk
front
bakri
chutiyo
constitution
cause
qudrat
30
tp
karva
##udhary
asad
##ishti
thanda
Sonia
ghusa
##vince
RAHIYE
jomblo
rkho
##eb
##At
nikale
horahi
Congrats
khubsurat
plzzz
Prof
NAM
PL
yi
##alon
Shareef
viral
##KoKaraarAaya
Oo
##abas
##haib
maray
madr
Bolte
mamool
Unka
took
olad
gutter
rss
##Tho
akki
Trump
galiya
bewafa
##CBISSR
SAK
zik
##ies
##lement
##terday
Barish
dhun
zaban
saathi
tujhse
##HainPyaar
KAMIYABI
IAm
##urti
nag
moka
pictures
puchta
ISI
nateejay
pala
##Want
##idhi
##enaat
malam
ColorsTV
##engi
padti
intqaal
legend
machine
TUMHARA
Kasam
gadi
farzi
exist
haste
hogye
postpone
zamee
prem
##rict
indians
Molana
loug
Dene
haiS
haiP
##adam
bahane
##khera
Isiliye
blast
mangte
TOH
faislay
Azadi
generation
jaun
hello
Chho
##KiBaat
Kabir
mirchi
hafta
##Live
Make
Pu
##Rishtey
##vay
##Za
##ange
##adityanath
text
rhega
plate
HAY
Black
dhand
##lak
##xe
raqam
##omen
behind
logun
tarhan
sunke
##hakti
kahta
bikin
planning
Out
aindah
##diqui
myogi
madinah
Hyderabad
commission
Jameel
Lets
ED
faqat
jigar
ree
##ancha
##apt
carry
parliament
rgbi
bann
banata
##aliya
Amar
mutalea
jehaad
qabool
##HainPyaarKe
Did
Week
nikalti
minutes
idhr
General
pis
wus
##zer
##using
forward
ajab
##inema
played
heran
brigade
psy
sorat
##Maha
##PE
andha
rojgar
##hilesh
##TION
larkiyan
##gual
ittehaad
##laqi
chura
dekhlo
bhav
upr
lovely
Cele
WaseemBadami
Ini
Phot
SI
ame
east
##bhakt
##cor
##real
lagate
jaroor
solah
lots
##Shame
marriage
Instagram
IPL
gone
peri
##full
khur
chakar
saada
##htar
##jaaz
larke
camp
Babri
Dill
bati
sri
toar
doce
##nyata
##antastic
chaltay
instead
myself
Dunia
ficar
pt
tama
##bis
##HH
##hash
##enta
apas
algo
appro
sachhi
Kahaan
standard
baqaida
pachees
Door
Jung
WE
##lum
##jai
##eemi
moun
Exp
Zindgi
Everyone
gosto
kaayenaat
jhal
##yank
bitha
bukhari
maqbool
Fav
##dur
##MC
##ped
##cio
khwab
heen
tarike
fiza
Pawankhera
Vid
hti
heard
##kaat
rev
Tugger
mehn
bilawal
KHUDA
Break
##Chi
hol
darakht
badan
wear
makhsoos
GUSSA
ft
naahi
##ogy
kyn
aeen
samajhte
baccho
terrorists
nuqsan
ummid
##abb
##times
bhaut
jagha
shayari
ladkiyo
sendiri
Bss
Game
Name
##humi
virodhi
baithi
##ography
Pul
Post
##RR
rasht
MERI
gujrat
Sit
fui
##utva
south
halka
halaank
abaad
nes
##ock
##abr
asan
HOTA
shabd
fatima
install
FightBack
Ise
jhat
root
wab
baala
hia
mulak
Rahy
jhooti
##vidhan
##faraz
padegi
Chris
Bay
pila
##waron
KARO
glti
lun
mala
salim
##adri
isy
kisse
resp
khelte
related
tomorrow
intellig
Izzat
cli
err
bhaiyo
kalam
choron
##irect
meaning
Corrup
hk
phal
##fic
##aien
##idncia
shirkat
KHAUF
mlitay
bahadur
space
muhim
ast
arr
fazool
killed
mall
shant
##rina
legi
adbi
panch
swag
khayalat
kufar
##ros
##Boy
giroh
malah
##ressed
spo
Att
Bai
Jail
Jahil
Para
mjh
##keel
tumhy
##iger
Asal
jawabaat
dwara
##mati
##Os
##anja
shayed
khatar
Musharraf
resign
field
momin
shandaar
Suk
##yya
##encia
argum
patta
balke
Hindustani
sympathy
Law
##baa
##Stand
##Bo
##adas
##ahid
Parvez
##soom
besharam
emotions
##ittee
Div
Pin
##Che
##pindi
karon
##fsd
tiene
##ALA
Chowk
Maaf
Fb
rk
##Asi
batt
Humein
hindus
DOST
Someone
Dee
Naj
gah
qowat
tusi
##dullah
park
learn
unho
laug
KIYA
luv
##ddhav
FOLLOW
chalana
WeLove
Khali
tajweez
Val
dalo
male
roman
##CP
##zia
##ayeda
matl
mange
##AAD
poster
century
Riaz
sdfsd
ghulami
##RishteyHainPyaarKe
Official
aiz
##fl
##amo
mary
Saba
##gres
##ABAD
advance
FightBackSana
Fun
Kaisa
aash
##wade
##vk
leite
##chit
Reg
saamna
cycle
research
Done
dahi
dadi
rahai
##lear
daali
mangta
##Sc
marny
rahti
claim
samjhte
larkiyon
ansoo
Lkn
Oho
ida
pukh
yat
##hry
Int
taalib
subh
Ese
cbi
##like
niazi
jamh
genuine
ura
##gaya
##Awards
##bong
##padh
pros
##aaah
##roy
##shid
shukr
nalla
sachai
felt
bla
ed
states
##cky
siasat
expression
morango
kilometer
mostly
Ao
##CT
maari
mode
roye
condition
committee
chahiy
crying
Likh
drop
ssr
##cch
##hany
Abu
Saad
Behan
results
ulma
DrRPNishank
tenu
beroj
AW
kg
paisay
##ushan
Humesha
conse
shart
numa
nakami
teachers
imagine
rehnuma
baagh
khafa
milkar
##oliat
MashAllah
Rawal
Tari
jut
wake
##git
jayada
according
kahne
traffic
excited
Cons
Hasil
##EM
raq
mulai
##ffice
mission
Andar
##active
info
LOL
zai
##bala
##yaat
aaja
Bech
azan
##ERS
qasoor
Gy
##rm
najay
aprad
tumare
barf
taklif
chodan
dange
fem
##blm
Sajid
nishaan
Ghan
Tag
aameen
##tte
##TAN
##EX
hold
mangi
##box
aatma
jazba
akhirat
books
idiot
Daw
Maf
pig
##Jis
##qaat
touch
##oop
samjhi
kitaaben
Person
phi
pese
##This
##hail
muashi
##istmas
prat
Abad
Champion
taluqaat
laikin
Atta
##ATION
##Mujhe
cricketer
dgn
gue
##aland
choose
kharray
surak
definitely
##erature
Ilmi
hadaayat
Sans
alot
##Fil
dea
liat
Index
rahin
Shakal
konse
buray
dukha
lateeni
##NN
##DC
depois
discuss
bhosdi
bewaqoof
shilpa
##BFF
##ald
tumharay
beliau
##twt
boojh
Ejaaz
sata
karaya
##oria
##oodi
pela
Ammi
Amazon
prec
Shukar
Captain
fraud
Listen
Pho
sasta
##hene
jobs
bio
suroor
gets
secret
2011
Narendra
Nato
uf
##FE
##haiya
Cham
marhoom
##verse
vich
gandagi
rhte
Bhul
patrakar
Maya
##xa
##BS
nagr
rehny
zabanon
atif
bantaa
sobre
governor
CR
boot
kushi
chaal
beat
ghuma
mod
aacha
khelna
treatment
Ud
rukan
uz
##shot
##Baar
rele
studi
##appa
girftar
Darr
major
compani
lyrics
yaqeenan
coincidncia
hare
rabita
##ukar
##jaz
##hood
bhare
travel
##ticip
details
Randi
lle
neech
zaida
##illat
PAKv
tharki
Hel
##hei
karane
dede
blue
guzarish
airport
gold
gulami
zikr
##atives
chhe
Humko
##wany
cous
##quei
LaG
mardon
available
nisbat
Mushkil
puhanche
BIN
##guf
##Sing
karv
ishti
huya
stories
Saale
akbar
surah
##BAL
##arid
krle
amor
angry
nazil
ghairat
##Temp
##Choice
Qis
Sawal
flat
chij
nazriya
Dik
Maq
Op
##Mein
##Your
devi
##leen
##hatt
reali
Khatam
President
civil
##gusting
##fqat
##Bollywood
##usan
rehi
pick
talwar
senti
liberal
##potism
rol
##sid
##Phir
##adid
ink
##rooni
dhyaan
##Team
hajj
layi
nanti
pesa
##sath
peenay
moon
##chand
UM
kp
##dm
##leri
##akshi
krdia
kisan
##antra
chok
imarat
accident
SSRK
Zafar
fig
##PUBG
toilet
jawani
##daari
khoo
upper
tasd
kashti
mistake
Shari
sut
##kot
jii
daagh
size
frazz
##ENGE
BAC
Jaf
##jaye
farmay
Rakhe
fakhar
session
WinnerSid
ullu
##akti
algum
sarbarah
lakho
fur
##Every
##Election
##ajo
farmat
##tikhar
Paas
shrm
Bye
Tra
##fai
##ention
chash
Tumse
##hayenge
nikalte
Diwali
28
AZ
Aage
Tot
##nath
##adari
pras
soye
seems
akeli
department
chhup
North
mukhalfat
##ShukIa
Kafi
bid
##heart
talak
bachhe
Baloch
Reply
Bew
Ru
Still
Yh
fawad
##pit
##hob
##unggu
responsibility
Naveed
##cellent
Esa
Lakh
Tahir
Vaise
ske
##Bigg
##jr
##ilot
##cher
canada
desi
kutub
##ords
Jaisa
depend
takhleeq
represent
aour
nt
##dhe
##tad
##hali
huta
usk
##istar
hamdardi
badhai
Shaadi
afwaj
bakchodi
Chlo
colour
serv
Huwa
pens
Dosti
mukhalif
Haj
Jati
Pari
bre
##ian
##kata
##DD
bec
##miz
faas
Akki
loota
##Kal
##Ind
hija
khaz
badl
paak
Shakhs
tamanna
Anti
hakeem
aaina
23
Sain
tand
##uM
##wada
##ured
taaj
##Zindabad
##ogh
jabki
button
pakda
hass
vichar
aashiq
haiAur
##teen
dela
able
rakyat
Ish
tromin
conde
adal
##INE
aque
shubh
mahinay
Class
Must
Magr
WC
qism
gaey
musha
Exam
##loyment
INDv
Hue
Qo
whatever
##more
##Mar
loag
##eedgi
thok
##toh
##ORE
purane
zareya
fod
visa
##sin
##got
koh
##enaaz
missed
dheere
breakup
Sant
jio
suneney
sifar
mulaz
kerti
##ERO
Jio
poocha
mansoobah
nalle
Quetta
Retweet
Mub
##hackeray
##inted
sempre
hacer
hud
doon
rahu
patti
haqeeqi
Ksi
igual
swar
zama
nakam
##usive
##MumbaiPolice
EU
lit
##eres
##ablish
meine
chaap
musafir
verdad
##lfriend
Mili
puja
dilchasp
BAH
haiD
amr
queijo
##ADI
##basoya
chlta
belong
qayadat
Gaddar
mashriq
vishwas
Finally
ashokbasoya
cart
dora
naal
##tei
hongy
##ungan
maheman
TW
cra
ice
##NZ
##DS
##VID
naach
##tag
##ishan
##ily
taken
taaqat
bhn
Never
safaid
##ENG
parhte
jhuth
##ashtag
bde
##ination
hoya
suka
collection
strugg
Ghalib
Yaqeen
tasdeeq
##Kap
khone
##ahiye
##ahiyat
##esto
cheif
taste
dosron
qissa
Rakhna
##mujhe
bethy
council
Hafeez
idaron
sebel
pubg
Gyan
KPK
faq
##cd
##PU
sea
##ehle
##rior
##igr
Maroof
grade
##ooooo
##risy
##ayaan
terus
balance
survey
specially
Bhos
haftay
source
Mobile
##Up
##ince
tumhar
##karnB
sood
##chat
haim
naat
jaw
huy
reche
##afta
exactly
munafiq
INCIndia
Syed
evid
flight
##noon
##Happy
hawai
bek
roos
mullo
jaiz
bakol
payenge
##uzool
amanh
MERE
Zubair
candidate
##karnBHAND
wil
##sk
##YO
kiy
kaash
##ajab
doulat
shaguf
badhiya
Humara
Janam
seeing
##bhag
workers
hahahah
khanaay
kagaz
GI
bhoo
surat
mangne
jaegi
sobai
Khilaf
Cup
Tik
bcha
##los
##Su
##ET
##lege
##ican
##coming
perfe
mutal
##ONG
DEKH
myogiadityanath
26
Ohhh
green
##Rah
##under
##teri
##nie
nhin
gaane
bachao
ISupport
##ChakDe
HINDU
lajawab
##bahaq
Kro
Paise
##Epic
##FI
##amay
##ades
mee
##iddi
Khus
sadar
danga
solution
##fraz
reading
ArvindKejriwal
City
Count
Qas
dana
nen
##vida
jaenge
##ced
kamon
dalle
secre
gadha
kripa
##UnD
Lgta
Naq
kub
lane
qki
rhen
pakra
quote
comprar
chutiyapa
##Khur
Bn
gat
hna
##bor
##eekh
##temp
hafiz
preshan
exc
minority
ulti
##ESHI
Bsdk
partner
Dad
Jake
##nao
bnane
surkh
RAEES
Result
moseeqi
Monday
aaa
qasam
##su
##BR
karana
##rahe
maaray
Muz
khoof
##dua
behtr
dosri
Hawa
likhain
worker
SushantSinghRajput
Wife
ankho
##ills
##ppy
mamla
kutton
hazir
ahmed
##vraj
kachra
patthar
Bless
OMG
ganay
chaho
##ayein
##cember
gawah
chle
permission
chalane
Khana
azaad
buzur
jimmedari
chowkidar
Ani
East
jgn
##iest
##Con
ingl
huva
asd
##oday
sky
Music
lutaf
##ALL
##VO
bhii
doctors
House
mujay
koshis
serial
Chutiye
Friday
training
##Sunil
##UnDinon
Alam
Jada
phar
##UU
Mout
except
bandar
yarr
##TumHo
otherwise
Girl
##bby
aansu
##ImranKhan
farmatay
Current
ENG
fasa
saanp
prot
coba
kanjar
Subhan
aatank
obvi
Friends
Bass
##urb
beda
chlo
##www
ramadaan
Quaid
listening
Ei
vision
##ien
##Tw
##aira
##alan
bhikari
##night
##hram
Leader
ment
bnana
aadhi
mango
jaman
Here
rally
##Meri
mugh
loves
##ideSid
##allu
##zzz
maante
chhoti
Loo
fol
rani
##desh
nawab
isa
parcha
hace
jahi
mereko
sharing
bharpoor
filme
sitara
earth
Den
kaisy
mungkin
##HM
host
jayga
dosro
fazl
pretty
Girls
selalu
bhikhari
Rawalpindi
##EpicChakDe
##UnDinonKiBaat
jajaj
vad
samart
laut
##AKSHAYs
jamat
karwana
gostoso
phys
gup
sdh
##aire
##nav
hid
wajha
ghussa
gunda
sameit
guzri
tajar
WarriorsSSR
chunancha
IAmWith
gil
ow
ski
##nama
##Um
khy
anal
##erstar
##abia
rhea
dhair
budh
bene
##maz
raut
parhta
strate
##ibla
inglistan
fot
##hile
##unda
convers
##ALI
gardi
grand
colors
##SSRK
zulam
digital
energy
DAY
Japan
gd
##SI
##qil
baant
prh
darkaar
coach
murkh
bhagwaan
soldi
ahead
jarahi
seekhnay
protect
Taraf
MAD
dol
ekht
stuff
masuk
maslan
taqdeer
poke
Teach
femin
Jiske
State
##UnDinonKiBaatHai
Bik
##sos
##aper
tashad
nashe
contra
majmoa
Aans
Jese
NTAPOSTPONEJEENEET
beshak
yon
##Mil
tomar
remain
mandi
##elhi
PRO
asliyat
LIK
hye
##ei
##pes
##just
ghumne
dosh
hatho
##mmm
rajya
deewana
srk
mine
tahir
##Es
hasrat
hathi
aizaz
##UI
jokes
usmani
chye
janat
bilhaaz
##chanay
dhol
calling
sahafat
parece
encounter
Mjhy
fik
qeem
tht
##uan
##NY
##isan
isay
khun
milein
sako
saloon
queen
talented
posts
incident
jazb
intellect
BY
Wr
qk
nap
ano
musan
chit
JaiS
irani
##reams
Mehnat
Awesome
vishal
Days
Bomb
Rafi
lupa
niy
sehra
jano
percent
sochne
##hnaazgill
wahin
download
##wamy
HAMESHA
culpr
AAMEEN
Rt
eye
##ture
mecca
##eej
ankhon
Hamza
maybe
Azhar
moot
khudi
advice
poochna
fakhr
##illiant
shehron
Jise
clip
cabe
gram
##bers
mehal
##esan
##ahmi
living
##lite
##astha
paki
temperature
27
gole
hO
kO
##gency
##mam
haib
tok
milli
##chaya
Chahat
pahan
jayein
bhejo
khatrah
chicken
mamlaat
jeb
judda
shaid
dlhara
walidain
musannif
##Malik
##pul
jaam
kamai
##aneen
afridi
ghatia
nuksaan
Mama
Qual
curr
jog
##nas
##please
##entes
samman
badolat
bhaari
chalegi
pichli
York
nehru
##hd
##dates
##xo
##Co
api
##ehshat
sawab
krun
pae
amig
sua
ladne
bhuto
stick
hijrat
female
Et
kemar
muhabat
bnaye
islamic
rakhain
ibtida
aesy
##ever
##qdaar
##ayaz
##chhe
##ataam
hehe
##hayal
choo
phn
2006
kirdar
DUA
KAY
LG
Upar
aed
##tas
##DK
darwaz
ekta
##eder
matches
Armaan
tmhy
maarne
chamcho
bheekh
Bachpan
written
##Chakrab
MASHA
sidhearts
baaes
##gra
##hala
##isation
##esday
##ulai
##hbaz
##karnBHANDARI
Laf
Wor
raise
##kap
##Gir
haitum
##abri
##yav
yahe
satrah
##ques
maaro
Tafs
Lambi
Dabangg
ekhtataam
KKKKKKKKK
dhad
dogle
ike
##jd
lekn
janaza
kitnay
##ANE
##HIR
ghalt
iqrar
rules
feku
##hadees
Wajood
Gud
Jat
Sikha
Sardar
dag
lindo
##won
mejor
lagu
maahir
mustaqil
salahiyat
Andh
krtey
pahun
vem
udas
estar
yahodi
Rashid
##tinya
leadership
AIS
bagi
banati
daro
Sachi
ladkiyon
Niazi
SalmanKhan
buddhi
paisy
Group
festa
Dig
Educ
jwab
legal
badlay
padho
mazloom
tahazeeb
clearly
##istration
##aridgr
swe
##Shin
##jak
##ines
huge
sunkar
##cias
hung
mint
publicity
shagufata
Jara
Pero
cbse
drohi
ine
zia
##hya
nadi
##ajdeep
toota
Pehly
Shuru
centre
##aridgroups
BAT
Pti
Teh
birth
ds
flip
##haraf
##erita
##eedah
sie
khusus
majlis
apps
decl
hikmat
Cent
thai
##xh
##play
khor
##enty
Hehehe
mangal
panga
gunde
##YEARS
Mehfil
Sil
Wafa
##JA
##Jan
##CL
baw
champion
##ishn
bilang
bndi
Neg
sahaba
wonderful
Account
SSRKilledOnJune
##qr
karli
dilli
manh
laag
bias
YehUnDinonKiBaatHai
##uqat
horahee
complaint
aloom
lunga
##Bl
##Bolo
##eeta
anos
##adaat
chuky
Kisne
lagegi
##ughts
kaatnay
BTStwt
Gen
ISS
daya
mh
nites
kahenge
##arita
tube
asdas
manti
Muq
Mujhse
Ana
judi
##tk
bez
December
shool
Shahbaz
damn
BR
Bra
sali
vhi
woo
##yaal
karma
tumhen
##riSunil
enter
trou
Amal
##ength
maanta
flag
healthy
gaind
DON
##NER
##hia
chate
mujhey
atank
khod
misraa
shayd
ladkiya
bigboss
kindly
thoughts
Ache
ako
##inta
##enting
padtee
daina
zabt
todne
foji
tayar
idaara
ade
pore
tale
##Kr
##Abhi
towards
atankwadi
buhut
bajay
Masoom
puche
mukamal
semana
repeat
BTW
Dum
Try
##Ur
##wayi
##umkin
##asid
##urday
##esair
pradesh
Model
convert
##ffff
YehRishteyHainPyaarKe
haddi
##sm
##Af
##WW
##GF
##ading
ishe
kray
##ingSid
Inn
kale
bachche
##chane
##dding
chatne
CHOR
Salamat
dreams
Action
WDJ
aon
##nia
##eyon
esper
billion
Usman
sikho
jhoota
doosra
Iftikhar
tashkeel
actual
metro
attend
title
##bel
##work
kim
mele
saar
taswer
design
rhne
jamhoriat
##EpicChakDeIndia
Kid
Saya
eat
##Ter
##Tere
##ccha
kol
##Resign
Avi
Kari
##Qu
##tib
hamre
khof
jeeti
Bewa
mujha
badalna
##zeb
##tival
STOP
Ashi
Jangan
SR
Tb
Tel
geet
lic
ming
##kun
##ones
semel
##hoori
Kohli
Def
dungi
hunar
hisa
Beg
netao
teesri
haraam
Cute
JAB
Tom
vak
hamesa
ayenge
color
##idaar
Rakhi
Majeed
sajda
amiga
ghaddar
competition
##esairajdeep
Aati
Saza
bic
beli
walida
reach
shaitan
##chaas
##aishi
##dren
View
gusta
transfer
##Plus
nishana
Jitni
Tai
##gaye
##amal
##yae
##keen
unatees
bankar
milty
teray
Arrey
mix
Adad
Khoon
glass
roads
reporting
Ari
NAH
Oper
sog
##GR
##eness
reco
##tary
ghur
surgical
Cheez
Dino
ghatna
StopTargetingSid
reporter
29
iya
##pn
inho
##rao
gif
jinka
kosis
asdasd
JIS
Und
##JH
kahu
kareeb
raa
Job
shehnaz
scam
ballay
##change
##dsf
gande
superb
responsible
##Poetry
makhlooq
Wesy
ahadees
##Pak
selection
##tidaar
##adia
chobees
shore
wasee
Reham
Shefali
rozana
sdf
Bheek
NH
aka
##ZZ
##irt
##ardagi
##hink
aysa
wif
Daleel
telling
Gareeb
Awww
Bhabhi
AY
byan
kkkk
##iab
##Its
batate
rasam
event
Waly
mudde
married
BHT
Calm
##name
##TF
lecture
batayi
harne
##edo
##opa
entire
uthane
satais
Janbahaq
zaman
yesterday
BigBoss
mashallah
##loudy
violence
Mant
haiye
meus
kamiyab
kehny
taap
##harib
##waraj
jinho
khatra
lgy
Secular
GAYA
Kalo
fica
##hree
lac
Itu
awr
hinduon
uthana
APNI
Osama
ikees
sdfdsf
Cre
Dada
aloy
gini
##sn
##HQ
##Pat
##atta
saber
##ows
tez
chout
##engay
INS
padhne
Dalit
HON
Mud
##Thak
##akki
near
##geen
banatay
##with
knw
##ttt
muqami
##stru
ExaBFF
Amaan
Bhu
jiy
jav
##rahi
arre
gea
jeetne
esto
selfie
Mummy
##andu
##nivers
laanat
ille
Drama
qanooni
Batao
Misbah
sharaab
BHARAT
brigadeiro
Tafseer
Econom
Yg
burnol
yaz
##jb
dege
##anaa
humary
Heart
Notification
KISKI
paham
ehtram
semelhana
31
Idhar
swat
##wb
##WAY
##ulo
tipo
Techn
dosre
mager
lafzon
liyay
chutti
iqbal
lifafa
Sadiq
GDP
Rel
awal
sla
usa
##ArrestRhea
##arth
##akah
##usti
bhikh
rajp
##kia
khudk
faro
kertay
payment
hazaro
LahriSunil
Sakti
staff
##ablishment
gab
##cate
##tafa
parwah
##diye
aish
sarcas
hogyi
kinare
kesay
##tika
islye
independ
pron
likhon
marwa
taal
Behen
Pradesh
numaya
rasheed
marega
chaheye
chaddi
Kalau
Weekend
##SW
##vit
##isas
Ajay
Surya
ARY
Bhad
Jayega
Other
UK
bast
jga
##rid
##zed
##utral
##tere
dio
chh
badhe
himself
ikhlaqi
Single
pessoa
chappal
write
##hek
##hearts
##ried
shad
dark
bojh
tarika
sunnat
aagya
samjhain
accounts
catch
Baz
Ev
MNA
uchal
##EL
##zaa
khushk
##aisha
jeetay
traf
Justicefor
Rap
##Our
karungi
maffi
usky
rokkk
kernay
##EED
SidharthShukIa
NOT
beeet
suffer
kenapa
Nizami
CC
kasih
nom
##NO
##cur
nahen
kaf
karlen
##uding
pakai
mutali
maje
zalil
mufeed
Shandar
Mind
vle
##agaz
kamray
##ciation
salon
pocha
lahoo
##ciones
athaara
##Bihar
SUN
Wazeer
goon
##UH
keb
hawas
boly
##istory
regi
gaadi
triste
dekhaya
dosry
dafaq
##selves
Thar
Vou
dude
nind
rash
##akes
mawaad
##oolat
spot
daripada
tried
behave
##Chhabra
KISI
fee
##bhoo
##vl
##alho
##right
maulana
rahaa
##mek
soda
banake
lota
pert
salg
fresh
Sachin
points
iqtabas
mid
nr
qibla
##ajama
Abbas
perform
##luar
chairag
discus
Khubsurt
##Chakraborty
Yafta
ax
flo
kye
##Dar
##Az
##Vs
jaunga
dekhni
gharz
mehdi
##isaab
Manoj
qoam
NEWS
maraslay
Ci
Jha
shat
tora
tumara
##atiya
dars
##igare
alla
apply
##noy
jatey
khulay
ohday
##BiggBoss
taswerain
Bare
Qamar
Tuk
Ver
##dol
##too
hori
toler
##akhan
##ehm
income
shahr
kabar
bahoot
HAHAHA
talaq
akai
##ASE
##boy
##pri
remind
Human
##eeds
gives
afghan
halqa
showing
garh
disha
##ysis
##akarta
sanj
Students
elawa
Crush
##wayaat
Kashi
Sabi
ning
ohh
##rate
##Disha
##phir
##woh
##ehra
##liance
voter
saalon
Dilli
idr
Dalal
fighting
increase
gaaliyan
Bahi
Ng
Rai
##cos
leak
mars
Remember
##izza
##khain
ayaat
Iqtidaar
bahanay
pup
nakh
khon
maen
##adian
John
paigha
Biased
avo
dg
mic
radio
##bht
##Vo
haiM
##olay
##itni
bhaii
khad
shoro
jalti
Chus
confused
##iiiii
ittila
##cut
karm
##iloy
khuj
dekhty
laash
yours
Promo
ikut
tiktok
Khabar
comparison
Bayan
Dharam
SHO
Yrr
thum
##nz
##Pri
deg
##andhan
##roz
ulat
##onsense
Salute
bitch
##dhart
ARE
Iam
Ign
Kl
VID
rog
##Aa
##wata
##harsh
particip
massa
afrad
##well
Million
qoom
lalach
khoobsurat
FC
yakin
##Kabhi
##pose
pary
abdul
##huum
chhat
sunai
suwar
Krna
poooray
##AJA
itihas
BIR
DR
Nad
SK
mre
##hun
bazar
parind
parasti
humy
Neend
riwayaat
Bala
Gupta
Pluie
aim
hashtag
##Friend
##umi
naara
saud
saqi
achaa
provo
giraf
satis
Musk
terrorism
Hayee
gri
chabis
##aao
jiye
janna
background
Buht
zuba
sardesairajdeep
peaceful
##fortable
DIN
IG
flow
##lena
##DER
##wen
haiafsos
##olar
bhaiyon
Dec
##anton
hogay
##ashion
electric
qawaneen
Hary
Los
akar
jase
kpk
wed
haiTum
##hem
##abul
takut
cannot
Red
nani
##cine
##Sup
##uses
##news
##ateg
Bache
mulkon
murda
failed
fucking
Lat
hd
invi
jaay
inside
papu
paison
prayers
ShehnazKeAsliFans
Terrorist
BD
bran
od
tes
##Fan
##WI
haiis
raza
baag
dour
aajay
thha
resol
dikhte
calls
TweetRhea
dirty
liberals
Dhoni
paighamaat
JAA
Sand
Tol
Yadav
pagi
rula
sick
##sc
##BAN
##itary
parwar
aaega
coffee
Soins
ISLAM
Pressure
beghairat
Guz
Ical
##ners
##zoo
lib
mubt
nich
Shaheer
insano
bhatak
teesra
criminals
writing
Aadmi
irritating
CHO
Share
creat
kkk
##Show
kaal
khut
##aje
mohabat
daud
AsimR
estou
Shik
##quier
turant
##qarar
cereja
Mjy
Vish
wid
##hida
mela
rawa
uthai
Samj
Milne
ehsaas
Thodi
Gujrat
Kese
POL
lama
rana
moat
tie
cheet
fao
makaan
Bihari
rozgar
dhond
beauty
Dist
MIR
aht
gate
##kis
##tima
bazi
hau
##isto
banwa
march
paate
bhau
based
khusbhoo
pdta
frustration
CWC
Gan
dans
apkay
bahat
khna
##rove
notification
##tral
ahsaan
##SSRKilledOnJune
Non
item
mate
libr
maane
bhaieyon
askari
tech
manzoor
frango
Sabka
Jisne
aabb
BUT
Das
Pra
TM
knew
lata
##eezi
##itne
krdiya
bej
Abdullah
laazmi
Sabar
##eefa
ahmad
Khoob
three
daryaft
##DilKoMaineDiKasamTomorrow
cheekh
Angre
chukla
Khyber
gula
rail
soobay
##KS
##pta
##pression
##waise
##ikat
##gaah
unk
usmaan
khadi
##affar
takay
##ets
##jection
##portun
imti
mutadid
Godi
sahoolat
negara
insec
Nisar
jelas
Dhar
curi
arkaan
tib
ghaz
taleemi
Alaikum
bnao
starting
wicketon
Epis
karate
kardia
angr
##iyani
gau
imthe
daita
emer
kapray
demais
gardan
Gunah
selected
Journal
rou
vul
##iniz
##saa
HAZ
##tica
newbie
safhay
jamhoor
Winds
gunnah
mafhuum
setting
Both
Jaw
##ghal
##yt
kefiyat
kaali
##anding
##adiya
wasta
scared
Choti
journalists
FAR
Phone
gund
sports
##kkh
##ising
multi
##fact
Thankyou
##lines
imthehaan
JB
yok
##yas
##icult
##eries
paata
tim
Saari
karege
jalta
utk
bheed
bigad
asia
tahun
BIG
SUB
chiye
london
##aban
toba
walk
##baas
yahaan
Once
Congressi
##Republic
fue
##sG
sev
##mahesh
chem
##strike
religious
lakhoon
arzoo
pohanch
Goli
Kin
Uddhav
khin
##foor
##ehlot
##khud
ankhe
guide
Patwari
gumrah
gaddaro
Pich
receita
tashadud
##niversary
Dm
Zak
##uki
##sb
##ION
##hale
segu
##ahin
ago
sbki
##INDA
madras
Haara
DIYA
motor
humanity
Christmas
muntazir
Pulwama
Cal
Zero
cane
pana
##aching
##Delhi
##Bach
mete
nepal
aisey
shohrat
tereko
Health
kholo
Pathan
ummeed
##Karachi
Vel
##eda
##cb
raas
##ayegi
##ought
mohar
Mean
kregi
karwane
aarti
khtam
Asia
justify
Mes
Ps
glo
radd
##All
##harmi
bawa
prr
matt
imdaad
yaaro
scenes
aasan
rakhein
Shehnaazians
THIS
involved
Qab
sna
med
karliya
lear
joker
bartan
##miya
##aharashtra
sangat
deserves
Covid
athais
Virat
ronaq
Pir
Put
Saa
##vati
koch
##ikes
##odes
muskil
shok
hmy
shetan
upset
Hehe
makeup
arahi
##waqqa
Aza
Awaz
Bait
bdi
##KN
##bud
##SO
##Phone
bemaar
lagna
hongay
taaki
##antu
tasali
kanun
hojayega
chamak
##Winning
Final
Paida
ov
ren
karya
hea
##ahida
manana
basic
Kapoor
Nh
Nasir
nang
ska
wee
##shay
##mukh
##AE
##Song
hoto
tumlogo
mouth
Meko
truck
shukria
chahiya
tarek
promise
Aankhon
platform
Jawan
Qay
Som
khra
##hutto
betaye
interested
##oleena
happening
aankho
currency
Cam
pla
##atory
##eedi
haen
marenge
Amazing
dastak
##ureshi
cartoon
Ooo
bistar
edi
rid
##Karo
##uga
##sood
##SP
##wand
##zl
##VG
chall
user
itwaar
janch
admission
ajay
##feq
afr
jeevan
utne
jaib
mins
Afridi
silent
dhanda
kkkkkkkkk
PUR
phas
##rai
##agta
nahii
tek
forces
hyderabad
Medi
admit
wajib
bnany
ghlt
KIA
rhti
##Media
opening
Queen
Ghulam
Ashraf
Ruk
Set
Vin
fing
kou
##ouq
darna
samja
siwaye
jaanch
drug
COVID
##RashamiDesai
nati
##DAR
##enas
hack
##andh
retire
Shair
baarish
vedio
SSW
mansoor
lazim
miyaar
ArrestRhea
effect
Aane
Hari
KAL
##cche
##jas
kot
isnt
##ird
hehehe
along
suntay
huien
ladte
tambm
Ramzan
maqamat
Todays
mabni
##PrabowoSandi
hukmaran
ary
ina
ihti
##Nawaz
##AHA
lagwa
bany
jayege
bhtt
##nataka
Brother
janwaron
killing
Awa
Prop
Sor
##rer
##Mania
##pati
mub
heat
pechay
sarmaya
thook
utt
##ugu
nazron
shud
PH
wes
##uon
##xic
boliye
##mey
##vek
pehele
moder
##stad
shout
hmne
WeWant
expert
missile
mithai
wakeel
games
ShehnazGill
behaviour
##SingRajput
hijaab
Aank
Nami
Tah
cest
fad
gunj
##Waise
manna
laaye
bihari
##zaat
Kismat
BJPIndia
APNE
Hmari
##tivate
balochistan
jamea
wifaqi
tarde
##chuka
nek
nein
##away
franc
##ANT
term
##mark
Rohani
itsSSR
moral
kapil
jawano
frnds
Bhatti
Number
Jho
Pai
tya
##NAY
##zil
##gae
soya
Mohsin
ahora
##eeeeeeee
gehra
Phle
Iya
Multan
##nar
##ahib
##maam
maiz
Chahta
subhan
jaroorat
hathyaar
evening
Daily
Himmat
smiling
cada
mne
##oe
##arak
##aso
##mited
takat
taba
##ngy
bagair
RashmiDesai
auto
Lagi
SY
##ove
##Lion
##jya
##asya
##ulan
krk
##khwa
##liyan
##liyat
diary
##adaar
choda
malom
consider
Saif
Omg
iqtis
argument
apradhi
Gum
PTM
wash
##rh
##gard
##yai
##Pappu
##hetic
sirji
barbadi
loving
album
bimar
Nahe
jaiza
fatt
muashra
pessoas
Officeof
Phool
Owaisi
aji
vamos
tham
table
web
worth
rashid
dharna
bhadwe
sukhan
mooh
IQBAL
Steady
Dog
SHI
Yup
dali
khir
yara
##inst
kaari
##unk
diwali
banayi
rhaa
adak
sochti
Read
saktey
judai
JusticeForSushant
antes
bottle
aey
tdk
##mz
##late
##Gar
torr
huq
##haty
humaray
baaten
matters
verga
garv
adhikar
Aarti
Jharkhand
Lek
emb
##ses
karogi
dinner
kerty
bechne
Kutte
beizzati
karkardagi
Pag
PAI
Sister
Yess
hir
oil
tt
ukha
wise
zyaada
##aight
karaye
isla
demo
humlog
agai
##erial
ontem
##iyaz
kayak
Gaurav
Hmmm
Mou
Tiger
Waja
bera
lose
##kom
##pata
##arl
##abat
##irf
uno
sakhti
bars
##upt
stock
jija
##iyaan
inteha
##idencia
##crip
dareaye
KABHI
siempre
Aor
Diye
Dikh
Home
##IB
##GC
jaayenge
unity
union
sabha
##max
tarh
azab
feat
charh
boring
danger
End
cinema
tyar
##top
##word
##jin
##ribu
kahaan
NaHi
##pped
panj
Rehne
nishani
huroof
Khe
Over
jhar
##Atta
##Twitter
##jeel
##amad
##abns
##chors
inten
lele
##mant
tarm
mantay
##ciary
process
posting
##onton
tempo
Maharaj
bndy
Uttar
##henever
Dp
aos
bje
jheel
ler
lati
tofeq
##osha
jaaiz
##shAllah
naman
Bohut
samjhane
defence
bikhar
sexy
DishaAndSSRCaseLinked
BT
Gil
Rup
##osing
dilo
badly
azm
Hinduo
priyanka
##plz
north
dastyab
sanskar
Aksar
IMRAN
bloody
khususiyaat
Aug
Dha
Tery
vaj
##sud
##Fati
baca
##saat
threat
jalsa
Note
passport
Ajmal
karwao
Channel
Jas
##eena
##lari
sewa
##life
badar
manane
Board
##AKE
kutty
dekhieye
kheriyat
positivity
##srk
Musalmano
##HBDMaheshBabuSarkaruVaariPaata
village
Case
gnd
##atti
##mpin
Pareshan
bhed
khaufnaak
bachana
ghabra
mumbar
karao
Comment
Nothing
arsaal
CONG
Haryana
gre
tank
##Vent
##akash
##iron
unky
bhaijaan
bats
waalo
jayda
##ftari
##RESS
garibo
##ained
patient
behtreen
allowed
MUJHE
Dekhiye
laughing
analysis
cash
pp
##Met
##cist
huey
##udu
##hennai
hogae
WeSupport
khele
Aditya
natural
bhabi
package
lynching
Imp
SATH
kase
##fin
##fal
##faat
##WAR
ravish
saudi
##liat
dii
##htun
prta
sochen
reject
boor
likhy
manhoos
twenty
adha
##hadry
chandi
shiddat
peeta
writer
pedawar
Jinnah
paidal
##aqif
karkun
hukmran
avec
MN
ie
ola
##gwan
##apak
saan
##ulu
##lied
anjaam
andhi
hamlon
##iyati
choot
basa
drink
hatred
TOU
##likat
NDTV
mubtala
Fact
Gor
##If
##BL
##zation
hokr
##hanat
aaplog
kisam
gibi
satya
pahli
kasoor
importance
gehri
Jitne
pleas
Shariat
Down
Hot
Sweet
oho
##police
##umhara
##apar
unhen
fori
chohadry
zaraye
bnai
nataij
Atleast
tiger
drive
ghaib
##UC
##abha
howay
##adoo
deus
johar
##estine
angle
KP
categ
sasti
##pho
##kawe
soh
nijaat
bhais
sochnay
Rakha
waktu
ishkarnBHANDARI
Bb
BRE
Mot
Rabi
hl
khd
##diction
misal
bacchi
AsiManshi
central
successful
Politics
pashto
struggle
Baray
Buz
Jaga
Opp
bash
fantastic
jasa
parega
gaah
tijarat
Shahi
geo
aamir
personally
judges
##ITY
Noman
##lation
##tani
##wun
##God
##hada
nav
haqi
muze
badsha
Siddiqui
firse
Aajkal
ghut
HUA
screenshot
mouj
Achcha
lazmi
andhbhakt
tareekhi
ishehnaazgill
Saq
ost
##Cr
##hata
takhat
##roor
nika
faris
sharah
lado
bujh
piece
ghor
trip
Saturday
ladies
Ame
Town
jash
mri
##KW
##sal
chatu
##alaat
##roh
manaya
##ARMY
##ksks
##ngai
Dekhte
Likha
Pasht
Walo
jindgi
pn
##VA
Chak
urr
madina
Muskur
##kron
##ubarak
##strulymahesh
##Rahul
qeemti
Test
vha
##ND
##bang
##Tak
##ambo
##ilar
badiya
##hayak
minta
behter
schools
parivaar
children
bewakuf
vapas
families
Blo
tn
zouq
##aon
##BO
kend
kardah
jaal
##versi
manay
##halla
padosi
##modi
achche
##arshan
##charge
certo
muqabla
suggest
america
Card
aadi
kadi
##Ly
abs
##hayya
jinah
##ONIC
torta
kasmir
hakoom
mazaak
Followers
Ayesha
lifaf
Ase
Amaal
jgh
vyak
##pro
##Woh
##taur
##verage
rahoo
maslay
karoon
gimana
Jiska
fatwa
hahahahaha
Raksha
bhakton
powerful
boyfriend
jummay
Qareeb
Semoga
Mansoor
period
Jain
Lab
bers
##KJ
##Ny
##IO
##Fa
kel
##kiBaar
##angat
aslam
##iller
ajati
firqa
tough
##ankaj
sunao
##ocol
Pehlay
Kehte
##bandhan
Viewers
tarmeem
PP
dnt
pesha
##KT
##gent
##while
##VP
##lihat
darpok
nokri
##jaad
coisas
bethi
ghalati
fateh
Commission
##nnn
yuhin
Insaaf
Baji
Wishing
gran
qist
swal
##pra
limo
lagen
sabne
##udent
stars
temen
##ckdown
##utie
punish
jumlay
seenay
afsana
editing
##arantine
Lak
Rishta
mk
##RY
##CM
##ditions
lagati
gaan
##karan
badm
Saala
puchh
Thanku
Iqrar
shumal
emotion
district
practice
lashkar
Tariq
BAB
Hor
KER
aamaal
##jaa
muaw
##entar
##cek
sunni
taab
Anil
murd
falsaf
##Apne
risk
ghatya
nossa
artist
mehakma
katega
BIRTH
Meet
Tv
Zameen
besh
dand
yhan
##dosh
##GAR
ape
raji
organ
banayen
batayega
Kahe
##edar
Karty
vous
gujar
brothers
chhote
Again
zubaan
##Winner
ibrahim
mukhlis
Cc
lmao
msh
##dhan
##ided
anwar
khaane
jiya
shur
kalik
Amma
kattar
##Sheikh
rakhey
aarha
muzahira
rukhsat
Dou
NAY
Rom
##atre
##adum
kota
neutral
##leha
libaas
pechy
forgot
##INA
works
danish
mumlikat
trolling
##paksh
##CBIForSSR
muskurahat
Dukung
##Everywhere
Ive
Vai
tana
##BT
##Cor
haior
seva
##unately
##tera
barqarar
duaa
Beth
Usy
HOGA
ird
mojoodgi
jasy
##flix
sehraa
Bill
KHI
Makh
Ziy
##Amit
##Sub
haiJ
horr
##khta
##huda
agaye
chr
Apun
trade
kitno
mazdoor
buss
galati
latka
brave
Zal
nou
ruka
tee
##arr
kaheen
##irman
##ansh
##opal
waaqif
anymore
mehfil
etni
barey
faisle
Jinko
Rehta
Sanam
dikhega
##RealHeroArnab
Episode
Mod
Zo
either
nash
zey
##urd
##aber
lives
##kaari
moahida
bher
pakde
Samne
premi
Krta
##banon
##lessed
##ologize
berozgar
Fo
Sindhi
bali
blow
qaaf
##Kam
##pus
dias
badtam
hararat
masalah
museeb
dekhega
wakai
Poetry
khrb
mosam
##bably
khiladion
Ijazat
Qasim
Saw
nin
sila
##Hindu
hoor
##apni
chadar
sabh
##eshaan
hashar
charcha
singing
tajzia
tengo
relax
##dard
##Th
##HS
##atu
kohli
hien
lagatay
khawar
asani
Dekhi
adh
padhi
Ravi
bestie
Amitabh
seekho
sorvete
HimanshiKhur
Hawala
provide
Ignore
Kul
NZ
Tali
##usar
pem
prati
hype
amuman
ajar
shefali
Rec
desde
papers
Sunny
##oooooo
##ilities
Sanghi
##Muslim
ell
##LIM
##Zindagi
khty
ador
##fiha
drone
ISPR
ganga
bunyad
International
ICONIC
GAY
HD
Rani
WI
Yhi
Yang
Zim
aid
##iat
##Hy
##paa
dei
mahin
Behad
##nings
Hahahahah
2014
bowler
princi
journey
evidence
##igarette
Lye
PAN
##KIN
##you
##vv
##heli
rawana
##ication
Inhe
##ahad
masood
khoj
##imum
##ives
paling
Chuka
aaty
selfish
##cional
farokht
mutaliqa
50
IA
Las
SAD
##Eid
##Bir
##adium
denay
khudko
twt
keren
Albert
disgusting
ideology
taiyar
nirng
Katrina
baloch
millti
Entertainment
jamhooria
occ
##rk
##hist
ket
saba
darshan
Inna
Sel
coloc
hafte
football
anjam
##ername
jhanda
##Exposed
especially
JAY
Jaty
veri
##YI
kopi
istam
inquiry
pedi
shaheen
siya
nikali
gii
Anj
##eroz
tashweshnak
disturb
Dusro
##Tiwari
Jhut
Kol
SUR
cook
##chak
sakal
tia
##vies
lgte
BBC
insafi
budha
husool
##farid
naqvi
Jeena
##ACHI
dhoni
suggestion
Shir
Umer
asaan
bja
miz
zad
##Star
apan
devo
khte
parday
index
##seen
khayi
##roid
pahele
pocket
INSHA
aasmaa
samjhna
chhodo
ndtv
##AJAJAJAJ
Husband
gilaay
intelligent
Baa
Kri
Long
phil
##kna
##rangi
howi
Abba
Kiani
jite
##ULTAN
building
bkwas
BINOD
Ahsan
Kind
Pray
dera
fen
neet
##fay
##Deep
##bd
##wasi
##Que
kahiye
parwa
sache
gawahi
Ishaq
Italy
Biwi
##ictory
JaaN
mamooli
Care
Ron
##yoon
##istic
huwi
##humdul
third
andhere
kisine
gharri
likhti
qoul
caption
rishwat
joining
wabsta
Chut
jage
##Zinda
kiyun
prblm
Abhinandan
Sehat
chipk
RamMandir
##azians
falar
begun
highlight
jaraha
patients
qurban
##udhry
waisi
Zulm
citizenship
Attention
zat
##usta
bolny
##veen
##manay
##ending
minorities
Bolne
jamin
jamanat
kaunsa
commit
##IME
ParasChhabra
links
Ext
Naye
bull
fare
vese
##fooz
##Gu
##ining
##anaat
sampe
umr
gua
##engali
prachar
porn
HuM
mrzi
Mamta
sazish
KAAM
UT
phon
wastay
##erah
##heet
sell
##asth
recom
##maad
loh
##karo
laugh
sattar
menjadi
khayen
MaheshBabu
customer
discussion
Asa
CE
Doob
Kir
bam
##Dem
##bakht
##cido
##LAB
##xam
##pika
haiN
hijar
pran
Shaan
bastii
tmko
##Indian
maarna
##ENTS
Peace
Farma
Sakte
klas
meetha
##Khush
RAHO
##ManiaEverywhere
AQ
Amaar
Rag
fsd
##Best
##path
##Goswami
##apur
##ikal
##dies
baro
##HAM
##hammed
rohit
contr
WeAre
##ford
Doos
##aaaaaa
falando
beshtar
Safar
Chowkidar
cuz
##ghum
##bre
##wl
##alagi
##ogey
##htarma
soins
choty
awaj
tmhri
halki
intehai
aatankwadi
coincidencia
Christian
Yas
zid
##render
##iny
keluar
##chne
##tek
##kiya
muahi
##idevi
Hoi
##alls
bakhash
Alag
##asily
faith
intro
alehda
##titute
individ
mukhatib
delivery
brahman
bikau
##qilab
aqu
ene
feed
tussi
##Ty
##SJ
##nahi
chati
##lier
bekaar
tarfa
shopping
##EEM
##beer
replies
Jiski
singer
##LESS
Tanhai
concern
francesi
Josh
aabad
dish
io
ols
##nda
##BE
##Word
##aiya
##asing
muda
merit
walii
hamri
##ahaan
baher
ngga
priyank
Farakh
##IDBI
khalifa
tadween
##AAAAAAAA
destroy
Dor
Hadd
OL
Umm
Wk
dant
yoon
##dra
##CA
##qo
##abo
header
lagnay
##niya
bantay
##endar
mature
ento
rock
musi
Lete
##aheb
##fors
surprise
falan
bitanay
##WarriorsSSR
JH
cah
dent
dfa
##ip
##Rak
##Rain
##LP
##Bhi
##anan
rahat
humour
peer
pele
chon
marz
Paris
fault
mamle
chalees
##osite
Trans
street
pichh
omg
SHAH
beneran
Yani
sos
uta
##lor
##ayun
lover
tetap
Pakistanis
mazah
##INK
girlfriend
jehad
rozgaar
tbm
##ualquier
shameless
Haqeeqat
Ziada
##WinningHearts
Desi
Swamy
ez
mla
##uur
haiaap
mozu
##roon
enquiry
Khas
Madina
ajao
ansu
profit
sambhaal
scheme
Qasam
hP
ig
jharkhand
nhy
pdh
sane
##Eng
##Bday
##yet
##ajaja
unhy
chalate
fac
coat
blah
drame
munfarid
##ullu
aagah
katne
charha
Ghareeb
Shoiab
jaayegi
temple
##SushantSingRajput
##tumhara
maharashtra
Kaafi
##AsiManshi
BP
Jajaj
Poori
kuj
ric
sj
##Air
##OJ
##TP
toe
delic
##ooba
barson
kalma
laranja
##avy
Change
##mocrat
soldiers
BIRTHDAY
auth
bz
fd
vari
##uer
##unki
mahal
##AAT
hogy
##tico
pahar
uthao
sanjay
sensi
damad
safety
100
WOR
##aph
aapna
unme
##cting
exe
HAHAHAHAHA
faad
##ENE
khelta
anaa
Assam
captaincy
unemp
contestant
Fatima
qualquer
jhalak
Sl
##Kisi
##ghani
##DG
##YS
##alk
depan
raazi
intr
inayat
mucho
##safar
shoba
Nae
##daron
##amiz
bakra
Haath
##ujan
APP
strength
factory
instagram
chasham
Photo
Education
akailey
BREAK
istamal
Chil
siyah
disse
samjhti
Ravish
ghamand
born
CHI
Dir
RI
dk
nye
ore
sust
anpadh
##mantri
janata
cheer
talwe
crazy
btaye
Target
jaison
Kaira
##virus
SoinsDe
Lay
dise
ht
##Far
##jata
##ilan
bahas
thapar
dekhy
mail
Kher
sharab
khilafat
nange
speaking
qudrati
Rafale
beem
gk
##rise
aapni
hel
Khul
ternyata
guest
prob
peechy
mahireen
hospitals
failure
##fiqar
SoinsDeSupport
##cob
##inin
##uniya
krs
thali
gaaye
Aby
Kary
##ANNER
mys
ramzan
Takleef
dhamakay
jurrat
Waiting
Ghanta
Qoum
secretary
weeks
Zor
cum
nonsense
random
##dik
##mnt
##Mubarak
##Col
##jey
##aif
kaaro
sehri
race
parhy
chaht
##liy
##ardo
expected
jalte
abbasi
dheyaan
officers
ghotala
muahiday
DJ
NPR
lil
##follow
##Save
##wing
haiab
##asad
hiz
mawa
forma
jantay
Dete
launch
##cious
farogh
ghula
##InSSRCase
cheeze
yahudi
dushmanon
congrats
influ
Hasan
tazkara
GAYE
PAP
ghu
##beeh
##Gr
separ
aplog
dew
until
hamy
##chaan
amigo
rehnay
Protest
jahannum
cares
gandgi
irada
United
Hukam
muqadma
BU
Kum
Lots
Nag
Qabil
bny
dhara
ghee
##SL
##iting
absolutely
six
quar
ladko
##wanay
desse
Congres
banegi
mansikta
naqsh
bachanay
istilaah
Kerala
Kutta
Winning
muqaddar
conversation
Nan
Sami
tch
##zadi
##GH
ining
liey
##ataa
hamko
Apa
atanki
taraqi
Alm
coco
mutab
hazam
##ENA
dhokha
##firullah
needed
confuse
naqsha
GOD
cou
vy
##feeq
##Tab
##akot
saahil
##hatar
alle
jisy
sundar
Anna
ManOf
nawaza
AGAR
dastakhat
Emo
JUST
Kch
Med
Patel
rude
##Jaan
##ined
##tagh
##oler
tumhi
##deo
##opter
lav
Anurag
aadam
Mano
uthate
Rajya
straight
changed
kardey
including
documents
rashtra
Technical
Aese
IAS
Kalam
Mic
MUL
Nee
coo
dot
fli
hty
##WAL
##isti
##hats
##vedan
goal
##jeer
HAL
Report
patra
outro
eles
gradu
Banta
falta
##bahut
sansad
jeso
Behtar
NitishKumar
Teacher
##Attack
mozuaat
Lene
hp
rank
##seel
##Aj
##Uni
##pira
nape
##ikum
agency
loe
bhashan
Met
atas
adalah
taluq
##sanjay
Bilal
##dhav
JazakAllah
BAS
Gam
GHAR
Kesi
aziz
##gend
##tai
##MKB
##humar
among
PakistanZindabad
Siddhart
quase
bnde
namo
##weets
leny
##lution
##ples
Akhilesh
##porters
jamaaton
buzdil
tashreeh
appeal
Vik
Yaz
fate
oun
rashami
sint
##lti
##wor
nepotism
jaari
baatain
kamjor
Absolutely
WeStand
larky
Rajdeep
Thappar
maqasid
Tax
Agree
farmae
mansoob
lawyer
Jamia
rizwan
dhakka
puede
##Screams
Cop
Shai
easily
fashion
jak
rather
##rz
##tur
##SR
##zami
ghumte
##manent
nobody
khandaan
Butter
achchi
##ystem
KARACHI
finan
rupees
Kehna
abdal
Zainab
protocol
DUN
Mc
SAT
aada
jami
taza
##OT
mute
muja
unhain
pehna
urooj
shift
ayee
##HIYE
dalna
adaad
jeetna
calm
tbh
chahate
##emic
##rithik
difaa
hypocrisy
dhandha
Kesy
Pun
Suf
Vento
##Mall
##vPAK
##Good
sawar
bety
##HAB
janu
siap
website
##ineer
##AAL
Gov
jamal
Story
direction
Interactive
medicine
garden
##kashyap
##Matters
Hid
rut
rent
vit
##gussa
##aday
##aders
##azan
anchors
pasnd
nikly
##ffuz
Barometer
prefer
critici
bhejna
langsung
CHU
Muntaqil
pyaari
ghadar
jahilo
Ala
Bhen
History
Old
Rhe
Thu
diri
##dn
##AFSOS
##ZI
##ismo
parho
teko
bhalu
pasa
voy
sbhi
smjhe
AsimKeAsliFans
rich
doosron
##hriRam
Rehma
aatay
Talaq
RealHeroArnab
Blood
Carry
Zamana
Qismat
Gye
Pen
RS
fuzool
lkin
##lk
##MB
##Office
##Ge
##aion
ing
anmol
diesel
darm
sakhta
management
daughter
bakhair
bachaye
zamray
SSE
Problem
niklny
Rubika
IStandBy
disappointed
romantic
museebat
Buk
Nus
nasi
##bhakti
##JD
##Please
toa
logu
kisay
##ubs
asay
matan
muslam
##shn
patri
sanat
cebong
Shia
lathi
Walon
##RepublicForSushant
Desai
sport
##JO
karzzzz
above
sota
assi
marti
bhali
bhalai
dae
concept
tweeting
lgaya
##veni
jarjya
miqdaar
classes
khilari
dhamaka
sagheer
daawa
##gressive
illegal
hakoomati
Cy
Gill
Pizza
kati
lada
pus
##bjp
hok
raway
sabak
Sidhearts
subject
brilliant
Anwar
Sarfaraz
charon
KARE
##UThackeray
Doston
Conf
Superb
Give
khujli
Gang
Pati
beet
mati
naqa
prab
refer
dilane
kalank
##mohan
carne
ABP
admion
##Life
madarsa
Khamosh
chashma
OfficeofUT
##ScreamsCBISSR
NIK
RR
Soo
UR
aet
wesa
##May
##WE
nafiz
##hang
sawan
maali
location
sung
umda
##hahahah
##charya
Konsa
haramkhor
taawun
Vijay
junoob
Bajwa
interesting
Lucknow
DIK
yum
##sWith
##kas
##unu
##aps
bhage
entr
tran
Jodi
##ERE
filmi
Samjha
Bijli
zehar
kinara
junoo
##Bachchan
Blessed
Dey
Sona
haij
islie
boa
takkar
voters
tabad
kharabi
Mae
Roti
INDI
##board
juta
Dekhna
Choro
coverage
Benazir
Biryani
rajput
emergency
Etna
Va
aaqa
zo
haipar
baen
inhon
##khna
shaakh
barkat
dilwa
jankari
Parli
wajo
numbers
identi
roznama
luta
happens
pakistanio
rujoo
CB
hya
jen
kse
pdega
squad
##sil
##Sena
##olls
##tement
hub
dij
soal
thii
sunday
tablee
Chori
Tabd
godse
Ghatiya
regard
poder
##MahaGovt
nagrik
strategy
FA
Fit
Rasta
Vic
Veer
bots
ile
smo
tight
##numa
##dagi
##FA
##aster
sector
##ises
humble
tua
samgha
mohta
khany
thous
hassi
quite
crow
besar
Mazak
##Paras
Dusre
vikash
##ChoiceAsim
amigos
BAND
Ca
Line
SULTAN
aqa
gz
iPhone
noshi
rply
wjh
##oda
##bn
##Chor
##atab
##chta
##ikir
##ogambo
anna
##htr
sidna
Train
dushmano
rating
gardish
##ability
dhona
ajayeen
##realasim
samarthan
EL
Pop
Tapi
dhab
vnd
haiI
inqilab
krwaya
jaadoo
antar
rahee
round
trs
guil
##alein
dyn
##AIL
estoy
kasar
howy
##olling
BiggB
British
failane
dormir
rokne
##WordSid
Bukan
hase
##uit
##pin
##esta
ashaat
batay
applic
##ORT
Viento
bhabhee
waalon
sekali
##bedkar
PAD
Railway
bni
jiyo
kana
##tified
khta
##daaz
##aston
acor
##oting
tao
maseeh
Sirji
shia
Prabhu
Stand
within
BAAP
bhosdike
##oldAwards
kagaj
mqm
##AANRC
services
ViewersChoiceAsim
Bey
CD
Sto
daha
wis
##yog
##aii
##akha
##harchod
humor
sok
##witch
stress
baadal
##tarah
##respect
cheezo
garm
teeno
kkkkkk
Faisla
phoolon
Palestine
laptop
Europi
aunti
category
PC
fala
slog
##Spe
##GP
##Ver
sett
##oser
saazi
dekhkr
manu
##eku
##vaad
aagy
khola
winning
##eeshat
valid
Naraz
kripya
arnabofficial
darwazay
ManOfWordSid
Lund
aaka
jid
rotay
##rg
##pct
lev
trump
adakar
mulher
ghas
mamnon
daikhon
aagay
bethay
puta
kapoor
episodes
gusa
Zaroor
muyassar
farigh
Operation
Much
dese
guss
jameen
papp
rn
zahe
##gt
##Ban
##world
kahy
##dible
muhayya
martay
nikam
##AAA
khushiya
muns
murti
yrkkh
shamoliat
##AbkiBaar
gumaan
Deepak
popularity
khazana
Sabiqa
AIM
FAT
Rape
auqat
dhal
fame
##rain
##tes
##Swara
##Power
ken
##agya
height
Mukh
samaji
Andaz
guzarta
##cchai
Gulshan
dogla
memang
##Party
early
Safe
BOHAT
festival
completely
##munity
##ghest
Bani
Kot
Kbi
Pos
SAHI
Tang
VI
cuk
daq
wtf
##sun
##agandhi
##ogay
yaan
mainy
##ongue
matam
Democracy
esque
imandari
Socho
filhal
sonu
iamsrk
##sGoldAwards
Ati
Cant
Jes
Mood
Utha
auk
tawan
wht
##ench
##tawa
baath
assh
atma
Sidhart
Ambani
##EEEE
Maula
Manu
whom
##heem
maravil
shandar
##astel
Thori
nicha
Watan
Khalid
nuskha
Rizvi
recheio
cort
dye
lm
ters
##uo
##rn
##DU
##IYA
##erve
tosee
##usnya
seta
##agai
aapa
##aquat
milho
tohfa
sunaya
masala
##waray
misbet
jameel
Bano
Liber
romance
Dire
ijaad
ukh
##Amaal
##Made
##bandi
##Sur
##qad
##umra
##ases
##chna
yaani
##cience
zarori
bheje
Assembly
Ann
opportun
interaction
pork
filmon
Madar
wajohaat
Kore
Khil
Light
Lalu
Yha
riloy
##uals
##vaan
##hame
##sei
unpe
nie
kabul
supp
anger
Gaali
##itswaraj
MahiraSharma
Sahb
dapat
BAHUT
sebelum
##install
riloyz
IPS
Jang
Shy
hut
##eli
##faa
##eema
##kiye
kamar
padne
ayse
Pradhan
chahey
##ITH
neelam
GHuM
Suraj
fallak
equal
JAL
RG
Roshan
nil
##cus
##vj
raz
chahoon
bear
pemb
asate
daala
mushtar
pahly
KHUD
##timate
Chanda
niklega
Acting
khabrain
Happiest
wusool
Aesa
Fuck
Guruji
Tad
guruji
mza
nk
pde
waisy
##toon
##bk
##Bus
##Wind
##ZE
##QT
hem
##aqqaf
amount
Sabki
dalne
Adv
shru
##SeTeri
zayda
rumah
##ladeshi
intizamia
##Squad
##aiy
##amosh
##hanks
maeeshat
shaq
tub
##chap
##karon
##eto
hmko
kharay
rozay
Master
mashwara
WOH
eidi
spoil
COR
Dara
Fai
Qanoon
clo
cari
skin
ward
wesay
##rist
##NB
##jer
saeed
ladkiyan
##ccine
patience
junior
##DilBechara
Shanti
lughat
CA
Wak
gender
laq
phad
penting
rait
zillat
##Kyu
##Log
##nagar
##oofi
kamu
nokari
thoray
##akhm
uttar
namanya
Boys
daira
establishment
initi
babri
sherni
horhi
observ
pensando
provoke
Dhyan
fehm
heh
rot
##cn
##onya
humen
rem
daramay
Tumhen
Inti
##ayiq
pasandi
thor
khowab
exten
pehley
##Inte
daikha
tahaffuz
presiden
shumari
fico
VoteFor
divide
LOGO
subscribe
##Protests
##CheAbkiBaar
Help
modern
mahino
BREAKING
Audi
Wahe
mone
uch
##KHA
##loo
##Sharif
##uns
##waat
wall
dope
##hirwad
baht
Muhabat
advert
faal
Prog
samajhta
meio
kaira
tanya
moments
##point
chahiay
opposite
##BhaiCheAbkiBaar
Younis
Special
bewkoof
Awaam
Lang
Laal
Thay
bm
dice
##mere
##bro
##CHI
##ajak
abr
sabores
Aba
##mpo
sheikh
##agem
ayub
doshi
haqayiq
Bole
dalla
##enger
Rahay
prepar
Como
NAW
latest
throw
summa
MPA
POK
falling
GOOD
PAT
Paid
dna
##puri
##jn
##haye
##laas
##llll
jita
waqia
choup
frk
basis
khani
Darshan
Aslam
salamti
riway
virgin
jahaan
bolegi
oleh
Azmat
Tiwari
sikhata
blessings
sadiiyon
idiots
Ghad
Sed
UL
fill
##lh
##pass
naaa
kemb
##kaa
##ubah
ApNa
kaamil
Shaukat
timeline
useless
smaj
shivsena
jammu
zamanat
mushkilaat
##Challenge
khtama
regret
Shukria
andhera
Aankh
ruswa
Aar
Mje
Nig
dudh
ita
ranj
srif
##More
##JE
kau
##ahy
##osit
##sif
pemanay
shaad
cher
##ARD
madah
##yoti
kheli
spin
Pakhtun
Salah
CHAL
Tanasub
Start
Ulta
kaarobar
ari
ninho
##KL
##dai
##vadi
##oood
##khy
military
barra
rhain
butt
frma
##biat
ladna
hindutva
themselves
irm
manao
speci
ARMY
recei
WeekendKa
Muskura
##Demand
Aesi
Bit
Kom
Nu
jute
##HN
##Home
##Gupta
##uture
soor
asso
##ukidar
##duct
aadha
katil
rajasthan
shaksi
indiana
pohanchi
buraiee
Whatsapp
Ziyada
##SeTeriFati
Gw
Rafa
Udah
aek
lunch
zati
##OB
##eeeee
krunga
##ingo
lift
bevk
ush
doz
##habi
##HAH
atya
nasiyaat
idk
becharay
Waqar
flirt
anjuman
penguin
machhli
civili
Celeb
vndoz
Akal
Daf
RES
Saaf
Zahir
bum
hadi
kath
wase
##sas
##shu
##oC
##wag
##jos
##VT
sep
hudood
logg
orr
bantu
##deli
harr
noite
pachaas
khota
proved
dikhaane
sadko
ghn
idher
Mark
##mbol
safal
##ADESHI
bhagwa
udasi
pret
##OOT
kahein
##UBAR
munaqq
extreme
pahucha
Fair
Mish
RAB
Tala
akk
bhy
ical
##Sm
##Bah
keval
##aged
deer
ashi
taur
##imo
##amiin
##shame
Hypoc
pichwade
oldu
puncture
samjhaya
maghfirat
Dhoka
##Ministry
##Thoughts
LaGTa
ISupportAsim
munaqqid
AI
Ghu
Loot
Vad
Zaman
##Kha
##Vaar
haihum
##adna
shall
shama
##tionary
tarakki
roya
logoun
Hoje
siddharth
jayaz
feal
wahn
Krte
courage
sudhr
guzr
Bangla
Jammu
indirect
Pooja
Poora
Golden
swear
Ide
Klo
KKKKK
Khayal
jungi
kasa
mazaar
wast
##uar
##ule
##Son
karoo
bhij
jauh
##lao
khasa
##habar
stadium
noi
##STOP
aamdani
Dimaag
sensible
Deepika
MUSLIM
shooting
muzammat
cousin
Qualquer
gunjaish
Clear
Gandi
MAL
Pazeer
ite
oq
wing
##fia
##block
haiii
baani
parhe
##kel
maani
mauj
##owaisi
lov
perlu
enjo
masum
wajood
jaanti
tmne
mujse
rasa
Rajat
papad
kahun
narr
breaking
Satya
converted
kemaren
Economy
ronaqe
Math
Waisay
cn
distan
fre
owaisi
td
##wash
saahib
died
##vet
peche
chhi
amg
material
kiyaa
##iyah
sarfeen
Saam
begitu
loser
depressed
Those
Actor
Ghr
Gharib
Sis
Sameer
Tour
panay
rhenge
##mr
##taari
##andal
shauk
##eshwar
Abay
paat
manus
biasa
sarm
fellow
exposed
##adyani
shakl
##WithAsim
chinese
bazm
register
Mujhko
division
Garib
parcham
invite
Hara
Suma
aaf
##jhi
meer
##apat
highest
inna
Humain
encom
Deti
atal
sbka
mulaqat
bharay
blagr
wardi
muslimo
berarti
pichy
besharm
Murad
tasawuf
Ufff
SIRF
Breaking
Constitution
rautsanjay
Bewafa
##ZindaHai
40
Kang
Know
Need
Pita
Zaid
dust
jayi
ros
tro
tabi
##JJ
##jon
theak
##daam
soi
sochiye
gao
chk
rakhty
marke
##zzle
mutala
survi
priority
lamhay
caller
yadgar
Rehna
##tizens
balouch
aashna
Bechare
Mishra
aul
aany
bale
och
##mur
##leel
##RT
##Was
##Ve
seerat
##ahum
##navi
##union
chae
jaani
jaogi
souch
##karann
Mem
bila
spir
Stat
Firing
Surbhi
kharaab
guts
MATLAB
professional
intellectual
angraiz
haqiqat
olsun
Ale
Chee
Kre
TB
fis
fard
shin
wla
##ired
lewat
heavy
jou
pearl
barhti
##ukung
daam
Karnataka
shock
ther
surname
rahyn
puchne
UrduPoetry
organi
blocked
Mufti
Ger
Ghal
Kaya
dasht
equi
##ster
##nain
##dus
##lers
neigh
accep
battery
manne
syasat
probably
DilKoKaraarAaya
Hamen
ayodhya
comple
Ansar
prep
##ShehnaazGill
Sadak
ruim
zimmedari
running
##DilKoKaraarAaya
zayad
SWADESHI
tentang
Qaum
Judge
khoobi
GST
Mall
aand
ep
fla
yy
##buk
##Jam
##hatta
relie
loon
basi
samajte
##ankan
Gobar
dhul
KARNE
chahata
Hahahahahaha
ideal
BEST
dulhan
intizami
benar
hifz
##abei
klov
remove
ghalatiyan
Bagh
EID
Edit
Nhe
SHE
gall
oy
##kure
kie
##usko
##eeza
saas
theka
lagake
##arian
##ourse
lae
padhna
gym
behri
Musafir
bachho
dubai
Surgical
involve
##YourS
avoid
SiddhartShukla
GB
Haji
Kes
PY
Sapna
ghay
haji
naseer
valu
##lapan
##DM
##Peng
##Poli
##taj
##ulvi
peg
likin
Chairman
oncol
tawaqqa
##vious
Hamain
##herat
sadd
jamhoori
Gautam
ghusse
daku
fermaye
##ussia
Zulfiqar
##rentice
sarcasm
Aashi
MIN
nid
ring
##kol
##au
##cm
##Per
##Postpone
##askar
##andle
bolunga
shaoor
moi
takes
manate
##fff
bharta
superstar
Sohail
Jisy
##pton
Gau
chandni
tonight
Mukesh
holiday
HAZRAT
Dry
cream
epi
jabardasti
qut
##kad
##khay
##pakistan
##wd
##airat
##akshan
karbal
##irbhar
##istani
bhati
Arjun
Hamary
compartment
aqeedah
jeetnay
Sarfraz
##yie
sometimes
##bhav
Dekhny
garibi
dastoor
sisters
editor
spreading
Tension
buzurgon
Arijit
Age
Nim
TAB
##Ras
##xas
##Chan
##oran
##baca
feham
pahchan
##shipDay
difficult
Shandaar
speaker
pouche
ugly
iqtisadi
Saqafat
munsalik
CP
XD
##nabi
##rin
##esp
##irat
##lian
maula
sote
hamid
tet
marji
trus
craze
tmhary
Haroon
Rajiv
Sahil
contro
shanakht
salaam
cupp
divor
aankhe
##baaaz
figure
parwarish
Jor
JEE
lul
qaf
roll
##lol
##Men
##care
##wu
##wet
##wait
##Zardari
##haya
yaaar
peene
darwa
assaar
##mimpin
Mustafa
Market
Hinduism
fiquei
Tau
confusion
dhek
records
Shukr
phatti
aazadi
maharaj
Mangtay
nazriaat
tandr
faqeer
jazbati
WeekendKaVaar
DH
Gaz
Wit
august
dro
##fz
##hics
##oles
##aries
nivedan
Abir
Abhis
Mughal
logoon
KIT
teams
hojana
mubarik
ooper
primeiro
chamchagiri
naazuk
shubhkam
caneca
Cali
Coz
Hur
ZINDA
bch
habib
jap
taim
##JEE
##cat
dois
asl
marty
Khwab
Join
goi
quarantine
Tele
imte
Bachi
Bhagwaan
scienci
teesray
akshaykumar
##Shinde
musibat
Aaz
AUThackeray
Dance
bengal
gina
yer
yam
##youn
##Congress
hochuka
kaand
helic
lagayen
khabi
agu
##standing
quali
zarf
Head
virat
##Paas
##pite
bhadka
vcs
patrak
parliment
Elaan
consegu
utthay
ML
Think
bhumi
eman
mort
kei
##kita
difer
##raaj
rea
Karam
supply
nikaltay
Alham
##bhaya
Online
ohda
Taloot
##chuki
aquele
Country
##Terror
zone
##dade
##rng
##Mon
##GM
tumhri
lips
##lod
ustad
darti
hamra
##chad
##few
jale
khare
Harami
Lok
dhoke
badalne
msla
Rahat
Chod
##tivation
unfort
YOUR
LIVE
tabadlah
Parliament
GF
Kb
Peng
Safi
gap
nz
poss
##TU
##vik
##jna
##aras
kem
##tiyo
##itation
##gawar
username
tex
bhadk
adam
Amin
hassan
##ppi
Mahan
udhaar
Milti
burger
aatanki
College
Smjh
churraya
MIRZA
asateza
Bane
Doll
VER
kph
riya
##shab
##gul
##fare
##pre
##vu
##osop
pradhan
chhy
adil
termin
gair
appo
bachaya
surpr
##alikum
##temu
KARTE
decir
##clear
momento
##hairat
##Sameet
Saint
Sayeda
Zameer
dhee
fida
ghe
mong
ulama
##Mir
##Hm
##adha
khuf
khyaal
##aziz
honga
##angnya
rehm
enko
cheating
bichar
shira
bhout
##CHO
capital
chuslet
marasla
mentally
shaksiaat
##YourSideSid
karbalaa
Zumra
dere
pgl
zee
##WAN
kaj
##thon
bhaad
Karni
##zarat
dikhayenge
DilKoMaineDiKasamTomorrow
Tell
patni
pregn
##plus
zawaal
gumra
ruke
khuleaam
Canada
Aisay
Arif
iin
##Kis
##kab
##rated
##NTA
##Bh
##assi
##taP
ded
##uber
Issi
##hayan
umomi
##mbr
sudden
spelling
zulum
tukre
junoon
counter
churail
Everything
Makers
Haters
muskurate
condemn
chemistry
ikht
jyaada
uc
wishing
##DMinistry
##cles
hom
kaz
##ahh
lokt
faraiz
Sacha
aysi
newze
menu
pasandeedgi
Jaisi
sudhir
kryn
tukda
##alogue
DC
Hme
RAJ
Won
rkhi
##fu
##yen
hide
ace
italy
asman
aajao
##rating
bashin
hmmm
wasti
chorna
##weather
aagey
padhta
##WithSameet
Honge
rafta
mutalba
Chara
SUP
qilah
ved
yadi
##lit
##psi
##pana
##vision
##ensive
dewan
parabns
sabzi
##ental
chly
algu
jivan
enak
taees
Devi
laane
rhein
padte
crores
berani
shakti
jarahay
ministers
wafat
regular
aarahi
communal
sulah
sathiyon
Aji
Aayega
II
PUBG
hap
jakr
okat
pid
##pd
##eeti
levar
lagty
ghumna
arrange
atom
Usay
katwa
Shiva
smjho
nisf
flood
Insaniyat
##IGHT
mukhtaar
rootti
marshal
wedding
cai
jine
nit
plot
zyad
##King
##NL
##Car
meant
##undar
##khya
##athore
coment
engr
taak
const
SidSeTeriFati
spons
Chl
Shiah
Hmare
HUSSA
KingAsim
FORE
Dukhi
ZeeNews
Esi
Km
Qadar
aain
qi
##Mi
##Tera
##anway
##ayda
##dei
gem
##assum
Neha
##AMA
Jany
baich
poocho
function
Shoaib
bachega
sulooq
Bakwas
Varna
Qadir
shiraakat
Aana
ES
nasib
puk
##nis
##ela
##FO
##Guru
kiyu
##hede
infe
##sem
prabhu
banakar
##angle
##chain
kehla
hasb
jaisey
mismo
phli
surrender
Trust
##abuwat
karaam
Aku
padhte
dhundh
faraq
istifa
Hamein
Thn
Women
fata
yas
##San
##Fire
haiAb
hailekin
karai
baahar
##ulha
huway
praise
##hampton
sbke
veg
badalta
ganja
bdl
narazgi
Feels
phenk
Times
##ShameOn
crack
darwaaza
NAS
Ung
dict
yuk
##tc
##cated
##Waq
kiran
##olution
khaak
##entine
alhamdulillah
manage
manager
siz
trait
queta
esliye
jinsi
League
menang
known
kuki
charah
##OSO
##ancel
Badshah
##OOM
ganti
kurang
constitu
##iiiiiiii
bichare
judgement
gosta
AlwaysBy
##Thakkar
JAYE
MUBAR
Raw
emaan
fc
gub
pow
qanon
##ring
##cot
##Sad
##vak
##uske
abtak
##rie
amarat
##odha
Dekhe
timing
##halle
Release
Another
balik
achchha
##force
##hista
hojate
puchte
gaddari
galian
aaiye
tempor
quiero
Munir
majbur
anjana
##kriti
Wapis
declare
Bis
KASH
NNE
Rest
fud
##cz
##EB
##pun
##wee
khaaliq
##anif
##chaar
aaap
truly
Shahr
bhon
Arhaan
drd
dalain
mangna
trends
Paani
sooch
AKE
Qatil
sambhalo
Tasadum
muslmano
tarkeeb
VOTE
RaeesBhaiCheAbkiBaar
fasaad
PU
ahi
oor
##Kab
##nad
##ben
##bia
##Rul
##wz
nax
kaaba
semi
islaah
##ajat
haamil
abey
##gaa
##rible
##rities
##memes
banany
sunti
proble
chorr
namoon
##fornia
kuta
Matlb
tauheen
Rasheed
dollars
ReallySwara
Faltu
BLESS
Dob
Nab
POR
TIME
eres
##lz
##Dost
##base
##Bin
defe
baet
jaali
huna
darjay
dekhny
arhay
kalah
##uruh
##SSE
colony
puray
Chitral
kunal
pyaas
bhang
Political
Lyrics
##Sirf
obviously
jnu
noo
ugal
vil
##ied
hooo
kej
##chr
##olence
debat
dekhle
forno
weight
dayen
kons
utr
wajh
##vaaj
Usme
elaj
qabail
bhago
Truth
samaaj
seedhi
mentioned
dialogues
Hardik
rawayya
Wajah
blam
zeen
##mend
##chenge
parchi
infr
##lima
acade
khala
agha
tears
naii
taan
waqi
sheher
nasr
suraj
dyie
dhong
yahn
laina
ending
agey
##Teaser
masruf
SAWW
Feeling
achieve
batsman
mia
sort
visi
##OON
##uram
kep
aggressive
Humpct
sunny
conte
chalanay
adliya
hmesa
upon
makhi
##Force
Add
salamt
Krne
Lif
##Apni
##they
##yorum
##Karna
Laikin
Khamoshi
growth
berojgari
Hasi
KAI
Padh
PHIR
Tare
faiz
nare
##pali
##wt
mea
##omong
tumhre
javed
##rect
##ubg
kamina
##comes
##erem
Apno
##mento
adhuri
suc
Mau
krege
BoloGuruji
Rakyat
SidNaazForever
gaaliya
ABHI
kangana
kashif
observatory
AlwaysByYourSideSid
Aate
Bary
Fer
Mare
Rone
pda
sind
##vai
##atum
naare
toxic
anjaan
unit
combin
daalo
##AAS
Baal
nashist
##logon
udhr
email
Wahh
false
attach
Allama
Queria
openly
##Kholo
kaghaz
##PaasTumHo
HUSSAIN
Atif
Fikar
Gut
Gusse
Yakeen
ZIND
sooo
##Kay
##sg
##singh
##gehlot
##LD
##Cup
##jati
##eelaat
pard
pareshaan
saali
##aniya
nig
InshAllah
guard
gyaa
ministry
Naina
asif
Halak
sambitswaraj
millions
##DishaAndSSRCaseLinked
Kamaal
MOR
Zeh
average
lanti
nase
##ujhe
##One
##vor
##aysia
##alla
tota
##eev
paati
##pedia
saram
admir
hmain
##aanay
Alfaz
##ATAN
grup
##azifa
santa
gandh
fattu
tareeka
mola
dasta
pandemic
mirror
REH
Satta
tickets
shikwah
sacrif
layein
dooba
Qadam
vapis
##Mallik
dopehar
KN
oon
##yers
##atch
##uras
##hod
##lean
bolein
##iyun
gaay
choos
Naak
paka
chorra
muratab
torture
broken
Godse
facebook
Nikle
##ughz
Canadian
##Laugh
Nalla
psycho
errado
insecure
WinningSid
BiggBos
Pakhtunkhwa
Link
jta
teek
##mate
##bos
##REE
##Bab
##Fi
##Follow
##Hits
##vered
inlogo
##udes
batatay
Abbe
sita
Parents
chid
shayri
ITNA
Month
##incess
tafseelaat
hukmra
Pinto
AIK
Peer
Prem
Trophy
##tor
##Rav
##vic
##ark
##iser
karin
##dians
reci
kisano
Humse
taasub
imandar
Maro
bairooni
maarny
Race
Farhan
khulla
budhi
defame
##AGE
DaR
uthta
congres
rising
Respected
pounchanay
Bhakto
pouchye
khatarnak
khoofzada
electricity
vyakti
HimanshiKhurana
32
Aqal
MAY
Naseer
Sadar
Toot
Two
btay
deedar
pc
##Masti
##Chand
##What
##hena
hole
##enen
seena
##uno
isn
##khla
huma
##mei
sabkuch
maintain
permanent
##amaad
Itny
##INC
skills
dairay
grande
wahh
Sarkaar
udh
##vocate
##ddy
Comedy
buddy
mindset
thakur
build
tinggal
nominate
CAN
Pada
Pict
RAS
##Mor
##Hussain
haiHum
nad
##azo
##atif
koii
chlega
farmaan
ikutan
##kten
fiq
Maybe
guzarnay
ehsaan
shram
tujhko
punch
enjoying
jealousy
fixed
hamaare
Corruption
Kindly
spirit
Pesh
##Magar
##Zul
##Zabardast
##tip
kron
##mez
khak
samasya
##gio
siva
aray
Italian
DilKoMaineDiKasam
##AAZ
Unse
balky
hosakta
katanya
jarr
##ESE
strict
rivaaj
Farz
##jarti
janey
##They
hojae
seekhna
Rabb
emplo
funding
dhrm
##StopTargeting
tasalii
identity
Len
geni
hashmi
otaar
##Ru
##Why
##alt
##alli
apalagi
##omise
chaa
jaoo
sabz
milk
manda
deshbhakt
firing
banaa
imrealasim
majmaa
password
##forms
Roar
Rahman
serf
bajwa
Biggboss
Khushiyan
##porter
Chota
vacan
##YouAsim
Kurkure
document
##mocratic
aetmaad
##Intezaar
Rafael
Det
Jadi
JIT
KAH
Tamil
WITH
aii
mst
pudi
##Pic
##hall
kafan
kamane
Means
tree
dikhi
cris
ayat
jeeney
replace
Shit
KHUS
aakr
phati
Bangal
alive
relatives
BOLWala
Jald
Major
gurbat
economic
bhenchod
##hhhhhh
AfsOs
##cessary
Dikhao
harkatein
poucheen
jhon
##vh
karre
##apun
tumhra
mahesh
##kaal
sabir
gaar
dekhu
haryana
Adil
Pehla
KEH
progress
dakhal
BAAD
##pasand
zanjeer
behavior
Petrol
harkate
khirki
zeyada
California
##WithSameetThakkar
BAK
Kali
gilah
gupta
piyo
##kut
kaahe
mukt
diam
##raft
soz
banayenge
##udos
baty
##upam
Kavi
choud
terha
plant
##zzam
apprentice
Maam
Lockdown
ngopi
mashwaray
##ISPR
payegi
yrrr
hainap
ACH
Seni
UAE
sank
snap
yasir
##gress
##vd
naki
hobe
hian
theatre
##riyat
##ishte
Deus
chotay
farishta
sochty
guarant
quom
##AAP
##ppers
gaib
followed
anyway
hamarey
Does
khuwab
##TED
Jinke
Esse
Question
lakhon
dastan
Qadri
itihaas
deliver
INSAN
GE
Ken
Naw
cek
iphone
jika
moto
zil
##gee
##Sna
mega
isey
sachay
lies
haw
anurag
maino
Chahte
novo
paaji
gharon
sided
##quest
Nemat
desper
tanpa
waps
##krab
American
qaazi
mobil
##nnnn
Cancer
LEKIN
##SoS
##Results
efforts
Chuslet
##ribution
FOREVER
Dah
mny
##nami
##UJ
##Jin
##FB
kidding
stan
aaoge
Yea
Aapse
thhe
mehs
Begum
Dipika
tehqi
bajai
glad
evm
cmnt
gareebo
JAAN
Youre
sobon
mustafa
Jumma
SARKAR
qismati
SAN
aari
lkh
rand
##ross
##tle
##DZ
##Oh
baas
##lec
##ushka
below
Karenge
donde
cheg
khandani
Reality
brow
Haaye
##KKK
bulaa
berat
kahega
Active
##hoomi
evil
ghareebon
Aukat
Hrithik
mng
ner
neez
zali
##cular
##xico
##qai
segun
inh
chama
theory
logical
##hto
kism
Tumhein
tarik
aajate
rozi
Self
esko
awards
Bharosa
posso
aitraaf
Nataij
Which
ghotale
bundon
##ResignOr
NAHIN
ihtimaam
criticize
tawanai
hukmraanon
Raz
UD
deed
feder
gent
##Kur
##nye
##bish
##Bs
##pm
##jood
##inet
kaudi
##apas
raasta
##lafat
dipl
Apologize
pyr
viu
qabr
##ORA
khuloos
todas
farmaaish
##crimin
unique
##hmd
projects
chudail
jhagra
khatima
engineering
perfeito
Under
Bow
Ranj
Zia
gath
mina
##dhu
kejri
krey
haami
yehe
joy
usah
doc
boi
chalaye
TuM
Lebanon
kutti
Thackeray
guzari
munafqat
inshaAllah
Kaisi
marketing
production
Kyonki
judiciary
Mantri
nrc
participate
CONGRESS
Got
Open
gere
jse
##LG
##pah
##zah
##anta
##urg
khoshi
##sib
androoni
tuo
paan
tijarti
gover
poco
bachha
malala
namona
Newbie
Islami
naraj
##eniwal
creo
Plan
CHAHIYE
distance
AKSHAYs
joota
karsaktha
najayaz
Nadeem
fsdf
helicopter
ESE
Wh
core
##kisi
##TC
muu
leken
##raam
##riaz
##ashti
Bhaijaan
Sau
Religi
Bichar
sunaein
begair
Nawazish
##varkar
inshaallah
kardete
aazad
kharidne
##guei
dramay
Waziristan
Ghalat
TI
gehr
slam
##Says
##Baki
##QU
##anth
##erai
kawish
chachi
ord
niya
likn
bhaee
awar
kerny
Art
shiksha
TheR
sprim
daalnay
shahbaz
wafadar
Shayari
jrur
##taPajama
SidSeTeriFatiKya
Bhan
Dri
RW
Rooh
WAR
icin
kone
##xp
##Bol
##Fl
##ayn
##ossible
muaqqaf
activ
darbaar
kalay
pakr
hmre
hayn
jago
misalein
patli
drag
daitay
rasai
pagla
Jihadi
everywhere
##heeda
Kitnay
senate
Rainin
mahina
Azeem
jadu
circle
Turkey
dangerous
Dehshat
Ent
Jali
ima
##xit
##HU
##abut
##unan
apane
apakah
yahee
shaa
##ubha
fort
##stop
Karma
pasar
hisse
replied
Goa
peecha
everyday
Excellent
Gaand
golden
fakenaaz
Money
daraaz
##Plz
kehlata
Copy
masrufiyat
##Snacks
BAL
MH
Qom
Roo
YR
Zah
bersama
dkha
fub
gill
##td
kick
kiyon
##naah
##koor
itta
tuf
tugger
takle
##HAY
rehy
arhi
ummed
hmen
Jaaye
Bolna
realidad
gadho
sarey
##lerin
vahan
##LEASE
krwao
Speed
audio
vezes
companies
setaaray
khowaboon
newzea
##IntezaarKarna
Aal
Bandi
CHE
Kanoon
Shor
THAT
cutie
linda
pine
tente
##EW
##ambar
##ored
##ologi
parvar
##lected
chaah
mukar
anc
beach
bewaj
##angkan
amlay
cheat
facil
Left
buut
Milta
jahaz
Simple
Rakhy
vaccine
recording
khalayi
transmission
tidur
IMF
saudia
Irfan
##Films
Kolkata
SidhartShukla
Huz
Sin
Ven
bayaan
cel
ich
wy
##UCK
haijo
##unuz
lagayi
ussay
kabool
manfi
kitchen
Kyaa
samajhna
bachcha
mutta
namor
LoG
galiyo
dikhne
HOON
##Death
##LACK
cima
bhakts
jeetega
hypocrite
asadowaisi
Corrupt
mulaika
kembali
Achy
Boo
Qaid
ahsas
dall
sahar
tus
##CR
##Pilih
##qm
##alar
kidr
kaala
##agan
##ides
raham
##erein
kerni
##honi
Marna
Rok
disrespect
badalny
ehkaam
lateefa
Kehta
Munna
dhongi
similar
Safdar
##Elections
ukhaad
KurkureSnacks
Gra
Nos
Own
PATA
##loob
##Sold
##wers
##eran
inme
inbox
sabut
barhay
janan
manind
pergun
attra
##warna
##LLI
##LLY
misra
##uju
spam
prim
Hansi
duba
gufa
Better
extrem
JaiShriRam
HIM
ONE
PB
nur
##kane
##NEET
##Fandom
##PA
haibut
##adores
##osse
##eede
huu
usman
milo
##giz
comida
taky
tabqa
Kisko
##uraan
##aidh
spok
##abadil
katal
##bhaq
insaaniyat
silence
rupee
fitnah
tootay
majboori
Indira
Lux
jhuka
Politici
TechnicalGuruji
Awal
wani
yhe
##file
##yabi
##paper
##aigi
kijye
gawa
batin
Api
jalne
##dous
tmhre
namumkin
##caxi
halakat
scr
cheezain
hater
Adnan
naram
triple
tahu
behnoon
famlia
##rites
Hahahha
lesson
technical
dabao
Aisy
afford
espero
##PUBGKholo
zaheen
NAWAZ
##kraborty
Noon
Pawar
Surat
Thr
Wtf
aus
bv
cz
jue
kinda
##kons
##yati
##bye
##TAY
##cp
##RAM
kecil
koye
##akya
##hom
diz
##gey
trhan
Shadeed
khatmay
bakhud
dhoon
Rahen
Akmal
swasth
bichara
chutya
refund
SWT
jajaja
Gold
Jesa
Kaf
Nani
Nagar
bub
gane
pahi
##nik
##Itna
##Aam
##hega
##asaan
hoyi
medal
##tize
shajar
hamse
sirplease
##hyat
bhaj
duur
weird
##aloch
mutabadil
##tron
daity
AfSoS
Student
SidNaazIs
Baton
amanat
ditta
frustrated
relief
Fore
MAH
Mother
dando
flying
jld
yii
##hol
##sen
##leb
wou
##hatma
acre
MuJ
##kkan
bando
Bechari
ghaas
##USHAN
angrez
qaail
sitting
delcia
Points
citizens
khalis
nikaalte
reasons
chhap
Afsar
StayStrongSidharth
##Twist
IStandByAsim
CBSE
crowd
##MadeUs
ApologizeTo
Laan
aesay
nga
none
pera
rhiye
sultan
tc
vdeo
##El
##BAR
##Fe
hochuki
kahty
thappar
angel
phirta
##ukla
ched
SidManiaEverywhere
ajkl
hmri
##alekin
ghata
Alhumdul
sktay
Imag
AsimSquad
Local
SanaMadeUs
paltu
KAHA
dhanya
##ANDO
jootay
achievement
isaai
begunah
##ngi
##MIR
##wed
##vg
##vp
haiH
##erto
##adin
infor
##istas
khaam
##udin
hamay
Abid
paane
sars
eska
kucch
akhtar
posted
##OME
yakki
Devoleena
Afsoos
Ghaznavi
hidup
Sama
Yasir
kong
mja
vada
whe
whenever
##madi
##Ss
##anah
hait
semp
neha
##ingat
anpad
bemar
##loon
usual
khaala
kamine
chhin
barqi
waadi
dikhati
mutra
samjhne
Hinduon
##urns
khulle
##Kaur
Naamkarann
ideas
understanding
dogs
##Exa
Funny
pighal
aadaab
Hate
Jhoo
Sake
bnay
oar
##justice
##anha
##utra
saving
haali
woi
across
banani
milny
##osto
##antar
adda
Parh
dikhawa
##orao
kuty
Station
dafan
##aimana
Siwa
smjhte
samjhao
##iterally
JAO
sebagai
tamaam
respond
saarhay
application
FM
Gak
Hee
Mey
Way
dolat
lara
ws
##meri
##MW
##Say
kisaan
indo
##idente
##live
doang
hotaa
chy
liken
donu
tabassum
kerja
mehman
Arshad
Stream
Comfortable
MAHA
Plzz
hearts
nalayak
##timai
cheej
bewkuf
Tabdeeli
Bard
KHAT
Pilot
RCB
ghant
lub
tick
vers
##jil
##aili
haiG
haiin
bau
##lein
champ
##uls
belon
sii
roy
choom
pie
bachcho
complex
Noah
Manzil
hostel
Sambhal
Rao
courts
jhoothe
khusihyan
mansab
sapno
##ratulation
Inspir
SHER
##vishya
ufff
TERE
Aditi
PKMKB
##Ayodhya
surakshit
LIKE
culprit
dentro
Book
Fas
Kush
Key
Mogambo
Rukh
Uday
Woo
iron
md
nm
hoten
##uso
##tiyon
innings
##media
pegar
print
diyaa
jabar
rahunga
##pective
Mohabat
jalva
jins
Ekdum
khich
##quanto
khet
Khatir
agreed
jaroori
bechary
Thapar
Raut
begairat
assist
recently
Walay
Private
chillate
piyari
##Next
Kanhaiya
SaveIDBI
ZaKi
tired
Judai
investment
Crimin
nenhum
CHAN
Fast
Juda
Lot
Pil
juz
juth
##fone
##Jb
##cchi
##Final
##wais
##Pass
##vasi
##hao
##erda
istarah
khwaab
loose
nobat
fauji
bnate
larkay
khushiyon
Syria
Sony
presente
doray
Feb
motivation
suraksha
ningum
GAND
PCB
Sk
Shin
Sapne
aham
kund
##fast
##flat
##Bang
##halay
partic
inkar
##rez
huve
humay
merko
##ouj
batati
Kiye
phirtay
##ukri
donate
##jivani
sargar
shocked
excellent
plastic
zarort
yaado
sadhu
tambin
samajhne
verdict
estn
finish
Shameless
Jahangir
waqeye
abacaxi
Mosoof
realize
tajarbaat
independent
qaafley
mystery
Wed
Yay
pindi
##lesh
##Du
##Jay
##Tv
##cH
##ester
##telah
kholi
beyon
##ateen
batai
Chah
ChaLo
ambani
masro
masharti
pataa
##ART
constru
Shami
Lekar
##grani
bueno
murad
##ForT
itney
kurta
lakhs
Hayeee
labour
Galt
sukun
##vrt
faraar
zahuur
##Itni
ashamed
swagat
faasla
distancing
Dani
Dream
IL
Kad
Lata
Radio
Work
aoor
oi
uday
##km
##Nation
##NRC
##Sp
##tees
apman
infir
abang
chli
naamon
hisson
Janata
mayoos
jamati
##OnFire
pancha
ijtimai
Mazhar
khalid
caso
pqp
naukari
bathroom
Youth
fully
##Akbar
announcement
JusticeForSushantSinghRajput
SanaMadeUsLaugh
Er
MNS
Pya
THAN
kute
pena
##jash
##hela
sawari
##khte
leve
bebas
agenci
marak
##estro
Koe
muskan
##baal
biw
chalata
wahe
qualif
sms
mamta
porra
mangni
chupane
olan
araam
Karega
trees
Looking
Ahs
Baja
DES
GM
Mart
Mehr
Taw
TAN
TAL
aga
##DH
##Sal
##iler
##lel
##ulpr
kriye
##gaon
diper
joor
##athers
darling
##iyoun
kamm
manaz
pase
tips
Kise
pakki
suha
Tuje
mehngai
aftaab
poh
brought
##iseOf
charger
broad
bangladesh
aarop
slap
Intehai
ashya
irritate
jhagda
Bapu
Nadi
Waa
jind
pull
pory
suma
##wain
##vya
haiwo
##itra
khole
tumhay
shamat
shagir
daru
##ashm
hogaa
##waro
Nobody
ikatees
shameful
afsaanay
##IIII
WALA
Radhe
dhire
Torta
mawaqay
riwayati
##ResignOrCBISSR
Emp
Idi
Salo
WAI
wic
##nh
##leed
##cado
##Ce
haiYe
##erno
##onte
inches
jaungi
##hup
rahaish
darp
miltay
Kartik
tawa
suara
poem
pathetic
ghuss
btata
drtay
bully
qatl
Banaya
Gaon
sitaron
sree
vaasta
chakka
kkkkkkk
jimmedar
Missing
##ential
Rizwan
cosas
mehngi
##Kapoor
priyankagandhi
Bug
Cu
Feku
ling
wager
##Nd
nehin
saku
Chad
arm
roosi
chalaya
pollution
##walon
serve
Lovely
recent
haarne
padahal
Business
Point
shirk
Murder
producer
Kaho
lgega
Paper
YearsOfEpicChakDeIndia
##Masjid
Aun
Bengali
Mani
Sure
Wahab
bing
cinta
nut
##Azad
##wey
hail
##chhi
##omance
##ulk
abid
##rein
dita
unlogo
##iyar
moz
kabse
aajata
tiwari
##duction
pok
azlaa
imm
majaal
anyways
coll
finale
##asirf
oppose
fasal
##Ravi
##activate
parecido
##rapati
Ashfaq
continu
saadgi
nesse
culprits
region
Hes
Hats
dogi
ezat
fait
oont
pula
yoni
##Ai
##Ae
##MENT
##Je
##Today
##orta
##oly
aurtain
##araar
acab
niji
Kita
tip
salana
polling
Beb
##wano
batau
Jaate
TempF
peeth
sering
impress
bury
##ursday
Guy
##mony
standing
##cuit
expectations
detail
zrur
range
Evening
draoni
##ception
maths
Jaffer
##ulaiman
Taliban
divorce
Future
Sarif
Sulaiman
Uz
cahiye
mishra
##KV
##gis
##thar
##IV
##FT
##Hon
##arsh
##asab
nawa
##tep
thehr
itself
amm
Jokowi
Article
lade
dalta
##ositive
watni
##kariban
kahti
puchhte
DEL
payearidgroups
insaniat
indies
nirdosh
bukannya
simply
cancelcomp
jhund
Zuban
childhood
##Express
tolong
dalehede
ArmaanMalik
ButterMasti
maravilh
RoarLike
payearidgroupskariban
dalehedepression
Paa
beef
hz
jhak
vos
##pop
##PT
nigrani
badhane
harga
manty
##illing
##fees
bharose
blm
bnne
Jaati
mayoosi
zamanay
kasrat
Masood
lambay
betiyan
Liaqat
aib
junaid
owner
##Students
tadad
vskons
bonito
slowly
movement
Ansari
bgt
lakeer
waday
tafr
Junaid
beyond
vskonsn
Ast
MOL
Tun
ucha
victory
yhn
##rang
##Sat
mehen
paresan
anasir
##astr
doaridgroups
boom
sakt
aawar
Moula
Mujay
aware
wasy
Tuj
jalaya
utre
##AAK
##ERA
bullet
makam
Sardi
uthata
gadar
avhay
airtel
jahilon
nisar
##Proud
##cindia
memory
Behn
honestly
Netflix
uzma
##hreeRam
pronto
Meanwhile
##SoldOut
CTemp
LAD
Pastel
Voc
four
loud
slim
##dS
toor
##harram
##iksha
inget
sahee
mahaan
##vedi
khaate
marg
amen
musharaf
utho
sadqa
##AME
##ONA
vibes
balon
##ORD
Adal
Raam
seni
implement
begin
besharmi
##puty
rokna
iqdaam
intibah
##anjut
Songs
Blue
Panama
pouco
balatkar
contract
##abulous
avhayyo
EST
caa
hena
rod
sini
##dadi
##Ul
##zori
##anasi
sacchai
bolos
aaw
bhayan
sugar
##dule
pocho
ghali
mini
##AMI
Rampal
Mily
thikana
decided
Voh
mardum
beshumar
neecha
nawaze
tarjeeh
Jeete
Garmi
formula
dapet
##WalaPappu
Mafia
Ayat
ATA
Daal
Hands
Jhan
MR
dande
ooo
pam
##lalu
##UZ
##beniwal
##zala
##Gil
##aiq
##urstrulymahesh
sekha
apart
##itharam
##sea
##safi
asbaab
##awis
SidRa
HAQ
Arshi
akhaz
##adeer
respected
##tric
feito
hadh
samjhdar
Shams
tareeke
kholne
intoler
wizarat
susti
##hoobi
niklee
earlier
tadap
pitaji
pahale
##HRS
bjaye
studies
IAmWithSidShukla
puppet
chipkali
slogan
##StopTargetingSid
infiradi
Bta
Civ
Kish
PAS
aen
elite
tener
uu
##nga
##khari
##OK
##JID
##pti
thehra
##arious
##ahideen
duwa
Khushgawar
Selamat
##ndr
chahne
Texas
##labh
##krit
ulfat
Faraz
faisal
dheet
PEH
Internet
INDvs
pending
Brahman
Digital
Abhishek
RoarLikeSana
Dang
Jul
chen
##Kahaan
##Bagh
##Black
##Hom
##eras
##erti
##onment
bhid
##oganda
chaiy
haak
huh
merey
sabot
doori
nigari
Abh
detey
Jaun
dalail
corr
Alia
makanya
roze
HOTI
Raaj
salebi
ways
Rehmat
statements
##Days
Mahadev
Bhoot
Friendship
degiye
karien
lehjey
WALE
bright
Msg
Secularism
##FriendshipDay
falsafah
##forsushant
Bed
FE
Van
ninda
sme
##CHE
##zh
##WN
##Zain
##alty
muki
bolkar
##ceu
Independ
store
amb
##zaad
Joke
areas
mazaa
immedi
Kamran
Muslman
nasb
daik
Samay
dhoom
Kitny
Sukoon
##Year
justicefor
Engineer
Bcz
retweets
dawai
estava
akhbarat
Dhanya
tumhaare
Fakenaaz
LionsGoldAwards
sifarish
Aansu
##LionHeart
Opposition
yahudion
Program
AH
BL
Dj
Dari
Ganga
Hoo
JE
Jen
kant
##NTAPOSTPONEJEENEET
##atv
##erjee
kilo
hoey
##hanway
paraya
##dido
chadh
##kie
dob
##angka
##iyas
kisika
kabza
biz
Shak
exact
shees
hayat
provid
buen
buka
thandi
spend
disco
ngomong
##utih
muskurat
celebrities
Luv
muqaam
PrabowoSandi
balatkari
Celebr
POLICE
delici
CongresAFSOS
INDIAN
Fail
NAAM
hash
lone
sE
sry
##Kyun
##lg
##Aad
##Wid
raag
##idy
yae
beber
lagaa
moor
ekdam
amra
##hindu
chour
chomu
Tujhy
bakhoobi
dekhatii
larna
bigada
Baaton
mardo
##OMaharashtra
lasani
Walaikum
Honest
munafi
istimal
domain
Heroic
massage
Thakur
became
Stock
Buri
Burnol
Chukla
MAND
PI
SD
aalim
vay
##dull
##fah
##Dua
##OOR
##Eu
##Bul
##alkot
kiaa
merda
##atio
itana
millat
chul
Inse
badli
##rover
chuda
duain
##agardi
tmhra
##LLA
Alhamdul
khizaa
patha
brabar
Mujhey
daleel
filter
aadhe
##kyu
purpose
chutiyon
karwnay
haei
quien
PARTY
kkkkkkkkkkkkk
killer
pedir
sleeping
khaiz
Zehar
sentence
otro
Bail
HK
Maw
UC
Waf
git
khen
tally
##ads
karanay
humra
khabara
##entos
jiju
hmra
exchange
awara
mullah
jaaoge
typ
Rajneeti
##park
Badla
Madad
nahein
##UND
bacchon
phase
NEW
##dono
thanku
Walid
hawale
##jjati
gardon
##xygen
##Justicefor
mughfirat
blowing
cukup
DAL
Gon
Phele
Sta
Science
hma
pale
rata
##yay
##biyat
##Gul
##erte
kapan
karra
##teo
ishaq
baaat
##ulah
digo
gawara
dilaya
alamat
harass
rahn
tav
lack
sarg
Naagin
paigham
jalane
ayo
dikhaoge
maarte
Bhaag
gundo
##UNG
blockbuster
alava
NOW
Hazar
munazzam
##Bhaijaan
Salaam
directly
##azeo
Quresh
qalb
imtiaz
Qayamat
afraid
mutabik
tandrusti
engrazeo
ApologizeToSidharthShukla
Hora
MUR
Sagar
fighter
ghir
gest
grat
ghari
nabuwat
otra
shil
werna
##Obs
##WO
##XT
##eram
ketemu
##enga
karpor
##apko
##ushra
hav
##kout
##areb
chalan
brut
samajhdar
Hijaz
Roj
qabzay
priv
seria
sonia
KARNA
lamhe
sharmindagi
samjhaye
CHAH
MahaGovt
muzah
Tujhse
Kunal
recovery
Aai
Dain
Gas
Gard
Til
ehsan
lungi
qeh
tone
zahi
##Iss
##Mur
##city
##CAB
##hii
##hiri
##yees
baan
khn
abhinandan
yei
##araa
doum
##dem
rahien
trail
dikhay
Aurang
umid
buaha
rakhni
##adeira
patak
Astagh
Jack
tamas
##azian
rhyn
previous
Admi
Hindutva
mashq
##known
zeli
Plus
##eeeeee
hanstay
memories
bhugat
kalian
seedhay
Presiden
##Shushant
dilchaspi
##Province
animal
minggu
bzahir
atyachar
##iseOfSidharth
35
Chuk
TRE
Une
Yog
##done
leker
unblock
kisike
HaiN
##kshay
##ngtn
cok
halqay
hojay
Trp
Fark
phair
Hazaron
shikwa
##clusive
kardya
entertaining
jnta
raqs
cousins
places
naqaab
aukad
##jashwi
ASS
Atal
BUR
Nasha
aanay
aandhi
dj
mry
paji
##Khud
##oS
##kiski
##gk
##tareen
##OG
##postpone
mehan
koee
##akal
seja
##eeha
##idents
abhe
lege
##rier
usny
sourat
refr
twist
mazi
urf
Bete
##quat
bachne
passar
##ysm
Rajniti
Sahiwal
caring
Shivsena
comemor
defini
bhatt
##Shairi
Molvi
protection
RepublicForSushant
criticism
Dhamaka
##presa
karporasion
GOL
Lana
Skin
qadyani
rara
wer
##nes
##rha
##gang
##Ish
##caya
##case
##cters
##SM
##jk
##jub
haikoi
##urus
nagh
deka
jaein
##araat
##niye
khawahish
kish
harm
argue
laatay
Mohammed
farsh
rhey
polici
instig
##gression
dessa
izafa
ahwaal
##AID
kahn
kaunsi
riots
rupiya
reports
##Islam
guft
##NewSong
sohbat
Amethi
CJ
Cut
JAM
OUT
Wet
kv
zror
##fik
##NT
##Just
##ZAR
haiT
##abhai
chadha
behal
mohajir
niaz
lodu
Apple
stor
Chali
amin
amad
##ufa
kahain
bhj
polls
greeb
Dialogue
colo
tehseel
irmo
calcul
Success
ehti
uthna
Usey
Screen
Hukumat
nadie
trouxe
AsimRiyaz
WILL
Picture
Bais
Joo
aho
aega
lame
ves
##show
##dak
##Iq
##course
##adhi
##chup
##apis
sachin
soti
stunt
aaeni
harta
Kiun
condom
hmry
namaloom
Nehi
grp
bulana
hadsa
pagli
chalao
Peta
guzarti
pichwada
aliiiii
salawon
hardik
daddy
Blokir
Ed
NRO
ahsan
berita
rts
vendo
yake
##pol
##vana
##ishy
raw
##hoda
intention
##siz
kamaya
passion
arbo
Devo
butuh
sarkon
SidN
##matma
awaien
taqaza
sidnaz
akhilesh
khiyal
dekhain
malu
compli
##urance
bulate
MEU
Perfect
assur
credi
smjhty
youthi
belt
##tifications
blackmail
hAi
talemaat
GhuM
##adnavis
Cow
IAF
SL
bung
eV
sotay
##khab
##lane
##Dont
##Bu
##Ze
haiL
##ayeh
nakaat
khora
chapl
yaq
##andy
honton
deshbhakti
bhola
khoubs
gujarat
faces
kharja
Anton
kartik
ahl
Faryaad
smjhta
bhejta
rabta
mansoobay
Gujar
bulao
pabandiyan
ubhar
Trending
kardiye
zahmat
Piyush
Personal
opportunity
Awan
Aadat
Jigar
KHAR
Rul
nw
nonton
qran
##nin
##Nor
##wh
naja
kori
##leman
thaak
khaana
pav
waqar
hasa
quick
restaur
bulan
##eeps
maka
duroood
maqsood
lyf
Masla
pukar
buddhe
##UTT
Esfiha
ansari
bachey
swt
Halala
Bajrangi
Risk
##music
##First
##Girl
Latest
punishment
##Corona
sensitive
taimoor
BIL
Data
Gala
Mass
Ray
WAS
cloudy
kaseer
nzar
##kook
##meel
##August
##cap
##Yadav
##pdi
##olah
##tero
prad
musaw
##anthi
##antes
shes
jagh
lgty
ghun
pahla
Chur
elected
keemat
kasy
Hanuman
qadmon
Frnd
airstrike
##Review
Nazeer
##Jokowi
Devgn
##iyorum
##YearsOfEpicChakDeIndia
mulazmat
Journalist
AmaalMallik
horror
tehqiqaat
HER
Lord
Pit
Push
bry
dhayan
nhai
##Va
##haaa
##ehum
krre
##ajd
##araan
agye
gaee
badlo
nok
pehne
sunega
umat
polish
sharabi
##arayan
thankyou
hatta
zamany
lugar
##bhagya
improve
Madarchod
##ualaikum
Rahim
stopped
Dusri
mahaul
Airtel
connect
Flush
Hitler
KKR
ShaheerSheikh
Sorvete
Senior
Asha
Dush
Fire
Gab
Kn
Kafir
Lash
Pran
PLEASE
Sush
eating
ii
iba
jasi
nend
##NING
##LF
##Cl
##ayam
##orang
##eso
##hants
##itor
##azil
tuu
samaz
barq
harj
tarbiat
consi
attemp
mazy
mazahi
##arto
suport
Legend
Sabr
Kamiyab
coaching
durr
##intment
##piff
Agreed
raton
Patra
horas
Bachon
Smile
##Strikes
jnb
sachaai
planet
gunaaho
HRDMinistry
Contest
Wrna
individual
tableegh
RBI
jer
##dain
##gery
##Agr
##Aise
##jir
##XX
##hihi
##himanshi
##anu
lagwayi
kabir
##ukam
bhaap
bij
jaghon
pite
##shak
mushtaq
Marta
##airs
angaiz
politik
charges
##luja
fiqa
solid
Suar
Rehti
Talash
khubsoorat
harkato
MorePower
ExaARMY
numaindagi
animals
retirement
Shaandaar
pregnant
Wonder
muttahid
particular
Bun
Daar
JIN
Tul
ewaan
yd
##Stay
##PI
##atir
##naat
##azer
haft
acti
sabi
andal
andolan
bivi
mazrat
mulakat
##ffer
ayya
AsimFandom
dalte
mujra
achar
betul
fansi
maano
laip
buddha
fofo
##ITCH
ANP
HEY
Bachchan
murderer
hatao
Shabash
Anyway
ponch
JANTA
peetay
products
benef
sanjeedgi
adakara
MorePowerTo
71
Aaa
Awaaz
GAL
Maloom
Pork
Tongue
Zalim
bya
jnab
kail
vat
##Dunga
##March
##Sy
##asingh
##lets
haus
##khti
diet
lago
##ardom
uspar
pech
##udar
asraat
##aised
phirse
Karwa
##pel
karobar
goad
exit
##akhlat
ApnaBharat
##luvia
ISHQ
ussey
##zalay
Ens
assalam
Waqai
doran
Mubarakbad
risalat
vidhayak
##Joko
##lectric
hurts
geherai
Club
Molho
Fazal
wagera
haadsa
##Boycott
esperando
giraftari
pranam
Ayo
Mungkin
Saqi
THO
cro
hnd
mung
##nts
##ociation
##Must
##adti
##kega
##atao
lagan
barket
##ops
esay
urself
chances
##ssan
mister
brh
##hakto
##obast
cold
Bich
prediction
##yyub
hongey
bigar
Loved
##iterate
nanhi
hajam
united
##ressive
Maria
##babwe
##Shivraj
thinks
Pandit
financial
faaltu
TheRiseOfSidharth
bewajah
ButterMastiChallenge
Ax
Aare
Ama
PT
cmo
fanaa
lum
rhai
sendo
##hur
##Chal
##aihi
totay
##isht
##khus
wallah
##htoon
reve
##aising
pau
pehchaan
salgirah
Toilet
##gardi
##artmente
uppar
bharam
meher
azeez
khelaf
Samsung
udd
decent
semangat
qareebi
karwaye
nabwi
prince
pujari
##China
ChampionSidShukla
guarantee
Hoty
JP
Les
Port
QUR
bhand
migr
tamil
##ea
##lag
kimat
holi
krwana
krishna
lihat
rahege
barhi
taraki
escol
mulq
mulawis
hasad
talkh
btane
Marzi
Biar
shub
commer
zindabaad
chodne
Konsi
negeri
Says
Agli
bhatee
phatt
Gadhe
Israeli
ishtihar
##AsiManshiMet
extension
indirectly
oncologi
vacancy
Idk
Lmao
OUR
Pare
dici
eg
hny
swa
zaar
##nesday
##lara
##SHI
##Sorry
##FL
##jeet
haimai
##asaheb
##ening
##enter
karor
##inging
bolon
unne
##uper
Moti
convo
##ANew
basta
zarb
kayar
##EEL
##TIF
vijay
dusman
makin
mierda
##haarat
Ishqbaaaz
laws
giveaway
bhug
LEKAR
seedhe
usoolon
Swag
andheray
MUBARAK
Dobara
Dafa
Lan
Lanka
Qud
eb
hw
ration
tend
##ITI
##MAT
##cup
##Ghar
##akhand
isma
chaya
##kian
logn
docin
Tumhain
dilao
##erst
noj
marry
rhegi
weap
issay
madharchod
hiss
chorh
akka
##UMB
pml
Tareef
##Reunion
bigger
ikhtiyarat
Watching
shehnaazians
ArnabGoswami
##Ahmed
##JusticeForSushant
Hogaya
yonani
Bombay
##KarachiANew
employees
##itharaman
Ahan
FIL
Pain
Siy
VE
cub
fahmi
nali
nangi
##Kangana
##nb
##gap
##mly
##Sr
##Court
##ayad
kept
kohi
##ilye
isk
baaqi
##ajal
jack
becoz
samje
##chaudhary
mourr
kameen
noti
bhasan
fraib
aje
hmlog
Reason
Review
majal
vipaksh
##resa
closed
Chorr
Sarcas
priya
qarza
HBDMaheshBabuSarkaruVaariPaata
OurPr
##Tarfa
##Jahan
##though
Pandey
wusat
excuse
Jhooth
principal
klasiki
unfortunately
problema
khoraak
60
Siya
Wad
pg
tud
##neef
##Ms
##card
##vest
##inay
##intah
##amin
##abari
##isar
havent
beche
achai
doh
dok
agak
takk
sunay
nailed
pados
##aryin
Sabir
Bachay
taso
Shehbaz
##weta
comprei
Unhone
dusry
realise
berapa
pallay
intzar
celebs
tempat
HEIN
##hahahahaha
employ
nigahon
islahat
##AmitShah
philosop
##Verdict
suddenly
Laanat
vaastaa
HeroicAsim
AAD
DD
Sag
dais
eta
gatiya
hwe
jk
nn
waa
##dasht
##yr
##Roshan
##xie
##tact
kars
##unal
apare
deera
mac
kisiki
alhmd
##rob
noble
perh
sarr
##imal
Tuesday
bandobast
tasneef
##ighty
Maal
JabAsiManshiMet
##OOK
ijlaas
tayyari
##KiA
baazu
shyad
Fateh
excitement
##Profile
Ishwar
benefit
narrative
##KahaanTum
##Widodo
BlokirJoko
BlokirJokoWidodo
FAN
Maja
Ney
cigarette
kuda
nue
qaryin
##Aisa
##Tal
##ators
##erc
kich
##ashu
aurto
raaij
##aju
##ajid
bezzati
##lymp
andhay
asleha
stone
comigo
jabab
bhaw
daon
rehman
enquanto
cheek
Saara
##jected
mazahab
changa
girne
Khane
mens
Mausam
busr
jitny
##engan
hazf
aayiyae
##alaman
musalmanon
embar
created
susah
khtati
rukni
laken
deserving
Ghazal
Mission
SrBachchan
automat
Abbasi
najane
Damn
##booba
yatra
studio
cbseindia
madrassa
##USHANT
Habib
Lain
Nara
NCP
Word
bp
deri
##over
##mare
##LJ
##hae
kiyo
bhim
##dih
##ingan
usted
shaant
aahe
##mies
##hamari
biga
padenge
myn
mehndi
naslon
Asalam
halt
jehadi
vaale
UPSC
Award
supported
pitch
nawway
dlm
patel
##uhanShivraj
Divya
values
andaleeb
Kak
Phat
Qureshi
fon
vash
##fc
##yug
naka
tower
##tick
neces
chakk
becomes
mahir
gaoun
alt
##rote
##ukarita
janji
Karbala
dikhna
Shaa
khatay
Musharaf
mutr
##vention
qabaili
kudi
aashi
udr
persons
##buat
doosro
comeu
magic
David
kaaran
khalil
Asslam
launde
mustahiq
nusrat
KahaanHum
mushahida
JusticeforSushantSingRajput
##NewSongTomorrow
OurPrideSid
Sard
SER
Tk
ghin
gajab
rhn
##noo
##oa
##UA
##BP
##Bil
##inic
##ahP
##iram
parwaaz
##ulla
##idak
jacket
anniversary
##astan
bhaio
##tyon
Chaand
taunt
voted
kahawat
##bierno
basti
Amen
##grade
Jaana
##khana
Afzal
corner
tehq
sanp
##oleil
Ravan
Wahhh
pensar
ANI
REAL
couldn
mughe
##vironment
Anyways
##AFA
brahmin
comprou
##Queen
##Obser
##KarachiANewProvince
DHA
Ele
Gila
HUN
Haaa
Imaan
IIT
Piya
Sanat
System
gore
izz
nath
rage
wb
##Bhutto
navy
##enar
##isat
##ild
##agga
##unn
mahaarat
reti
##eraan
Karay
atomi
farji
faramosh
taqleed
allha
Musalmaan
majhab
Janay
chaley
pahari
impact
yunhi
Tarha
Chote
StopUs
evict
tahreer
fasana
guria
StarPlus
##Well
aazma
ronay
Besharam
reyaston
##EXO
raahat
khudkush
ghulaab
advertise
##Homicide
EVER
Laj
feet
fayeda
german
mba
nari
tO
tant
##fk
##Ng
##Rana
##BN
##BRA
##wra
inky
chaahiye
peak
sakit
batayenge
Death
mazz
jina
taley
rakhny
precious
Admin
impossible
yahoodi
##SushantSinghRajput
expecting
##Film
policies
khoubsurti
Pankaj
Qki
Zada
dt
iran
nanya
pdi
##fehmi
mesa
##ossed
##iland
##eeter
raaste
sachey
kroo
##haiye
lim
haare
haaa
peena
reference
thim
##ongan
aajaye
Koun
Shaandar
smajh
bagus
bnti
clarif
Govern
Achaa
Kitab
Sharf
##rahman
yaden
propose
##ITO
SAHAB
taxi
Dusra
driving
Sikandar
RAKH
nomination
jhatka
najayaj
Currently
##cription
Double
##Morning
Ahsen
Aho
Bali
Ganda
ln
pang
##gupta
##fm
##jen
##ayee
##ampe
sekh
##tet
##ingy
thana
bold
soci
boat
gautam
siraf
teaser
noori
bhavishya
daerah
shushant
talks
minhas
Ekta
Request
samjhoo
surpresa
dhool
five
baitho
boltaa
pandito
mazakraat
liyee
cuenta
obc
apnaya
##Warrior
Kyoki
##payee
Shehzad
##BollywoodFilms
Download
KASHMIR
pudim
Aulad
Dadi
Hosh
JK
Kor
OBC
Seed
Soon
WSW
eew
pahira
piddi
##LIC
nadan
##isab
##oggia
##rew
##anghi
##entena
bool
##awi
jabse
sif
##jie
frame
##arthi
##ekum
##ewe
khech
durlabh
besok
BHAG
suspen
##adatar
qasba
Pioggia
Intezaar
GHABR
Looks
Baithe
influence
MULK
supposed
dozakh
KHUSHI
Prat
Udhar
aayen
aitr
cad
dud
rp
vag
##nic
##bolo
##Thank
##phe
kood
parosi
##leye
injection
abis
raky
barg
marhalay
##uku
Karnay
taari
masal
maslak
##rance
##daro
mehroom
##qaam
bno
malka
Barbad
disk
bhagat
kutiya
pagl
pukaar
olha
Warm
DOC
##Khul
##Trend
devta
simples
decisions
pohancha
Normal
Piyar
ghanton
ghaliban
yakeeni
Bande
Gue
Goswami
Riya
Ticket
daidh
hali
vyav
##Dast
##Umar
##Han
##Gha
haiMe
##erta
##head
naukar
##endi
krdy
##ookh
haai
##angga
conhe
tmam
Asma
munsif
Rock
daaley
jayengi
##ccin
##know
achei
careful
##thaShukla
paint
SCQ
Coach
celebration
favoritos
##Friday
biasanya
##HitsM
choudhri
EC
GIR
gid
##KHAN
##nate
##Shilpa
##Hr
kije
##heiro
tout
##taza
##apad
##oguruji
activity
##geous
ashiq
rakhenge
##eracting
Mois
vohi
Sidhar
chalty
##rano
##hado
bandhan
faut
pidi
cock
ghoray
Khawaja
##faad
islamabad
hatane
##yarakat
Samandar
Adalat
pende
jazbat
Mamata
Afternoon
SaveU
persona
Chhod
Medical
natija
AIMIM
tentees
##PassTumHo
CHAR
Eolo
Fayaz
HIS
Ss
bora
bughz
fani
lower
otak
rush
##Khuda
##dt
##dor
##IZ
##Qi
##ales
##ensi
deko
khadim
sochi
recharge
##roach
daano
Kok
aree
Kiska
kerain
Barom
hansa
daikho
groups
Krty
gadhay
insaa
starts
Jinhe
foda
Sanjivani
karwate
REC
totmm
WiCh
mzak
Kripya
facilities
mushtarqa
inhPa
eVNow
Dude
Gf
Lee
Rus
nana
nitish
sagar
##gye
##bute
##cue
##Wide
##arai
##uski
##unko
##ehri
bela
##hattar
aconte
ghumta
kisy
##ubali
lode
kabhar
targe
rout
concent
Shaks
##ewhere
##fthe
msm
commentary
impression
tayy
Mehram
sikhate
AsimRiazForTheWin
flush
zalzalay
Wasim
##Motivation
Hissa
Buddha
AGR
karname
maqboliat
pohnch
Brahmin
intelligence
Rapist
jageer
unemployment
Bukhari
Korea
##ProfilePic
BN
GAD
Paki
Rash
Shut
bjy
fosse
mto
okk
sera
tame
##surat
##Tm
##cere
##Pilot
haisa
##urya
napasand
lagakar
##ribe
##hua
gaaya
chhaa
##afe
ekon
takh
##apped
gohar
Shad
upcoming
bheji
##EEB
Lagti
ifti
mmD
Shikar
kholna
chamchi
imrankhan
Hmara
Sonakshi
Bangladeshi
relative
ShivSena
##ernire
Khareed
julm
Strong
wkwkwk
khatarnaak
pukhta
Easthampton
saneha
StopUsingSid
eewsi
Cm
Denge
ENE
ELE
Yai
dst
jst
ump
##uy
##kabhi
##rul
##Ds
##OF
##Tok
##CY
##poot
##QG
inhy
bolen
maai
##hub
doonga
hamaisha
nigar
batti
##eday
##awaja
amat
duas
paksh
banae
jaltay
hasna
Kahani
piye
Kamraan
skill
knowing
##Sidnaaz
Andhb
katay
TempoC
Jisse
sanatan
contribution
recog
MAZ
Kehty
##DilKoMaineDiKasam
msgs
hawaon
##lipop
Srk
HappyBirthdaySana
peetne
bakhsh
##urstrulyMaheshMaheshBabu
pahuncha
colocar
asshk
Dollar
loktantra
zeenat
##Raval
CVent
FF
Uth
lant
mig
niyam
qomi
##Feel
##qan
##QI
haito
haiAap
karnam
##orum
##lax
bew
pemer
barat
##haba
altaf
##HAI
Years
bhauk
Mehar
##vio
chela
confe
conditions
shoaib
hmaray
girta
Tem
lgai
ikt
Pakistaniyo
mnHum
khelti
NawazSharif
dekhein
CMOMaharashtra
ikhtilafat
rishton
mustand
pille
Control
bhatti
sacchi
Solaire
Sudhir
##OutTomorrow
Sahafi
jashnn
hPahP
masrofiyat
Ensoleil
mmDernire
hPahPluie
Ensoleillement
Gl
HC
RHE
aein
babi
cun
tjhe
yom
##uge
##gher
##fta
##md
##MN
##what
##Vir
nache
tool
setelah
saq
krva
##idan
lion
yeha
##gie
tarikh
naib
theyre
bholi
##alei
chord
Imti
khary
yaaron
gairat
nasl
##bela
offline
expl
gadbad
laty
##almente
chaatne
Dimagh
bahaduri
currently
expressions
tolerate
Zimbabwe
##shabandhan
SUPER
Eik
Ist
Kesa
Mand
Rp
Roshni
Uda
alim
fasi
jalo
pink
##hk
##nr
##bing
kaata
tola
##enu
##ids
huti
dizer
behes
heera
shana
chean
tabse
Parda
gharo
bharne
ghaflat
bhtr
dalito
murghi
discrimin
nazer
##bruary
rakhega
rkhne
phod
ismein
ASIM
hukomat
Ladka
labon
selfi
Speech
kosish
phans
manipul
sharafat
motivate
bhokne
frmane
yogdan
branco
Ungli
crisis
Imagine
FAI
Hil
Jah
Late
Rail
Talat
Waaah
Words
hzar
hits
##Mr
##HP
##zm
##hoth
saqaf
laganay
shal
mohon
##road
bhait
daulat
Dety
sarzam
farhan
bhla
##ekha
bataa
malai
##tros
Ashok
bsd
suray
maarta
types
##buh
##buah
caralho
ShehnaazGil
bhejne
RAW
Bhagat
relate
swee
nuclear
Ibrahim
sukla
properly
dhoondh
mbak
aankhein
gazleen
Bhakti
reviews
pulwama
##Ahmad
muntazmeen
dipika
mehnga
IAmWithSana
Relation
khudkushi
tiempo
itaat
Status
ghayab
Without
GHABRANA
CAR
Mess
NW
aes
dps
##Des
##UTE
##Jal
##ppa
haiW
##org
##estic
##ller
##entist
agly
mousam
daale
kehtey
apple
Jae
##ADO
Jiss
Huye
zindag
##irav
Naik
Bring
mafadaat
bahasa
certain
fasad
Ghazi
jasay
SHAME
Balakot
jeson
beej
najaiz
Inteha
SAATH
sounds
chipka
Bewak
##piracy
regarding
##ForTRP
Haseen
NF
Tit
Vande
epic
fok
ght
jwb
##sho
##off
##mag
##tou
##AIN
##zb
##Play
##vant
kapt
tourn
##ahkan
##kifli
khait
takal
enti
arri
tienen
theres
##duce
waseem
Ambedkar
##motion
tmse
bnna
names
mangay
sens
juice
Dekhne
Gae
babe
testing
Jalan
attacks
##RamMandir
muskurati
meharban
##Minister
purany
Ranbir
column
guzaraa
DaysTo
pappi
Aamiin
Bon
Fajar
JAG
Ol
Pot
Waz
ein
haliya
oxygen
qiya
rasty
zard
##fb
##arm
##ehman
##indy
##adaari
##areone
##erim
Mohtarma
insane
##alling
##artan
sheesha
worried
##wabit
Sarkari
tehzeeb
baju
Exams
Sayad
surely
##agree
psl
dilaane
Sometimes
lapar
Shubh
##Time
adhikari
signal
villain
Fakhar
approach
pleasure
flipper
neighb
wagerna
36
Ait
Bd
Sandi
ZAR
fs
qaidi
saye
swami
wheel
##KY
##kne
##IU
##Lives
##Bal
##HUM
##WM
##adon
##diq
abki
##rian
arsh
adaigi
Shaikh
shuro
Ameeen
uthi
Imad
bnata
mujahideen
##ujur
aagye
clg
postpon
janaab
dyna
veio
##danon
WindN
commander
doosray
horahe
fayrng
taied
kalie
jalao
##kirt
zakhe
parrin
Sushil
IStandWithSameetThakkar
mazahiy
Dair
Father
Jhu
Made
Masih
Stu
atey
hsi
kA
mg
oe
##Don
##Ajay
##MENTS
##pos
naar
muhas
muhajir
annoy
##lll
##asto
Kisan
mutma
bruh
aadh
Truck
lgao
##ISupport
aatey
ahel
kahoge
jazak
mandou
Jealous
manzir
Mumkin
Fauj
nafsi
White
Tukde
ulatnay
##stadZul
Phoolon
Bloody
shubhkamnaye
SaveUstadZul
SaveUstadZulkifli
Bike
GY
Jh
Jhon
KAS
Lit
Lady
Oy
Tap
Taki
deem
dhik
ibu
nome
oss
pill
yab
##good
##Mishra
##Off
##boor
##pura
##olly
deil
infact
safi
yaara
thapad
moha
gav
gaurav
Humary
sunana
siang
arhaan
##appan
chode
Itnay
wasnt
thoo
hasne
uthatay
bachney
larnay
Aaja
nasli
Janm
khushian
vivo
Ramadan
##anyak
##OSW
Basheer
RaGa
ISIS
##enial
capac
khilaya
uthte
belajar
aaropi
Half
bahaq
Mazhab
ghaddari
HINDUST
##hurima
Pmln
##centage
finger
Record
aqaed
KahaanHumKahaanTum
StopUsingSidForTRP
bais
hul
mik
resh
shari
tata
##nl
##Aug
##Miss
##break
kotha
##ahon
ism
khaan
khabees
##kart
KaR
rahye
Karny
enten
arent
masno
sarak
##ndtv
kerwa
HAS
IndiaAgainst
jaiga
herself
misrey
badalte
command
propos
Chehra
Urfan
Tabah
actions
Mubark
stands
Force
Munh
Coba
Security
saghar
BabyPeng
Mayawati
Central
##WAYS
cooking
alguien
daonlod
sarzamen
Cat
DY
FL
Qabar
hush
ih
jaza
july
##KUR
##kai
##mk
##cti
##Clear
##pang
##Week
##VS
##alab
huee
##raab
unpar
maas
##adies
bhasa
##students
sahiwal
##ships
##darsh
khatray
Sabke
coca
##ppo
larr
##STA
Area
claro
tanq
ghreeb
Mirchi
fayada
Ghafoor
jasakay
sexual
Baarish
bajae
ArtiSingh
ruswai
vrna
##reesanth
Youtube
Nizam
Yuva
physical
survive
GR
Land
Literally
PAH
Seem
Said
eak
june
kue
pose
pawar
pilih
yous
##Rathore
hore
meat
##uska
##haron
bawan
jaaa
lek
##riz
##araha
pride
anday
samjo
Inno
gayaa
mareekh
manaye
Meine
Isne
Joh
ajnabi
Toba
##ranwala
mulu
chorney
##paar
bagga
qabeela
Sunni
sold
achey
Voice
rangon
latay
dukung
coronavirus
mudakhlat
talib
churaya
Update
jimme
Second
hearing
PureHeart
berozgaar
zarea
Akkians
khutoot
laqab
haakim
MorePowerToYouAsim
##areoneEXO
Aut
CT
Forever
JUI
Jakarta
LQ
Nit
OP
ahista
bhukla
fome
jra
lh
rise
sic
tila
haiek
karl
deactivate
##itam
krli
dekhtay
aache
baddua
forgi
taali
##viously
##antly
saree
firke
##bies
afghani
faani
dekhana
betho
##mbre
##ORI
Sambit
Krny
NewProfilePic
##irip
Talk
aqalmand
imagin
foundation
ShameOnMumbaiPolice
deixar
chokidar
tajarbay
Religion
##xiety
Fuk
Lou
Tareen
WHAT
buch
dess
dhuk
fant
fvrt
kPa
mds
sya
voot
##sht
##yes
##Ts
##asco
istri
krra
liyo
##llay
bolun
acar
acabei
hamle
samvidhan
niti
Abbu
bahur
atti
plans
giraya
pattay
muncul
Sahiba
Achay
APKO
fiel
Nib
Performance
DEK
Howe
Raheem
Zaroori
bhadwa
joote
##DrRPNishank
##Minati
##Music
saazish
kartoot
criticise
Evict
AsimRaiz
##sWithAmaal
virginia
##wetasingh
maravilhoso
PureHeartSid
Cloudy
Hab
Jaya
KAT
Want
eesa
og
poon
taya
urat
##Ut
##qab
##Qa
nahy
##enc
##yagi
apr
delay
krungi
thae
hamm
##HAL
Yemen
rob
Shakti
pois
Bepan
pasandon
Jabariya
##khair
munna
purvaj
uljha
Troll
msnoy
ganday
##waty
##versy
##ilihan
##Kaun
kiraya
Patna
##HOT
##BBS
DIA
Airport
Dhoond
nsitharaman
matlooba
Bravo
helmet
khufia
##ulprits
shagird
saqafati
Bom
HOS
ICC
Jala
Kate
Lut
Russia
Swara
WH
Walikum
joot
kf
kudh
pik
tain
##ksi
##AUS
##MK
##Sach
##Fat
##pc
##Pata
seene
##hanu
sop
tuze
hamisha
picha
Tumhary
alas
itnaa
##ksabha
mulzim
sidra
changes
jeety
yaadein
Already
Khao
hataya
Deshdrohi
##OOO
Should
shreef
yojna
norm
zimn
zalzala
evic
cities
yuhi
beete
samjhoge
dramy
Nakami
juloos
sasural
Hidayat
38
Dhe
Gd
October
WTF
uang
##baj
##YC
##zing
naali
##hando
##azine
ankhain
Inta
astit
tema
masters
Movies
geer
quwat
vie
##ADE
Adeeb
faisly
calda
laiq
rkhta
pension
Pathar
heroine
bichari
Haqq
sambit
taizi
khreed
registration
earn
guraiz
bukhaar
buzdar
hinsa
Series
mustafi
MSG
hungama
farishtay
Vadra
gumraah
credibility
ShehnaazGilll
Chir
Cric
TC
Ullah
WAH
cosa
hva
nose
ose
##Meh
##Jud
##xs
toheen
##isko
abla
thei
muhh
dign
agama
tars
##adiani
amazon
perf
bigaar
sheet
tmlog
coc
sadma
karengy
Anand
ilmi
galiyon
tyari
khabardaar
Comments
bachat
OFF
characters
casual
##ShaAllah
messages
pengen
MANOJ
rizaq
neher
Favour
manazair
Aah
Bhara
BANA
Jaat
Saray
Uma
ahan
gara
jt
jhank
mshi
ntar
pagar
##waza
##wass
hoay
hotha
kyasirf
jismani
bhaai
rocket
vocs
##onel
advocate
sbr
gelo
poet
quotes
satar
Bachy
Prince
showed
sachy
desai
clash
newspaper
monday
Jihad
Adhi
guneh
Billi
sites
Thursday
Short
##Goyal
saccha
causa
##Exam
leaving
Piche
##Violence
malomati
bunyadon
combination
Bam
Date
Hang
Hong
IR
Jim
Jindagi
Kasa
Pany
Rhi
Rhy
Vill
gaj
jgah
llam
##mata
##UV
##bate
##Raza
##pung
##Ps
sajj
hao
##rita
joi
ushe
tute
kyayeh
chont
fora
takmeel
pehchana
janne
trag
chegar
mazkoor
zaroriat
##hhhhh
Bacho
##hero
ataaq
PMIK
misund
verdade
outra
Rahain
ilaqai
jamana
bert
pury
msajd
sono
Banti
hahahahah
Mehfooz
##larn
Quero
##tertainment
korte
##riting
199
##Imam
viewers
jhuta
Yaaar
Jarur
Sitara
##BoyAsim
Total
DONO
##hennaiExpress
Wkwkwk
assign
Aja
Aish
DHAR
Siyasat
Tat
rhty
##gur
##fon
##muda
##Oy
##bc
##CAANRC
##aming
##chos
hie
indeed
##ingay
muka
shahar
hamry
Tumlog
algun
sayasat
umoor
shura
bhs
ghadi
##tual
##assy
Sahiban
kahunga
explan
##aaaaaaa
##vidha
chutia
Sakht
##thes
YAAR
Pyari
##ECT
Ranveer
TERI
sedang
Wapas
berojgaar
bullshit
##AirForce
Handsome
Mawra
Cualquier
Laa
Vese
hire
pappa
saste
tard
tbi
wrote
##roo
##mod
##xford
##aikan
##inting
holo
##isliye
hijab
safa
##idos
##ingin
limited
sabb
loc
Kareem
Meme
Saat
Saalo
##ffa
thod
tmy
jaien
Hamne
bachna
patah
##tiyaan
jeito
rasmi
adaa
jarurt
lux
ganhei
Paaji
Esta
engagement
hansti
mirza
ParasC
ibrat
Interview
##Movie
Izat
equality
tujhay
pairwi
include
faaslay
##KNKJ
drugs
##versities
ZINDABAD
Ever
Green
Hadees
MEN
Riyasat
SMS
bori
cach
##nos
##IQ
kahon
rac
tumpe
saved
##andey
boca
sunane
sift
Delete
umas
adhay
faryaad
sheri
sharait
tmhain
bakal
behtari
larko
ptaa
bhagna
SanaThe
prize
KAG
Mask
khulasa
semester
akhrat
bossbht
sadaarti
##mayan
MiL
kkkkkkkk
##idades
##JaiS
DUKH
SUPP
ShaheenBagh
parhaiz
Entertainer
Citizen
porkistan
Waheguru
Abaad
##LACKP
Baw
Dala
Ghair
KON
Nawab
Pune
aabi
ika
kain
ludo
pash
qata
##sir
##eera
##yum
##Liya
##Fee
##Video
##atra
haiya
haiIs
naame
##aksh
##ushal
saand
diyo
bolde
baatil
kamo
Chaha
takraar
paun
hmse
urd
pohon
azal
crit
chitrol
dekhao
ghtiya
halla
Ajkal
tanda
ghabr
##URE
ISB
Farmaye
ShehnaazGi
jumle
##ajajajaj
majburi
darjaat
ShehnazKaur
haikya
##tttttttt
Sudhar
Gilgit
Shahrukh
chontis
Cry
FD
LM
Mishti
Nic
Roman
Sani
Tir
Tomorrow
rare
umed
yese
##rir
##gad
##Muk
##Rashmi
##HB
##HF
##vaa
naha
nafees
toti
##olu
rawabit
chaiya
abusive
##raak
doa
banya
darne
bater
##edad
tarap
ajaa
Aram
Before
crap
brown
##URU
##pector
maanna
peete
Raaz
impro
kakak
Bangkok
planned
youll
ALWAYS
iqraar
obrig
Khurshid
uboor
grace
muntazim
majaboori
nojawanon
##WorldWide
arrog
SHOW
parinday
context
Inspiration
agencies
Iman
Ibadat
Khid
SANA
Tut
USS
cars
dw
gm
jhum
lis
lti
pool
sray
yung
##Mal
##LQ
##Hu
##want
hove
memar
karway
degil
nemat
##azay
yaaa
muita
lagg
honor
prest
aggression
als
alp
marham
rahogi
chalen
dug
Hoa
eski
pado
Bahan
Rota
qabee
katna
Bhala
bangsa
olarak
Nikla
Tmhari
masihi
juban
Sridevi
kidney
felic
BSP
ahthyat
ZINDAGI
surprised
Alex
Ear
Jcd
Momin
Ton
jm
mkr
vend
wd
zahar
##Pk
kahay
##tians
##agiri
##eeka
##olic
##andne
khake
banned
##cei
##ukone
onde
trash
##baran
sharai
worse
Order
imla
options
aqval
kuat
dharma
keede
gadhi
dhagon
trave
Rakho
chunn
muzaffar
Zealand
nazrain
fotos
shahrah
##wetasinghkirt
Aala
Cool
CHum
Holi
Klas
LAK
Ustad
WHO
gt
icon
mira
taseer
vjh
##fri
##ahri
##omkashyap
incom
chaw
lig
##khuj
muhammad
Apky
About
tac
masle
##ufeeq
saleem
geograp
shararat
akr
jayn
larkoon
Astag
grap
zamin
lamhon
Lahori
chodh
propoganda
Acche
Poch
Zindabaad
Hadsa
restric
artalees
Norway
tariq
snake
schedule
released
seguir
guilty
vashngtn
80
Bot
Bero
KUT
Rishte
dash
fab
jna
nwaz
sf
saga
yall
##hvi
##ex
##mine
##Akshay
##Jawab
##hina
##uring
karz
##ille
##ires
##ajj
##laam
divid
##ardan
boldo
kamini
##afia
##habad
Abaid
alum
alstar
tej
badnami
amp
passa
sall
atra
adop
##ANCE
urs
updates
##ngay
superi
Saboot
##ights
Nov
##ftab
samjhty
hoskta
SanaOnFire
khayaali
puraka
irti
Huwe
videshi
bahaal
thakre
couldnt
Smart
Misal
##Again
Sahara
spoke
TWEET
BiasedBB
Tolak
Pichle
federal
AATA
Postpone
hga
vdo
##Ok
##Yaar
##BZ
##Hour
##pehle
naaq
sebuah
##teza
hujan
##andeep
sobr
rehay
barabari
matha
syast
fruit
Naukri
bilkhus
bilashu
##hones
phul
Unfollow
##engo
dyta
Pakka
JaiHind
etne
osko
SSC
laitay
comeback
##oosan
tahre
bsss
Appreci
discount
batees
Shabir
SHREE
destro
jonno
dictionary
hadaf
gilani
##Million
Credit
javab
Messi
chatukar
thousands
settle
MishBir
AUS
KUM
Qk
Solo
Udas
gb
hb
iki
ride
##fazat
##Ayyub
##Mom
##cuj
##Hindi
##alb
##amu
##ables
memp
##istir
##tiap
democratic
khona
lehar
##hatya
modo
gaad
##thSinghRajput
niye
Haina
chupe
dekr
ens
tabdeli
##heres
##AKAK
seema
dusray
mayor
sikhe
jaae
dhoandne
sancha
luar
##utii
baithay
qadr
Todo
##OfSid
Tauba
##ganj
hoax
rupaye
##Dev
RTs
yaksaa
mosque
bowlers
gazabb
andazay
scholar
practical
karsakte
Bhabi
koshishen
##ExposedInSSRCase
sudhirchaudhary
academy
tayyaray
33
Au
Od
rigg
vji
##fuz
##Soon
##ended
##tejashwi
##harmo
##daat
##loved
unta
##velop
darwaish
raheen
##chao
chhate
bhaav
masyarakat
muse
ads
Saadat
##ineen
thokar
mehsos
khaty
bile
Level
minut
Jaata
##marks
desc
sper
samjhana
Manmohan
Mereko
##oobs
everytime
damage
answers
Vivek
##ojoo
Elections
kardoon
sidheart
sufi
respons
alleg
sawanah
Aay
BHE
Dra
PIC
RP
Wafat
aki
pesy
sty
tawaz
tangan
zol
##fty
##lr
##lom
##isgarh
##undi
krwane
begar
##atien
koie
kahaani
sochon
walau
skrg
justojoo
raseed
surgery
SanaWorldWide
jams
backup
khelny
riaz
SEHAT
Chupa
jobless
comedian
kapron
minded
failate
visale
MOHA
taiyari
MUHA
communist
pyaare
SOCH
##PMOIndia
##rajaat
MASJID
SupremeSid
Qurbani
pusht
Lucky
tamacha
Shikast
rukawat
execu
Bhal
Haya
Sn
Sch
lakar
mund
vn
vm
wn
zu
##meet
tode
baqa
abusing
behis
prak
rakhon
manen
adhik
Shafi
polic
affect
##lica
muntaq
Hij
murshid
Samjhe
izafi
muqeem
guzarte
begherat
Allha
pheink
ruko
usmein
jasoosi
sanskriti
painting
sukhi
LAGA
gherat
rakshak
Muft
trabalho
wearing
##EXOL
floor
badmashi
whether
Bint
Fantastic
Mandi
MOM
Ola
Panch
Rasht
Tadi
Vindu
ira
kB
ous
trop
##Romance
##Er
##HZ
##pna
##jud
parlim
##saab
usloob
##waah
khawaja
waloon
barpaa
badd
maroge
janda
bhaar
##stn
passed
pastel
##hron
donation
duit
Hoy
Season
sidd
issliye
province
imad
jayo
minum
majdoor
##EEP
hanuman
Afaq
kanha
mangnay
bayar
bajate
dainy
emak
MumbaiWalaPappu
Union
deepak
illiterate
inspired
incredible
scrip
usmaniya
Idea
ismael
tournament
bilashuba
Cur
Corr
Cats
Foot
Orig
SUSHANT
Wesay
aro
bong
dhari
leng
nami
swara
viz
##KU
##tos
##Jodi
##FR
##Fin
##ils
raakh
chaukidar
letey
sabor
hamal
aahat
##baani
salook
thore
gyani
kheti
Jante
shown
ikan
dekhoge
safah
aqsam
charsi
personas
soniya
##plain
##TEY
rkhte
zahanat
##radesh
##KiJaan
LOC
bahami
##Shaheer
employment
Awwww
gracias
window
wikipedia
##braan
recover
##buddhi
toseefi
civilian
accepted
AsimFandomHitsM
##erstood
tahreeron
ATM
Bos
Dera
Mp
Ped
Pukh
Sap
SIM
goo
ips
jori
pity
roty
sont
wehshat
##eT
##gm
##moo
##blo
##JS
##cara
##CD
##wide
##Gy
kenal
istaq
apaan
##utta
inhain
haara
##sih
##astar
##kahi
protes
##cham
nifaz
##det
aaey
Mel
##ARAD
shararti
cru
buzz
Keya
warning
ella
pahoron
samjhay
dislike
hats
dimak
badalti
photography
phoot
flash
mimbraan
bench
chhuut
qurani
LOGON
numainda
KanganaTeam
dukhaay
further
Eidi
gustaakhi
Bazar
##harshbeniwal
Director
pretend
SidharthaShukla
qabeeley
naaqis
Aayi
AVO
BUS
KB
Miya
RD
switch
zer
##Kaf
##db
##och
##gara
##Sor
##high
##erts
keu
##harrak
apnai
rao
thaka
maulvi
shahi
kyoun
##uego
dilanay
teve
environment
artic
atak
Shashi
export
khanjar
crossed
nashay
shower
seem
Ander
makr
kanj
nazir
senkron
##lieve
mansik
dakha
JAZ
tadbeer
##makhan
##istaan
##zzzzzzzz
WAQT
qawaid
cabinet
Khubsurat
##DryClear
zamaane
badtameez
ellos
Advance
##Honest
bilkhushoos
42
Bhee
BRO
EP
Iti
MT
MTV
Paya
ROP
easi
fase
mali
ovo
ral
rame
tme
ullah
vuel
##mul
##Ht
##Calls
##vm
##WB
##VV
##inas
hop
##yafsos
semb
karwan
##orge
apenas
baam
##utosh
##haiz
muaf
divert
lect
ung
peta
##hirt
sarfraz
duh
karnaama
thnk
bhole
ghark
##orium
jinnah
bakre
misbah
BarD
##khas
dancer
jamane
lenay
HOW
Chalta
kirolay
Urban
Santa
lollipop
susp
##them
bapu
Mazeed
behnain
gaddaron
paband
Bakra
nawazi
Varun
Abbey
curfew
PASS
##kshaw
dangai
pashtoon
##Kalyan
ajib
##Ruling
Bardasht
comemorar
kirolayna
34
Ara
DIS
Elahi
Fix
Mais
NNW
SON
austr
ipl
nish
rola
##MD
##counter
##Look
##vos
##heeh
##azar
krye
analy
chose
kabja
##awo
##ette
laude
farosh
awan
##INAL
duaen
##Naam
chupaye
Apney
##Only
tehseen
akely
estamos
broke
bhejnay
Namo
aaiine
khayalon
keeping
Halal
fasla
##Plano
##Sabse
manif
##SKSK
maximum
practic
StopTargetingAsim
panel
feminism
##GFamily
multiple
beemari
ancest
wickten
AAYE
Bim
Cast
Dana
Kasi
Oli
Ub
ode
sura
vl
vatan
##Kon
##gani
##fh
##laji
##OOL
##vaiz
haiJo
##ayyan
##alai
##adinho
metric
kawa
##enya
##eey
parso
##lem
chaak
saww
ank
lagany
harsh
chalain
addition
awami
Arabia
Leave
behria
majaz
thane
fela
hosakay
chupkay
dhaka
falou
zibah
Bhol
Mrs
aabadi
Tanqeed
chuttiyan
Jeene
transport
Akhri
Blind
iamharshbeniwal
##bulance
jhuti
Bagga
Company
pujan
feminist
VIDESHI
NIKAL
##Politics
Bebida
consigo
reveal
qiyaas
AVOID
Aukaat
BATA
CEO
Low
Pant
Positive
Shil
bind
fhir
faha
gata
jare
kdr
tagar
yn
##iN
baaji
jawa
##redi
ussy
ordin
often
asmaan
barsa
comun
badho
noch
roko
##ARY
dikit
kahaa
terlalu
bhg
basically
##hadh
##EEK
##ABAAD
filmo
filled
begana
sahul
Endia
Paak
##ducated
highly
fitri
leading
bardast
pande
juraim
##Also
##tafaq
Malaysia
ImranKhanPUBGKholo
keknya
chappan
tinggi
Emang
pukht
##Girls
ineqad
sacrifice
routine
iktalees
KAGAJ
Bakh
Ground
IP
NABI
TS
Utna
tyo
##bta
##jate
##abadi
##esty
##ahnya
debe
##yeda
tumi
haaye
jaatay
lagenge
maujood
khalaa
tuta
##upun
kaboo
paagal
suco
urban
khusoosan
afzal
Orr
talba
subko
jaano
smja
ayashi
ziyarat
accused
maksad
maksud
Logic
papaji
pues
Commun
netaon
ehm
Correct
confident
siwaay
Karein
##OPT
psand
tumahra
hainaur
fatia
rojgaar
maatam
##azzat
KYUN
haisab
tiranga
JusticeForAsim
Dhamki
Traffic
pertama
khadsha
global
DUNIYA
##Waqar
##TwistKaro
##dullilah
##Khulwao
Bisa
Btao
GAN
KAN
Uper
Zab
ZAM
bikh
khot
qe
wsy
zy
zani
##xus
##HC
##Gh
##GL
kaanon
komp
##unke
ravan
khwa
parney
##reya
woke
beje
logi
mahas
itmin
mote
Tumha
bark
Abki
takhta
##sthan
butter
Side
bhgwan
Arr
Alle
Anupam
desig
tooti
##ENTE
charas
bareme
riha
daaltay
MEDIA
##TET
aatish
Khof
progr
Sanu
##Pride
##namh
sahaf
required
mumkina
safeer
bloging
##ROWS
sulag
maharastra
Uffff
IndonesiaCalls
equally
BSDK
duper
Tanhaji
Playing
aatankwad
##Covid
##LACKPINK
muntaqili
48
ELY
aaise
aiye
eur
fest
jindabad
vlog
zehr
##Family
##zk
##vol
##usiyat
##isse
##oster
##aging
##handi
khpal
huga
##rael
maah
##edh
naina
##ciendo
tabqay
terse
padna
wasi
jinse
giray
menj
Ankhon
##akib
surf
##ystery
betiyon
##rupt
oski
Hahahahahahahaha
Dawa
shumar
mafad
##gggg
seenah
zehn
February
Assalamualaikum
Radha
Bhatt
tumhaari
andheron
cabea
VIDEO
ankhein
overacting
badtameezi
manusia
Gutter
PBUH
Civil
Independence
BF
Jon
ODI
Pori
VG
tq
visto
##lani
##vP
##aru
selamat
bhaiyya
sameer
gaur
Chakraborty
baho
bhains
daaron
concl
Shahab
pakd
quit
##doh
giroge
Anjana
haty
kuchal
Comi
afternoon
NAARAD
kapra
##OMEET
putting
khailtay
Ibrat
SCANNER
JIOB
JIOSW
JIOMEET
hainafsos
INDYA
##SCANNER
mashaAllah
investigate
Budget
SAMAJ
##ECHAT
Answer
SHARECHAT
Bhulaye
AISA
curios
azmaish
Yazid
jamiat
CarryMinati
ABPNews
extremely
##ulhassan
attachment
##Zainab
TRELL
##RoshanRomance
annoying
ROPOSO
KAGAJSCANNER
##ROWSER
ELYMENTS
JIOBROWSER
JIOSWITCH
Dumb
Food
Flip
Pais
Paan
Vs
aha
bkl
beedar
fly
kais
ohhh
wt
wjah
znd
##rage
##mala
##tistan
##Can
##wm
##Pehle
##jara
##aie
##hio
hairat
haiagar
keli
kodi
##aky
parts
krt
boltey
humme
kambakht
stalk
##igue
teu
badhi
khudh
sarfaraz
adjust
duga
shoes
sbb
insul
##jewala
Bea
akram
sadarat
bnati
Chha
jhoote
##inton
nazuk
##heeb
msori
estaba
SEC
##zaib
##ooooooo
capture
cambi
##ticia
Sakoon
Kehne
partners
talawat
Mulla
muzahi
Task
datang
gazab
Kursi
Nakli
tilgo
pachta
Express
recommend
##Bahut
LMA
Pel
Treat
Tusi
WNW
Zikr
taye
##KR
##laya
##lwan
##lsea
##bag
##Cong
##QUE
##aring
##akte
##tedar
jahir
##waqt
banin
hamesh
bohoth
dekhunga
stardom
teman
harnay
##mim
##roke
Memon
##hayad
Moh
bite
Sav
institu
wasail
worked
HAVE
affe
quiz
Hamla
lgana
Musalm
##rested
Android
files
chupke
maange
friendly
keeps
Madrid
maracuj
Coming
husan
Rehte
kirain
PRE
##Dekh
aneh
pandey
jashan
harkaton
dawn
ujagar
domingo
GHABRA
RepublicBharat
Janib
television
yateem
breath
koshisho
kehlaanay
Fukrey
##Liyaquat
Aey
Dhak
Hayat
JAJAJ
Ooh
Panj
SIK
Yuk
Zaka
amaan
swab
##magar
##Bill
##pable
##GB
##Game
##attar
##inte
##ongi
meena
karrahe
pars
##inggal
lite
jawaan
##laal
##melec
agayi
chhal
batado
stun
aau
ampe
##viet
adhy
weareoneEXO
quaid
sade
dekhata
Hemant
Afia
MerePassTumHo
kanhaiya
pages
bayalees
mubark
betiyo
Common
todna
PRA
UPA
meses
wafadari
bhukh
UrduShairi
gehray
tareeqon
ruling
aankhen
Husn
##Warna
##oronto
Senate
RAKHE
Otherwise
DukungB
BAI
CER
Qadeer
Toronto
VC
bone
dani
ghis
ghane
posh
##Ku
##AU
##Pradesh
##Vindu
##ened
komen
##ulis
dije
##rios
unknown
##ighit
alkht
alert
##eddy
manj
contain
SidNa
##engey
##tarpur
hmsha
wasay
urusan
girnay
talaf
Hae
tamatar
Janwar
##uque
dyty
cepat
larkian
hakikat
qissay
ChouhanShivraj
losing
sincere
ALi
vidhan
ACHA
raahon
universe
pyaara
##illiam
gustakhi
##Entertainment
##Bridge
PowerOfSid
loyalty
Housefull
kemarin
bhijwa
##tizekhuj
Buss
Chot
Direct
Ess
Hama
Kag
KAP
Liy
Sary
Sopa
Yara
dhai
iS
ily
jogo
mbah
wle
##sp
##ste
##Era
##FM
##Qe
##taM
##uting
##die
##liyon
##kaane
agg
mohalla
aawara
hargiz
##vities
##baazi
Sex
##ksath
khob
MeraIntezaarKarna
kery
faar
Khandan
ilaz
daiti
hosakti
bhagvan
##Naagin
teamon
vei
bechna
beryani
explo
##Tumhare
hukoomaton
angrezo
kaptaan
##Reprise
produk
cozinha
pohanchaya
Gift
balls
hukmarani
NAME
ghuroor
muslaman
ehtijaj
retired
tahreerein
Acho
Saka
alo
bord
fish
jahar
squ
##Dek
##TN
##Yo
##LB
##Bat
##asure
kora
##apo
abp
bell
khaani
chune
nim
sakey
manoj
dao
passo
muskr
fridge
terjadi
suis
wasn
shiks
chini
##ATGC
majnu
##assan
Pras
Andaaz
phla
outstanding
pahlay
makhan
ethics
##mini
shuba
dhone
larkion
Shifa
rhoo
rhoge
finance
lafafa
rapists
somewhere
looked
##iiiiii
##vsPAK
peso
##Uske
patrkar
aux
Phly
GOVT
Jazakallah
##ichael
sebelah
wild
gifts
parindon
techni
heaven
Moueen
hizab
controversy
mozoon
##BlackDay
##Ishq
compliment
Saqib
Relationship
##Kafeel
Bday
Cer
Dul
Faida
Isa
Kagaz
Sind
VIK
ghon
luq
rim
yess
##Killed
##uai
##salman
##meez
##AW
##Sens
##Yaha
naga
##isme
kargil
##tido
##ikit
##omro
##did
chato
##human
##loyed
##arib
ghume
baney
##chaap
nota
sark
Sidra
##hnawaz
bandook
sathe
baksh
bagaimana
Asy
jeans
garb
parhne
puchho
##khowa
Akram
AaJ
bhulana
phaila
creative
##formation
##THER
maangte
zimmedar
unfair
paintees
sweetheart
##ghazi
Jeetega
Garv
haber
Dusron
madaris
dramas
##Expose
khabron
Crime
Vishwas
snaps
##kaweka
sintalis
RECORD
Bhari
Earth
Gaza
GAI
Geeta
Jer
Jami
OH
SUM
iy
oc
vaar
www
##tz
##Need
##How
##zeer
toheed
##iska
##iling
##unka
istan
aapk
haur
anur
hugs
##inden
shafqat
hamsha
barkha
bhalo
##hamad
##hindi
waqf
ato
sido
talliyan
Leke
##vacy
khit
warzi
##cau
Marr
aadhar
intern
ayaa
bulbul
ghaleez
berb
qatra
sonho
zabar
##inkle
Biggest
bhejte
Attitude
posheeda
Dalali
maangne
popat
Mujha
Sherni
mouka
hilarious
##Saeed
ksm
forced
According
subscri
dhram
ShilpaShinde
Mostly
Tweeter
##asional
LaGta
mulazim
RakhnaAjay
Bhosdi
fojion
tankeed
badmash
muawiya
bherne
Owner
immediately
zahiri
##ATGChennaiExpress
37
AO
List
Run
Utar
bchy
dhin
ehal
ilam
nerv
yesa
##KP
##rhe
##Mumkin
##LS
##Have
##vane
haijab
##apy
##kib
milen
chd
ekk
marhala
##ukur
Kardia
armaan
##uffer
fran
basath
shehbaz
##akhri
##shish
touching
nikalay
Kejri
chipak
ghol
despite
fazal
mie
dying
##ORS
dhokay
Adh
##IndiaScreamsCBISSR
sonch
inteiro
jahazoo
Maafi
dekhegi
##moni
karwati
Agha
Naseem
resto
baqiya
patwario
seconds
Khalq
ONLY
Complete
sainik
panchwin
champions
##Colors
Metro
enjoyed
Wednesday
darpaish
##Bullying
tehqeeqi
srayiki
Hand
Irani
JATA
Poll
Sukh
Tank
jurat
lute
##ghat
##gest
##Din
##Sb
##RG
##RSS
##Loot
##paya
##Zi
##QQ
haiki
sehna
karb
karar
##ulta
unic
##memb
##oton
soaz
kissa
##aafi
bareng
pahen
matar
##hinking
roast
cheese
farman
Naeem
shkl
pyary
ladd
Their
btate
##Ins
realmente
mohabbaton
Ahl
bangun
Exci
choden
fox
tagline
khooni
farmaey
hormat
viswas
tarjuman
JAW
almoo
wickets
##anggil
##binod
Summa
mistakes
##UKLA
SAKTA
zikria
prasad
Parivar
##huttoZardari
adhura
Saamne
restaurant
AYE
Era
Gajab
Ila
Kiran
RU
aiy
glat
ibad
jsy
nashta
slamat
##hj
##craft
##Sher
##Bandhan
##Chu
##hest
##eneet
##esweather
##ility
isharay
##haran
higher
chamar
diay
##indon
hamasha
mohalle
kamino
chz
asmat
ashra
##mizi
nokar
##abiz
mantaq
mantan
Koyi
rocking
trick
##ufi
farid
Shaitan
Saans
##ezim
##STE
Bolta
mamad
##beda
##hingya
Khub
Khule
fever
gareebi
ayaan
##anyakan
##OLI
##panti
dhakkan
Milay
buresweather
guzre
semakin
besti
chatukarita
mitra
england
Brain
loop
##erstanding
##AndHonest
Hony
##BBAT
mufad
steps
kidhr
primeira
KYU
software
hasiat
administration
##OoL
nessa
vadra
resolve
enemy
##Chandna
definition
##KiJaanShehnaaz
Ail
Aftab
Cloud
Ley
Ohhhh
PTV
Sul
Saty
WAT
lard
olymp
pist
uchit
wol
##Keh
##TTA
##Ry
##HD
##Cont
##Pre
##Zee
##inaa
kira
napak
##adil
kaabil
##enagh
karda
istif
rawi
yaari
aawaj
notifications
tive
##shya
ChalodS
terb
terko
bhra
Sahe
suchi
##akhpur
jalsay
hunda
IndiaScreamsCBISSR
patang
mujko
Harry
Roza
internal
charging
KARTA
sudhre
Simp
classic
aie
Namaste
kintu
rista
turun
homem
Jeevan
funds
kudu
jaakarke
dedicated
muzamat
FROM
HONA
axha
kasmiri
bashindon
anjanaomkashyap
BLESSED
paighambar
##ISupportAsim
explanation
##enaghmakhan
Bure
Bcoz
Dak
Eso
FAC
Judi
Jamat
Middle
NAA
Sound
Yakin
bose
faw
jil
ora
snd
wey
##iKay
##lished
##Thanks
##zado
##Guj
##arna
##hira
##inue
##alp
hotum
##aplog
deputy
bahe
mua
milaya
samud
##upiry
Kiu
sunset
dekhay
nikkah
frq
##eshaq
bhkt
##aatil
Sabit
##quotes
##joom
Ajit
##URT
aasra
faiday
integr
##free
KRK
hojaega
dogli
Mujahid
Shankar
Offic
Grow
cheema
rafale
VikasGupta
tweeted
Manav
dheron
DAYS
choutha
PANJ
WeAreWith
clothes
equipo
Huzoor
Criminal
Favourite
Klasra
BarDasht
Musalmah
BHi
Pard
Priya
Rss
Wada
hram
qaza
tika
weh
##kor
##Ot
##bri
##HL
##post
kemana
##tims
##olon
##unte
##apki
deik
##hou
ingat
becoming
kisise
##chaa
moulana
asse
musal
shikari
##outh
aqliat
dimana
Rajeev
Sharab
lambe
burqa
Shamil
saib
photograp
nafar
qaom
##wkidar
bikne
saabat
blessing
hitler
rukna
dakho
whose
kalimat
Malang
defending
peshkash
chawalees
destru
KurtaPajama
seharusnya
concerned
Totally
ISLAMABAD
##Speaks
FairAndHonest
defeat
brownie
acabou
TongueTwistKaro
##TarfaReprise
Kkkkk
Wicket
beni
gatar
kup
##Keep
##hp
##gala
##ACH
##EF
##BU
##VD
kiay
nakal
melay
##tav
##olak
khwahi
paro
inpe
liv
jach
hecho
pry
android
tui
hami
##iyana
maior
Chaman
jispe
manush
entah
masom
frmay
sides
ups
hund
Society
khee
Jabeen
thankhowa
kuttey
Rojgar
poray
pregun
APPE
umeeden
bhoolay
lateef
akhrajaat
deposit
##UBLIC
bardash
turned
##Teach
label
Bakri
khayenge
appreciation
jrurt
contestants
##mmmmmmmm
Blockbuster
StayStrongShehnaaz
Kashif
Mathura
blaming
BajrangiBhaijaan
zakheera
GHABRAHAT
Aadi
Lluvia
MUN
Paha
Waisy
damaad
gati
phaar
qamar
##Over
##Tha
##YADA
##qn
##eren
isha
##hard
parna
kranti
khayega
sto
perha
Khor
saling
ado
lgne
Ready
ghlti
halaf
Angel
outros
desho
krney
realhimanshi
hojai
uddhav
berubah
helping
##DArrestRhea
faire
tention
laity
Supporters
Chehre
Form
confession
quiet
painsath
LIFE
korban
speaks
digest
##KKKKKKKKKKKKKKKK
dehk
encour
Scene
querer
querendo
Gandu
obsessed
subsidy
bikao
ashaab
Videsh
##ALLY
atankwad
Zakir
learning
occup
specific
blagrz
temporary
AKELA
MANDIR
attempt
kaptan
mkrmh
AE
Dawat
Haqi
Jet
NEET
fog
gosh
lind
rb
sayed
uber
vindu
##ksh
##fun
##mran
##cendo
##Care
##CDP
##Wr
kaki
##ension
##utha
##khu
humre
samaa
perta
perdi
Meteo
taught
##vijay
donkey
Muze
jalanay
povo
ayn
bachchi
reser
mujeeb
##engers
dykh
gaddi
maraah
latak
gulenaghmakhan
##girl
##RIEND
Conditions
##hahahahah
Greatest
habis
uniform
pochna
Kharab
hahahha
phupho
pohncha
tumharey
skip
uchhal
Kishore
SidNazz
itminan
AAG
CJP
Gus
GYA
Hin
OM
PAG
Rula
SAH
iyi
iksath
kings
nata
peshawar
wesi
##hro
##gz
##gment
##Dal
##Top
##Haq
meli
kav
hifaz
chaahe
haven
thein
kamse
##ources
conduct
Kisiko
plss
jinhen
tmhry
Baatein
ayesha
bagal
##EETS
##ALMAN
thandhi
sony
critics
##emos
checking
poochh
pakistaniyo
Kehny
##ikian
lakri
mustard
translation
istiq
Purana
tirar
JAISE
potty
##Enquiry
tafte
Nirbhaya
malaal
khraab
western
received
##PostponeJEENEET
sucide
minaar
chourasi
Birth
Nana
Pk
PUN
TAM
Teray
Vol
VIP
ahad
ching
flu
lhr
ltima
nate
nidhi
##hbi
##gayi
##lere
##Too
##Culprits
##qs
##ayy
paris
abyari
jahal
##laab
anu
lagatar
dohra
chons
bahera
packet
khudka
sahil
Jobs
umra
shokh
esti
urdan
IndiaStrikes
Maang
buses
##forShushant
disaster
veget
typo
##OSH
secara
##Tumhe
##Tumhari
sonra
chodenge
chaheay
Subs
Rahein
Sbko
quiere
fayde
doglapan
##Truth
bhens
StarBoyAsim
pohanchanay
mouti
celebrating
writers
Sadaa
dupatta
remote
##HappyBirthday
graduate
VERY
Politicians
Alhumdulillah
HINDUSTAN
Seems
dignity
chhatees
AHM
BLO
Doo
NAR
RK
Swami
Squad
Sallu
Vas
bng
cats
jora
lom
mv
mbar
##kw
##NR
##DR
##bazi
nagin
kepada
koti
##unci
ishi
ravay
bawah
khti
##ogical
##dicul
chakr
##sein
mael
rehan
##maari
gawaar
sakain
tetep
waqoof
##simo
farinha
terms
notes
ladayi
##sof
ghuse
samajhti
filhaal
lifetime
Manish
veces
everybody
panjab
Matt
narak
dhaal
##ocide
burj
inteqal
ThankYou
chodna
ijaz
olur
kirnay
##ukaad
chakki
StopT
bazoo
nico
Watched
##Laun
hurmat
Grand
Intezar
##AAMEEN
Bhakts
mathura
provok
psych
physics
hungry
Negara
Vikash
association
patrakarita
lkhno
smell
capacity
chonsath
Dya
Halaat
Phu
Qaim
SEN
Thuk
Uh
Yam
jans
nunggu
sore
zoo
##kaya
##feri
##NK
##best
##baki
##Watch
##Zara
##Qamar
##arrat
##have
##hiyat
##erra
apo
muhab
login
humesa
peeri
khaal
banks
samney
kishan
##aaan
##endment
sunanay
Kartay
##amein
adhar
shola
thhi
shared
girna
kayo
jaygi
##assador
khushiyaan
Hareem
##beat
##icio
beron
chhoda
Sharad
MashaALLAH
chahea
##mule
wifi
StopBullying
ITNI
janwaro
Ilzam
athawan
Feliz
Hukum
officially
fuera
chasma
Specially
pendukung
weakness
Munafiq
##ribute
olaad
gathbandhan
Bre
Bri
Gin
Hollywood
LAH
MAK
Tata
aint
lv
mme
ori
pkr
zm
##ugi
##skar
##mic
kele
tofeeq
##ahr
##diyan
thakan
muhaj
##ouf
##macin
##ongo
##etan
salwar
Nautanki
afkaar
tmhen
menina
patwar
Proof
terima
islamia
##OnYou
Akash
criana
qarz
MAGAR
##Reject
jumaraat
Brand
BhOoL
jazeera
##bhushan
taiyaar
intiqam
bukti
leftist
sahafion
teaching
jhute
RanaAyyub
Sudah
##bumps
Turk
Obviously
Valley
prosper
NarendraModi
##Kapil
TikTok
##naseeb
Negative
tibbi
sheeshay
limits
JAZAK
FairAndHonestSid
MeteoBridge
Bna
Bula
Khay
Mager
Wil
hwin
lath
lanjut
wse
yal
##hwa
##Akh
##cont
##Bagga
##jaise
##jori
##alvi
ketu
bahaar
khumar
aapi
hacen
kabr
Dep
trolls
waqae
naamzad
gobierno
Kissi
terlihat
##inemas
##akhti
poti
Leaders
tasheeh
##cao
halwa
##kamra
uthake
ulj
Bhau
keem
palne
manav
##ruption
Hows
Siap
##talis
SACH
Shushant
dulha
translate
lootne
hifzo
ishwar
hijde
Mario
stavan
##villa
adhikaar
geladeira
##YearsOfSRK
bithaya
suffering
##DemandCBIForSSR
namoonay
Naseeruddin
orders
tufaan
##tizekhujlee
CL
Elan
Fari
FAZ
Kee
Mahab
SEE
Vahi
WHY
aangan
elim
falei
iasi
jyoti
kw
mirip
rice
##nc
##lya
##Das
##MAND
##bhu
##Shu
##EQ
##CMO
isky
honour
banenge
samet
astin
comme
almiya
hyy
##oora
##hentic
##cipl
gein
Siraj
ghaat
ayga
bts
##osebumps
offend
pahn
bayanaat
senin
hakkaam
deewani
ganhar
kholnay
semu
avr
##Democracy
somos
chahia
fitness
Tanveer
hojayegi
earzi
Rabta
Offer
ukhar
twitt
bhonkna
Assalamu
noticed
sepertinya
aansoo
MUSKUR
Yaqoob
haadsay
Humanity
micro
##stoppable
NFAK
ABD
Bism
GHum
HERO
Lost
NTA
Qais
Slow
dkho
domin
fim
jig
madaar
ptm
sush
sue
uy
wud
wadi
##Saab
##Even
##EGA
##Baj
##VR
##aita
##hiyon
sehan
setu
israar
##irah
neither
anil
##raud
prha
bout
##ubey
moq
chol
##cker
Kim
manenge
dona
laad
sallu
adhe
esaion
uthay
giran
taluk
##TIYA
btaa
bulaye
##ysy
sanwar
Bhais
marahil
tests
assam
bhulane
##SinghRaj
gulukar
valentine
paintalis
##BBWinner
hafeez
GhUm
tabdeelian
Filhal
##Supports
TEAM
origin
deleted
Aatma
akkians
Centre
##cutta
adakari
boorhay
Whole
APPEAL
46
ET
Fah
Md
Pubg
Sone
azi
biyan
gori
gora
pb
pump
vig
wen
wari
##keh
##kers
##cons
##xm
##XY
##abus
naks
##iles
##aghat
##inga
thaanay
##ayaa
proo
princess
##afil
dile
liking
##HAD
tarre
sunen
laati
##apping
##rates
eske
smbhal
chize
brt
warm
Bologuruji
vivek
##isaal
spain
santi
prev
nazmein
Badhai
##hnch
##wkw
chatna
pheli
Rahega
Maharastra
karyakarta
daarhi
nadaan
Sree
Tamasha
fesla
Guzarish
##From
phelanay
batien
taaqatwar
bandargaah
SubhanAllah
##Prime
PAPPU
WeStandBy
gesture
instigate
nafsiati
sajjad
destroyed
StopBullyingAsim
Ain
DAB
Deni
Fes
Gair
Jgn
dd
fuk
kaye
riy
##Om
##bank
##zir
##hie
haia
melo
rawish
hizo
##dii
##digi
saap
krin
jaayen
muht
##limited
bolain
##meye
sambil
chris
barr
##upat
stal
format
##chis
sunrise
taarif
chele
##licate
interactive
watt
fanaplog
jugar
mauke
##IDE
kurbani
Waqat
##Kian
Quando
jazbay
breakfast
Laden
Border
##rrrrr
eian
KapilSharma
bottom
clips
Lafz
gundagardi
SushilModi
mutmaen
EntertainerSid
untaalees
fanaplogose
70
AAp
Dadu
Kayi
Qazi
Raa
Sinha
Viv
Vamos
Zra
dpt
kina
lke
lud
nuzool
pf
tane
zoom
##lata
##Tweet
##cit
##Rel
##Bhas
##phones
##VC
##inhos
##alaya
toi
##isho
##teh
##kies
##ariwala
mercy
##huz
sabun
##entinha
barbar
aachi
sunlo
bhay
mathe
Karain
##pecially
esos
shwetasinghkirt
Tez
##urious
chila
##pppp
bnke
Barkha
ghost
warga
viv
despus
dancing
bhagaya
tanaz
realme
udher
##ismati
dhoya
charan
##yyyyy
##ocat
Madhu
finished
Jinki
Taras
Sialkot
triangle
##ULA
wich
standards
bethnay
Gujranwala
Jazz
##uteron
##Targets
tentalees
coward
esses
While
deixa
Chamcha
BACK
shuroo
RESP
dictator
cubby
JabariyaJodi
ablaagh
##utiiZindagi
Aany
Beroz
Hug
Haste
Irr
Jug
Kos
KING
Nisha
Pane
Saz
TK
cin
cag
jz
sra
vender
##gd
##Ik
##Wants
##atbar
##ums
seke
##esath
##agha
##eeeen
bhichar
paros
muasar
itn
prices
##lyn
Apse
##miento
suniye
##ukhi
dinheiro
siasi
aren
sahid
Sidhu
wealth
pairr
bheer
chorar
aysy
chik
chim
mutual
Shehar
kaisey
Marathi
Jism
##OLO
schoolon
zulff
wins
##taqal
sikhao
nuqs
susu
histor
##chester
##RheaInSSRCase
khasusiyat
zubanain
sudharne
error
hassas
JaiShreeRam
RubikaLiyaquat
Nuskha
##ChorHai
acordei
##Waseem
sponsor
MOLA
45
44
Bhr
FAM
HONE
Jad
Jama
Jesy
Phi
Thing
Taqat
oqat
oui
piss
sne
wazifa
##hosh
##lang
##NC
##MU
##JW
##Scam
haitu
##inhas
##asoor
karraha
khbr
##kim
abub
anand
##kek
beard
khaber
##anger
mohab
##gion
asaraar
alliance
nous
bhao
pasta
chega
chest
firr
awleen
utter
Orang
talkhi
Aleem
dikhayega
Thek
sadiyoun
MainBhi
larkon
Jaag
btaiye
Ankh
elan
dharkan
berbeda
hriday
##hanaat
trial
chuney
gotta
ABVP
daaru
tootne
mesma
intazar
Varanasi
launda
candidates
Jummah
Happiness
Service
Bhosdike
Tharki
salgado
jashn
JUSTICE
Vicky
chhyalis
goverment
##ProudOf
bhayanak
Gujarati
nacheez
ghanemat
Dharti
Fam
Fouj
Mist
SIND
cak
dms
hte
pse
putih
xd
##eqat
##yz
##than
##Make
##Mystery
##cis
##Lad
##xmi
##jz
##jani
##eral
##akhr
##oses
##haro
##year
##reg
led
##wae
walun
shaaid
##udy
##ths
kamra
mainu
ashirwad
badhta
##jahan
mashoor
Moon
padai
##matlab
exerc
kerke
ladenge
kayam
smriti
bagher
Ussi
halak
Khawab
##males
##venue
display
bestfriend
Raju
Doctors
bangla
Sharjeel
Milega
mandiro
begini
angrejo
phely
hoaur
Thnk
Wasy
Zaror
STAY
##jjjj
bhosda
janamdin
##tahkam
HAMARE
phaily
##akhilesh
WALI
aanso
drawing
pulang
daaway
yadavtejashwi
byanoe
Camera
##ShameOnMumbaiPolice
chegou
EVERY
##utiiZindagiiKay
Ayega
EM
Jy
Mjh
Mine
Random
Shane
Twit
bou
dut
gather
luk
rr
rig
rastra
##EK
##Hat
##Card
##jod
kidar
kehe
kacha
toss
karata
##order
inqal
mudeer
lekan
unchaas
milan
sami
##habri
dilkash
kabhe
##oonga
Hoye
goa
NaMo
khoye
existe
inshan
Parag
Believe
##paak
Anu
Uninstall
bhoomi
##KKA
ilaka
Roy
sikhi
hojaty
puchha
burha
attached
zeist
Yarr
kurrah
##IMS
presence
##riotic
turk
Honey
##makash
catupiry
Dosri
governance
essas
SAAL
trabal
mehrbani
remains
genius
mehsus
wanita
AditiRathore
beginning
activities
##artmentexam
##KiAwaaz
Gos
IF
KAA
agae
jyega
lor
mame
rend
shen
##KAL
##yoo
##Id
##Sln
##pire
##jain
##GU
##VM
deye
##nect
pares
paragr
##azia
chada
tumy
aapane
abay
ante
##ract
maus
machar
bhaia
khain
banny
Apk
achii
##jaar
khudmukh
Del
laen
waqiya
##ortur
##azaat
aww
mulana
shee
kono
madre
utra
uthany
suba
jaanwar
Teen
large
nayazi
Anchor
##ghwa
becho
baithna
smjhti
Guess
alif
Brasil
##Being
##onita
bapak
kaatne
##Yaad
medium
Khatoon
THEY
opinions
patwarion
##MMAD
rizvi
Ehd
Flor
BIHAR
Terrorists
conversion
lembro
genuinely
declared
bawjood
authority
kemarenan
WeekendKaVaarWith
zalimo
advertisement
abubaker
Aust
Doodh
Gho
JU
JAJAJAJAJ
Leh
Pha
Phy
PIA
Una
UPP
Zan
Zabar
bzy
baised
phis
rit
rabi
wu
##Kash
##mayi
##DF
##cana
##cers
##Saari
##Pal
##jut
##Vote
haid
kaghazi
##tial
hip
##lees
indonesia
chaie
##kiyan
java
req
asks
rakhu
##habbra
Chaudhary
marni
Karkun
arshi
arrested
Muharram
convince
Shahnawaz
##eelat
##hadgi
hayee
##mous
brings
shayron
Anushka
mujhpe
##ORY
purcha
wahiyat
##voice
bnaa
Lie
##Human
##blings
##poetry
Brilliant
intikhabi
bhadve
gaandu
majbor
samjhenge
uneducated
tunay
hearted
domestic
Papu
jones
ashokgehlot
yogdaan
bastante
features
RajatSharma
Ghalti
##DostSid
Saudia
awareness
Hol
Ily
LDC
Sas
aney
cards
jya
tf
zoor
##EH
##jji
##qid
##ayo
##naf
ravani
saheed
##gaari
##laaq
rahata
prapt
dokha
##ubi
moose
##giye
kabur
harny
ChaLa
sunan
chuppi
perse
trap
##shul
tweep
cond
SaHi
sidhi
bandagi
madhu
pov
chorando
shipper
scen
jitnay
tornay
jbhi
kathin
mtt
##bringing
estos
dhulai
deewany
Rehnuma
Talent
lawyers
hanste
hansnay
Duaon
bhule
##jjat
parliman
bringing
DGNTA
Dhund
fulf
compromise
MASHALLAH
washroom
Siyasi
41
AU
Bant
GN
Ou
PAL
Tehr
bog
##nY
##DY
##EG
##CS
##pret
##jiya
##Gav
##arendramodi
##ancy
naaray
naagin
kaafir
##ensa
koq
raahi
rawan
##lac
logh
##kaha
sakin
Incre
aso
assa
loda
stuck
badtar
##estra
onche
##hayy
Moulana
Muaw
chotu
Selected
wekawe
konay
keras
bharte
##alem
Areee
ladh
Sabha
buena
jayaj
Baaz
##ctions
menye
mutharrak
byk
dusare
spent
becharo
dharne
kasus
insaano
Nihaad
Exc
vac
##KaDostSid
aliaa
dalaal
Water
pitai
##iddat
Ayaz
tehattar
##Sunny
Cell
haikuch
kamaai
pashtun
puedo
Bahadur
especial
Hahha
Munawar
dhundo
##hobbat
fikri
independence
edited
maizban
qutub
musawir
##ExposeRheaInSSRCase
##TargetsAsim
Ball
Dunga
Fui
Hala
Phan
Shid
Snap
WIN
Yak
Zu
amaal
bicha
fet
nun
paw
waaah
##KM
##oq
##lq
##Dus
##Tan
##Rt
##vation
##vable
##aton
##asse
kaati
kosh
##esar
apmaan
##icin
muheet
anxiety
prn
##angin
##iyai
bound
bado
maryada
Koch
robot
musical
laaj
##nder
zarurt
nyari
Dilon
Kamyab
lgaye
behta
sadaqat
patna
##InThe
spine
garma
chupi
charo
Hanji
derr
dushwaar
ganas
##pio
##porate
Essa
Chalte
tasweerai
tells
##adhya
hablar
##KET
sambhala
deepika
##mediate
PawanKalyan
precisa
cabelo
HAHAHAHA
satisfy
meteocat
facility
##Playing
##RulingHearts
BHO
HAN
Jomblo
Zahid
boobs
daty
gani
ksh
##hni
##rass
##Tri
##zd
##PG
##hami
##atic
##erving
nau
tooo
seht
##orable
demi
rahan
chaaray
##rema
unlike
kamzoor
##dein
##oods
Haii
Mela
roke
Hotel
terappan
Parah
gharane
wasa
bhart
jalna
Tea
pior
Bac
##ouse
ilan
Bhartiya
Roomi
##eeney
Thailand
bajane
larkiya
carrier
Exchange
overse
magazine
sadaa
Results
deserved
hawaly
jasoos
majboot
Mention
RAHUL
simt
mooatbar
PAKISTANI
Merry
MISS
preciso
##hobia
Wrong
rashk
Pashtun
Sleep
initiative
Gracias
Idiot
beberapa
Alhamdulilah
muzahmat
Original
StopTortur
Bahir
IB
Nope
jhand
kd
lbh
nica
rony
##ration
##gers
##lap
##tb
##HBD
##zen
##aix
hob
kod
setiap
khosh
yellow
reform
Intel
mainay
ashe
paana
twice
##bawa
salay
athe
chooti
faraz
sochke
daylight
Would
akad
Robert
torna
izin
Bhae
Kren
Raah
Milte
##watay
budhe
Suha
khilony
Namak
##frt
fights
hmein
##Target
samjhega
bajao
197
Chinta
##Drishti
Daikh
hAth
selective
bakhsha
tanzeemon
telecast
##Suicide
patriot
garmiyon
kazmi
##AzadSln
##Aadmi
ekonomi
pemerintah
anurodh
PANJATAN
khwahisaat
StopTorturingSid
Dhr
Glo
Ghot
Oooo
Sali
aussi
eqdaar
hiran
mada
suff
yud
##TUM
##Rad
##why
##zel
##vc
##Who
haiOr
kide
apsy
baalo
##omy
kraya
##kiat
##dafone
##safe
leli
maans
rezim
banwaya
##anii
kambal
raka
alay
takla
##eden
dekhane
roh
cheisat
atm
Kiss
esleha
sidhart
bandha
jalay
chanel
##zians
Hamaray
ayr
##quil
sadness
named
haqq
Ramayan
katu
tanta
angka
luga
##eshani
Hahahahahah
##conf
rkhti
##Arjun
BOLEntertainment
Zarb
##Raees
badhte
Shivaji
mabain
yanha
##boxing
District
ghnta
##MumkinHai
ravayye
eslehaath
Dram
Nazi
Tbhi
Taman
Upp
Zoya
eyan
gant
jey
nce
oF
odi
pitt
rant
rkhen
##Kan
##shy
##DUL
##Ir
##Then
##Babri
##Cap
##amento
##asra
##adr
seal
liar
##arios
khaasa
darbari
##gies
kamzori
niat
##ashn
##deki
alvida
Huma
daag
arhan
##vibes
tradi
##antri
chaloon
shoping
##amaan
bhd
urstrulymahesh
afzl
lgata
##quake
nasheen
supports
achhai
pooray
iden
mureed
sahabi
hattar
morr
riasat
Sita
Khoof
kashmakash
##aaaah
Kehtay
##REAT
haramkh
temper
lakn
dubey
##bandh
maalum
Haaan
bazari
iqd
hajar
lazy
BACH
bgair
reyasti
Obama
khuram
matlabi
belongs
jajajaja
privile
mazzaq
SidNaazians
Fadnavis
Nuk
Okk
Phe
Since
Zakhm
hing
qnd
rung
rolo
slo
zro
##fq
##Ac
##Any
##Uddhav
##Sum
##Sud
##pg
##Will
haiap
kida
hoshi
karlena
detention
dewaron
aurang
thehray
usee
banon
samait
kamran
Indeed
looser
##ends
taresath
##sto
tienes
Muja
athanway
saro
firaon
keray
bridge
Nepotism
Jabki
##joos
##malik
fazol
disso
disagree
##ulture
veena
kaunse
mojud
mojod
Peene
khelon
Huh
Liay
##oshit
poochta
Bhagwa
hansta
Poet
cerve
collect
shaheedon
bhram
sadiq
Zulum
BAAR
cyber
built
mohlat
inhisaar
unsath
existence
Dawood
bhooka
bagian
BDUTT
beemar
Jesus
registered
astitva
allegations
parlimani
tayees
##Launches
BJ
Gulam
LAR
Qal
Rey
Smule
bgh
burn
cie
galoch
jdi
kvi
lazzat
mnd
ruh
##god
##this
##Person
##WOOD
haiR
hous
memon
kartu
isly
usar
usnay
pemimpin
##otum
dohr
reward
andesha
##witzer
arth
rocks
##vian
##asement
##mpa
chohtr
fareed
shots
##INDI
bharak
thop
Bekar
choranway
lagaata
Darurat
payen
chizo
Heat
bsm
samajhdaar
Khadim
mushri
kutch
katta
baita
Jisme
jeetenge
veo
Bio
Thapad
sanu
APNAY
gandy
ajae
pichly
Chuke
Aaap
utarne
Raheel
bikta
Mehboob
Buhut
karwata
phoonk
incr
Surah
nationalist
bewafai
Kanpur
kamzoree
girift
ADOPT
##qareeb
Jahalat
signif
Hogya
muhallay
atifcam
Tiktok
samarthak
Shaid
SurbhiChandna
Character
Driver
iftitah
Message
##studentsPM
Innocent
SanaTheBBWinner
sahuliyaat
KHE
Masa
Pues
RAJA
SOP
TGFamily
bjay
cualquier
dase
eent
hjri
kasht
##Kakar
##taba
##Nak
##Dan
##JAI
##Bank
##phi
##VY
##anas
##att
##ayl
##onesia
keta
kaab
##esho
##eehat
bele
unless
darbar
##enday
Challenge
tarw
paala
Karu
##hrab
addi
dayan
waada
jalana
zarayi
lagae
Alka
tashee
chidiya
brad
warrior
buscar
scot
sachhai
galli
safdar
ramlal
Matric
Pehchan
Cheap
sangharsh
tukang
jazair
dako
taisi
scientist
##anjali
Larkana
Behna
cutting
sorte
TARAH
nibhaya
##MinIndia
zehniyat
circus
##Matter
istmal
TERA
FREE
##Deshmukh
revenge
Sitam
rkhiye
malem
sarcastic
chahtin
Shivaay
gubhar
hartaal
bigaad
BiasedBBTargetsAsim
minutos
istifada
##SinghRajpoot
wekawekaweka
47
BMW
CSK
Magh
QAT
Roop
ath
dyan
ec
kint
luego
qassar
rik
uti
vide
yoga
##Lam
##Bc
##who
##Pi
##GS
##aldo
##amy
karod
##ikin
nego
ingin
##sip
huwy
##atim
usually
bans
banty
shake
##aaal
##machal
chhed
aisee
barang
sunah
##stri
pasha
dengi
arjun
symbol
sayid