[PAD]
˜
؈
؍
؎
؏
؛
ؠ
ػ
٪
٭
ٮ
ٴ
ټ
ڈ
ډ
ڑ
ژ
ڪ
ګ
۞
۱
ۺ
۽
۾
फ
ॉ
ौ
०
१
२
ਇ
ਕ
ਖ
ਥ
ਪ
ਭ
ਰ
ਵ
ਸ
ਾ
ੀ
ક
ગ
ટ
ડ
થ
ધ
ન
ફ
મ
ય
ર
વ
શ
સ
ા
ો
⁉
⏳
☕
☘
♻
♾
⚘
⚠
⚡
✊
✋
✨
❓
❗
❤
⬅
⬇
⭐
⭕
ﭐ
ﭘ
ﭙ
ﭨ
ﭩ
ﭼ
ﭽ
ﮈ
ﮉ
ﮎ
ﮐ
ﮔ
ﮕ
ﮞ
ﮟ
ﮦ
ﮧ
ﮩ
ﮫ
ﮬ
ﮭ
ﮯ
ﯼ
[UNK]
[CLS]
[SEP]
[MASK]
ﯽ
ﯾ
ﯿ
ﱠ
ﱡ
﴾
﴿
﷜
﷞
﷠
﷢
﷤
﷫
ﷲ
ﷺ
ﷻ
ﺀ
ﺁ
ﺅ
ﺋ
ﺌ
ﺍ
ﺎ
ﺐ
ﺑ
ﺒ
ﺕ
ﺗ
ﺛ
ﺟ
ﺠ
ﺧ
ﺩ
ﺪ
ﺭ
ﺮ
ﺯ
ﺰ
ﺲ
ﺳ
ﺴ
ﺷ
ﺸ
ﺿ
ﻋ
ﻌ
ﻒ
ﻓ
ﻔ
ﻛ
ﻞ
ﻟ
ﻠ
ﻣ
ﻤ
ﻦ
ﻧ
ﻨ
ﻭ
ﻮ
ﻳ
ﻼ
￼
￿
🆔
🇮
🇰
🇳
🇵
🌈
🌚
🌟
🌠
🌱
🌴
🌷
🌸
🌹
🌺
🌻
🌼
🌾
🌿
🍀
🍁
🍂
🍃
🍷
🎀
🎂
🎈
🎉
🎊
🎓
🎗
🎤
🎶
🏏
🏘
🏵
🏻
🏾
🐅
🐆
🐖
👀
👁
👂
👅
👆
👇
👈
👉
👊
👌
👍
👎
👑
👣
👨
👩
👪
👶
💄
💅
💍
💎
💏
💐
💓
💔
💕
💖
💗
💘
💚
💛
💜
💝
💞
💟
💠
💡
💢
💥
💦
💧
💪
💫
💮
💯
💰
💻
💽
💾
💿
📌
📍
📒
📖
📝
📢
📣
📱
📲
📼
🔊
🔔
🔥
🔦
🔫
🔴
🔵
🔶
🔷
🔸
🔹
🔺
🕋
🕓
🕯
🖋
🖐
🖤
🖥
🗨
😀
😁
😂
😃
😄
😅
😆
😇
😉
😊
😋
😌
😍
😎
😏
😐
😑
😒
😓
😔
😕
😘
😙
😛
😜
😝
😞
😟
😠
😡
😢
😥
😨
😫
😬
😭
😮
😯
😱
😳
😴
😹
🙁
🙂
🙄
🙇
🙈
🙉
🙊
🙏
🚙
🚩
🛁
🛑
🤐
🤓
🤔
🤕
🤗
🤘
🤣
🤧
🤭
🤲
🥀
🥛
🥰
🥺
🦁
🧕
##ڈ
##ڑ
##⬇
##ﺳ
##ﺮ
##ﺍ
##ﻓ
##ﯿ
##ﻞ
##🥀
##🏾
##😊
##😞
##😢
##😭
##ﻠ
##ﺌ
##ﮯ
##ﺋ
##🤔
##२
##ﺛ
##ﺕ
##ﷺ
##०
##ډ
##💍
##ਥ
##ژ
##🏻
##ٴ
##😂
##🤣
##✋
##😇
##ﭨ
##💝
##💖
##😨
##👇
##😁
##🔥
##👎
##🌱
##🙄
##ﻨ
##ﺎ
##ﮟ
##🔸
##🔹
##🙏
##🌸
##ﻮ
##ﻧ
##ﮉ
##ﯾ
##ﮞ
##ﺗ
##ﻦ
##😃
##👩
##💻
##😡
##؎
##🙂
##🇵
##🇰
##ﮭ
##ﺠ
##👈
##ﯼ
##🎤
##💰
##💔
##🌚
##⏳
##ન
##ટ
##￼
##સ
##💕
##શ
##ﮕ
##🙊
##😐
##💎
##😜
##💘
##ੀ
##🐖
##ﻤ
##ﺅ
##🗨
##🌹
##🌷
##🍁
##🍂
##🌴
##ॉ
##ौ
##🥰
##😘
##😍
##😯
##🚩
##ર
##🍃
##👍
##🖤
##👉
##￿
##ﮦ
##⭐
##🙈
##💞
##😟
##😝
##😠
##😉
##😄
##ػ
##💐
##🌠
##💢
##💓
##😔
##❓
##😛
##✨
##ؠ
##🎈
##🎉
##🎊
##😆
##😅
##💪
##ﯽ
##🤐
##🔴
##💚
##۞
##🤓
##ﺰ
##🔶
##♾
##ﮩ
##ﺭ
##🌟
##😳
##💜
##˜
##👌
##👂
##📢
##🛁
##💧
##🌺
##👅
##🌿
##ગ
##ા
##💯
##😋
##😹
##💦
##؈
##🙁
##😓
##ڪ
##ﷲ
##ﺀ
##🤗
##🌼
##ګ
##😀
##💟
##ધ
##👀
##🍀
##😬
##ਰ
##ਭ
##ਾ
##ਵ
##🔫
##😌
##🤭
##ﻼ
##💠
##ਸ
##ਪ
##🕓
##۾
##💗
##🇮
##🇳
##🌾
##ો
##ડ
##😒
##💅
##😎
##🔵
##ﺑ
##ﺴ
##ﭩ
##😏
##👊
##१
##ﺷ
##ﺪ
##ﺸ
##ﺩ
##ﮬ
##🤲
##🆔
##😱
##🔊
##☕
##ٮ
##ﻭ
##ﻟ
##ﭙ
##ﭽ
##ﮫ
##ਕ
##😕
##😑
##🔷
##☘
##📣
##🖐
##ફ
##👑
##ਖ
##ﻳ
##😥
##ټ
##✊
##ﺐ
##ﭼ
##ﮎ
##ﻌ
##ﺿ
##ﱡ
##ﭐ
##📖
##ﺒ
##🥺
##💫
##⚡
##🙉
##🌻
##💏
##વ
##ય
##થ
##😮
##મ
##💮
##ﮧ
##❗
##🤘
##ﻔ
##ﻒ
##۽
##🐆
##⬅
##🎂
##👆
##🤕
##ﮔ
##📲
##📱
##💾
##💿
##💽
##📼
##🍷
##💡
##ﺯ
##ۺ
##ﺲ
##۱
##😴
kar
aur
nahi
kh
bhi
hain
tum
aap
aik
bha
yeh
##iye
kya
kr
afsos
kha
##aye
lag
khush
gh
liye
bhai
raha
sab
bol
fil
kuch
woh
muj
koi
ghum
baat
thi
nhi
mujhe
sak
lekin
dekh
sath
kis
jis
zab
bohat
kisi
ais
kahan
hota
apna
##ardast
jab
tumhar
zabardast
rahe
apne
gaya
lagta
mera
har
karne
##wit
waq
kab
peh
gha
rak
agar
toh
##tay
dek
##ayi
##witter
achi
mus
pakist
tumhara
diya
gussa
sirf
phir
rahi
aaj
pict
bah
maz
lik
bolo
apni
##wittercom
pictwittercom
chalo
baad
reh
kiski
kaam
hy
jais
keh
kabhi
rah
terhan
khud
karta
rha
karte
jaye
kiya
ziy
kyun
chal
ziyada
itna
jata
nai
##eeb
hoga
##kay
meri
usay
karna
sahi
hoti
shar
pata
abhi
##hiye
bh
kaha
karo
beh
zind
##haha
bhar
dik
tw
naam
ghar
waqt
bil
sakta
pur
acha
kho
aisa
baar
gaye
yahan
wali
saal
chahiye
##esha
pais
##daar
logon
taq
haq
zar
desh
soch
##eeq
kal
nazar
mut
waj
meh
wala
rahay
lar
##iyat
pehlay
dekha
gayi
tas
##eel
khus
hwa
jaan
zindagi
##hna
bur
walay
pasand
kon
rhe
##aza
qab
khat
kir
tweet
asi
##amil
bahut
jal
gir
modi
cheez
khar
chor
isl
liya
##alat
samj
bana
sup
##chay
itni
yaad
##wab
ay
##aray
dono
jee
##aiz
kais
aam
honay
wor
hun
wajah
baray
##anay
mul
jag
kyu
gya
##ین
samaj
adak
karti
bht
khauf
ker
happ
hona
##kul
kirdaar
pai
mam
raho
##ayen
bhe
koshi
hamesha
isi
kamiy
asim
apko
##jp
paas
bilkul
khi
nikal
bak
wale
dost
kash
mun
##waz
taraf
laga
tou
kamiyabi
jahan
##kht
tm
##ollow
haqeeq
koshish
gy
zaroor
magar
##eef
tere
kahani
jati
##areen
khushi
yaar
aata
##saan
duniya
hn
maa
aisi
mush
deta
aise
tuj
teri
sana
aaya
jaise
rakh
shayad
shuru
hogi
yahi
jaisay
##habbat
theek
bl
##qeen
aad
ame
##yada
muk
congr
thay
vide
waqai
py
##lease
##oob
dikha
ver
bola
kro
jit
##iyan
hote
wais
mah
fo
##naak
dete
zam
jao
qabil
haan
bab
dekhnay
num
ila
khe
##afi
lg
##ار
matl
kahin
##ukla
hahaha
khatam
rhi
sach
kare
baap
ghair
gar
bata
jh
bahar
tamam
herat
dena
yaqeen
!
"
#
$
%
&
'
(
)
*
+
,
-
.
/
0
1
2
3
4
5
6
7
8
9
:
;
<
=
>
?
@
[
\
]
^
_
`
a
b
c
d
e
f
g
h
i
j
k
l
m
n
o
p
q
r
s
t
u
v
w
x
y
z
{
|
}
~
¡
¢
£
¤
samajh
¦
§
¨
©
##orat
«
bir
®
°
±
nahin
paish
´
aas
mohabbat
·
pehle
º
»
hoj
½
ach
¿
×
ß
æ
ð
unhon
ø
aag
naz
insan
khaya
moj
##atay
œ
##kaar
pta
bagha
##aat
mur
saath
hone
##eek
aak
jawab
aaye
saf
kitna
uda
baj
gai
agr
maq
comp
indi
##enge
##uq
kyunkay
matlab
##hiy
hoon
mand
##ket
##ری
waz
maar
maza
##harth
tera
haqeeqat
mujh
dukh
mak
##kil
behtar
##tiya
mila
pyar
gand
jagah
##ank
shak
haal
cor
ameen
khof
raat
qat
imran
##maal
wap
aapko
iste
huk
kaafi
##uran
sarkar
udaas
aq
qad
kharab
iz
dekho
kut
pah
aayi
filmon
qis
sakti
aati
chah
beht
khofnaak
likh
##asil
##waj
ber
dus
##khs
khayaal
dua
bara
bacha
mulk
usko
##iyon
pag
bhag
wahan
##riend
tarah
##andi
haz
muq
dis
mojood
yar
##اي
##thday
kita
temp
tumhe
inte
musal
dosray
dur
##htay
howa
istemaal
chup
qar
kaise
sik
krna
khaas
teh
naf
jb
shakhs
chh
likha
behtareen
sakte
hotay
bho
##یل
##یو
hamein
ish
hos
kiye
khila
hamari
ו
bharat
##soos
mau
haasil
seri
כ
utha
tumhari
מ
ן
dain
mukht
hus
sahab
apki
mushkil
asal
uske
ר
##eshan
aisay
،
ء
ا
ب
ة
ت
ث
ج
ح
خ
د
ذ
ر
ز
س
ش
ص
ض
ط
ظ
ع
غ
aakhir
ف
ق
ك
ل
م
ن
ه
و
##sid
ي
ٹ
پ
چ
ک
گ
ں
ھ
ہ
ی
ے
roz
आ
उ
ए
क
ख
ग
च
ज
ट
ड
ण
त
थ
द
##hnaaz
न
प
ब
भ
म
य
र
ल
व
श
ष
स
ह
ा
ि
ी
ो
##aal
##tey
ake
অ
poori
ele
fais
##mag
chala
lak
mubar
aya
bta
pehli
faz
ট
bura
shaamil
umeed
##asir
dy
mukam
ন
angaiz
lagi
ভ
uski
য
র
uska
dekhna
khuda
doos
##jh
া
ি
jayen
manzar
tumhare
##kkkk
##jiye
chale
##waq
chahta
zaroorat
dhar
hel
jeet
gol
bul
##iyo
galat
jaa
##ور
khaiz
hath
aadmi
##diya
adakari
madad
yaha
##bhi
hein
dilcha
rakha
shadi
##ushan
pareshan
dilchasp
satke
nis
shuk
aan
yak
walon
awam
kahi
peop
adakar
kehna
hes
##tice
##eez
##یک
diye
insaan
jaz
##سٹ
sala
dha
dho
tujhe
kehte
daur
mubarak
krne
mukammal
anda
kee
hala
peda
krte
maloom
wohi
taf
hamare
mash
sor
daal
pap
##oomat
poo
barri
jaisa
bhut
##reat
aurat
##ون
sidharth
pra
badal
hamaray
janta
amer
bech
unko
nar
phr
##allah
qatal
taj
pagal
maan
famil
##amat
boht
kitaab
jaane
umdah
krta
ajeeb
taree
##icket
inti
baqi
mehf
musalman
tk
pho
##yaar
deti
suna
ghalat
dimag
##ayat
##taf
gad
kaun
poli
##tif
##ublic
sch
nawaz
larki
dekhte
##ikar
rehta
leha
khu
inhen
##raad
khel
–
—
jitna
plz
‘
’
‚
“
”
„
†
##azaar
•
…
sawal
parh
##haka
andaaz
guzar
bohot
amal
##awat
itne
mj
kitni
hesiyat
##haz
##haar
naa
hazaar
jyada
ilawa
hissa
dont
##shukla
jaldi
ahe
walo
apny
##naaz
##qaat
str
afraad
mazhaka
dard
waisay
rahy
zare
lah
gye
pura
rahen
ghan
jatay
pti
ly
mard
hamara
€
zara
socha
haha
abb
khobs
™
mazeed
paisa
gro
wapas
jus
tala
jayega
puch
zyada
mang
mehsoos
shair
##urat
##asht
zareya
asli
##alif
warna
dekhi
##taq
##maan
kaisay
beti
khobsorat
##ول
achay
baghaawat
yah
isliye
##lywood
balkay
##asim
##jab
banaya
kah
yr
bigg
anay
##zaar
★
kere
chand
inko
##hammad
shehar
gali
buri
##heen
kardiya
##asat
sil
##jid
mahi
bhool
manaz
blo
rhy
qa
milta
barray
samjh
karke
jari
daf
comm
unki
manazair
jate
ishq
lain
chho
##jay
##ait
saari
##yy
##pect
mukhtalif
aapke
bada
unke
##taar
##weer
##tak
dush
saaray
##esi
janab
tasweer
pani
zahir
ghabra
tra
##hesh
##uu
dekhen
thora
##daron
yg
vir
##یٹ
masha
##ww
bayan
pich
kuchh
wahi
mout
sharam
naya
dehli
##یم
ney
bajaye
##sak
yad
insa
wazeh
qareeb
lol
amr
agarchay
##abiq
##aim
doosri
lehaza
bachon
##lti
tareen
tabd
sah
nafrat
ehs
##ushant
aakh
bina
parta
mutabiq
fal
waise
baghair
filme
bahot
hak
dainay
bananay
sare
laf
apke
baki
guz
gul
kitne
faisla
whi
aakhri
ini
zi
rahul
salam
bik
siy
isko
##barah
honge
tweets
jaha
nd
mol
bna
ikh
ghabrahat
kaar
kas
mili
##hain
choti
khail
muh
tayyar
rehne
ij
lete
##boss
##ason
duk
##fir
##unga
khul
jani
nae
kl
##ooq
aawaz
andar
hogaya
majmo
chuka
##anat
ghabr
khoon
ladki
cham
bor
agay
##char
atay
dene
kayi
nuq
thik
shakal
aapki
jad
acco
sher
samnay
##indi
bes
sidnaaz
khoob
ehsas
##india
saab
naay
apka
rab
izz
ahem
jald
ghareeb
paras
dikh
##azat
pyaar
rakhe
waqe
tuk
kami
aankh
kre
##akar
usse
proble
puri
angre
aksar
masla
chore
muje
qo
gover
##reeb
talaash
thoda
kap
khana
sabko
haf
chalta
shukla
baith
theen
##bab
##oooo
bachay
sind
ghabrana
waqay
##reer
yakeen
##رو
khabar
##ahi
##riya
yehi
raq
krty
intehai
karsak
spe
##aty
douran
saat
iska
##را
sabse
rehna
meu
halat
pari
lutaf
##urr
haqeeqi
muta
taham
khil
##ubs
sama
krdaron
paise
izzat
hindust
eid
dobarah
##bd
hosla
rakhna
##aaaa
leke
bhot
##shad
sabhi
##wahi
##hehnaaz
aapne
politic
amrici
lage
samjha
alag
yani
sari
##ateen
kark
saktay
ela
##umar
bolte
mehfhil
kham
gyi
chahtay
zul
##raat
lat
taqreeb
saaf
##ayega
##sain
lagti
##sad
loo
tareef
roo
uni
hpa
tash
##wah
qisam
daikh
##fans
##aish
galti
##str
##htar
wh
##pak
##andar
mamool
aks
##لی
perfor
jud
gham
bawaj
aar
aeye
aage
akh
##oos
##jawan
kyo
aja
hukoomat
aal
karsaktha
##oosi
abadi
##anch
kyon
##mahesh
feh
##kn
haar
dushman
mem
##tahi
jese
subah
krti
naq
chod
##eeda
khol
##baat
bade
chahe
##hoor
tareekh
##alik
insha
##ather
##leef
majmoi
jama
##akay
waha
papp
hosp
mujhy
##khuda
cri
mos
ati
sey
the
of
and
in
to
was
he
is
as
for
on
with
that
it
his
by
at
from
her
##s
she
you
had
an
were
but
be
this
are
not
my
they
one
which
or
have
him
me
first
all
also
their
has
up
who
out
been
when
after
there
into
new
two
its
##a
time
would
no
what
about
said
we
over
then
other
so
more
##e
can
if
like
back
them
only
some
could
##i
where
just
##ing
during
before
##n
do
##o
made
school
through
than
now
years
most
world
may
between
down
well
three
##d
year
while
will
##ed
##r
##y
later
##t
city
under
around
did
such
being
used
state
people
part
know
against
your
many
second
university
both
national
##er
these
don
known
off
way
until
re
how
even
get
head
behan
didn
##ly
team
american
because
de
##l
born
united
film
since
still
long
work
south
us
became
any
high
again
day
family
see
right
man
eyes
house
season
war
states
including
took
life
north
same
each
called
name
much
place
jisay
go
four
group
another
found
won
area
here
going
10
away
series
left
home
music
best
make
hand
number
company
##taa
never
last
john
000
very
album
take
end
good
too
following
released
game
played
little
jhoot
district
##m
old
want
those
side
itu
own
early
county
ll
league
use
west
##u
face
think
##es
2010
government
##h
march
came
small
general
town
june
##on
line
based
something
##k
september
thought
looked
along
international
2011
air
july
club
went
january
october
our
august
april
york
12
few
2012
2008
east
show
member
college
2009
father
public
##us
come
men
five
set
station
church
##c
next
former
november
room
party
chuke
december
2013
age
got
2007
##g
system
let
love
2006
though
every
2014
look
song
water
century
without
body
black
night
within
great
women
single
ve
building
large
population
river
named
band
white
started
##an
once
15
20
should
18
jaisi
service
top
built
british
open
death
king
##hayi
local
times
children
february
book
why
11
door
need
president
order
final
road
wasn
although
due
major
died
village
third
knew
##nab
asked
turned
st
wanted
say
##p
together
received
main
son
huwa
different
##en
behind
himself
felt
members
power
football
law
voice
play
##in
near
park
history
30
having
2005
16
##man
saw
mother
##al
army
point
front
help
english
street
art
late
hands
games
award
##ia
young
14
put
bom
country
division
across
told
13
often
ever
french
london
center
six
red
khilaf
led
days
include
light
25
find
tell
among
lakin
really
according
central
half
2004
form
original
gave
office
making
enough
lost
full
mamu
must
bawajood
live
given
german
player
run
business
woman
community
cup
might
million
land
2000
court
development
17
short
round
ii
km
seen
class
story
always
become
sure
research
almost
director
council
la
##2
career
things
using
##heed
##z
couldn
car
##is
24
close
force
##1
better
free
support
control
field
students
2003
education
married
##b
nothing
worked
others
record
big
inside
level
anything
unhe
give
james
##3
military
khaw
non
peechay
feel
does
title
written
thing
feet
william
far
co
association
hard
already
2002
##ra
hazrat
human
western
100
##na
department
hall
role
denge
production
21
19
heart
2001
living
fire
version
##ers
##f
television
royal
##4
pos
working
act
case
society
region
present
radio
period
looking
least
total
keep
england
wife
program
per
brother
mind
special
22
##le
am
works
soon
##6
political
george
services
taken
created
##7
further
able
reached
david
union
joined
upon
done
important
social
information
either
##ic
##x
##aise
position
ground
lead
rock
dark
election
23
board
france
hair
course
arms
site
police
girl
instead
real
sound
##v
words
moment
##te
someone
##8
summer
project
kur
san
less
wrote
past
followed
##5
blue
chutiya
al
finally
india
taking
records
america
##ne
1999
design
sakht
bandi
god
stop
battle
taqreeban
##dul
outside
mumkin
track
today
playing
language
28
call
26
heard
professional
low
australia
khilaaf
california
win
yet
green
##ie
trying
blood
##ton
rish
science
maybe
everything
match
square
27
mouth
video
race
saam
leave
above
##9
daughter
points
space
sils
museum
change
middle
common
##0
move
tv
post
##ta
lake
seven
tried
elected
closed
ten
paul
minister
##th
months
start
chief
return
canada
person
sea
release
similar
modern
brought
rest
hit
lafz
mr
##la
1997
floor
event
doing
thomas
1996
robert
care
killed
training
star
week
needed
turn
finished
railway
rather
news
health
sent
example
ran
term
michael
coming
currently
yes
forces
despite
gold
areas
50
stage
fact
29
dead
says
popular
chaar
bhul
germany
probably
developed
result
chuti
friend
jaanta
money
running
mi
aate
word
songs
child
shehnaaz
met
tour
average
teams
minutes
festival
current
deep
kind
1995
decided
usually
pahle
kehta
##ness
episode
bed
added
table
indian
private
charles
pehla
available
idea
##hty
centre
addition
daar
style
yout
books
lga
construction
press
mean
wall
friends
unka
schools
study
##ch
##um
institute
oh
chinese
sometimes
events
possible
taiz
skta
type
brown
forward
talk
process
food
debut
seat
performance
committee
features
character
arts
herself
else
lot
strong
batao
range
hours
peter
arm
##da
morning
dr
sold
##ry
geh
##ream
1993
thori
china
##w
31
list
##ma
##raha
media
uk
players
smile
##rs
myself
40
nojawan
coach
province
towards
##tw
leading
whole
boy
official
hame
grand
aapka
##el
europe
attack
##trol
henry
akela
##re
##os
cross
getting
alone
action
lower
network
wide
washington
japan
1990
hospital
believe
changed
sister
##ar
hold
gone
sir
##uly
ship
##ka
studies
academy
shot
rights
below
base
bad
involved
kept
##gaar
##ist
bank
future
especially
beginning
mark
movement
section
female
magazine
plan
professor
lord
deen
##ian
sat
kbhi
hill
actually
civil
energy
model
families
size
accha
chaha
haath
musht
data
captain
##or
fight
jabkay
neta
richard
bridge
takleef
biwi
officer
stone
hear
##ism
means
medical
groups
management
self
lips
competition
entire
apnay
technology
leaving
federal
tournament
bit
passed
hot
independent
awards
poora
mary
spent
fine
doesn
karni
##ling
jack
fall
paida
itself
stay
true
studio
angrezi
sports
jum
paris
zameen
saint
leader
theatre
whose
market
capital
parents
hoo
canadian
earth
##ity
cut
degree
writing
bay
christian
pres
natural
higher
bill
##as
yakeeni
waf
previous
senior
ft
valley
organization
stopped
kkhuda
countries
parts
conference
queen
security
interest
saying
allowed
master
earlier
phone
matter
smith
winning
try
happened
moving
campaign
los
##ley
breath
nearly
mid
##یس
certain
girls
date
italian
rehti
standing
fell
artist
##ted
shows
deal
mine
industry
ans
##ng
everyone
republic
provide
collection
library
student
aane
bac
karenge
khair
via
heavy
ilm
makes
##able
attention
anyone
africa
##ri
bolne
mazahiy
##aqat
fingers
command
staff
skin
foreign
opening
governor
okay
medal
kill
sun
cover
job
##endo
bataya
chest
hell
feeling
##ies
success
meet
reason
standard
meeting
novel
atta
trade
source
cle
##land
rose
guy
goal
##ur
chapter
dahai
husband
maf
unit
limited
mauqa
weeks
producer
markazi
mountain
takes
musk
forced
related
roman
complete
successful
key
texas
cold
##ya
channel
1980
naye
films
dance
clear
usi
500
nine
van
prince
question
active
##hoon
ireland
azad
silver
rho
personal
sense
operation
##ine
economic
performan
holding
twenty
bhiya
dekhe
speed
hour
shaam
regular
bolna
places
whom
samne
movie
pha
secretary
badi
report
chicago
read
foundation
view
engine
mutasir
scri
nahe
ask
airport
property
ready
immediately
lady
month
biggboss
contract
##de
manager
themselves
lines
##ki
navy
writer
meant
##ts
runs
##ro
practice
zikar
singer
glass
commission
required
forest
starting
culture
satah
giving
bre
ruk
test
couple
stand
catholic
martin
caught
executive
##less
eye
##ey
thinking
chair
quite
itnay
1979
hope
decision
plays
lye
muqab
whether
ghus
naseeb
slowly
pain
ice
direction
##ion
paper
mission
hada
mostly
200
dhan
individual
aao
nature
lives
plant
##ha
nehi
except
dum
computer
figure
relationship
issue
ait
loss
die
##نگ
gun
ago
highest
1972
##am
male
bring
goals
mexico
problem
distance
commercial
completely
location
utar
famous
drive
bla
neck
qan
##aliq
minha
italy
understand
kamy
highway
wrong
hotel
comes
buk
joseph
double
issues
musical
companies
##waar
income
review
assembly
bass
buny
parliament
artists
experience
##waqqa
particular
walk
foot
engineering
talking
window
jas
##ter
miss
baby
boys
break
zeh
stars
sahe
remember
policy
ani
train
stadium
bar
sex
angeles
evidence
##ge
becoming
assistant
soviet
zabaan
upper
step
wing
1970
youth
financial
reach
##ll
actor
produ
##se
##st
##cause
azam
##ation
minute
##nt
bhagwan
sorry
complex
beautiful
victory
bhej
temple
1968
##ال
chance
usne
metal
##son
ekht
jur
##et
lee
##hiyat
bole
tree
le
retired
subject
prize
##ataam
yeah
theory
fav
##ce
suddenly
waiting
trust
recording
##to
happy
terms
camp
champion
1971
religious
pass
zealand
names
##qat
port
haa
tom
corner
##ikas
watch
legal
anti
justice
cause
watched
brothers
45
material
changes
simply
response
afzai
fast
##ting
answer
60
himmat
ekhtataam
stories
straight
create
feature
jara
rate
administration
virginia
el
activities
kese
overall
winner
tasaw
mushtamil
pappu
guard
beyond
cast
doctor
mm
flight
results
remains
cost
effect
winter
##ble
chuki
dah
problems
chairman
phe
commander
isn
hoty
pay
failed
selected
hurt
fort
box
saza
majority
journal
35
edward
plans
##ke
##ni
shown
pretty
irish
characters
directly
scene
abi
baaz
allow
khawateen
##j
junior
matches
looks
mike
sushant
fellow
##tion
beach
marriage
##ham
idhar
rules
oil
65
florida
expected
vaq
congress
sam
peace
recent
iii
wait
karkard
cell
##do
aat
mene
agreed
please
poor
ہار
##ube
attempt
wood
democratic
piece
prime
##ca
uma
mile
touch
##afsos
paye
##haan
harkat
soldiers
##men
##ized
corrup
sharm
rok
fighting
natee
score
jones
physical
editor
##ous
filled
karkardagi
specific
sitting
super
mom
##va
dunya
supported
status
fear
cases
store
meaning
ghatiya
minor
spain
tower
focus
vice
frank
follow
##gir
oop
golden
horse
##esy
deegar
branch
32
##deed
##but
##id
zada
secret
aab
##co
lgta
exactly
##ck
choice
note
qas
travel
##kaam
truth
russia
ball
color
kiss
dad
wind
continue
ring
awa
numbers
digital
tujh
##ns
rup
vaqata
direct
increase
1960
responsible
##khab
rule
trees
engl
##no
broke
goes
shab
cine
weight
##ooz
sleep
memory
defense
##aron
mula
code
value
tumko
gae
batain
safe
judge
whatever
waly
afr
growing
pre
##ga
cities
ziada
sada
lies
spread
##haat
letter
showed
situation
mayor
transport
watching
workers
dosra
##li
expression
normal
##ment
chart
multiple
border
##ba
host
##ner
daily
mrs
upar
piano
##ko
heat
cannot
##ate
pooch
products
drama
era
authority
seasons
join
grade
##io
sign
difficult
machine
abad
##zaam
##unty
##wood
andaza
lekar
##tir
inki
iron
smj
##led
serve
appear
sky
speak
broken
charge
knowledge
goli
isse
cre
article
campus
simple
##ty
aza
rkh
##ve
ghr
recently
cd
soft
ese
azeem
easy
chay
poland
##sa
quality
officers
presence
planned
karwa
mass
mehnat
gener
share
image
influence
wild
offer
qoum
electric
reading
##eeqi
colle
bhakt
yellow
ministry
mazah
maqsad
rad
politician
##by
hojata
spoke
cars
sidharthshukla
males
lack
pop
80
dor
acting
seeing
kch
##ti
##veer
##hira
pressure
johnson
newspaper
jr
chris
manz
online
conditions
beat
lainay
walking
vote
krny
needs
hadaayat
text
ghazal
global
block
shirt
maaf
francisco
purpose
females
et
dutch
chak
ahead
gas
twice
safety
serious
qaim
highly
lieutenant
firm
maria
amount
hei
daniel
kafi
perfect
waal
affairs
farma
seconds
##یڈ
paid
##eep
farq
save
kitchen
label
exp
##یر
jha
dast
nice
teacher
##zad
safar
##koon
bunyadi
ben
nation
nhe
shut
misaal
mashhoor
qanoon
rakhnay
seems
shik
chhoo
sus
function
von
mentioned
kak
build
chahte
chori
protection
picture
mazhab
exchange
elections
dm
loved
percent
salahiyat
fish
humare
garden
smjh
hockey
akele
dham
##agar
##ford
1940
kahe
replied
##ooo
tehreer
actress
baal
amit
steel
yaqeenan
farm
steve
parre
risk
tonight
positive
magic
majb
mahar
ris
screen
dog
##ja
##akti
bus
sides
none
sanj
##hib
polish
destroyed
flying
##وں
rakhta
baare
lay
fazer
usa
gallery
##ler
neechay
achha
tumne
approach
ibti
urban
ones
1950
finish
اس
powerful
fully
growth
page
honor
##aab
projects
hahahaha
uth
basic
90
##mati
pair
zinda
visit
33
evening
search
grant
effort
solo
treatment
leta
##astay
dari
bottom
owner
saha
israel
gives
jim
dream
karega
remain
spot
70
notes
produce
champions
contact
ed
soul
accepted
ways
del
##ally
losing
faida
price
capacity
basis
trial
questions
##ina
akhir
neg
guess
officially
kijiye
chali
bhaiya
mtlb
waja
tareeq
engineer
##ful
sydney
##go
columbia
strength
300
aman
tears
senate
00
card
asian
agent
dharm
software
44
draw
warm
supposed
com
pro
##il
barh
shamshad
##at
candidate
jahil
cele
asia
kher
activity
entertainment
seem
traffic
jackson
murder
36
slow
product
chocol
haven
agency
bbc
taught
website
comedy
larke
##chalo
planning
rakhi
mamooli
environment
##bani
rashmi
protect
##hi
boat
##aji
chalay
kamya
damage
principal
zindah
dedicated
mount
kry
##berg
pick
##dk
driver
##der
##اس
##wahish
sort
thank
berlin
iske
account
freedom
necessary
efforts
alex
dusre
posi
hindustan
des
aai
andrew
ہارر
tabhi
learning
steps
mustaq
sweet
technical
begin
easily
34
uch
speaking
isme
##alim
##sh
padh
ray
max
enemy
semi
joint
##asha
##rd
##nak
leadership
analysis
offers
bolta
haram
##mand
animal
deputy
guest
congrat
##lin
tony
##odi
##jaam
challenge
talluq
huge
wants
bani
sons
rise
crime
types
facilities
telling
path
##yaan
platform
sit
hoa
##lo
tells
iski
rich
pull
##ot
baro
alive
##za
dab
concept
jaate
wearing
happen
bought
becomes
holy
gets
##ayenge
defeat
sipa
##jri
coffee
kht
khubs
##q
declared
inka
dikhayi
concert
sounds
jazz
brain
##me
painting
sikha
tax
nick
raye
khas
count
animals
leaders
episodes
##line
content
##den
birth
##it
lene
64
ghalti
rakhtay
som
fair
leg
rakho
zim
ghul
maqam
jaaye
##icha
##estion
connected
rome
medicine
bhak
##یا
santa
bd
adam
tall
shared
tur
knowing
hukum
##eee
wak
##wa
calling
##ad
sources
ank
karoon
ensaan
yard
##ite
sard
silence
zone
##duc
##que
##hez
hissay
38
bodies
moon
##ard
aaghaz
christmas
namaz
register
apart
iran
##likes
kil
du
unknown
parties
##les
generation
##ff
dp
quick
balo
brigade
quiet
teaching
clothes
impact
darja
partner
flat
dosti
supreme
saare
37
relations
##tor
rasta
milega
shandaar
wilson
kids
durust
##age
khusi
seats
armed
internet
tabdeel
worth
laws
##gha
ijazat
classes
background
knows
thanks
quarter
hol
humans
carry
killing
format
kong
hong
setting
75
hor
##tici
hogayi
inc
honi
wish
arthur
thoughts
harry
lambi
dekhne
##di
crowd
##وس
kamyaab
tone
unique
reports
anyway
##ir
liberal
der
rakhay
sipahi
dry
drug
aleh
##riaz
facility
theme
hiday
shukar
strange
colonel
##mi
revolution
bell
politics
turns
silent
rail
relief
independence
rh
aankhon
write
inke
sales
aqal
aayega
finger
oxford
kaisa
bachi
##yaad
fiction
rel
pand
ger
##reeh
intikhab
##est
bewaq
interview
tawaqqa
ide
##ria
toronto
paanch
keeping
guys
damn
claim
motion
sport
kmh
##qay
##ze
en
halaank
mery
##oray
##baad
dress
audience
izhaar
brazil
##well
spirit
##ated
noticed
etc
awaz
##kash
aqw
tight
mutaliq
reviews
drink
vampire
missing
shikaar
sifar
kaa
khid
sahih
jaga
critics
##ee
phase
##ینڈ
pilot
unlike
kamz
bright
##anya
chaiye
huye
taraq
42
jinsi
clearly
tongue
qaum
circle
fox
korea
mgr
brian
bache
sexual
supply
yourself
inspired
labour
fc
##ah
reference
vision
draft
connection
brand
reasons
pil
classic
driving
trip
jesus
darya
entry
seekh
neither
trail
zor
hidayat
orders
shareef
nose
afraid
cheezon
intelligence
calls
cancer
afg
buhat
##edy
jantay
banai
shayar
jason
39
sunday
48
gari
avoid
extra
uncle
message
kamyabi
##come
surprise
taleem
fame
hunter
##ji
1930
citizens
hmesha
dewp
gaali
confirmed
shit
intzaar
di
insani
difference
cheh
attacks
##ajaj
##liya
votes
opportunity
nor
shop
soorat
trains
opposite
pakistan
##pa
develop
banaye
gur
actions
reality
pls
##ish
##liye
muna
conversation
##aik
ikhti
ends
zaya
nuclear
stock
grace
اسٹ
eat
karam
##ps
bag
##asti
oopar
surprised
rona
neend
drop
thak
sarah
cricket
rosh
baaray
ride
tees
##manshi
target
ear
dak
rain
kyuki
chil
apartment
hojaye
hora
journ
doston
clean
billion
constitution
learn
siwa
maximum
dega
##jj
lose
opposition
jose
bardasht
bear
core
khawab
khayal
ending
baz
permanent
fun
##tes
##lla
reli
sites
tarj
##maheshbab
##way
vid
height
##usam
##house
lyrics
##abar
55
siyasi
##eeli
snow
hist
##tic
orange
##ger
nig
interior
kashi
rahega
thousand
dinner
lights
existence
fans
halaat
41
greatest
comer
send
bowl
plus
enter
catch
##un
economy
duty
makh
speech
karde
princess
performances
##qaab
shall
graduate
pictures
asraat
##laylikes
poetry
desk
crossed
mukhtasir
starts
mehez
sharp
##ant
zulm
ass
weather
falling
rank
fund
supporting
check
parha
waalid
heads
cm
hoi
lane
##burg
application
bc
##ura
les
condition
transfer
shiv
display
ex
dala
##adat
khwahish
cool
##icial
piche
##ukat
aana
##hut
wese
##town
mix
##ding
reaction
liked
dean
express
peak
##laylikeshehnaaz
##tte
counter
religion
chain
rare
miller
convention
aid
lie
ppp
mobile
perform
squad
wonder
lying
crazy
pada
##ping
roshni
chai
##ardari
philosophy
category
##ize
anna
interested
47
maghri
wolf
paaya
janib
kg
ise
alliance
task
sadi
##ay
arey
promotion
factory
unhein
khara
hogaye
matt
fm
rehte
52
defence
internal
karty
43
narend
##ging
arrested
otherwise
kaat
programming
emo
zub
sys
rakhy
criminal
chahye
worry
##اک
aala
fara
aor
signal
bird
truck
jeen
programme
##ol
ad
49
communist
details
faith
sector
plzz
allag
laugh
##ss
educ
korean
showing
origin
binod
evil
##chod
##ent
bhala
identity
nikla
address
pool
missed
zariye
web
planet
janwar
anne
bisa
shukriya
##tt
tl
standards
conf
##be
ideas
dhon
chaye
##gham
worse
albert
articles
milti
##naam
tart
andh
dangerous
gate
doubt
shuda
hae
multi
##ky
poet
rising
funding
46
##ork
##asal
violence
##asta
bachpan
ford
investigation
skills
tanz
cbi
electronic
##ak
nabi
##han
karkay
zakh
kabi
singing
understanding
restaurant
tomorrow
fashion
christ
ward
da
##wur
stands
gos
flow
hawal
tarteeb
bri
chl
exist
fresh
ane
##per
wrestling
kary
kid
filmi
respect
suit
fikar
angel
asking
injaam
frame
angry
wahid
leh
thin
nal
##nd
temperature
statement
ali
explain
dara
taakay
jawan
karain
51
jane
asar
images
promise
somewhere
lakh
fly
##adesh
##ls
muza
didi
khandan
##inha
adakaron
nikaal
##kaan
miley
##ai
##au
launch
waza
##ny
vai
##ring
zal
strike
un
institutions
roll
writers
landing
chose
qub
anymore
pp
##ut
jitni
fit
dan
bich
zaroori
kamzor
breaking
##lop
##ident
##hista
jaati
chutiye
shaheed
charlie
##bdmaheshbab
hole
iv
chhootey
credit
moscow
roads
accident
bij
proved
wear
apa
hey
guards
stuff
marzi
insaaf
barish
cat
anthony
##kin
dhe
tasawwur
sub
thodi
tafreeh
failure
plane
sabi
##ron
map
camera
tank
listen
regarding
wet
kutte
dri
link
ep
fighter
inch
fouj
gene
anger
fixed
buy
dvd
khan
domestic
jannat
bator
mill
neh
samandar
##head
qader
qismati
turkey
hits
pocket
antonio
papers
grow
unless
muqablay
ghali
concerned
attached
journalist
selection
journey
converted
jhoo
admi
hearing
aren
samb
negative
shir
taw
liy
lap
survey
ma
##ow
izaf
aameen
khal
shooting
guide
bedroom
chee
qabal
motor
bewaqoof
##asib
tah
##mer
150
scenes
equal
chahti
patients
hidden
solid
actual
bringing
afternoon
aasaan
funds
wedding
qubool
nakaam
canal
sr
kim
gunah
##oobi
jayenge
sarkari
lanat
broad
diff
incident
tareeqa
aul
moseeqi
handle
cheek
contest
represent
##pe
wagh
beauty
##sen
birds
##ullah
emergency
##pk
drawing
notice
pink
mais
##ong
vou
shairi
haye
yaa
registered
establishment
alan
dila
##odh
##ilay
roger
retirement
jeff
gyan
doub
kyunki
device
threat
progress
advance
##ised
banks
ros
manchester
todo
teachers
nya
forever
##bo
tennis
helping
saturday
sale
mausam
jayegi
hip
letay
larka
skte
ceremony
##ds
bap
islami
lagey
religi
waghera
inner
##baar
hung
maal
gain
##eeee
gam
kalo
austria
clock
norway
mazak
pale
rishta
karw
behen
employees
plate
putting
vikas
##ists
guf
waqea
hahahahaha
##ries
karein
consider
gana
accept
54
##pat
naan
concern
ameer
hawa
institution
##tiful
dein
hasil
##dy
karan
outstanding
muslim
fut
##dayi
juga
usual
demand
hoja
humari
lawyer
educated
##ana
taraqqi
cheeze
pleasure
budget
barah
saya
dijiye
philip
typical
chut
zardari
hosakti
jaata
asks
mental
##ide
56
jake
kkkkk
mohtar
taaqat
khamosh
sri
extremely
53
##rif
loud
thousands
worried
shadow
aasani
##akht
raah
rk
importance
users
tim
##ungi
btw
jahaaz
jisko
aware
dilchaspi
##self
jordan
sisters
##aaa
flag
investment
mjhe
shock
##uji
clark
row
wheel
##ustr
session
##usi
biggest
wins
hate
muqad
tat
kag
request
saka
wapis
mazb
majboor
qarar
wars
laa
cant
stupid
ammi
janu
cabinet
miya
joining
indiana
##ea
##ms
push
aunty
spend
behavior
aay
bhee
tanha
chase
morgan
mention
burning
wake
combination
##laat
mirror
sidd
qee
indeed
impossible
singapore
assar
kehnay
##nes
soldier
toot
adv
sell
madar
shehna
jism
##voot
gayab
##jriwal
changing
##qt
##don
ikhtiyar
inches
##ku
maang
vol
yhi
aara
switzerland
##gan
reform
sel
ha
forget
massive
khule
watan
fic
mabain
ان
values
kor
##mo
actu
universe
sick
dating
facing
pack
purchase
user
##pur
moments
##ul
pmln
anniversary
maam
kaho
##iliye
understood
sheh
aahista
chacha
establish
tafs
crisis
promote
larai
views
cards
suppor
extension
##si
raise
muzahira
improve
pasandeeda
formal
waah
##rt
palm
lucky
hide
rescue
faces
95
feelings
candidates
juan
hojati
##dil
lagaya
nab
weekend
ajj
wazeer
cash
aqwami
##om
yh
##iiii
chahay
kutta
saaz
##fiq
hollywood
nir
sakay
responsibility
##he
shore
file
proper
masoom
jor
dunia
jump
constant
cer
friendly
araha
persons
realize
contain
trophy
maienay
##atein
factor
58
andoz
cry
bound
bss
usme
hero
mansoob
medium
##ure
siyasat
taa
##ara
57
cycle
##che
beer
msg
congratul
##itr
##tab
worst
weak
tarha
mahol
chin
loan
universal
bond
##haq
gareeb
zay
##ney
hamla
##zed
lip
arab
capture
bartan
insurance
##chi
opp
##hyan
hif
warning
chhota
courts
coat
plot
smell
feed
golf
favorite
maintain
gard
vs
voted
padta
finance
qeemat
opinion
translation
manner
ruled
sem
naak
choose
insaf
bunyaad
confused
tired
tanq
stream
ksi
committed
attend
ranking
kings
throw
##وم
##ailer
horror
fan
wazahat
sand
danger
aslifans
calm
decade
dam
##versity
runner
##ik
rush
##aap
bachan
##ker
##fore
asimriaz
reham
khatoon
samaeen
sq
documents
darr
edited
lond
tie
accused
tabdeeli
##ini
islamic
tareek
nikl
##kkk
humara
sifarish
pehchan
mad
lit
talu
jaty
taste
##onvoot
composition
auqaat
sehat
pab
bbonvoot
ibtidayi
tumse
twin
mumalik
##ran
tokyo
mayoos
dimagh
obviously
khanay
##isode
requ
carl
pages
##heer
dul
bhaag
universities
nuqta
ghanta
pati
banane
rasool
constituency
creative
cousin
mes
dreams
margaret
##maat
saamna
ohh
mode
haalat
aulad
saved
jan
##jabi
##ica
bakwas
andy
##jo
##fors
qismat
lala
##ise
maut
meanwhile
##kaat
walid
haina
grass
nateeja
zakhmi
charges
tea
sudden
appeal
##ung
solution
pakar
##ashtra
##mai
glad
parking
##ning
belt
physics
99
gandi
add
ayen
participate
jat
behn
gift
childhood
85
desi
##red
inhe
tajur
whats
bijli
mph
##ux
##gh
testing
roti
tik
shoot
jinhon
matters
baatein
israeli
tabah
dancing
##cept
chalne
zaati
##asli
profit
humesha
##gs
truly
li
yogi
phle
begun
doob
abbu
kitab
smiling
decide
saddar
enjoyed
rakhen
bande
##logo
maloomat
gay
##bi
gary
##waye
rooh
krke
##one
##ons
##aiye
##tik
pohan
acid
##ary
dusro
returns
narendram
mail
##ang
##arah
strategy
##ue
net
modiji
cook
dey
tashad
##illah
kaisi
ill
##cy
seriously
##ors
##ped
shift
saabit
replace
rio
imagine
formula
##alth
##ber
pehly
scheme
mutahid
taluqaat
dhund
feels
favor
##and
##ore
intahi
pade
tada
mujy
movies
hogya
##ccha
##ameen
danish
fiz
busy
demon
sugar
##akat
colony
dekhaya
balance
dhoka
##ks
amaz
##andom
carter
zamane
humne
farmaya
iraq
fifa
##im
tawaj
karay
zero
bhad
##ague
tali
achan
legend
bathroom
option
tail
takhl
khay
unwan
##laa
jaw
rahiye
##ded
rastay
pegham
likhi
kate
##vi
jap
pesha
##ino
temporary
swimming
##pik
kartay
ghost
audio
bush
qay
rocks
baaki
bhara
deser
shoq
ann
cons
chunkay
munasib
memories
fb
pure
##وک
jamaat
saboot
66
ghalib
ceo
arrey
muqaab
hansi
benefit
betay
medi
hoge
mashallah
jadeed
patient
sleeping
ghhor
muqaabla
jub
##nif
##eeen
khali
rehtay
rice
62
limit
survive
makeup
rating
definitely
fas
obvious
##tan
boss
ms
##سن
birthday
chehra
soil
quer
##lan
inv
##mann
ikhla
tadaad
adakara
##taz
hadd
##وٹ
##aikum
organ
resolution
##hash
ahal
relative
##pend
98
kren
kbi
marketing
garam
crash
masi
aut
partners
chalega
carlos
##mak
cable
##zi
kard
##out
chahi
bottle
hony
rejected
tem
janam
mutahidda
jobs
denmark
lock
##ating
zamana
graham
badla
talent
tajurbah
drugs
dist
tests
piy
sacha
photography
##gi
ghulam
jitne
designer
dinon
daikhta
rss
robin
padega
##تھ
##tit
##gate
ail
las
laughing
satellite
theat
##haa
fehmi
interesting
bekar
karoge
##aslifans
norman
suk
stuck
speaker
rifle
domain
chuk
##her
dc
mutad
actors
phool
taweel
darasal
aukat
bulandi
lenge
script
hokar
##abhi
##abba
fak
##tweet
##site
baithe
pyari
guilty
muz
gender
raftaar
fruit
##bs
iam
nelson
##tific
marry
##hti
chur
isiliye
jazb
fehrist
suicide
aaz
adams
bone
waqeat
parast
kick
giri
dhoond
muf
column
silsilay
gods
banay
nuqsaan
boli
barabar
##ek
mabni
ty
shadeed
masr
##pos
solar
##mari
respon
##tta
ret
thats
waste
index
samjhta
charity
##unch
bakh
tip
flash
##hearts
friday
enjoy
singh
poem
listening
##back
roj
murabba
asse
##liam
bomb
##faaz
surgery
corporate
masters
anywhere
##more
##udo
odd
##ashta
portugal
gayeen
dick
debate
baq
eating
##maar
khane
hil
expect
cinema
phan
yrr
##conom
hur
agree
haya
ghoom
dying
panel
struggle
##ged
kum
mazboot
##etry
shree
nizaam
metro
mahira
shoes
tamil
btao
yay
prove
##keaslifans
fati
heaven
scared
sending
marks
khubsurt
##یگ
superior
insta
plat
shopping
##tive
arnab
pes
malaysia
technique
hisab
##ola
behar
ayega
destroy
extreme
puranay
tasa
mutadid
##yn
fill
advice
alabama
yha
policies
taar
hat
battery
smart
saheb
wis
degr
##gay
jala
lb
naaq
zak
lkn
funny
muam
ambassador
roy
jhan
couples
jaissa
dna
loose
##bdmaheshbabu
tareeqay
socho
gonna
khareed
chhod
##res
shake
agents
hawalay
##او
dogs
bolti
61
gang
plastic
zindabad
naaqis
gulf
blade
exposed
colors
##haad
hidayatkaar
pan
##henge
husn
gaddar
tanqeed
jesa
lijiye
mac
ahm
karwai
copy
saa
jisne
abbey
roshan
license
safha
employment
jay
pareshani
dasta
##ikr
cloud
mauzo
suffering
accounts
koe
bhae
strongly
##waal
colour
crystal
pazeer
context
alfaaz
##thers
batana
econom
jerry
##cing
phat
mp
##ens
manage
schedule
totally
gaand
##ii
izafah
##ento
print
ano
agen
kisne
dehs
engineers
sele
kri
seek
correct
jy
und
alfred
jadi
hop
##des
achanak
clas
##hout
qaumi
welcome
banta
achieve
67
exit
maryam
jes
hahah
loot
##cs
sing
ent
adventure
bobby
rick
shehnaazgill
careful
##reek
cap
darm
personality
##mn
##shi
oper
##waan
##بر
protest
ca
ghantay
molana
##sis
##tap
dill
khusoosi
jante
azadi
riy
tashw
##work
##ft
##nia
cooper
trading
dear
conduct
nazreen
illegal
apple
nauk
holiday
definition
##ayed
##van
jacob
##iden
##kl
##lle
popularity
lamba
qaat
krwa
donald
commun
##lif
tasaveer
honour
rahain
qaatil
##ready
till
happening
statue
critic
jarurat
khur
describe
commerce
muash
##ster
indonesia
meat
andaz
pero
miyaar
badha
depression
silsila
sabit
gird
thapp
elaan
sentence
salamat
aadat
document
pq
criticism
##azir
shohar
dhyan
bent
virgin
##ام
minimum
bukan
lunch
ameeen
bharti
imaan
tari
false
blow
zain
68
madah
78
cutting
##board
jazbaat
##up
raqba
paya
81
esi
nrc
jon
##urti
poun
scholar
ah
##zer
##qar
##gy
stick
##tention
kamaal
daak
spell
romantic
##ver
ye
##ority
photo
bharosa
customers
##ac
##qm
meray
##wak
musan
nikle
politici
jeans
anj
upset
raw
phil
qal
chaand
muntaq
##یز
##bly
##وڈ
diamond
tig
coverage
musannif
saj
heran
daan
gl
bible
mjhy
##daan
dehshat
il
lift
profile
tawajah
humko
reha
##afat
##su
nobody
achievement
darmain
fault
##ational
sochta
initiative
breakfast
carbon
tashadud
##ased
##titu
violent
74
behas
ken
killer
##hare
rahein
maazi
dollars
bhari
dafaa
remove
dram
sth
sang
chemistry
##vin
##hadi
disney
##bridge
uniform
pehlu
zah
proposal
##maad
zindgi
##reme
karl
milna
buz
bangl
mehfooz
choro
chehray
dada
71
jada
##ld
kardah
nazi
hme
ny
blind
reporter
barbaad
zail
shahid
burn
simp
chhup
##vaj
filed
mim
wel
parwah
darj
buland
##hahahaha
##police
##ushants
tag
khatir
##yak
##fay
ase
triple
73
raqam
hmare
rahenge
caa
julian
zurori
gufta
amazing
farz
chuna
ataa
happens
bahan
alb
bare
arsa
##ddat
ignored
dawn
kejriwal
##port
samay
##ram
fark
achy
##eshi
kw
admit
##uty
electricity
alham
##koi
symbol
##ving
ladies
shower
nit
maro
##je
marna
button
ratio
halaak
ghat
angle
arsay
skti
foster
nyay
shum
shareek
hab
karnay
muhabbat
purani
##ething
##bhar
ishara
lifetime
nom
shaadi
chalti
##yani
fam
##maya
rob
nomination
##tah
##orrow
##sm
karlo
jaiza
##tra
hathon
kasam
dust
josh
##so
pare
milk
unf
agaya
thailand
indians
##hind
qual
##sy
assist
pitch
##یي
hmari
girlfriend
muamlay
esse
hence
sad
aet
fur
dj
saja
hp
refer
hoye
##ora
mourr
##ingh
##ten
saale
dirty
uthaya
mey
serv
seed
##harthshukla
jany
limits
##chor
himanshi
billi
##mbly
mashaallah
uff
pathar
arrest
langu
mystery
devil
riz
##یپ
naik
bhos
##istic
##pression
liay
remote
likhnay
##ics
##ok
usy
shai
##ming
retweet
##وي
hisaab
saathi
decisions
cbs
joy
teach
milnay
bibi
##andhi
eve
dima
partly
bhen
gap
aisy
fate
excellent
##eshnak
na
apk
dukhi
laya
belie
##ily
inf
##ita
shr
suggest
##ct
discussion
aesa
##baz
##amer
jacket
revenue
tumah
##adah
##eedgi
unse
rakhti
masroof
shaan
moh
chakkar
terry
##ice
apply
suno
##chistan
aim
catherine
fuck
farmers
kilom
isra
pride
##bhai
lambay
##wali
utna
comfortable
aitra
tech
tehreek
jazbati
##pir
sharing
##lia
##em
##eech
exact
##ggak
bhula
fat
cried
tashweshnak
dafa
marey
pa
cabin
##weez
emp
##eeh
##isation
badly
hij
##ance
mujhay
charac
warner
bet
permission
##rin
pel
khidmat
bhan
maghribi
seth
gor
nuk
##cil
benefits
colleges
kilomitr
jurm
mall
rukh
##ye
##kar
##adar
##ened
akshay
deaths
guftagu
##ae
anivers
hais
sigh
ash
hardly
argument
nigah
parent
leo
dya
alm
contribution
##ua
konsa
1000
kiraya
##waad
prab
raaz
emotions
bartanwi
mason
muskura
bloody
controversy
kharid
steady
mistake
fouji
aetmaad
mazaaq
##sk
betha
jins
spin
garmi
ager
guj
gear
literally
shakhsiyat
random
cont
mazm
confusion
pir
transmission
##wadi
op
paal
mujhse
suspended
thinks
gates
zimma
luck
agencies
yours
bahir
expert
arz
qud
practical
##jey
##read
latest
bangal
azaadi
##yab
##zahir
warrior
##رز
mess
supports
khr
raast
bacho
kalaam
inshallah
##seem
soci
##ano
jiska
jaiz
files
mustaqbil
sust
##vo
delhi
turner
pit
affair
##rhe
paint
seh
mate
##ach
##jaan
victim
##ology
waar
bonus
##tim
saken
##ud
kise
jise
kii
##waja
ulta
##ata
hata
##ichael
supporters
judges
##dari
manzil
rahey
##dood
##ick
##kya
dece
muqami
aglay
spider
bite
##ho
aalam
intention
leti
##ese
##ooda
bow
tourism
favo
shikast
tiger
nggak
subha
vi
##ru
nurse
bzahir
tape
##rum
mota
##rn
daakhil
zai
aapse
voting
civilian
emotional
channels
##king
sambha
buht
inkaar
tommy
carrier
afsoos
##hiya
##kom
##gar
##zo
lab
curr
bench
discuss
celebr
wada
janti
behalf
muaw
unfortunately
##laad
##lis
rocky
##allam
thaa
friendship
honey
##rian
##aind
khula
hang
posted
zila
##iyaat
respond
##faz
taqseem
siyah
##po
##کی
pregnant
videos
##haram
maalik
tarb
agli
weird
##kri
grap
fer
hawala
tehat
ph
mood
abey
dimaag
haii
jet
##anki
hamza
##ci
passion
riyasat
boyfriend
zair
zuban
sty
ron
segment
fa
abuse
##era
genre
##umaar
##erat
##ender
stress
barbad
narendramodi
##gen
faro
dialo
abroad
khaali
wonderful
jind
madrid
lr
aath
##sed
tale
citizen
burai
monday
hatt
##essi
overseas
hin
crying
##guru
##ris
##angan
chota
gak
mukh
nama
noor
switch
drum
waale
sochte
kul
proof
chha
cream
gaon
sukoon
kesi
khela
milan
##zaaj
nishana
humein
ilaqay
delivery
unt
##ves
##ans
bars
gaz
sabka
##mera
aalmi
##uk
zalim
inter
links
shamil
##upport
apn
##یوں
naj
##oy
scream
##hu
tension
hii
kismat
faltu
defending
defend
pat
detail
muskur
bsdk
nazam
bartari
##uva
dharam
tool
mjy
ruling
crimes
answers
ayi
##izi
resort
purana
hans
wasallam
izat
lion
naraaz
##iat
ilaaj
##zr
##fa
badh
iblis
beth
noble
aamir
percentage
shehnaz
##cra
ss
thar
keya
confidence
sabr
islam
telephone
safaid
raza
chile
ankhen
roberts
##یری
##akr
##gawar
tid
innocent
naw
afs
checked
taaza
afghanistan
sung
##anon
parhnay
karny
bigger
options
bday
daba
tribute
austr
muntak
tabs
##yan
butler
sahafi
forum
monthly
##piku
##tiz
bula
##botpiku
bano
bechara
rev
##harrak
kitney
##ula
elite
iblisbotpiku
disaster
democracy
awareness
div
gra
##ins
loop
absolutely
paying
kashmiri
maine
##waya
prayer
sbko
peeche
gujar
bull
##ani
lover
unhi
ganda
mahs
faiz
bary
kafir
##lt
##tig
proud
qadam
dosto
murda
tot
krni
appe
##apna
##ston
instant
##sim
prin
ain
arre
khari
##ao
##وف
likhna
sena
root
karon
pya
##hany
##artment
##ushantsing
sheet
tit
##geen
##zab
deb
masail
murdered
mian
yai
gentle
bandh
##dani
shocked
shaya
hehe
##light
##dat
##ou
belong
##dulillah
arti
##aqi
reme
dety
aniversrio
raf
qaid
##enoura
bat
intizam
whatsapp
##pti
scientist
##habat
jhut
klas
##net
moo
parti
minority
mini
mayoosi
maamla
tend
lots
alaikum
cenoura
load
shots
bohut
jail
sabki
chalein
banti
wealth
##ved
khanah
hindustani
rangers
inde
rul
harami
beshtar
flood
muhammad
whenever
relation
afrad
moral
jesy
viewers
padi
revenge
khushgawar
boor
bath
udhar
hafiz
ilaqa
innings
dikhao
sambhal
##struly
voters
clinton
bahad
ultimate
##round
walidain
lions
##least
dekhta
saan
comfort
tarjuma
aese
jarur
hms
ban
pine
##tn
slaylikeshehnaaz
##ٹن
bid
oye
##ned
##nan
mazaq
##ane
cameron
recovery
uss
masih
muntakhib
beroj
##strulymahesh
##kuch
noah
##arch
therapy
peoples
touching
##off
karu
pearl
bhr
everywhere
pk
mukha
lanka
takhleeq
##lekin
shumaar
kahaan
ungli
bete
baais
franc
khamoshi
exclusive
saazish
##jha
##dra
winds
coz
##buster
bangladesh
tube
publicly
huz
thai
##ys
##pn
select
##ric
##erv
pen
##geting
ticket
martaba
bewa
shil
jiske
suni
sochna
tukre
##رن
muito
naraz
##time
tafseel
mulki
##hn
meer
bila
ishti
priv
dakh
##ery
randi
tasl
mustaqil
soor
dikhta
ladk
mask
worker
##vind
##ushi
wazir
##akan
dilkash
##tis
reporting
##hl
wire
puras
ishh
##itu
fandom
ikht
banata
mustahi
opposi
eu
##uvaari
sukh
fatah
sanam
hifazat
bahi
ey
arabi
pichlle
saz
millti
khoubs
imrankhan
##uvaaripa
xd
zameer
alien
poooray
moz
buat
heroes
fed
bhutto
##wor
##ros
taamer
sara
mashri
delete
janay
khata
##wh
kisko
##op
##blo
##side
paar
tabsaray
aank
se
##ties
nikala
##ارڈ
ishhq
khoubsurti
##rie
prepare
imag
nami
##sha
certified
##bul
##ahar
muntaqil
##mm
kharch
##ball
rage
harm
milegi
bnd
##ren
##wast
dunga
settle
mazmoon
cuba
balls
client
##ssr
payi
fri
oc
celebration
##hayat
mulaqaat
terror
##cia
##ening
##friend
fee
witness
skty
sorat
rabi
mustahiq
earning
hood
##ei
mardon
wang
saeed
frnd
missile
purastaar
bhon
techn
##istry
fes
package
nishan
opin
sanjeeda
kok
jaoge
chess
nafsi
doctors
oscar
zaat
treat
sek
sahb
fel
##ire
deve
##eray
##amos
##gon
##wan
paa
##she
covid
badnaam
jangan
jn
bnda
sabar
acre
##yaa
##tii
loves
belongs
affect
saq
dukha
balochistan
hoke
dalit
inse
##ween
nateejay
##ات
alg
romance
pc
##cher
argue
##ical
chhor
tarz
www
awaam
honest
pallay
yesterday
virtual
##let
muslims
reveal
snake
tajweez
##وگ
sabab
unhone
firing
saving
hinduo
gente
##hhhh
kahoon
blame
jaag
hungry
beha
##indo
kehne
sur
itny
##cha
tapi
##hraj
pyare
darmiyan
##fer
succ
reply
qualify
hadees
sona
taz
patwari
##ken
unfollow
janoobi
atleast
sakty
bhoot
explanation
zehni
mumkina
cheekh
diy
kehty
connect
srk
feesad
##modi
baithy
liber
##وری
##ujood
slip
sonay
##ction
surely
sultan
brings
ppl
##qon
tasleem
qatil
##atan
experiment
chez
pabandi
kareem
hyn
##ika
saamne
raaj
##tar
hindu
error
##eena
magr
##qarar
##heel
talks
jaat
excited
banne
ho
jinko
acche
##dir
##qdaar
guzaar
##bih
trick
##ubg
##hok
##omat
barha
milte
##med
conversion
##jis
trah
ilzaam
##birthday
sn
larkiyon
sensitive
hello
babar
##اين
gho
rocket
prices
##یں
shikay
pait
inn
pita
emotion
##esome
##udh
##mus
##itay
##idesai
shaks
pm
##forthe
kra
manta
aaccha
comment
##ites
akal
hahahah
absolute
lamha
tajar
kanoon
tut
jiski
##hiyon
ub
crimin
adalat
##tin
##lu
taaruf
hi
pakka
regard
laakh
interviews
roza
##salam
raksha
tabahi
mutharrak
serial
nazd
##hah
sanjeedgi
##ما
thek
hosh
dawat
sidhearts
wafa
##ward
saada
##gawaar
wha
eht
barqarar
han
vaj
##یب
custom
##dar
nee
##وب
saad
##nts
avi
cafe
haazir
buray
offic
democrat
jennifer
zo
mojooda
musalmano
##yo
suf
##ujhe
sum
chhut
##dardi
saans
paani
##py
ahmiyat
##aij
rehn
phail
##ched
tarbiyat
gaari
##bach
sih
hoy
messages
dit
##down
##fully
sudhar
bheja
sidharthkeaslifans
jali
hatmi
##feen
ankh
hochu
##azmi
pesh
satta
##وپ
##mic
khtm
personally
laye
##od
##seer
tavaj
aamdeed
##uvaaripaata
muft
oxygen
rupay
aans
##ession
chus
samaan
farmaye
attitude
aajkal
##hsin
tark
mars
mamlaat
##kahan
##wale
jesi
kehti
helicopter
sulooq
##sing
inspector
bitch
seal
soob
muashray
##ters
coaching
wapsi
punishment
baa
leye
##rehi
##ardasti
aulaad
arif
##abb
kiy
##ody
photos
huzoor
laita
izhar
mubt
##ilah
##aam
ministers
faraham
shikayat
##len
##khush
zehan
taxes
ryast
کل
##jam
likes
rakhne
arnold
inspiration
ganay
bold
priyan
##fsos
margin
ruler
wheels
likhte
intellectual
nhn
tafrehi
chall
buses
hasi
syria
earn
amo
##amaat
##hav
tavajja
##ained
lif
indust
dastaw
clerk
surrender
maat
sabaq
gf
meko
##lon
ideal
##moindia
##forthewin
nada
##agay
chiz
inshaallah
kaamil
tare
rav
bewak
tough
trp
wallace
poch
thappad
##oon
daari
bhabhi
comparison
topics
fek
##mes
jeete
adab
dastawizi
uj
ibn
##over
shehri
sa
achcha
##cri
mazhabi
guzashta
##dan
dhamki
##mar
kad
macha
bread
mano
udah
##orts
##ona
merit
youtube
ary
##heink
em
zehen
##ande
trop
virus
mahswara
##saar
pheink
##ere
twee
mlitay
baji
banayen
##cus
##ab
tukde
laat
##lock
walida
aakar
isso
##ulat
##cracy
mqm
##nabi
101
hoje
kaya
polic
shah
maqb
##ooj
##cket
##andari
##ira
salah
corruption
##hs
##liyat
##khi
chap
asad
##vic
employee
##kkkkkkkk
keeps
##alous
ven
payment
uh
##ala
##reci
sabiq
neez
mehar
sexy
banned
sochnay
properly
ruth
jarahi
dollar
zom
##rohi
gira
##girah
favour
comments
ok
##sab
foi
lehaaz
pul
##ular
holland
##wki
diesel
##نس
den
amli
##ral
##adio
sarkaar
wasee
##ینٹ
##jai
##tho
##fta
extend
mizaaj
rehe
##sey
##amay
##mankhan
everybody
siwaye
asif
camps
##fe
bullet
logic
##wn
hali
lagte
healthy
fool
chocolate
wise
paap
pradesh
##ess
##afir
##harma
maul
chicken
gon
comi
khusus
banatay
cage
mujrim
dialogue
##dor
narrative
lagaye
mario
br
brah
##grap
kiun
konsi
likhe
dra
francesi
kissi
##haj
bike
kaari
##ering
mouse
padha
##ishi
goi
##ig
faisal
##manay
##asthan
dusra
##uaat
##ability
drag
##رس
customer
apse
hamary
excuse
##lar
liga
musl
taala
shetan
dang
mily
##rk
curious
bin
thk
samjho
##my
graphi
##icke
dair
dancer
##nie
adhi
lamhay
zr
ya
mohtaram
sc
vish
hitler
simt
lgti
iradah
quit
##atey
marnay
hmara
karegi
chud
##tional
equally
convince
keliye
##ogi
##ishan
##angg
##ware
pouncha
##inc
##mil
parda
jeeta
phd
skill
##ama
tudo
nih
##cul
jaega
hearts
automatically
expecting
jeena
bhat
kursi
kush
##jeen
monitor
fix
##ative
journalism
inves
badshah
abba
encounter
photographer
##rior
protests
##pin
fori
##hr
calendar
##all
dalal
khyal
paiche
dulu
##aney
usool
zarurat
hook
lockdown
orang
tarm
pics
dare
##aste
kaan
##love
obama
##ain
chamak
jhar
deliver
min
raid
oo
##vt
dhaagay
khayalat
klasiki
thro
mubtala
##ked
besha
experi
karen
##olat
hogai
trap
anchor
maahir
christians
kuttay
##کس
vaise
tana
##egi
tuh
mohsin
samjhe
kalau
collect
##baas
engagement
##oorat
taali
alhamdulillah
baab
peer
tissue
logo
taizi
##ration
##azrat
##hrajput
##ven
##hatay
lut
##our
##ments
uskay
tir
salo
##har
pasandana
aukaat
manzoor
humse
kos
##action
saudi
advocate
dusri
haiaur
maarny
divorce
##ras
کار
##ostan
jo
##mente
matrix
nem
haad
atha
##ena
kardo
bengal
sachi
##ban
##hami
mje
certificate
##pi
issi
اسپ
##rooni
mante
##mon
mutual
choo
hbdmaheshbabu
khatm
sitam
maidan
gandagi
mere
kach
##adav
qabza
tarmeem
hah
laja
pate
balon
pyara
nasha
sardi
nepal
ram
google
ajnabi
brad
nazdeek
jisse
fitrat
sardar
waqat
tuje
machi
pemanay
brilliant
bills
##bar
##nik
fucking
biar
fayda
##rati
##arti
insaniyat
##umat
fail
beta
brush
baari
jehad
loog
assalam
nate
sin
bechare
bartania
joke
mazay
pori
##alama
##low
gila
##asy
twit
jaoon
sta
lagana
judicial
rakhte
##bed
woke
bhik
abu
gehri
fake
ori
excitement
##لن
tery
aake
seni
patr
bemaar
beng
auto
##bus
sei
egg
dies
interaction
اسک
ce
##sn
meme
loving
##bert
libaas
bachy
dood
##mood
ski
toar
##ress
srf
layak
brow
somebody
wujood
##itna
aah
chaat
presentation
fabric
acchi
nihayat
meter
cheeni
lt
sabke
rally
khususiyaat
##tha
hospitals
kesy
cen
expl
karle
inspir
makhl
chupa
##waas
bhook
footage
bheek
lamhaat
jazak
jaana
deni
sunen
appreci
lebanon
##jeeneet
uper
biryani
sag
foran
happybirthday
geor
lega
mukalama
nakli
thr
garib
bachanay
parhi
sudah
yafta
kamray
aesi
zombi
taki
waris
gup
curse
nagawaar
thanda
likhay
rishte
rang
aqui
shub
earthquake
mahine
##wane
##opi
##ches
sadak
lajawab
kaash
seb
dekhiye
sansani
##news
amma
pake
himayat
aids
##alu
graphics
pakad
bhol
##coz
doosron
queria
workshop
inhi
##sssr
trump
deewar
##point
harsh
hta
lovely
happiness
##jan
##alah
nazr
idar
virodh
mohtarma
kasi
sony
##adu
banao
swear
seta
tele
xi
##titude
##zada
##aib
##waab
aitbaar
courage
ei
usta
poin
##bin
##minda
chinta
celeb
##azz
seedha
cooking
asy
qadeem
tareekhi
humanity
celebrate
pairwi
mawaad
coun
tidak
artic
##art
gud
##ada
deer
##ges
##ching
smiles
##urite
qadar
rajni
rajp
##poor
##raar
##ph
wesy
barrel
##ايٹ
##ome
jhal
##sia
##zzzz
posts
raees
invitation
##deer
##abil
degi
kane
rod
faraar
##jus
topic
memb
##iyam
blast
kiska
klo
##jat
darkh
worlds
##lay
##ari
span
miyan
praise
##ag
krn
musalsal
aun
mud
zy
nav
##pakistan
##dum
unity
kahte
bore
handsome
mansoobah
paicheeda
##gandhi
dif
linda
dobara
##ared
satisfied
farak
dale
ura
numaya
panama
##yl
alfaz
giroh
experts
##ates
yadgar
kore
##las
##ida
##tu
##taab
tamasha
##ledge
um
moazrat
disha
dic
wab
blocked
pasandi
delay
rehmat
saki
dili
##non
marri
dengan
shanti
phansi
##we
sto
vishal
muhim
hug
##cially
##ord
aku
##bility
poll
koo
investigate
##use
baazi
nei
spine
tayari
humor
markaz
##tember
qom
##du
bhaij
ignore
##bu
commentary
##maker
bother
malum
bj
agora
dawa
bacche
dikhane
crack
glt
investig
dekhkar
##ses
##view
##mate
poanch
gather
mandar
khiladi
boojh
##ill
cruise
koun
tukda
punch
##deep
khatar
alarm
pasht
daddy
##akhr
larkiyan
nus
colours
impression
##ober
nibha
dhaga
##rat
marshal
bilawal
baras
##ings
##zim
gw
tender
hir
karn
##ooh
studi
##ides
sooraj
larkoon
contin
##ene
##onj
gusse
##cess
##ridi
##und
batata
daryaft
hamdardi
inno
statements
##نٹ
rahte
paon
torture
jl
seg
dep
utaar
pond
umer
##aisa
nove
coup
##og
trha
molvi
nigaar
citiz
##book
dug
koy
voc
feat
sanaf
##ursat
##chen
khub
##con
banke
aashi
##ukh
pipe
hamlay
kama
ba
##bel
rece
mercy
waqoof
yang
gobar
atal
hina
tumlog
epic
voh
##ostpone
mish
cir
hawai
kapil
iti
sacrifice
##rhea
quero
asimforthewin
mtv
##kho
tune
das
sawala
tenu
##lig
neutral
chote
hakoomat
fraham
jeh
jaake
nazriya
bate
khwaja
baitha
baru
salahiyaton
khao
akhbar
##nic
setaaray
alawa
aray
##iya
##din
att
mahan
##ilan
purse
doodh
sawalaat
nii
bhonk
ost
horaha
sae
unn
fisher
##onesia
jore
chalte
ladka
##tire
##mp
diet
sake
au
khurram
mehb
##ert
blank
pmoindia
mushar
##hon
razi
ehtram
anime
##lie
parr
omg
cult
wrna
lateef
بر
##box
cheet
awaaz
##ssss
bolnay
gey
mia
seedhay
##shar
hazaron
junoon
##وز
hunar
followers
nataij
darkhwast
kk
assignment
phly
##yap
protocol
pistol
qabar
constitu
makl
mahesh
##ukar
math
##izza
##ual
goya
lout
##fil
##san
conta
##forsushant
##inya
##taan
##aida
boom
hindostan
esta
shor
politicians
chen
ustaad
lge
diana
mosque
pon
cheese
khatrah
fursat
ار
##uff
chowki
wu
bend
download
millions
reforms
registration
##osa
wk
lagtay
ate
##bhakt
##afa
##amosh
ps
##ission
##gad
##فی
##asub
huay
log
shehr
lecture
sally
favourite
ainda
##ushantsinghrajput
lo
##مین
isle
wast
##ator
journalists
##khe
speaks
ladai
deh
filmo
##yega
ghal
shaiqeen
hik
##maa
qais
مار
behad
pucho
majab
pathan
corre
maghrib
beshak
##hal
facts
isti
##killed
dedo
cats
peecha
cop
##fi
announcement
item
##oyl
bakhash
##hhh
qayamat
tarf
hyder
irr
##das
loyal
##hiza
saalgirah
hafta
phas
##00
sharminda
dkh
chaltay
tumahray
jungle
jhat
mra
foto
tul
saazi
achhe
ses
col
rubber
toda
bhaari
munh
kud
propag
id
##qq
##abh
##usood
##oe
musha
te
phele
org
##کن
##chanay
##hazab
nasir
colum
bnaya
rohit
daq
allan
hazar
zaleel
confir
waaq
##loy
ladke
chartbuster
kit
kerala
khate
buddy
lagega
##ith
mahe
laal
ایل
##nda
##kisha
bo
fez
zan
baraye
tijar
##nk
suru
manga
##ugh
steal
mumbai
mehdood
robot
celebrity
muntaz
ruj
janwaron
pot
##hary
##mein
muslman
##umkin
mutal
##ikasam
yadav
apky
laganay
jadu
sapna
##iry
##aze
palestine
##nis
##aki
##raa
recover
gadhe
##wards
patch
afford
##اٹ
nationalist
atank
##ath
mukhalif
jakar
gen
jaali
##oshiyar
kyaa
marte
wishes
##ssrc
saray
hooshiyar
kerna
haftay
sayad
sayarah
pet
repor
##com
faat
ibtida
tey
haqooq
semu
ther
##ien
didnt
suffer
fever
sain
##یج
keyboard
##لر
##hood
mareez
adat
##bad
pote
grande
riway
##war
kand
congo
##ults
##dia
si
goar
##via
dikhaya
aayegi
regret
hisson
rape
depends
jho
##akta
pound
zabardasti
upcoming
pub
##xi
suar
##agr
##apan
bolega
majaboor
rashami
motorcycle
nakami
##zar
azhar
khtama
sabiqa
bye
precious
waaqif
relatives
کر
chir
##mal
citizenship
shikar
maqamat
kiu
##hed
fawad
##tumhara
makan
ikhlaq
##gue
ace
mohazab
##tal
chem
quando
##hata
chahat
rokkk
qist
##gress
galaxy
saalo
chip
daftar
tan
##komained
numaish
gn
##zy
mna
##yaat
trans
dahi
essa
nishaan
##ju
khidmaat
mojoodgi
isne
enjoying
md
anasir
##komainedikasam
balat
humain
adhay
galt
sou
bowling
trailer
jismani
ibadat
appreciate
toy
chartbustersid
interactive
##hero
involve
##kan
baate
sbse
muawin
facebook
##وو
lebih
##liz
##wazna
frustration
untuk
##ishna
niklay
aamad
array
profess
jnu
pucha
secularism
zarur
##where
discrimination
##wi
##meber
albata
khabr
ni
##sta
uspe
##deen
vont
zaheen
barson
bahana
mawazna
boqt
##oron
decemeber
behaviour
fard
veer
export
milay
allama
bataye
pakistanio
akki
matlb
bilal
ikhlaqi
kesa
##urag
taman
casting
bcz
##odhya
ال
##amar
mauka
jodi
aasman
taqat
dubbed
##tv
halt
brave
aapas
doi
darwaz
youn
apney
##yae
krega
gosht
ugly
zoo
horrible
vil
beli
saala
dictionary
##qal
manshi
kuf
seekha
sehra
chan
punjab
moti
andher
waseem
rehnuma
gesture
##usar
##chha
inkisha
banyak
tanhai
bhav
shilpa
##tomorrow
nafsiati
lon
dikhana
rkha
pin
##ose
chla
faam
tmhari
##urs
porque
##neeti
gat
vez
##hanat
incre
##cies
prote
insanon
sonusood
##del
apno
fallak
##rated
berojgar
maqbool
gyaan
nisbat
ander
halala
##tafaq
phen
justicefor
editing
padhe
java
sidna
arabia
##kab
dee
pane
notific
hindi
bhakto
tym
civilians
minds
nasa
##salmankhan
##zation
##anti
rent
##iyor
naqal
##zind
##aram
ansar
##chak
##tions
##tle
badter
##dress
##cal
latefay
##justice
##یش
kamon
jahannum
chelsea
kijiyej
vah
cab
##bank
rajniti
vontade
daramay
##karan
##aaj
##dal
hoe
##ule
##ڈر
daant
bhakti
tent
farokht
taang
behna
##سی
##uuuu
wednesday
raazi
maklmay
baara
##hele
sau
##nation
jaao
kitabon
iman
madarchod
##wing
niazi
qadri
##ap
afsoosnaak
##ws
itte
##mas
##can
mehn
maker
haters
chhutti
##ativ
scot
hongi
chamcha
eva
kashti
faateh
aatank
clinic
rat
##ez
##ghar
ac
##gle
##ising
##bak
khade
cent
spreading
حص
checking
##medari
mola
disappointed
##ado
makhlooq
misbet
halka
surkh
sharaab
makhsoos
ladi
faramosh
hint
fakhr
aggressive
repeat
wash
peaceful
jajaj
##keel
##jor
##usiyat
strict
doge
##illa
mulaz
mar
jam
##zadah
chawal
anees
numay
privacy
dhak
jumla
##pp
valid
chukay
conne
lari
vac
##peh
muddat
trending
##kte
barey
hmmm
talab
routine
nanga
##anaat
er
intelligent
augst
hamain
taalib
paisay
samajhney
##لا
##zaa
smoking
rahta
##esso
visa
kom
chalu
atau
indies
dhoop
surgeon
thursday
sapne
anno
jisme
rid
farmaiye
##chara
hasti
lagao
hj
banati
rkhy
whoever
portal
scandal
##ray
ittafaq
##chey
chahy
fazendo
terrorist
##ale
achh
aurton
khasusiyat
duck
teen
maulana
##hamidesai
eager
bemari
##ile
lagay
rahoge
baarey
shame
##cc
girift
priority
forgot
cul
nicolas
apun
inta
cartoon
wazan
wiki
noiyat
##medi
bechari
bos
relax
banner
candy
kt
saltan
##rio
legends
cricketer
essay
roop
baloch
##harti
taap
##uri
##away
sail
alert
kharray
bakwaas
tashkeel
taqreer
siddharth
dn
nach
badnam
nazri
sikoyl
musalmanoon
vel
musafir
##ulation
jaien
##tie
kpk
hypo
profession
##sarah
saltanat
##una
faila
aty
cur
##gya
yous
##dom
daawa
achhi
con
ree
##indah
urooj
sindhi
gut
herald
wajo
nikalta
mumtaz
pou
##oo
daalnay
tin
prefer
##aaaaaaaa
triangle
suneney
darling
manshiat
karaye
aadhi
##wwww
jaiso
##mz
slam
##arnab
##shit
kyonki
lawyers
mz
kisiko
tabsarah
dg
rota
paiso
payega
inst
##mpre
qadray
udd
lein
##moga
boot
cox
safai
savage
insane
baje
mulahiza
mutfiq
pedawar
batein
##erai
aree
jinke
khaufzadah
mo
mama
##tein
fights
jaiye
chances
hou
hub
pohancha
sakhti
maroof
currency
finale
kumar
awwal
pehn
##waisi
gifts
##yyy
kamyab
##official
nasi
trf
chi
solve
bigboss
##ayet
shanakht
ethics
huh
ana
tauba
layte
##new
hukm
rg
##ces
seper
agla
##oma
taras
sani
koyi
sunna
yahin
ange
bulaya
admission
##fali
kek
##temp
namak
misal
batting
forgive
muqaddas
bitanay
##lyn
##ssrcase
pora
imagination
##ade
##pay
##ship
banate
wajohaat
##یت
##badi
tasveer
bure
confident
tameez
##ostponejeeneet
raqs
circus
tareeqon
jol
##amente
saood
mantri
##baab
clo
accent
deshd
##azians
zayad
afridi
jaakar
shaheen
upload
mature
qudrati
squ
rap
##kes
kiske
rahegi
##upid
compr
es
fari
##shan
khandani
##ologi
tahir
##gal
##rrrr
qalam
##ٹی
baten
mereka
phot
janna
gaal
ghana
hanya
demo
dalali
faislay
ap
akhtar
diary
javed
##baaz
##iro
mung
##hik
conspiracy
houn
shining
##daad
jahal
##eedah
mufti
loyalty
khy
krr
gujrat
##istar
gym
ashaar
rajput
cos
pehan
puj
waali
amazon
qasoor
tickets
daad
##pm
dukaan
##pan
godi
##jy
##یان
jin
##pected
tang
sachhi
videsh
bang
##hte
badle
aitraaz
vahi
chlo
##یکس
zid
nahee
ehad
topi
##zu
deya
stan
##andan
hukumat
bachane
est
##hrat
##asid
respected
raa
jazeer
bandar
deny
##jaj
kahna
ilaj
##gari
##als
##khta
aa
dz
corn
kena
barf
coinc
disk
ahel
akan
incredible
vik
sue
awaami
twist
##cio
jer
mujhko
chad
doesnt
sna
naaz
##gether
mortal
sti
taaj
qaboo
yu
jhooth
##araar
os
hmary
kaaro
pretend
tanzeem
سن
kes
maya
##une
krenge
##bc
##eeshan
kariye
altaf
congressi
hukam
soobah
##hus
honestly
diploma
lied
pichli
##aho
feast
numayesh
##afar
##tel
teer
jio
talaq
hukmar
nayaab
vill
dish
تھ
ilaqon
##mol
namumkin
halal
khuf
theke
jaisy
cake
paidai
##رین
##amaal
qurbani
rehaishi
##mie
tuesday
chaal
jaanch
guna
fraud
ped
##list
##phone
anton
wisdom
rehman
khanaay
baaton
bhartiya
miqdaar
dukan
ficou
trend
aka
ln
ext
laanat
jaruri
zainab
shahkaar
gorgeous
fees
playlist
parivar
lgi
pras
dadi
pakistani
##ole
joh
##hall
panah
##ican
shumali
mashriqi
hh
powder
krtay
sary
qaail
kehtay
kadam
karunga
##cho
kahaniyan
cigarette
raak
mazameen
##ree
##uv
##inger
tol
karli
cia
gehra
todos
##daa
ussi
khaye
maafi
harus
obs
krain
huwe
##arey
blog
mehboob
از
##pai
##fiyat
ai
huyi
inquiry
andhe
laazmi
samajte
##bjp
cheen
krlo
quar
thode
ahliya
euro
equality
amitshah
##adri
namo
##umbai
##qaal
tweeter
##waron
##esh
##room
maja
##ito
azaab
inkishaaf
vala
istanbul
##iness
banna
plzzzz
petition
baala
##logical
yea
dastyab
ug
observatory
comedian
hea
maiz
##sof
mandarja
##اب
##idence
chamche
aitraaf
jami
jealous
mehak
azm
tatti
niyat
doc
##phir
bahr
allegations
bolenge
buil
dhair
sahet
rone
##kta
##tttt
uz
dos
##utt
hama
kinare
cli
bagh
##ajar
##alea
rapist
butt
chahie
tumhain
##car
bantaa
ente
##hahaha
sanghi
lata
##atha
casual
collector
##layi
##min
ehm
quied
##kh
##bra
vajah
chef
anak
paidaiesh
##waa
##targeting
priyanka
kaarobar
talash
ansoo
pesso
cheap
ganti
bher
dekhke
morad
idiot
dhr
chot
geherai
semoga
aajtak
im
muntazir
zaror
##ori
haseen
##long
dramayi
momin
toss
##wish
raam
lakeer
khaz
dilon
##abaad
aankhh
bewafa
##ativity
bem
deli
##meen
foji
nisf
hasta
##vaar
poore
nikalo
ای
khalis
gaaye
sunne
subhan
nato
teesri
##annya
chhat
tmhe
zeher
##oc
edit
neel
khelna
anxiety
ruby
parheen
##mia
tel
bout
taxi
##oriat
frost
rainbow
parasti
sehar
rahne
mutalea
karey
surpr
##win
tauheen
deserve
lehjey
zakham
melhor
sasta
karliya
valentine
rahulgandhi
##desh
shiddat
semua
muqar
sitara
kidhar
mutawaqqa
muqabla
lety
musalmaan
##ftar
everyday
##ence
##if
supporter
terrorism
##gardo
openly
##dj
ifti
akhri
کو
##eq
kyoki
##yi
cute
aaraha
khada
darakht
dikhata
hazraat
jaayega
ji
jaizay
##wis
farsi
etna
concentrate
hansnay
beard
marr
##utes
gardi
pooja
ginti
shyd
tabiyat
##azim
ion
raja
pue
wow
kol
aayat
pubg
gentleman
##harm
publish
orat
khushiyan
##val
bharpoor
##gne
##نی
##ui
viol
piya
sed
aisha
hotey
##کا
tasals
fauj
crush
hon
blessed
tasalsul
confus
exci
faas
##quiry
##zay
khuli
khrab
##mel
backup
bg
thn
idaray
dochar
lovers
frustrated
kutto
ahmed
nunca
mit
sche
begum
taaqatwar
kalam
padtee
pump
dushmani
genuine
bhoo
tus
##adhan
##hen
lou
alamat
tara
mafi
##quer
ton
majmoa
##tas
crap
ghot
nag
hamen
esy
khir
yahodi
##ٹر
marsha
roka
dikkat
tabeer
bros
##ode
snap
guzra
tips
adh
admin
cal
##sss
hathyaar
##ory
##haarat
smjha
zeeshan
saara
##fl
##day
kitny
wishing
seekhnay
kru
##bal
##die
defini
eden
tava
pher
##lf
chaman
raste
##fire
ef
vap
##utanki
gri
##lam
qeem
rabita
tro
idol
wao
##ervation
##ees
##sar
kamera
##ex
jihadi
youre
mahaarat
cheif
suggestion
desp
dilana
maari
agy
abdul
beats
salary
dastak
##killedonj
alright
uthana
jasoos
banega
##jaat
congrats
##کو
eso
cruel
fazl
kunba
kehl
instagram
jaj
bhaga
shb
ilzam
counting
jinhein
##bb
mubarakbaad
dukhaay
absol
darta
shukr
certific
##kb
chahty
asaraar
ekdum
saleem
anybody
bda
palat
kavi
cock
aram
##kiski
##laf
khudk
##fs
khayaali
qaisrani
fin
crdt
irrit
masti
haliya
##wx
shirkat
valo
##af
gaming
jawani
saanp
equ
##like
##mao
nabeel
##dle
##apne
pour
flmaya
tanao
pawan
hayaat
pig
wickets
##pri
jiss
email
##pes
mukhal
##aw
reward
mh
pct
vale
ch
##kah
##usa
bach
##ckeray
kharabi
mahmood
##سٹر
##ording
hakumat
bistar
fantastic
yap
sunta
chapp
riv
qanooni
propaganda
psl
hochuka
kp
ayodhya
##ffic
##rah
punya
bethe
nikah
implement
dikhai
kerta
beroz
helmet
##sidharth
##ishta
##lic
##hoom
concer
rajneeti
##craft
##qam
##ute
##haal
boxer
fr
shahad
thuk
habit
jameel
khoobs
chehre
##zen
piyar
aiz
sunset
rp
parind
trh
bener
app
##gia
##oa
chhupa
khasi
harf
nikalna
##cion
##wati
##oi
haider
##ati
##fied
raz
unkay
askr
##ukan
chalanay
dusron
##iest
lone
sponsor
ghaz
zahanat
convert
##aro
tumhein
phel
seu
basically
feminist
##umhara
##lao
##bing
kapray
twitter
shabash
abh
pasti
memes
riwayati
##haray
pach
matti
##los
##ille
##again
maana
wad
ari
mudda
aani
farooq
dalam
mehfil
vali
actr
leni
##end
berry
offici
prac
##qy
parhay
aae
##zabardast
lagne
bee
cc
pey
react
talwar
ahelkaar
muy
##yu
su
shahzad
fitness
khuwa
pandrah
##zat
samny
##dis
quem
pahunch
##row
naach
##cast
karaya
dest
parwa
aagaya
favori
##yer
carpenter
hojao
##guruji
##hy
idi
ریم
##urstrulymahesh
dilli
##stv
##abad
madh
chanda
waisa
rao
khufia
##iyati
maara
lekr
mehr
dup
phal
kea
diwali
ka
##oliat
yas
##lee
rasht
babri
rhay
sakoon
##haqeeq
chowkidar
ple
asliyat
اي
umat
##روں
hati
##akhan
ashi
gost
waley
chalna
fazai
varna
sikhaya
##liament
##ela
laash
jaroor
contestants
mesmo
##ines
wanna
chahiy
##baan
dikhe
uthany
muha
##ough
nash
##khabaat
naram
mentally
korray
khaa
shahr
imandari
##ahmi
##cks
musani
##اہ
##hin
thand
beghair
##ben
##ato
jg
##qe
usey
amlay
governance
haitum
jinhe
kohli
imkaan
choos
patli
bott
##rg
##ero
tahaqeeq
##lor
chunav
dabao
graph
لیو
##ami
##ران
##ument
manfi
##fiqat
balki
jeene
##vad
compe
##riorsssr
kadar
fahim
mien
secular
kat
superman
penny
sitaron
bato
freed
update
shart
wade
ham
mutan
isteh
gotta
doll
karena
##srk
evm
sawaal
resolve
lagai
##mark
doulat
dig
nzar
pant
lagata
pazeeri
inaam
##zami
jigar
baqaida
shohrat
naukri
marke
kartey
aadi
bund
hday
jaen
keeper
##alian
##hart
rapper
arvind
##xo
##ilanka
eik
gab
potter
nautanki
##nn
sahiba
ishtihar
##oni
larioon
imarat
khilari
##kashi
likhta
acho
intezar
radd
lalu
##ations
##hanay
ink
##tia
lagane
geya
intqaal
jom
numaind
katora
krde
##cation
chill
yuva
tu
hehehe
fikr
loge
guzara
musta
markooz
puhan
aed
rakhiye
##ace
pizza
pichle
qasam
##vy
uns
girftar
halki
opinions
ilmi
peet
wqt
roos
incl
##inon
dekhti
ancestors
panch
iqrar
hd
foj
daqyan
nizam
##var
mothers
vad
tumha
thapar
##the
##omin
ummat
aqsat
aayenge
sunai
##stop
rabt
fe
##tkari
fant
ambulance
##tian
weh
deke
khwab
chhal
ndtv
##mor
jod
ajay
ahmad
tasd
pariwar
##kap
hamne
##kron
jah
krnay
krdo
remo
##toh
mutali
bne
insaaniyat
chaa
pollution
commit
adal
sugg
lesson
jaante
netw
##fication
loc
##laq
sooti
daqyanoosi
rast
##orty
basket
daleel
ghad
baik
##ple
daman
parhna
symp
bujey
sec
##ller
##tapostponejeeneet
yee
muhabat
##karon
remind
nao
paray
##azy
apkee
##awa
nain
contestant
tadi
babies
zaruri
saqafat
ajaye
intikhabaat
tugger
##ینگ
##cu
pairo
makaan
deu
aadha
aksariyat
##oooooooo
ore
deserved
maid
rivayet
##forssr
##jr
##ayenaat
roknay
mann
khatarnaak
zra
krein
cricke
que
paiir
mozuaat
taha
laane
jaahil
##rm
zikr
juice
mumbar
krishna
darwazay
iya
thriller
##uch
kion
jahalat
sage
##cep
arg
##sidnaaz
fi
dzni
##jb
chaly
patt
hire
charon
jldi
tasdeeq
##aser
nokari
##oli
##iyani
enco
urstrulymahesh
tujhy
juda
kaayenaat
romans
moqa
shayari
khitaab
talented
kay
gandu
fehash
expectations
ruka
haae
zayada
nitish
nge
##tari
##arak
loser
poocha
bhaal
marha
akka
hila
izafi
srilanka
shahadat
کی
saky
ava
deshdrohi
##ison
yo
##hate
##hai
kaka
kardi
masharti
##az
ajata
transform
frustr
bcoz
cra
nayi
mub
astin
eff
assim
invol
hbd
boltay
fiza
rkhe
qai
wag
##sena
saba
rahna
##ishn
ra
payar
gulam
phy
##uon
motiv
pehen
esper
aagai
vic
jazba
nid
sathi
aashiq
mulazmat
rip
hay
pr
##uro
psy
##eelaat
feliz
##aria
jindagi
##aigi
parte
timing
##cted
chout
espe
tafseelaat
bewakoof
haim
zarorat
##sion
##iz
##lot
ayy
##ینو
##ques
mita
rafael
pakra
maare
niklo
kerne
shy
heal
laikin
yat
##pot
##ugg
bury
##boo
jungi
##kok
##karuvaaripaata
malbos
majak
kufar
namal
arak
##sc
bandooq
##ase
sadar
##iks
##hida
##woh
##tivity
ghazi
##ilaaf
aayiyae
rozgardo
##urav
khowab
##akho
haamil
retire
polo
intezaar
##ht
uthaye
hid
mazl
vas
muskurahat
masa
istemal
mt
feham
tumhen
kabir
rote
shameon
saahil
hdaytkari
baali
johar
##aa
streaming
rajya
ehmaq
vit
##jd
daali
##adity
muhib
##load
genius
sanat
##oria
anaa
numaindagi
jaun
sunn
hv
بل
##kna
##hara
khuch
reservation
khulasa
##ashion
lets
nojawanon
haj
hal
andha
ultra
lalach
dot
salon
karun
adopt
##ilet
mist
bahen
farzi
##boy
dedi
tumhary
tajz
##wind
atif
bante
mot
pohn
##eh
tujhse
##world
kagak
sunte
robe
tap
ab
pedao
hanstay
wus
ramzan
##onay
chas
itt
darjay
cart
jeetnay
##eri
##ورڈ
karwaya
##please
##bud
##try
mela
##vk
chang
puchta
dol
inq
huaa
##ural
hark
ups
shuba
shefali
shelf
wakeel
tawaq
kitaaben
js
jel
daud
##ats
hatred
##kai
panay
makers
ajkal
##hiyo
##angi
cheezein
janm
bihari
taqdeer
thomson
maffi
dabangg
##want
khati
negativity
nalla
sair
##نڈ
##ikan
##hoos
licence
bimari
aindah
fre
sastay
logical
ull
wafaat
assur
vy
##salik
swag
emang
##yyyy
tp
##ents
##dard
jinki
cow
kath
lung
awww
teesra
jhalak
##waise
liner
##piece
dekar
sabha
sarhad
gharelo
##fit
mehal
soche
##chodi
roosi
munsalik
ira
gayarah
selfi
##بی
##ariya
ener
##air
jinda
luv
guzray
meharbani
baaligh
blowing
chle
##dup
abt
dressing
##rizi
rese
scar
hrs
ehmaqana
##nu
yaz
##mine
differ
paidaish
aizaz
sone
flip
##gie
mob
badtam
bhuk
galiyan
##ture
shout
##sel
qiyam
jinhone
riaz
dhun
weakness
dhi
##of
##zes
ام
detay
wajood
pid
bakri
ikhtilaaf
##ico
cali
##fu
##sung
ne
##cat
bengali
prof
##لو
deewana
dana
aajay
rakyat
##habib
choor
gitu
##cell
sidha
btaya
qayadat
fancy
tajarbay
##bie
besh
lya
bark
kabil
secre
##heeda
liver
chhoti
peenay
ful
asan
nib
mansoor
pend
uf
cour
premi
##pasand
guarantee
huroof
adaigi
padhai
ird
filter
shandar
bukhari
beingsalmankhan
ipl
gau
kus
##ult
siapa
dharti
dhamakay
##tely
##ichi
lu
##vaat
elect
hag
oho
##astaa
screening
deus
zaman
##fc
##sidshukla
dhoni
raghib
wa
maheman
##amal
##chand
dekhenge
mc
##strong
gutter
nang
##mh
maaray
shirts
pie
alma
manoj
##withs
kapde
gawar
##gro
khor
sanskrit
bant
nikalne
imti
atalwi
##atab
inhg
exam
amjad
tawan
mulla
compar
##vis
besharam
paison
##met
wtf
zayed
##inay
##tition
waqar
lang
hatta
agenda
mitti
##mandir
spelling
##rahim
qabool
ki
surah
میک
haat
univer
##20
oy
teddy
##ants
reco
mansoobay
ig
almi
waala
kitnay
fathers
dekhata
zimbabwe
##ینی
duaon
##hehnaazgill
kardey
##hiri
##alka
##nahi
comendo
jhuk
lin
namaloom
##gio
qk
##chat
khut
##saa
agle
sonu
rim
beloved
shark
fatti
##bharat
expressions
indo
nani
##utan
repe
abbot
##upa
##comp
##av
thos
##ustom
jawabaat
mirchi
jye
wm
chora
hathi
bhagwaan
khubsurat
nzarah
divide
##qr
haiye
kabhar
badlay
kero
laiq
dubara
choron
##power
sunanay
dash
##firat
siddharthshukla
##yaada
##tere
prat
mg
shuruvaat
spo
mel
nafs
crow
##pnishan
##اپ
##اگ
##pped
kart
bored
oz
hajj
jour
##ali
consi
phela
rkhna
##vp
##eemi
numa
shahbaz
##nin
##pok
zia
bhale
bhaiyon
usman
sakun
ayegi
##haaz
kaali
##sin
dele
samjhi
likhne
karkun
para
cuando
buraiee
noon
##hne
cam
hopefully
ranger
##ilag
rehty
samjhna
dap
##eer
tbhi
##istr
##یمپ
##ip
faq
##pyaar
kio
##akak
decent
chum
darte
##card
surat
##kisi
saqi
chodo
nomin
##gin
puhanche
mae
conver
khech
kanha
askrpt
bhayan
sided
seperti
##ict
libr
##uzool
##asan
sarbarah
##bechara
##presiden
qiya
tume
milein
smil
kardete
pension
satu
emoji
badolat
aaja
quei
gaj
tumari
dubai
sunny
koshisho
babe
click
kamiyab
hadayat
geet
##ikta
mushkilaat
##ونٹ
##habibrizi
##fic
kutton
lakri
guzarish
##enci
muqam
zeli
##reef
kae
pelo
samgha
paak
warn
musallah
idhr
##zeb
din
eur
gue
##ort
##scri
sheer
abaad
generals
muzam
##inde
##mano
##zon
ghairat
jamat
lyn
aqwam
##kie
pao
urr
mulle
misar
##bia
##unter
chura
##eria
asta
coo
##anath
##old
saman
pode
wakt
khowaboon
yon
rita
##vide
ahbaab
##یلو
gilaay
zayega
##public
pacha
##kashmir
nigari
pesey
##oh
wont
rasheed
##aign
meny
sawaar
muja
aish
##ann
phones
hafeez
jarahay
lrki
##وہ
rawana
##saas
parhte
##amad
##nas
##ars
##hayen
##wb
##pun
##ینس
bra
##ancy
##rate
sehraa
##habibrizieq
vln
##تی
lagy
##och
nigar
dhond
afsar
##tum
##raan
trash
arth
bachney
takhleeqi
cbse
noshi
##pada
##akin
##khor
mange
gole
##rap
##یف
leya
##daam
soins
santo
##wkwk
pad
jhooti
thread
mutalba
venus
##dian
beg
swar
daylight
##یرا
##saf
##indagi
batane
barhti
entre
lambaalka
dec
toxic
##kel
tard
surgical
##eedi
##ooba
gaana
nikli
dikhate
ella
##chy
anpad
guzarnay
aarti
ittehaad
quetta
dhang
ga
tarif
heen
pakht
maras
danda
shukria
barg
##odhi
muqarrar
musanifeen
pis
##ila
ispe
##bon
##ايڈ
dim
jazeeray
qeemti
##eela
doosre
gayee
##krab
iftitahi
gawah
suntay
##dey
val
kerte
kahaaniyon
tusi
patience
##sidharthshukla
slim
##uuu
toe
festiv
jomblo
mujay
rela
virat
##mmmm
farmaen
afsur
raut
maray
mahroom
dhamaka
ahad
rawal
boring
chips
sune
##hand
tabad
madina
kahen
raji
##dahi
acade
munafiq
sos
##jadi
andr
quaid
subscri
##maye
##ced
##bees
##vay
jaon
ast
khoj
sathiyon
##ern
##rina
pahar
aaina
##ehum
##most
tiktok
##nar
fakhar
postpone
##iron
muwa
pinned
##gup
useless
jung
bhaiyo
becha
gharon
##برگ
##mumbai
##ences
meine
##dge
dikhaye
femal
ukhad
jame
##ash
rpt
dairy
فل
parwar
irshad
bug
##badami
bombay
ulat
naal
chat
interact
kisan
##pen
tmhara
pray
qatee
##prab
nisar
boorhay
najar
publicity
mandi
taknee
toilet
maslay
ghulami
takneeki
##wam
bolu
maqool
chutti
##forever
gah
uthe
lafzi
##daari
ming
laate
tehre
irani
fu
ghante
sp
##pya
hova
ravish
##adon
##wara
khalayi
plzzz
qudrat
lid
##nel
##appo
##walo
##pel
karney
ignor
sympathy
baag
marhoom
##karo
aagaye
gaind
igh
##rc
suck
bahhar
likho
fui
shi
khen
##army
muashi
##dega
fitri
aansu
ical
buddha
jawaab
##aka
##lix
##ndr
lagatay
aslam
paaye
sarmaya
larnay
nazriaat
tama
##onch
##ency
jaey
mahir
##اد
kewal
##ista
caring
##hatta
android
bhaijaan
bolke
##dt
kai
arha
##hilesh
tmhare
jamh
androoni
khoya
utni
##ghters
ta
nzr
##koor
waa
mare
cane
##وج
baant
daagh
wja
dong
raj
baccha
roar
behavi
##pnishank
od
##mr
lelo
maali
ighwa
مور
inhone
##eda
##hir
nhii
##jao
achaa
iqti
khin
nn
par
inna
##bolo
anthem
guru
naheen
specially
jau
mahila
shivsena
badn
##ryani
pml
messenger
japani
##lies
##تا
##eezi
##izz
colo
surname
nuksan
mutaliqa
dhee
suma
baato
##vete
behno
yaado
stoptargeting
##ried
feku
rojgar
peterson
##sal
pounchanay
bm
eli
cere
fad
rahat
bhais
##utam
muwafiqat
glo
qki
compromise
leay
daro
hatya
khiladion
##wami
##shat
hindut
jun
tenho
lun
##kad
khad
sirji
##chana
asm
bahu
##fy
##nal
basri
cig
پری
##hiyan
maharaj
musharraf
sadness
submit
napasand
karr
dude
##vas
asraar
metric
nishandahi
##heroarnab
##bhag
mohammad
mistakes
udas
##hing
##ass
cuma
##jub
mujhey
sharah
safhaat
reporters
hakomat
mungkin
pity
tawanai
##ancha
bewk
mushtar
kkkkkkkkk
##are
cand
jhot
سلی
haik
sweetheart
bart
##azia
tumhy
joi
bhu
maarna
sidharthsh
wer
##ub
##وچ
shabd
##aries
complaint
nijaat
awal
subh
shubh
karnataka
makr
wabasta
ija
##asar
milke
ar
tanto
hinduon
bhosdi
wif
##uhan
##یچ
kaum
inho
bhasha
khai
##andssrcase
qowat
##sif
mentality
##andssrcaselin
bts
habi
jut
screens
owaisi
##lying
scam
aash
dgn
##riyo
sawari
shaksi
lmao
chalaye
##dua
##een
mashriq
##nor
jhel
zad
##atees
##ilab
butter
laag
bnta
disappo
judai
lafzon
zyda
faqat
bolty
##guin
##ils
neeche
sdr
##cris
lug
natak
aaram
jasakay
burnol
##wo
ekta
satya
kish
himat
amain
tumharay
##ont
unemployment
sarkaruvaaripaata
##ured
naqaab
abhin
prophet
unk
bi
##rr
##face
##rad
ahsaan
qissa
yousuf
##too
temper
bolay
##ilih
kachra
gadi
menu
##ote
##iyc
##aya
bataiye
paband
uryani
##rl
laptop
kaaf
##gu
fazool
aht
##enti
sobre
terah
##arian
rele
azan
kroge
lea
jarr
##qo
holi
bologe
farhat
bairooni
confirm
##akshay
whe
chash
##ajh
##iah
dio
##رافی
##killedonjune
bati
tand
##backs
##soci
rashamidesai
mayaari
bers
##pata
deg
##uring
##unya
coisa
sachin
bhaut
khulay
nakam
lle
bats
parhta
trab
comple
daraaz
##cbi
karva
##ander
##iyai
marny
dosri
feedback
##uma
chennai
shakir
nst
##بل
boleh
raddi
##atar
mon
##kaari
darshan
coba
##ele
dayilag
jharkhand
##kraborty
pok
balke
zamanat
gill
sambhaal
##dos
zeen
##andne
achie
##nc
##mu
magh
istand
shin
pala
khafa
daikhon
ajab
independ
haiis
appreciation
misbah
rozana
tehreeri
mjh
مہ
criminals
mohabat
##seen
passport
dhoandne
nashi
shayed
gantipresiden
hap
rhta
##vv
##faq
pache
dalta
khelo
difaa
mereko
##illat
tasawurat
tharki
##komainedikasamtomorrow
##agini
saga
loug
banday
appreciated
yi
##karang
mahireen
jummay
shaksiaat
saud
##ib
jade
import
zaban
##hot
sarrak
duayen
puchna
celebrities
thu
##plus
##gos
cousins
vishwas
ache
adbi
gandhi
akkaasi
vn
سک
shine
##zn
chaap
detention
khabri
belum
##fri
##gus
bhatak
##zaad
nikalti
ijjat
parody
zafar
naat
hikmat
##minan
kagaz
janty
bandmaid
regards
cupp
intellig
phar
##yari
inform
##adeshi
sajid
agya
ulti
##unts
jav
darkaar
paki
rangeen
##ein
jori
##نا
laun
dhol
genu
aatma
##own
susti
asmat
jii
sarcas
khatre
hogal
narendramod
dro
tok
krd
mk
##aqa
badl
awail
##ther
newbie
qareebi
##against
tujy
baithi
hye
##inah
khoof
armaan
##ateeni
lateeni
sen
ner
aacha
khatmay
chara
chutiyo
##vey
sav
samna
akai
aast
bann
##vable
shehron
zama
haddi
bril
fuq
barbadi
yog
kisse
azmat
jesay
maharashtra
bhayanak
va
sampai
farsh
##gel
bitha
sali
baen
##itar
donon
ghanton
chunancha
کری
##jhe
##wen
ohhh
sood
mee
unho
urdu
shaed
alt
##ayiq
##mc
scary
peri
pernah
kinng
idaron
mw
zik
##tever
##ither
milni
kyn
rohani
pahu
bachao
##stru
mutanazia
pila
awesome
##adhi
tumare
sakhta
drr
baind
ankhon
##fqat
imte
galiya
beef
##teri
siddi
kidding
madr
zawaal
akeli
mangte
juraim
emi
gd
jabki
taal
gusta
##رل
toba
##ail
##ailable
budh
intibah
tashreef
imrankhanpti
itminan
pakda
roye
dalain
farmay
sameit
##urg
##andssrcaselinked
avo
##god
chata
lagayen
kharcha
muratab
jyda
nadir
shad
mister
##saat
haqayiq
clip
giraf
depend
estab
disco
mukhalfat
dk
shiva
##owo
##itni
banget
bads
rukhs
##yr
khelne
mangal
dera
khone
dekhlo
laaye
afwaj
aziat
mabham
##akragini
tamanna
##xh
koh
parcha
mou
tarjeeh
apas
lamb
##wj
maula
baazu
##hati
repres
##graphy
paate
##ozgaar
zzz
rey
hut
##haas
##akistan
humary
musli
##times
##medar
qatar
marty
##wany
hogye
##bong
jude
prayers
##ڈی
bazar
hawas
farmai
##gging
pichhe
ladkiyo
amaan
zaraye
nuqsan
zeeshaniyc
isy
chukla
gosto
madahon
سم
sekarang
baagh
bando
ghumte
gran
malay
sachai
ahan
jgn
dou
buzz
gharz
menos
guzri
mulawis
bornfi
nin
##gas
##bro
mohammed
##uie
mahin
dikhti
##vl
sabe
tarhan
siasat
bangkok
akun
remarks
appro
kin
afghan
confession
gumra
bethy
hl
##chiye
##zel
anho
ghuma
milenge
bharay
gire
ummid
kaf
shahi
bhaii
##adiya
olad
nalle
##caa
##jye
##got
##aldin
##iram
laut
upr
##ffee
sangeen
lakho
remake
mahinay
alehe
qualquer
arakeen
employ
rs
aagah
meg
gus
yarr
##ude
sadiq
##adityanath
##bur
##iko
khod
##rankhan
fuqdaan
khuj
##bes
hainlogo
mujha
sochen
giya
malah
bandy
naukriyo
kno
##cut
kushi
##pira
##stan
bahane
picnic
icon
parday
##khud
washing
villain
##rei
micro
masno
patta
yrs
hakeem
##hat
kiijiye
##dorozgaar
ishaq
janaza
cobert
gula
dange
azaad
nyaydorozgaar
##umi
hogalakho
fik
mutabad
disgust
##uck
mager
nazron
beeet
rude
##bollywood
mutabadil
hudood
gher
cu
vaha
##band
##gun
##lines
sachaai
ullu
##inayakragini
narendramodinayakragini
pros
dekhni
##sive
badan
cous
chorney
zahmat
پر
##gah
##zl
##qaf
##idade
noi
kaira
thankyou
horha
bhatti
##pindi
##ination
##pois
##fai
pahan
##its
psnd
beliau
bais
haiab
moka
nimat
judi
ghusa
responsi
haraam
farogh
saar
milkar
luc
janat
taaw
dayen
jhoota
##یير
mushahida
hti
frankie
jash
kahta
##asab
##itos
jhuth
mangta
rukan
dede
shaid
taklif
masood
##asimriaz
rakshas
ijaad
fasa
jid
anmol
itwaar
sack
tehqi
##ooooo
##owos
boorha
ittila
sut
taza
##mujhe
shaitan
##یرو
kasa
adad
deposit
baccho
##tei
tahaz
daha
##bor
sattar
surak
horahee
##bersama
compare
cobertura
nicha
alot
nagr
merry
manu
bulaa
##tahkam
ng
##shn
paoge
saalon
konse
sheikh
vich
wafadar
jazakallah
dhal
comeback
nakaat
sunnat
adit
ko
aeen
aldeen
churr
dosro
tehq
soldi
shehnaazians
tazkara
haadsay
bornfighters
taawun
##udhary
chalana
##gic
khushk
jisy
btana
puja
##ots
colorstv
##ete
payen
tinha
dumb
##gaya
##gust
shaz
teray
trends
##ef
##afati
##rf
kehny
provo
##ايی
maanta
zehar
rukawat
deik
malam
lakhoon
gadha
andheray
##josh
##kejriwal
koshis
meetha
resign
##olo
pese
##adam
beb
##kal
huy
samait
dainee
err
jheel
##atum
isharay
##kibaat
##ister
##adaat
sarfar
##ashi
inteha
ldki
machhli
inhisaar
##full
chon
padti
pahonch
bikin
akhirat
riots
bhii
mint
##eta
ghur
mazdoor
dub
tasali
bhok
mock
##plz
ine
wicket
سل
haib
mangi
mazkoor
##lum
ag
highlight
mulak
hansna
guruji
tijarti
iqtidaar
tahazeeb
##chr
##pal
dilanay
mum
sharamnaak
##ante
mozoon
bornfightersana
glti
##xe
##xam
##unity
torta
celebrating
lambai
dukung
solah
dheere
distric
kharidne
nen
##city
ooo
riya
haara
logun
##adaan
##faan
nanti
europi
##naye
mete
kareeb
##habi
hadi
##ghe
##happy
kangana
bahanay
dag
##gz
badhai
madras
inning
##hia
gardan
ip
fojion
##adh
algo
madat
pahuch
charging
dose
##ahida
##aj
bud
papa
pachees
igu
mustahkam
tri
##cent
jeeti
munsif
##یٹر
phoolon
ssp
hoya
goose
##agal
partici
samaji
ahsan
##ریس
femin
inqilab
##fort
tez
waqeye
chilla
noo
##mam
taleemi
##fficial
horahi
##erature
afsana
hochuki
##owosandi
layi
ساي
depois
garbage
parvez
krdi
mohta
dosron
papua
exper
tajarbaat
bhikhari
##zindabad
##liat
uljha
shant
karbala
##inder
ego
buhut
##aching
hud
bhn
jagha
majlis
shat
pradhan
##play
##zaat
##farid
##bersamahabibrizieq
gung
khw
saakh
var
niji
madinah
buj
tajzia
ghi
chakar
poster
sunke
gunda
hahahahah
tawaquaat
##ises
##wr
##eed
qamar
##ود
tokri
##naa
##uer
##kokara
qabr
gil
##ury
umatbersamahabibrizieq
badhiya
ulma
##sp
mazloom
##riti
aib
childr
mufeed
lekn
fl
doce
tanaza
##lling
##gram
feb
buddhi
##bdmaheshbabusar
##shay
##ataa
ballay
rhna
کا
kaal
paidal
##cott
niklny
##ayak
sidra
minded
##nam
idr
raway
jaal
badm
jalti
halakat
dalle
nim
dhad
ene
kub
usk
lagate
farishta
##shame
mullo
husool
thanku
fateh
mumbaipolice
nstaliq
baarish
kanjar
##rol
bmw
gulami
##dike
##onto
##iyoon
##eng
nich
hayee
ghaddar
##kokaraara
mega
ideology
##indu
##orities
khailnay
knbe
moahida
cone
jinho
kara
surya
mukamal
guzarta
eqdaar
soye
dekhny
rehny
gif
khelte
staystrong
posheeda
gazabb
##cos
flo
haiafsos
zamee
kahne
sdraldin
omar
sla
haihum
##ookh
##hajir
##نک
jokes
kili
kefiyat
##range
hazaro
jiye
##چک
kot
tora
##apni
anurag
##habra
##uta
mutab
baich
##zz
samajhte
bajwa
##ریٹ
ghussa
patrakar
nuskha
chit
nm
hassan
dhyaan
physi
satisfy
zabt
exe
selective
jaghon
yakin
shameless
##ughter
mantaqi
karana
gaey
sarfeen
pulw
##roy
pachaas
bde
##ania
##aien
tiene
paigha
suraj
jayada
##cial
avpira
clash
gram
##ند
krk
baha
bock
##witha
##oolat
bakchodi
fare
##gov
invite
rizwan
abhinandan
##alon
naja
najay
kardia
pary
adaad
gunde
loota
khudkushi
yoga
pank
میل
samman
badsha
conse
##hayya
naamzad
godse
rkho
daya
mst
bhikari
laug
bachhe
##ujh
##rishtey
hna
##inal
jinnah
nov
ganoon
lm
##ished
##hile
##ajo
maqasid
likhain
##hainpyaar
blessing
##vince
officiel
siya
##ارٹ
bachaya
juz
tariq
##vik
patthar
fol
##fiz
karv
##terday
dalo
nc
danga
algum
aesy
##ڈا
chandi
poochna
oct
dulhan
gaurav
jehaad
##gger
iqdaam
kashmir
asmth
lic
pesa
yess
hia
legi
munfarid
tanasub
gunj
khaam
purane
injection
##hartshukla
neet
##wada
mex
helpless
##liment
dosh
qurban
liberals
aaraam
mukhlis
##agin
lagnay
kaisy
sorvete
apprentice
howe
nakh
aaa
sabun
doon
rahin
perfe
zaida
def
brahman
ٹری
sobai
##hahah
chodan
dignity
supp
ghalatiyan
##ders
kurk
lehja
paighamaat
dogle
##yar
terus
pose
khatray
thappar
afsan
bhau
jahaz
tib
bhare
##oda
huien
toota
##fraz
romanvi
dwara
bhabi
ficar
waseembadami
rgbi
rawalpindi
marti
ashe
hurts
walii
talba
guraiz
lifafa
##tiye
hongy
shud
imthe
kirdar
shoqia
ریمیک
tabadlah
igual
##what
janba
calcutta
intel
##court
murderer
dekhatii
excell
qawan
emer
justicefors
naveed
##hainpyaarke
zabanon
sie
rhega
po
viral
murad
papu
##zadi
##amain
jaam
krdia
swe
aye
##bdmaheshbabusarkaruvaaripaata
##gard
donation
imthehaan
ingl
banker
liat
##shid
lil
naahi
##ously
##engy
ske
##uat
raas
angr
mulai
nashay
##lets
##set
amid
aabb
##ret
ashraf
istehsal
behtr
##vie
jinka
##zan
prabhu
##ste
aey
##khera
##wal
ibrahim
##gressi
myogi
halkay
nashe
garv
##rrr
##garh
samjhte
hashta
kati
##gaye
isay
##lation
mugh
##hra
muhayya
virodhi
sendiri
buzur
pran
rahti
phup
khudi
taasub
talak
taftee
risht
tijarat
yara
haiaap
adil
##nyata
##bles
aynd
##gt
##quei
pana
##vidhan
vamos
rahai
##baa
##aaan
declare
##chit
kolkata
mat
##iiiii
khala
thok
mamta
##vj
##jaaz
teesray
mele
leite
bahoot
jeevan
intiqam
ijti
amitabh
negara
amanh
princi
candle
##cak
karane
##hindu
awr
nasli
##magar
##aaaaa
dilaata
tomar
pehnay
jiya
ohday
nites
parosi
tarike
kerti
skip
vichar
jeb
dharna
salmankhan
zubair
rol
##meri
##پر
chaho
haw
phi
ambani
partition
jano
rahu
##ickets
##rishteyhainpyaarke
khun
pawankhera
##bre
selfie
##hail
umomi
##views
##سٹن
shrm
rukhsat
bene
ہیں
kel
jaff
##witch
##esto
uffff
corrupt
scan
khoobsurat
nashist
qawaneen
pn
naseer
suroor
hazir
##lish
sahoolat
chhalang
qata
hairs
underworld
khadi
semester
preshan
shayd
charha
abbasi
##backsana
وال
bashin
hasrat
senti
yan
chamcho
arrange
jumlay
chuky
hyderabad
parece
##dr
ladkiyon
makrooh
##nde
vak
##جر
sempre
devo
shaa
kripa
##cur
##esday
gore
hija
##aliz
bichar
ave
tablee
sochti
betaye
sochne
zulam
jhag
khazana
muzammat
idaara
jiy
##ader
krle
shag
pela
tempo
haqi
pahun
lok
loag
sako
##malik
kagaj
sazish
mq
##aishi
##wl
##ool
ghut
chone
dekhty
gautam
rula
cr
##umho
lyric
##khon
lara
ghalt
shira
##fsd
chappal
ez
ntapostponejeeneet
yasir
##lk
##لز
gaane
##bigg
##qaad
wasti
sahafat
padegi
paraston
malbosaat
##buk
seenay
mohar
##ution
##date
akhatta
woody
fightbacksana
##tega
##itis
muhar
tmhy
rasam
##ورٹ
chutiyapa
sardes
akailey
##½
##hehe
##kas
##aso
##unil
##ayeda
rehi
chipk
##tikhar
maslan
tafseer
presiden
janbahaq
hamre
##lm
aawar
wajib
pareshaniyon
ghusse
dheyaan
bees
coincid
sawab
huya
##maha
##abii
mutma
nashar
morango
khooni
ikhtil
##مر
##uments
pehna
##ustan
ing
bachche
##change
saif
bic
krs
beda
gaan
multan
panj
##mere
ایک
##wz
##teen
taaki
dial
##eu
akhilesh
arzoo
atankwadi
sata
bankar
mawaq
nazil
tehseen
evid
qaw
tht
##wer
##یہ
ghaf
strugg
lateefa
dastakhat
shiraakat
fab
slo
##heb
atom
##unki
bhed
ehsaas
daku
##asion
patra
kutub
sdfsd
fd
gair
lor
mik
##chh
khon
##hayy
##vida
azab
samjhain
##late
##nga
##ake
aque
##انا
ladkiya
kendra
mona
califor
bcha
سین
khoshi
muahi
jaay
##ido
tromin
bhejo
idk
dhul
rozgar
##enaaz
bias
parwarish
nahii
wahin
dosre
##anda
frazz
strate
esto
rhte
##lal
jamhoriat
##wade
##sath
##tk
##vg
tai
##ڈو
darri
mamla
verdad
tayar
daini
muahiday
aes
bald
fod
##dn
##atta
inj
##tyon
##miz
choki
##uan
aysa
flush
dikhaane
ufff
winnersid
pt
kkk
sdh
exams
doosra
##gg
judda
sahaba
trailor
ade
##pt
karwana
jaaiz
nhin
tiwari
##jhoom
sajda
rawayya
ako
ptm
##hali
sawan
loys
unhen
bec
sarfraz
jalta
##llect
chuslet
pouche
advent
mafia
phon
##leha
##ght
##used
kirol
nigaron
##rib
chhe
marwa
jaman
latka
naqsh
gre
##alis
##alay
##andh
asimanshi
nikalte
##aidh
##usive
ejaaz
khoobi
raab
muat
yahe
##ages
chord
heera
exc
hisa
wahh
idio
jhon
bhug
sunrise
weare
duaa
ayesha
peeta
bikhar
gm
aour
jk
pus
##kum
##aku
farmat
malka
chij
bakol
fuzool
miz
##نز
baath
ghor
batsman
##kowi
mara
paisy
suka
og
congres
raahat
##paa
huta
nind
##pul
naara
hajhoom
usmani
yemen
regi
ku
lazy
onche
todays
##blm
chaddi
##fall
queijo
bagi
##soom
lagen
pohanch
kenapa
mazkoorah
##noon
infir
tumara
penguin
cum
hace
sabz
gaah
bimar
likhon
jeetay
murak
pahari
puppet
کام
khoye
##ghum
##yon
insano
istila
hijrat
sebel
tehqiqaat
jeep
wes
qoom
tch
vese
shikari
mulkon
kattar
lahoo
khirki
sol
##kun
muze
sua
sh
bangalore
suwar
iftikhar
sikho
tarek
lti
##vers
tes
ining
chahain
chorr
chorra
maaro
##ways
entertaining
jhatka
wasi
سو
dela
##atives
nigr
##waray
prec
nuksaan
mishra
beghairat
shees
##atory
mehdi
##rangi
buss
hatho
replies
drrpnishank
##live
jayein
muqadma
culpr
bast
sushantsinghrajput
##keen
qoam
mawaqay
kkkk
##uda
##weet
isupport
##iyr
thum
wan
bajay
salaam
##ame
##bby
aon
amaal
jora
##slaylikeshehnaaz
karlen
lem
anil
##ast
reche
nat
chalane
##cias
##ented
pam
zamray
panga
aamaal
abdullah
pore
uchal
ket
##ided
desai
ankho
kardiye
hindutva
badsoorat
karnat
bhaiy
hamlon
dilo
badar
thook
shara
##your
bhuto
mosam
jaenge
manti
samjhay
bakra
##star
##charge
bheekh
mahino
kemar
##ost
lime
casa
hamdard
targeting
dikhay
kuchal
##uru
sangat
##gency
ws
##irt
ghula
ghumne
chalees
##ینک
kkkkkkkkkkkkk
milty
uljan
##dd
infiradi
haior
hacer
##maam
ghatia
##ying
wajha
behtari
tahaff
##dhe
##appu
##esign
wifaqi
paata
jalsa
##ه
vem
osama
recor
kn
jaegi
mu
moot
##rab
##olan
dour
sharab
rangon
jatey
adjust
buzdil
shaguf
##wra
surf
abp
huva
lagu
##mane
##faat
gt
samart
janey
frm
ahora
rakhain
bind
naqvi
bakhoobi
habib
##nz
##form
rhen
##uc
##abff
##ayaan
bantay
institu
ranj
seedhi
##enta
prjosh
darna
##potism
mre
payenge
nek
baba
chapl
humy
##rifi
soh
prh
bigaar
naman
islye
bnaye
murkh
khelon
##raj
##strike
chlta
pending
##fak
jealousy
##apar
##hm
##uki
lena
gdp
alle
imk
jimmedari
kidney
##shu
isaai
coincidncia
aimi
kripya
dand
hb
ihata
oun
##wise
parhai
abid
khatra
utt
ayat
kheli
safhay
##ttt
shumal
zouq
pi
bhago
moun
pursu
beshar
##tabas
##hbdmaheshbabu
ser
hare
lota
batt
bachana
thakur
##isa
farigh
##kis
karra
##zie
##eld
##ikum
##roon
bheed
##lp
mangne
dafan
caption
selalu
##ukia
prayed
gund
پرو
##wm
##urn
gujarat
##pu
anni
manhoos
pasha
masuk
irti
yaksaa
kheltaa
bazi
usky
hamesa
harne
nihaad
minorities
voter
tohfa
ghari
bnana
bnane
slap
andhbhakt
bhadwe
aankho
uboor
aunti
patriotic
##ahum
charh
##uth
numain
insafi
nikaalte
##cle
mejor
muki
bert
kamai
##aid
matan
pocha
farhan
jurrat
کے
##nama
prati
kaatnay
kaghaz
lindo
selfish
##aita
##jon
neha
##him
##khna
shok
lifaf
khench
##nagar
poucheen
##ايل
junoob
naazuk
nati
nahen
dars
motivation
##lier
aadam
phn
yahaan
maante
malik
ispr
sameer
vhi
rahman
zrifi
tub
kaheen
##hoori
takkar
shur
maseeh
uthayen
estou
tashreeh
arvindkejriwal
##pf
##crisy
yup
yaq
bojh
##delhi
qib
dom
اور
sabir
devi
sic
siap
sahil
baseer
nishani
verdict
junaid
hooda
utter
relate
nossa
##gupta
##top
aqa
jak
##fon
jahi
daastaa
ant
##how
##stwt
capt
updates
fakenaaz
sspns
pal
##ٹس
ghas
##roz
taba
resol
cara
compani
##clear
comprar
mehakma
brilli
##akshi
karsto
jakarta
##ahre
##tib
##otes
iconic
##lah
##park
##sofe
##eless
aasan
netao
##basoya
ashokbasoya
khutoot
tafteesh
karstofer
##midesai
##itne
haft
jaib
badalna
heroen
aqu
attachment
ips
expose
jwab
##شی
##bil
##arid
meus
mehan
parab
tornay
imdaad
vive
officeof
gostoso
##asharma
##orry
humay
chye
gaadi
authentic
pav
ladne
deepak
##kokaraaraaya
gaza
postponed
dilbechara
una
guar
##bat
aww
warriorsssr
##bahut
istilaah
lupa
mne
takhayy
sunkar
naina
ess
padhany
charch
coke
khele
narendra
takhayyul
##dud
##رڈ
##ي
##usion
bhikh
huma
bez
##mir
hararat
gande
jamhoor
##hasir
##chakde
##gab
saccha
##oll
##karnb
mutr
satrah
padho
##govt
pursukoon
##karnbhan
##bhal
##aper
safi
badhe
maarne
chalegi
linon
hardik
##bhoo
ihti
##seel
anjaam
darpok
jija
iqtabas
pb
##amit
##rp
ghoray
wahe
shool
##sl
tabqa
caste
dastan
##rer
jawano
fica
ht
rub
##wata
##vor
##با
##usan
##aziz
gale
jeetne
chick
krun
slogan
takat
hogay
ramadaan
##undinon
ille
kunal
##tead
rand
phatt
myogiadityanath
aaqa
گری
lagati
##istani
dins
shamoliat
sorakh
estar
elawa
##mula
baaes
itihas
##ttes
fing
karm
kray
##enty
tabqay
malom
daina
traf
wicketon
##istration
polls
hashtag
ڈا
td
asd
##uppor
tarika
marz
ajati
syd
tereko
achchi
##oro
##یٹس
##tics
taajjub
kesay
sayaray
shakti
jayga
dasht
bhakton
abdal
##rid
festa
uddhav
hukmaran
murakkab
ہچک
##tera
thaka
munhasir
laker
##kibaathai
farmatay
lunga
pagi
##sana
##qad
manh
pers
ayo
##aan
puche
bullshit
benazir
daidh
او
riwaya
bndi
##jin
##iss
lamhoon
garh
##uqat
nafiz
eidi
##sociation
##leri
sachey
nonsense
amuman
sharma
##jects
##tical
tengo
narazgi
##ook
karya
maje
ning
##uit
من
##singh
rafi
chaah
unlimited
aisey
##bhakti
helly
dushmanon
ghatna
pas
dareaye
priyank
qibla
بری
mouj
takra
kabar
majeed
rhne
chu
kasih
quote
tya
فن
abs
##kabhi
invi
chasp
##lahi
sabh
ikees
kosis
##dad
nimatnay
sore
##undinonkibaathai
گھ
##qi
tosee
##apt
##asty
darwa
shoaib
tanaz
uthata
decl
mohlik
##picchakde
bherne
siddiqui
zum
##راي
hoor
##abr
mir
darjan
amlah
museeb
##edar
uthane
behtreen
jaaney
summa
##sofepicchakde
##aps
arkaan
farahmi
dimaghi
neech
lagegi
ronay
mai
##aire
riwayaat
posting
lard
rts
kahenge
packing
fry
pencil
##eej
andhi
swt
chatne
incindia
wesay
##zm
bon
##kook
##ہم
##pie
mug
nemat
tumlogo
pehele
kale
##vil
hass
pahli
yaaar
mudde
tadween
sour
hich
khawar
packet
dopeh
tarak
daw
convers
chalaya
depressed
##rit
heroic
##amily
ayenge
newze
smo
##cch
ustad
rae
pem
milit
shoro
##ankan
naqsha
kardaita
gaddaro
inglistan
gk
lati
qasim
mohal
takut
hunri
kharaaj
babi
ڈیل
lad
tufaan
massa
chowk
kharosh
hahahahahaha
##numai
afsurdah
aby
humaray
judiciary
mashq
todne
gumrah
rujoo
fata
jiyo
##force
##bihar
##iaat
curi
asty
paham
rog
halqa
##یکا
dhanya
aaf
auth
sagar
haipar
humlog
adha
bilang
ayr
##key
##zzam
ti
##ksks
daita
##hey
padhne
aabad
##ٹز
##astra
arr
cual
ummeed
##yam
##pping
##hol
ja
##chan
gaaliyan
vikash
uday
##urb
dews
krtey
abe
##raaj
##mek
dei
goonga
ajmal
##asih
jungli
ansari
mutasirah
gumsh
mushtarqa
chate
##fo
ador
mathe
##chane
shri
sarif
includ
baseerat
wid
##cn
kend
laden
##eness
soya
##cture
gal
sudhir
gini
anos
moto
condi
bilhaaz
taqub
##ganda
##ures
inten
bestie
rashtra
soda
##mb
sarfaraz
najaaiz
creat
##yor
hum
##beer
haijo
##alees
bahat
takm
ren
##jaa
tussi
##law
cmo
##wp
##urday
##esan
apkay
ec
stadi
aagya
fatt
rafale
bakhsh
ct
balatar
hypocrisy
rocking
gumraah
##miyon
##aniya
yaaro
braz
uttar
aqeed
nadia
dher
gunnah
##hd
##vak
##adas
neut
##has
janch
gea
qaidi
##jaye
abay
pol
##bol
##aje
indirect
aloom
hmy
daaley
chhote
tbh
zalil
insec
nashon
faqeer
##ddy
karzzzz
announce
##far
yehrishteyhainpyaarke
akhaz
aggression
bastii
samjhane
cares
brigadeiro
##inted
gorge
taab
gharib
taswer
ashamed
iqtis
pukht
chaheye
epis
dlhara
shagufata
##adil
thee
hori
horr
##rai
##iyana
ads
prr
bowler
##lip
##antra
##airaj
parhaiz
##ically
zubaan
##hos
##tech
lashkar
سلیش
مش
##wq
dosry
bachat
cest
chhi
##entine
gustak
##stud
##hyat
dungi
firqa
khareeda
hogy
bakhair
dhu
mashg
wafat
ronaq
communal
hai
##dz
saww
yehundinonkibaathai
khayi
mustand
lahore
semana
mba
qeh
##cg
batayi
##pc
##adian
girnay
waisy
deed
garma
guria
bhosdike
athaara
laq
nepotism
proto
commando
filhal
ment
kashish
##base
apan
manana
##rist
tek
pae
rahoo
sarzam
wasta
peeth
ou
##path
##www
##they
scienci
muzah
darmiyani
##akshays
bera
vl
##alan
maze
khya
banwa
##gaah
askari
gawahi
amen
batate
tipo
##vs
hmne
sbki
pitt
kertay
##کٹ
##oss
howi
sargar
liyay
nafsiat
musharaf
dopehar
nashonuma
ive
lazmi
kernay
lgy
pukhta
lynching
niy
##dol
haroon
nizami
hogyi
rizvi
adhikar
zanj
ڈین
##vee
##rail
bej
##aqqaf
##comm
##stn
kardeti
saadgi
nam
tahaffuz
##aridgro
cate
##kiyan
##bht
##fal
##anaa
astif
batatay
faryaad
##mpin
kye
cheer
ہاي
hoto
anch
##aisha
##fan
chobees
thokar
##unggu
advertisement
##ility
rasai
zulum
##tinya
mulaqat
ghaliban
tahun
##biggboss
darwaaza
##alho
mao
toler
apologi
shaad
rahaish
kira
tawaz
arhay
kalay
jeetna
pakarney
badtameezi
##aridgroups
ukha
##rating
##shehnaaz
chadar
boly
##adaar
thy
triste
##warna
pashto
assam
mutmaen
##karnbhandari
yuk
##cream
##mey
darp
mantaq
masala
kahu
ahadees
##fz
##haron
##pass
bhalu
##chakraborty
##ghter
gunjaish
akar
jga
ہال
##rey
lagna
##lian
pakai
asdas
##dsf
marega
tasalii
bub
##رم
banana
semel
mantay
namona
bhtt
ikut
badalny
cin
uu
abo
##thi
shaoor
maen
satis
padosi
##inas
##heem
etni
##risunil
watt
muashra
aami
nath
##urana
takay
bua
##hale
##girl
dairay
ehti
daripada
anokha
goa
nawaza
aii
pla
##shab
##یسٹ
##alam
##chhabra
khaan
dib
rakhein
sundar
##kha
bologuruji
ontem
koch
misraa
##sary
ada
siempre
vul
کول
##tami
##jya
##arita
torr
cola
garbar
##nah
compartment
ayaan
bangla
##ashami
##ctive
oq
sasti
pawar
clips
jhund
jhuka
yahudi
madarsa
asaan
nude
ler
dii
doh
##eyon
farakh
btstwt
wase
wdj
ایڈ
##vq
##aras
##never
baaten
insult
baton
muskil
impro
##akhlat
kasoor
muntaqili
ishtial
draoni
##ews
chahoon
##tron
einstein
badiya
sk
rotay
airtel
##اکاو
chairag
behnoon
thor
jhanda
receita
##kashish
cwc
ghis
##pace
isnt
##esid
haami
jaunga
choot
je
kayak
##luar
gehray
munazzam
##vent
karwane
soonahre
pessoa
marhalay
##hits
paresha
purkashish
##jection
andhere
koshishen
dnt
haius
karungi
banake
##tty
kamar
yok
fao
##erial
bail
knw
##pubg
##oodi
sarkon
satais
ayaat
kanun
samjhti
yam
##beeh
##ooti
aaplog
unatees
manna
ghaib
poder
##erita
happiest
rozgaar
##rz
udasi
sdf
karachi
lazim
vle
uc
lick
rafa
rahaa
##wanay
balak
bagair
oppose
kutty
##ونس
##د
hadaf
##asia
jindgi
##bdmaheshbabusarkaruvaaripaataurstrulymahesh
astifn
##anj
##naz
##iting
dege
kholo
alhum
pele
kasmir
kiyun
stoptargetingsid
cada
nil
stunt
##chhe
khalaa
martay
faris
jhagra
gurbat
jen
cro
ved
##ond
##یتھ
##feel
##engi
##harsh
beizz
kaunsa
mast
commer
##cular
sherni
museebat
asdasd
##enda
tham
hamwar
indias
rishwat
frnds
کیم
##vpak
##kaha
##tai
ayee
phul
budha
dhanda
shiksha
##selves
mal
fielding
semelhana
reject
##pad
aga
mati
rik
##cin
##nos
haip
bawa
thha
##tam
##nge
rakhey
khtam
mahadev
khujli
qut
seva
##asth
sok
manaya
kartik
aug
wardi
aany
daikhna
##gussa
گار
##sud
sewa
sawar
sache
lele
exabff
sm
font
uthai
civ
lkin
mpa
ما
##aking
##dyo
##vh
##vm
##anja
##irf
eh
bots
urf
transl
zalimana
wabsta
hungama
astyort
##life
kisaan
##assar
begh
temen
pakistanis
namoon
##fact
ifrit
gehrai
turant
soobay
taswerain
sdfdsf
howay
haaye
aloy
umoor
fankar
bigad
dushmano
##mos
dakhal
##run
hahahha
subscribe
cereja
wi
reminds
phain
ral
##gk
hongay
##aao
basa
ri
gradu
jazbay
rai
sant
##qui
sunao
chhodo
##babu
##airajdeep
terrorists
qaf
shru
##wed
##eet
gimana
mehng
ayub
veil
halak
##rik
aabadi
garibo
##rajput
mudakhlat
##cup
imtiaz
unfair
مہاکاو
takmeel
aqeedat
aada
bdi
fue
##eekh
umr
lav
ento
tasad
khaufnaak
hazam
anyways
domingo
damad
bnao
ole
zeyaa
msh
wht
##ais
سپ
##best
##چھ
sehri
bhalai
boltaa
mubarik
palest
##heeb
##rew
vedio
chunn
##sofepicchakdeindia
drohi
##sters
##oetry
##akhon
shaq
chr
asto
##thak
lahrisunil
salamti
beeno
andhera
vacancy
anjana
analys
imkanaat
aaty
beet
##dik
baca
shaukat
samja
##uper
##mis
behri
shaytani
faisle
parwaaz
nons
zyaada
##bakht
agha
hamko
manane
paaji
pahele
utne
##awaz
tmko
bhagwa
gumshuda
##wayi
roya
thandhi
##panwi
africi
##eeeeeeee
waqia
fraib
##ciones
faal
muqaddar
rujhan
##itor
hya
kou
##oomi
inayat
loads
tumhi
surr
##mmm
ale
langra
##cas
kashif
##rsn
jelas
riyan
##kkh
pedi
baadal
zindabaad
haspanwi
aatish
qatilon
pish
##ikya
aff
abki
humen
agai
##hes
giray
anpadh
aha
rait
jaado
barhta
assi
invest
thoray
##peare
choup
aagay
galati
annoying
##ايز
##یٹی
partaal
villiam
##jz
haij
##iniz
nel
kisine
marenge
kinara
##bhak
humble
##ورن
minus
streng
dafaq
alehda
khabrain
jar
fala
oon
ات
سینڈ
##aru
acor
barkat
hassas
bheer
chhu
fatwa
##iri
sharmindagi
pujari
ajayeen
wusool
tong
naar
chaht
tukron
assaar
marg
bhagat
rabb
dikhte
pohanchanay
##uka
unemp
hukmran
ell
yum
##atu
bhatt
achche
anjam
fli
iy
##bk
##affar
waqfay
naamon
sid
utk
bachchan
keren
hakoom
meethi
##fortun
lapait
bahaduri
demais
cha
##gers
unky
huq
peene
aaap
##ente
khusbhoo
pasandeedgi
karao
##huum
sansad
saqafati
##hana
maraslay
lakerain
jasa
sentiment
##mish
##heli
takhat
mafhuum
mesa
##thought
sidharthshukia
beizzati
nadi
antes
hareef
tarik
tow
ikhlaqiaat
zuba
##ues
را
##hant
khna
##team
haen
khatay
usmaan
bhaieyon
doray
sanskar
shehnazgill
fot
gz
ukh
کن
kejri
kadi
copied
saas
faut
ghamand
brahmin
zanjeer
villiams
vk
wazi
chabis
krdiya
lagwa
##thon
phoot
##یون
rajdeep
##iyoun
##quier
haqiqat
categ
eman
ima
سیل
overs
##usta
##uke
##eesh
##bos
woo
ghlt
maane
##pton
batati
##uli
shariat
daira
opport
dhokha
##night
iqd
obc
##dupoetry
wc
nigrani
##why
##leed
##kill
##aland
##isas
nein
hu
pluie
##eb
hasad
tambm
zahiri
khailtay
ajao
mithai
ansu
ٹاي
rawan
anth
sabne
burger
nokri
aaega
probab
buen
karege
obsessed
tayyaray
guzaarne
pulwama
##tag
dant
##aktay
jaani
khait
reci
saktey
##bay
unite
##lit
zibah
##winning
sj
نو
ہول
##ن
##ug
afsa
jaayenge
##idar
hamy
##aliya
taari
arhaan
wahein
##ریک
jayda
mooh
arahi
aho
gnd
zey
moul
anytime
reel
sota
sita
nikly
behter
fac
kasrat
joly
nangay
jamhooria
jaadoyi
emaan
##dhan
hailekin
##icult
unhain
##right
ghumao
##baal
wewant
charah
mashwaray
##congress
bacchi
genuinely
trolling
pork
meharban
tanazur
tyar
##zah
badma
wit
sahiwal
kitno
basi
##youn
ikhtitami
chung
chillate
aatankwadi
quarant
munsifana
ril
zaid
##لڈ
##osid
##andhan
##hadry
galiyo
qarz
##vel
ngga
##lain
pohanchi
chahiya
chhorna
gst
##jk
tdk
bahas
bhab
jaad
khami
gii
qaaf
##oooooo
##hel
pdta
shehnazkeaslifans
kuj
zaw
melay
mali
nep
sakal
shoba
mazaak
bio
cebong
gulukar
مہاکاوی
paj
کون
##ende
chati
haaa
ins
##vn
boliye
handles
sigl
chohadry
jasy
qassar
positivity
kisay
gum
manus
##sto
firse
qabliyat
tawazun
fani
sila
vha
##atiya
hamri
mans
##veen
allha
imandar
bollywood
##doz
hayat
charcha
##wu
aand
##follow
##hena
stud
##iski
##ird
pechay
liey
esp
tex
##eeshat
cris
jamanat
aazadi
maizban
qiyaas
hashmi
##لنگ
##akah
##verse
suha
rammandir
kang
mardana
ghatya
younis
gungay
##bag
##hk
##ایک
##abha
relie
ajar
##jar
kalma
kharja
mamas
hansa
##ndi
rashmidesai
bewakuf
##uur
##uf
khd
amor
ida
sabzi
##aga
ternyata
zarori
dir
##had
##azi
##feq
paling
avr
##likat
rut
##leel
##kiya
ladte
jaroorat
bhakts
justify
persona
##olved
intizamia
##nr
execu
angraiz
sardesairajdeep
gala
bch
yhan
yadi
zat
##arrest
bhaisa
mooli
##roor
##oori
##versary
jayege
estoy
pichh
waktu
mas
gardish
westand
cuz
##gado
kase
##ikat
khra
haam
afzal
bany
mainy
batay
##sd
##amaad
chandni
tasweeron
##usti
bekaar
itti
hadsa
chiye
lankan
lais
##uto
##joo
##bandi
unfortun
asay
harj
##hammed
muthi
##ftari
##ولا
soinsdes
ور
##sten
وا
aapna
prag
ghadar
bihar
teko
copi
opener
faraz
sal
verde
taluq
bahami
aditya
unhy
kalank
utr
hojayega
irfan
bapu
gumshudaa
ias
میگ
##lg
maeeshat
sohail
harr
sig
contri
##ulous
malala
jalte
##gn
##nath
matlooba
papad
strai
chhootay
haadsa
shahrukh
ubhar
th
ge
##vz
keeray
intr
khabi
petr
acc
khudko
colombo
karogi
choda
##iyaan
drame
brh
bnany
safdar
kregi
ds
aos
zillat
mahat
kerty
mumlikat
bndy
choden
shakspeare
faaslay
parcham
sonia
ww
waalo
hogae
ulama
bechne
haramkhor
##pra
##rier
##dasht
##akhi
agaye
musi
##adif
##viet
bhumi
hq
awan
##vaan
corr
##icion
kheriyat
mari
occ
نیو
aapni
ign
##laab
aawazian
lehar
sarzamen
##fx
segu
manay
pastel
vous
##cate
atma
nafees
yrkkh
##uel
karwao
rais
swal
##wate
kej
kopi
##akhir
manq
##big
##fin
bhg
gharri
jinhen
desde
teeno
athais
harkatein
##care
##yas
##رک
##abat
##laas
khaane
ghaas
naame
bikau
youtub
berozgar
##bit
hijaab
کرو
aurtain
banayi
apradhi
akshaykumar
manny
jootay
saudia
wehshat
yonani
ita
ullah
veri
##arr
##asya
lov
jaany
tweetrhea
khuloos
##indian
wakai
##abe
##ushantsingrajput
namodaar
##gressive
##pop
mamaslat
umed
##inst
##tr
201
bilash
zindagion
dhoom
parivaar
##hutto
gb
kkkkkk
avec
kain
فری
tick
##hry
##ڈس
##nao
rep
alood
##shdd
bujh
jago
##ground
nikale
##yog
##hor
laila
pessoas
nu
pighal
##khwa
liar
barab
wahab
##uga
nikaltay
verga
clin
chupkay
gulshan
lul
vari
punish
##yav
khasa
huway
honton
##maari
likhy
nyc
urdupoetry
surbhi
nagar
jamin
seekhna
pehluo
ily
posh
yor
jaari
diam
##nnnn
pu
ahthyat
bje
tabi
##dc
##harif
ashaat
##hahahah
##ungan
hanuman
##ø
daikha
ein
likhti
patriot
sf
##bandhan
pohanchaya
tarde
parabns
##dh
##sood
##uar
rd
##ob
##شن
lemb
matam
##llll
basti
talkh
pahly
fazal
bhejna
selamat
taiyar
tadad
jajaja
chasham
istaq
##udu
##uts
kisam
trs
minta
lado
##tern
dhara
##ونی
rhti
allah
shirf
bakhud
ghoomnay
ijtimai
haiin
icc
haiwo
abir
bhati
khaak
doz
barra
muslam
chandra
jinah
mutwaj
sadma
peetay
daaltay
dev
jadugar
bilashuba
beem
dhaka
cho
##loo
tetap
##mited
##hayak
finan
hifz
sukhan
wkwkwk
##iab
##pho
##xic
hijar
frango
lagaata
heiek
bethnay
rajiv
mutwajjah
wro
install
##dosh
antar
huwi
darw
phirtay
##oor
skr
epi
vag
dip
##از
karoo
##sht
pechy
##eno
##htr
tarh
##awi
khushiya
jamea
##xp
hokr
##gr
##akya
toni
##wc
muda
bhaad
samaat
tarfa
inspe
ayse
puta
rabta
hafte
##pehle
پل
##anan
kood
appr
##ithik
itsssr
bartao
conven
jp
rehnay
dramas
nika
bandhan
btaye
muhafiz
tofeq
chachi
lana
##rak
yaani
vot
##bl
padhi
jahaan
arsaal
katega
soinsdesupport
ehal
##uras
##kara
##cine
nakhush
##asing
##rel
coma
##grhe
bahaali
taraqi
vapas
pakhtun
fos
wn
##pah
nok
pakde
behave
ens
##hit
##ony
choty
bjpindia
mubark
bethi
khayen
cigare
coward
aver
sree
##this
sci
taliban
##xs
propose
naqaad
jankari
rhaa
urane
cobra
resp
idher
puchh
binaa
gub
##ores
phaar
kahiye
##amp
quotes
parega
khadim
taur
masalah
esai
faad
samjhoo
jamaaton
##heers
##adari
khare
##kawe
manj
dawai
chalata
##ciary
pehley
##انی
besharm
nun
ghotala
##thoughts
awar
##ilar
loh
prta
##devi
hype
larky
bugh
daalna
judgement
qasbay
wich
##cts
##game
cel
taim
بار
##fq
une
##hada
deo
dehi
boa
nan
chul
patwar
liking
mushtaq
##cca
##gery
captaincy
certo
deepika
badmaash
##unt
tbsron
##lh
##amb
ravan
awaj
hashar
patri
mashkook
seekho
noman
tableegh
mutradif
aatay
ola
maj
##inin
kaj
##wear
hani
##usla
parney
dias
prak
hamal
amaiz
denay
tassad
drik
##ense
irada
##یسی
radhe
dogla
layein
islaah
kanhaiya
gord
##oti
##ید
##osha
feal
fankaran
qoul
##fm
fridge
hats
honesty
mutasireen
nigahon
mukhatib
khoofzada
fankaranah
auqat
equi
naaa
aurang
liaqat
baher
waadi
hc
bnai
##irect
yaden
rupees
maturity
##rana
devol
##zal
garibi
##nay
niklee
##udhry
bkwas
masnoi
aek
fla
##cre
muaqqaf
thali
bhay
##haty
barkha
jite
recommend
##antu
wasy
ladko
nange
hakoomati
##ctor
ڈیو
thaam
barhay
gibi
uthatay
dikhawa
uthao
udhaar
pandey
daraona
sheeshay
ghee
lada
##lari
wee
##مم
bhait
contr
nope
jale
##asa
ilz
swamy
recei
nadeem
coca
oi
cheating
##ption
##azm
kamran
gua
zarb
mins
tmhri
resta
dhaal
deix
khadsha
cah
##alman
kaand
##lied
arshi
ravi
adda
moor
mehman
sensi
##yana
jaraha
doran
##unk
rajasthan
##tivate
##winner
pyaari
jare
spr
bhaj
bhashan
appoint
##wao
dekhy
##alize
masum
perman
madhar
murti
rokna
aanso
dfa
diri
kora
rawi
achar
falsa
nos
##black
ہچکاک
emb
##ario
colon
##wel
##sat
##aon
##pdi
##abki
islie
rawa
stal
individ
gandgi
jarjya
##ولف
jm
##geh
keval
##saaz
##angat
rahnumai
akram
katrina
taqleed
larna
dekhieye
bja
ایم
##erah
##amma
##vd
kaz
##vert
seerat
khty
soi
daano
coisas
shocking
akmal
khuwab
subhanallah
faasla
kny
bolny
##trailer
dalla
hail
harkato
jgh
kana
lum
karate
lub
tj
ves
##xie
##agandhi
sampe
exten
katne
mrzi
##paksh
##kashyap
amigo
gamzan
brig
jehti
fon
samandari
##ners
mod
mb
gaar
khani
guil
bachaye
falan
pune
##thy
samjhaya
farmae
ashya
seena
sop
amad
##ubarak
rbi
##lem
likin
##mohan
cru
murghi
nangi
katay
کور
##mom
racist
##omy
cyber
##سک
parhy
bhij
saahi
dae
munna
wikipedia
luta
zu
##یلی
salamt
sambit
waisi
khrb
revol
##flix
infor
thrill
maino
khandaan
db
##jee
magaz
aamdani
busr
peechy
lathi
##media
aarha
jajajajaj
##cional
vande
##gap
##vraj
aapa
voy
##eraan
aqeedah
khilafat
##fiqar
gajab
lam
iqdamaat
tar
edie
ہے
lagty
kamu
jameen
##party
airk
shehbaz
gardon
neelam
ite
sush
wesa
نیک
hasan
separ
ling
khwa
unme
chean
twt
##ark
colom
bhejnay
bahaal
munaqq
hmm
nagrik
hafton
sami
newzea
khte
parliment
chauki
hien
laatay
ishkarnbhandari
videshi
ruswa
screenshot
munaqqid
vijay
nye
##hoo
keti
##nifer
faa
mujri
asl
enjo
aji
fest
paraschhabra
mutazaad
##uz
lngrhe
dikhega
##sian
muslimo
fsd
rind
karai
##not
ishehnaazgill
dese
dij
barhatay
rahn
talwe
##ايک
badalne
guzarte
priya
jumma
timeline
tehqeeq
##ghest
##sos
سینما
mashgool
civili
pindi
pcb
##heikh
gem
##ardar
barbra
##chain
pakistanzindabad
enquiry
ang
imad
saloon
madham
sbhi
aagy
fida
rom
##vision
bethay
dekhega
##aharashtra
dishaandssrcaselinked
##mumbaipolice
chashma
bv
##cist
soal
##mach
cheharon
hassi
eles
ishwar
dyn
juta
##dden
prachar
guzr
phair
jaadoo
swi
##dmin
naagin
mucho
bety
soo
beneran
dedic
cz
لار
keluar
##heet
##chall
##cer
lib
muskan
wahn
justo
gumaan
##maniae
badhaane
dhakka
juzwi
kapoor
##dam
cuk
kem
tof
bolen
tet
jain
shan
umda
##ood
sadd
petrol
##quad
berarti
##ورو
tbm
istamal
yuhin
himanshikh
##ر
eesa
aus
kund
tor
zer
##cab
haimai
##hun
##iyar
deleted
khawaja
paso
niya
tanzia
dooba
afsanwi
jahilo
کاس
##zin
tourn
tee
##nav
##apak
anjaan
intro
##ono
maani
pakv
batayega
gusa
khany
##راف
sulah
dem
انٹ
tarkeeb
scroll
coinciden
afsaanay
imam
##adi
parhe
parho
##lihat
hmko
quase
puchhte
falar
##bers
##knay
##hatt
##araan
asman
pathetic
nie
rahim
##oot
az
pakistaniyo
naib
deserves
humour
nr
awara
tam
##ینا
mubarakbad
zil
##khay
##وا
##vai
parchi
##iyal
bolon
kalik
tmhary
aqsam
##یوس
ehsan
##respect
iamsrk
##chin
muatali
kse
##jt
nas
kasar
hau
##nya
sochiye
baatain
craze
##uje
dhandha
##protest
pik
sikh
##hass
##iran
mua
taaz
masom
##gies
##mantri
mutala
nazare
makhi
betiyan
##vid
sadiiyon
ladkiyan
چھ
##vx
##abo
##hatar
##waat
sac
shoiab
patni
khushiyon
warana
leak
garo
identi
suspen
tashaddud
##bachchan
gent
aplog
##hob
##chap
ghata
mamle
##ullu
##banon
kahun
amaar
##ota
##iser
waday
zati
##ayy
rakhty
mutta
##aseer
fauji
lgte
udhr
chahey
##pd
istifa
maghfirat
bnay
eres
heh
wastay
asa
بھ
##athy
##vsp
##sea
##was
shaista
mauj
hasb
becharay
muskurati
195
guzaraa
raga
sachay
stor
##iche
aaas
cb
##ager
##fiha
amethi
traitor
ibrat
ohda
mansikta
jaayegi
##winninghearts
gid
yt
tumhri
sabak
prblm
##ike
dilaya
jaison
bagga
mashwara
ehsaan
israar
chipkali
mong
mosi
muqa
khota
indirectly
tootay
##sanjay
boorhi
tandr
jashnn
pill
ghulaab
ul
tassadum
falo
mone
snd
termin
onc
##waraj
spir
qadir
##osh
katil
sd
shikwa
churail
phisal
##uddin
moattal
gao
astodyo
mza
kau
andi
amra
ghaat
##zarat
buts
##jas
chalate
sheher
##tee
haqq
##wabit
nasr
khelta
memang
bait
anjuman
hypocri
edi
puk
##wers
kiani
kaseer
baani
vaccine
rem
##deo
arshad
aajate
geer
jai
behria
##vaaj
##cky
aasmaa
##bechar
badalta
##isi
khailay
allaha
pusht
##sum
##xz
##ehri
huna
##idnaaz
##shin
##meer
oven
shankar
jabar
smaj
maqsood
bhout
nasib
##bedkar
zari
##airat
nax
karanay
khwahi
helic
mouti
masal
salana
thous
elan
fattu
memon
##talees
holid
yrrr
nhy
bhage
khaka
khawahish
logu
##unce
pasnd
##endar
thnk
##asimanshi
roznama
prep
howy
pret
##برٹ
organi
puede
dall
##alagi
##iki
##asingh
bevk
ush
maai
prasad
##rahi
peeri
tua
gaaya
##ukam
raksh
faraiz
frma
rasa
naslon
applic
dal
rozay
nut
pod
yearsof
##choice
mmbron
nirng
influ
muskurate
punjabi
aankhe
##shabandhan
##maniaevery
cari
srif
hui
##jaz
##ushman
alia
gina
kamjor
taknik
pera
rozi
laranja
esc
leny
##dha
linen
sadme
patah
menjadi
mukesh
compan
ganday
jamhoori
falando
##firullah
ahmaq
##withsidshukla
sawanah
zani
bp
abbas
برو
##mall
##xposed
##aming
loe
ghn
moha
sob
amm
cancel
wasail
mulher
##uju
hakkaam
prediction
langsung
amigos
vhs
##ername
quarantine
shama
falta
aazma
akkians
okk
##oofi
inhon
##yah
hajar
bravo
abang
jou
##safar
mujse
doum
tav
kitn
madni
sadko
makanya
admion
kkkkkkk
arrestrhea
##sharif
##cido
##pil
##lol
##kana
kaata
kahein
karnam
paat
##pate
frn
##zzz
zaar
warzi
outro
raton
majboori
aare
shal
lan
asleha
##angana
advert
esliye
chim
##ffff
reser
##asily
chalaak
##gls
swadeshi
ganja
besar
lanti
wehshi
pahucha
complain
192
aham
dudh
zali
##نو
infe
##dus
bing
safa
adnan
trus
tweeting
##rite
##alekin
dhona
phatti
btay
لیم
##kol
saaye
##ubah
daala
disse
mangtay
translate
khabardaar
beej
pyaas
uae
ihtimaam
##gra
##zzle
##بو
haibut
##eram
toa
apakah
##oom
abhe
thehr
headline
thii
targ
sark
pukaar
##ولی
vict
sagheer
vay
##zeeb
##tiwari
salute
raag
hind
shauk
wallah
doori
koii
peeron
assh
niti
pasa
##ورا
juwaz
khola
prop
cutie
izafay
##tani
shehzadi
##eye
bhenchod
sidnaz
khyaal
wla
لاين
##noo
shait
shami
##raak
sunaya
jine
##cap
meher
rasmi
puncture
swara
swasth
##gis
naqid
rokne
kinda
evict
##bir
aqalmand
##rajaat
zayda
ke
wy
ak
##tad
karish
##jahan
moose
baht
##warriorsssr
lakhon
desse
ruke
zulfiqar
ngopi
##اسی
joota
almiya
imp
astagh
ayndrsn
helicop
dhab
fuk
otaar
sooo
##gak
kawish
isb
##nawaz
bantu
nive
saram
thanday
tmne
danoton
phli
maqboliat
giraftari
سینماگ
##yun
hok
engr
achchha
daaron
phati
banegi
parrin
boycott
auk
bny
phad
yy
ڈیم
##baj
##almankhan
nawa
##entar
marak
rag
mazrat
welove
maarta
dise
watni
waaah
bhy
بیک
##jq
kahy
depan
hamra
asate
rahee
paati
karobari
atya
cheezain
##ینز
##لیس
##von
qanon
badnami
samarthan
aaza
hty
sse
ھلن
haikya
khora
baas
mullah
##itra
##lag
loos
mushta
batau
uthate
pgl
vm
##uske
nana
##ikl
sway
##did
merko
sakt
##hindi
rivaaj
ghareebon
tashheer
critici
chahate
##por
nak
trib
##یاں
obri
##iyorum
bewkoof
musibat
suth
##کار
sett
loon
bhali
##aquat
##mandi
mutlaq
esque
bnde
pagla
gadhay
##poetry
dhongi
##ووین
chamchagiri
nitishkumar
mohtaat
##max
گیل
hr
##wag
ping
##here
##uss
##عم
##arsh
##ench
##itam
username
choom
takle
forma
jivan
rehm
carne
##ونگ
##aarmy
sharaabii
ile
weraan
##orati
kron
hamay
amg
daam
atas
mughal
jayaz
mansab
klov
ikhtilafat
ronaqe
##fare
wasim
tumhre
digest
##republic
polling
##chaan
adalah
abhishe
suc
namanya
impress
ngo
bachcho
##ume
jahangir
brt
gaddi
aarai
##akaar
zehn
runuma
sekali
##muslim
hukmarani
aadaab
ھلنایک
wic
##fh
##xm
##union
lokt
##hya
dilane
sv
kirn
sanatan
ulj
iraday
predi
misalein
zur
jt
فار
##dawards
api
dilwa
##dekh
advo
enko
zindag
jaanti
beau
jaltay
supre
safal
bhejta
balouch
buzurag
waziristan
##stery
##ested
muslmano
rply
raabtey
coincidencia
##bz
thapad
bemar
mahaan
boi
likn
basorat
sbka
##olog
maravil
##dulilah
##lim
creo
clit
ssrkilledonjune
usoolon
hathyaaron
vadra
pensando
aaasaaan
kori
bawar
saali
aftaab
banadiya
##aston
reliance
##niya
manof
biasa
kuki
##shaw
dhoke
guzarti
izafa
ikhtiyarat
jeso
dakhla
khwahisaat
##agh
dut
ewaan
jute
##xn
##aira
motay
##adaari
nazeer
madadgaar
manao
angrez
uthta
qureshi
munafqat
##hang
tadbeer
salle
sincere
neigh
nusrat
paneer
azmaish
dake
advise
pdh
rcb
##ikal
##osron
merey
##andu
chotay
tooti
kholnay
nirdosh
deedar
rishton
hypocrite
bsp
ghir
##loob
kaanon
sotay
tarbi
adop
dans
siva
lae
ikat
##xy
tujhko
afghani
bichare
##000
buzdar
divor
lughat
pankaj
iqtisadi
joot
swa
vento
##ٹا
kafan
##apur
anup
raham
marji
##tarah
esko
khit
iphone
dalna
isa
mira
##یلا
falsaf
espero
sebelum
proudly
jika
kele
yaan
asani
gawara
sidheart
jita
##eday
ladna
guzarna
ijlaas
gov
dhong
muzaffar
shaandaar
##ull
wesupport
itihaas
adhuri
swagat
fasaad
saneha
knyu
khoraak
##dli
unpe
chk
bharta
bale
hojana
##pr
shakl
budhi
waalon
prabowo
aari
pde
kemb
mea
nau
koye
ded
##howa
niche
alp
banakar
activ
rehma
frans
##ards
puray
##agem
lgaya
kutti
prim
benar
autral
##khilaf
muyassar
waheguru
yahudion
autraliyai
ghe
oor
##gd
cp
##xq
pard
##irat
abr
piss
peche
correction
##cked
darti
taran
const
atomi
duwa
cheezo
wahhh
spam
##get
##paras
##lution
##oz
mansookh
##pol
rumah
badhaya
##رپ
##شا
anok
##using
milho
ahsas
##wajah
daalo
quiero
hainap
om
tamaam
bhabhee
سینماگرافی
bni
##call
banin
##aine
##andal
sog
che
paan
admir
##karna
karnaama
paz
samajhta
##ngy
yahn
pichwade
ooper
kaahe
hovered
jaizon
##wes
shubhkam
aalim
##gc
dgls
qadi
##soon
##ڈن
##haye
gag
##amin
##adti
##tified
##chari
logg
atanki
##allu
dormir
dastoor
ghotale
darpaish
targheeb
ہن
##مپ
kiyon
##eny
krt
##tary
entr
hindus
##anga
hayeee
psycho
padahal
shumari
dapat
##dagi
sekha
mogam
mujas
##oya
adliya
mazaa
hee
liken
byan
katnay
fico
imandaar
hul
##mul
dar
##omen
khaala
shaikh
##loves
mobil
##tain
agu
jabardasti
sarpar
padne
realheroarnab
cualquier
pareshaan
grafk
muttahid
##gb
##wet
kapr
##ajay
##rahe
##deli
mazhar
kiyaa
##fel
mamnon
baithta
gracias
kharidi
khabron
##morning
tarakki
trait
chhuut
falsafah
liri
piyo
##mkb
##fn
isey
baqa
theak
lagan
dob
##shuk
ghadd
aajao
##hinde
goad
encom
deshbhakt
##ینج
asimkeaslifans
slash
spons
fiquei
dhool
kholi
isis
##emic
##show
##cbiforssr
tibbi
##creamsc
ehtijaj
##لیٹ
##hackeray
##aiman
dewan
khta
yaara
souch
vc
barometer
##jak
refr
pahira
##یناس
##hriram
poocho
hrithik
aazad
##یشن
zeenews
bayaan
##zul
leves
logoon
##waah
waqi
sidhe
girta
kharay
mazaar
prepar
shameful
daraamad
mry
اٹ
##adha
raasta
ghun
bolein
matri
ahl
sarm
##elo
prody
##word
scr
gin
dalne
gaddari
##kten
oopri
dipika
recheio
مونٹ
##wasi
##kanay
##aiy
##onk
nabu
mirza
apalagi
lagake
manate
##roh
yen
##gee
menang
thankhowa
##iiiiiiii
mehngi
buzurgon
porkistan
yhe
##squad
haikoi
##case
joor
##bot
krwaya
khaaliq
perlu
marathi
##dies
munir
##baik
udh
##lik
##aaaaaa
failane
buster
##bissr
vyakti
qiyaasi
##ital
##choiceasim
prodyosron
rit
##tement
##guard
inme
##dip
bhaap
noori
dekhkr
bt
##demand
##xt
ju
jaisey
sarbara
##dah
##wy
aysi
##aryin
pregn
semangat
masihi
officeofut
laqab
##unda
mushtael
##hari
sint
wjh
##maz
haid
bhim
shakh
samet
##cious
muse
ghaar
arn
##matters
frk
##name
logoun
jalne
##imrankhan
junoo
##int
pashtun
bashm
vcs
##himanshi
haiii
guts
shu
tota
dehani
##irbhar
##ayein
##astha
shram
quwat
qualif
hamarey
swee
drone
berojgari
daj
qaryin
ucha
##لس
##hop
algu
banani
dekhle
manne
waqf
##bis
doshi
imf
shiah
mangni
cosuon
naqideen
aain
fasal
jyo
##qai
hotum
##aban
##eev
deput
tumi
bohra
##kumar
chalty
sharait
zarf
upsc
por
dhaaray
maharastra
horhi
mahirasharma
muzahmat
lh
pdega
##aiya
kapt
##iyun
##dible
##ان
jauh
##kaa
##kaur
##iq
dois
barkhilaf
##gey
hamse
ambedkar
shushant
tej
chik
fiq
lim
katwa
##یور
oleh
mohan
hamaare
##maniaeverywhere
##tem
##ught
fud
lora
##کے
haisa
##alty
defe
demag
leken
khak
filmsaaz
amanat
tarap
sial
nikali
syasat
chok
namas
burj
##mpo
qabzay
dye
mandana
elaj
##itation
info
hosakay
##writing
##ugal
kurang
olsun
talib
sambhalo
mathura
qabrustan
##فورڈ
##kur
##enen
##ismo
mukar
reti
niaz
mareekh
shes
##antee
rihayi
survi
maanna
##nnn
tabdeelian
pranam
qawaid
saahib
##creamscbissr
yom
##raiz
##oop
##bagh
kaag
kaaba
##tawa
accep
##eni
mutnab
patak
##chal
##llah
sikhata
sooch
nawway
besharmi
kail
ninho
ragh
##qab
##vadi
como
##endram
naii
sayasat
bueno
##ngtn
tareeka
pues
##erson
rahyn
mla
##pper
chudail
##ili
karleta
balatkar
aastn
jase
hearted
viewerschoiceasim
asateza
gori
nare
##ady
oly
paji
sry
dipl
sote
baradri
rehan
##jawab
enc
hmain
shifa
aagey
kuta
mtshdd
neelay
bolegi
zimmedari
rakshson
mutnabba
dw
فر
##gada
##aged
fools
haito
savar
abbe
jokowi
itta
kameen
mushabi
sallu
sura
##dsn
bs
avly
lori
sazoon
##realasim
rot
##ades
manofword
mushabihat
##eeza
##tico
parag
thackeray
yaaa
til
biz
##dule
##xa
##aanrc
hukomat
##braan
##ider
manav
##oyz
jeeny
ssw
piyari
tolong
uzma
ashiq
lazz
bhadk
nh
bolos
kamina
##eres
gaay
dire
jaanay
crores
meio
akely
molho
bazm
qalandar
ky
maths
dahaiyo
##tok
kemaren
##color
manofwordsid
qilah
pg
##ometer
##zinda
##have
haiek
debat
apps
inqal
mazoor
sbke
comprei
##bhagya
drign
ishtiharaat
##budar
vivek
vg
کوری
waqti
chalen
dice
queta
bachho
##ight
##fthe
pahchan
sikandar
musalmanon
kamzoree
lac
contro
balakot
ath
smp
##uals
banany
##saab
asma
imple
impos
buut
quali
balky
khich
jnb
dai
confess
khatarnak
khamion
teek
تر
##pand
##hpa
##dadi
##rish
##jata
kie
##hartha
muhal
sajj
##put
##ulan
mael
fabulous
barat
takraar
janan
unemployed
aajata
shay
shayri
##vaad
troll
sadhu
sanu
superstar
flori
dhek
len
kiyu
ghaltion
observ
tinggal
##jana
##prabowosandi
lao
##withasim
distan
ڈار
##meh
isk
##undar
apane
baw
abtak
yehe
qi
moula
agey
tad
hara
adeeb
rhain
prob
quom
porra
##salman
begairat
chahiay
niklega
weekendka
mutabqat
lama
bashmole
vent
aayen
bosa
okat
penting
##jud
khwaab
##ayegi
##oran
honga
ashir
##ulo
taan
##antum
drd
utho
rampal
##سٹین
americion
pichy
madhuri
baaghi
cl
##goldawards
wazifa
mogambo
dolat
hri
mny
گل
##سکی
hooo
##watch
##ajaja
chly
heroine
tute
##giz
maror
##eedar
poco
padhta
dostana
wizarat
##jah
adakaraon
khareedain
پول
tumhra
sunni
##athn
##loon
##tri
anand
mobay
##shton
barhi
kisano
amb
badbudar
sochty
wasay
gandh
sarey
chahata
zeenat
##mat
riloyz
##jit
gordn
amir
wani
sar
##riyat
##act
##ories
##ajat
theka
##bow
##years
dok
terha
taak
enak
coc
rhein
padhna
fore
poe
gadho
##guei
chhupi
##ators
##dp
mukhtaar
reyaston
aashna
ghaddari
bohraan
ih
##bast
##coming
napak
##lection
bolunga
##db
daraja
##vant
andhay
##tionary
choud
qabail
murd
askati
primeiro
mimbraan
marta
##loyment
sai
yateem
##cles
aquele
fid
jnab
##jut
dislike
##چر
hom
chae
mohajir
##lion
sabores
barqi
manda
##ubha
marboot
uthi
sadqa
##gou
##veng
nakara
khilona
##itswaraj
shahrah
zumra
##install
##abkibaar
##rop
oe
oli
zaki
اپ
kaala
inbox
##astumho
taqw
balik
##hram
talaafi
begitu
sulaiman
kharaab
nap
dramay
wusat
sohbat
##leader
##challenge
cj
##qan
##esty
shaakh
outrage
dekna
condu
zavia
breakup
zamany
beron
jasoosi
tasawuf
shehzad
bhadka
arnabofficial
pitaji
nasiyaat
parindon
bas
##sb
لیون
insecure
begunah
nivedan
ara
mobayyana
ahi
با
رو
ہیل
##apko
infact
##siz
##gaan
##meon
##dein
arman
hadh
rasal
##uman
hater
##ifat
kindly
intol
puchne
jajajaja
vndoz
saarhay
suraksha
moulana
##heersheikh
dst
لیس
##wand
##baki
##ald
kidr
##hod
diz
##qa
acabe
daru
matric
dosaron
tx
zaroriat
larns
chitral
segunda
berani
ghamgeen
hiss
tasaworati
gazab
nasal
shehrion
dict
tentang
##rng
##qur
##ameet
mull
hav
milny
takh
masle
##walon
laken
irm
##any
##phones
intizami
guzari
aaiye
phans
##uo
ujagar
consegu
ncp
samsung
وار
##bye
selaab
##isht
loks
##gaa
##seter
paka
attra
eska
mulazim
##dhi
maho
appo
mig
##ریڈ
grup
narmi
speci
scrip
sadaa
gufa
baqiya
fro
gath
aj
jyaada
##jna
thana
##chaar
sunay
hyd
descri
pandemic
##oso
chutya
gareebo
kangan
hiran
vitnam
poss
hobe
baahar
##laal
noite
realise
manind
ekdam
ghazab
impor
jaogi
hazf
##posed
tempor
##bhaiche
dharkan
##یکن
biggbos
kkkkkkkk
arijit
فنت
tasadum
##bhaicheabkibaar
nne
pse
vada
uber
##vit
krunga
##num
banaa
soz
phirta
faraq
excl
##few
roze
dyne
wen
##bey
##ilities
goswami
sebag
dikhayenge
ہالووین
##seterifat
bry
##ih
jakr
اچھ
nj
باي
##bum
##xd
kilo
karpor
insi
inlogo
hump
bebi
kamaya
tarp
cok
farid
bachna
##zzat
katanya
salawon
qasba
zalzal
khuleaam
ismail
khinch
gehraion
##lace
##qk
sud
woi
bhaee
anday
##hnaz
qabee
respe
kurta
bichara
hainaur
earzi
sacrif
sidnazz
isupportasim
bkl
##osition
ptv
##osop
inkar
maham
sabkuch
peta
gaur
tolerate
jabse
adday
sanji
dalail
ikutan
galian
pouchye
aimim
sarbarahi
kph
ٹران
کیری
##swara
##faa
haiagar
nadan
##apat
bhatee
##gets
shuro
mashr
bhola
fitnah
rupee
tsunami
dadu
zahuur
##یبل
phenk
lidz
aqaed
lazzat
cath
cek
dhay
oxy
##bt
##psi
##qn
##qh
##پس
lewat
anu
##idbi
##waha
##thr
waqfa
ghayr
##won
baty
rahon
tmam
viento
##khain
puchte
##zadgi
masruf
kharij
mehngai
dere
##ads
lhr
کوي
##xit
##sible
##زا
tumhay
##ß
##araat
dilkashi
coment
hmen
mukt
cliche
pagli
joker
serf
haarne
oldu
rafta
##pashinde
utthay
appren
ماي
hoyi
##abut
##ahy
ol
shaandar
nico
##ndon
hamsha
amarat
conte
bel
nikam
mulzim
pahoron
ruim
betul
msla
majbur
##dilkomainedikasamtomorrow
zahar
##یين
bhang
prabow
kehlata
paste
hichk
vers
vin
##ٹو
##aiq
haiya
##lod
chy
ghumna
kahn
##par
millat
##comes
chorna
dikhati
zamanay
qatl
kaunsi
samaaj
risalat
barking
shehwat
##timate
bashindon
mja
headlines
##aisi
rum
bharak
mehram
hmesa
gadda
bhulaye
ranbir
gaaliya
rt
hawale
nalayak
jolia
companiyon
olymp
gilah
compliment
rati
hajam
##ukt
##dei
shararti
talaf
fermaye
zehniat
##withsameet
rootti
petrick
hw
pees
##گو
pena
sene
##akal
thim
ea
pasandon
uraya
misali
hojate
dhula
golion
jaaane
ghani
##waif
begair
disgusting
##toria
padhte
aarahi
aankhein
zeyada
promo
pda
rin
##ة
##کر
lartay
bsd
##ونڈ
ussey
olha
bukhaar
makhlo
##beat
dhundh
tadap
##bana
jeetega
justojoo
nase
bhaai
miltay
combin
kalah
homework
aaka
muqeem
khulla
decir
rony
maheshbabu
نوعم
quiz
کیپ
##kut
##fik
##aili
##hil
naare
anp
sopa
kabool
endia
##china
rigg
##ffice
##minister
##mbol
smjho
##olar
thakre
mayawati
rautsanjay
suthra
نوعمروں
dais
nali
rhenge
vash
##erna
khoo
baan
muu
##memes
##give
harnay
davn
##uni
baja
musaw
bigar
duh
maday
jalva
bachha
dhoon
##zalzal
##omo
shikwah
mughe
##karann
##vet
ineqad
haamla
aanay
laj
vindu
kargil
##isingh
sahee
levar
tuu
immedi
dani
kaly
##endra
thandi
alif
hosakta
shams
daalti
mutazalzal
##hala
dalaal
theres
weekendkavaar
qabeeley
haijab
##ensive
ussay
nota
taky
pehchana
##verdict
nazuk
##minati
lahori
##logon
azadana
sapno
pakhtunkhwa
iin
jld
tally
mds
aux
natey
ssc
aba
##sub
##dain
haiun
ghos
itney
##chad
pakvs
##iso
chalain
khusoos
rokta
##یرس
##sic
bukannya
dukhati
ghafoor
ilzamaat
discount
fajar
juth
vos
##eho
baaqi
difer
##eshwar
bajai
soniya
##urt
mahina
laina
uthna
##emos
mazbooti
hasiat
badmash
badmashi
ehalkaron
dilkashii
gane
nga
##usko
##navis
isil
bau
keel
##sher
sahara
##azay
jaoo
alas
nou
sunti
hem
constru
imm
sanp
bdl
aesay
caneca
aro
resh
##mnt
##active
rea
pahale
arsh
esfiha
chid
momento
hojae
siddhartshukla
apnaya
mishti
##goswami
hinduism
##نر
##xr
mehen
nagh
##navi
khain
mohon
badli
bachcha
sanbha
sinatra
murshid
##khair
##tl
jui
##kon
##mbl
##west
deserving
khelaf
bughz
drow
sayeda
ugal
##zish
##kk
##esta
parkr
johri
##rible
##bahi
ajkl
larkay
##ln
jalaya
hasna
##agement
aakr
mazahab
waps
bechary
naraj
##temu
naqad
kryn
giveaway
gosta
pqp
muawza
mareezon
mustafa
extrem
churraya
jaffer
hf
voot
##qz
##مب
meena
##isti
##tayn
##mimpin
ummed
##baca
##shine
saty
##fr
padte
hasa
geni
ngom
##اتی
chhutkara
tumhaare
##pas
elizeb
yatra
perfeito
##baaaz
sacchai
elizebath
jcd
nahein
##vr
##eeeee
parvar
hijab
leker
##uday
##vu
reg
jiju
hayn
tanpa
izr
irony
##sun
##sidesid
dyie
##mukh
ukhaad
mei
wraps
##aba
##who
hairat
gu
syed
metr
chaiy
bray
khab
thhe
pados
mismo
spok
teamon
todas
bahao
larkana
kingasim
geeta
bigaarnay
aen
مان
mousam
milaya
##mant
##uba
gyaa
##see
paigham
falki
##ishaandssrcaselinked
retweets
marasla
grat
ninda
##lai
vns
##taj
toor
istan
yae
##khus
dogl
##now
##stin
kehla
pyr
sprim
pheri
devta
tarjuman
najayaz
gg
اف
ایو
##gill
##jun
##gosh
##jati
##amani
aps
##cd
baet
hidup
soti
##angle
sep
sunana
apr
sunehri
##wanat
konay
mina
sadh
aadhe
##pressed
nawazish
mangna
samjhne
jhagr
jeeney
tr
authackeray
jue
barr
pukar
##cue
kaang
##naat
yei
shagir
shafqat
deshbhakti
mutra
vida
taloot
majmaa
##nat
tmhre
karaam
murr
jamia
ulfat
##ink
aarop
##kriti
mv
ponch
hukmra
technicalguruji
lali
##odes
##rar
بیو
##poli
bewajah
kamm
taees
ghaarat
diyaa
##lein
flu
angot
clos
gaib
qadmon
##vos
wil
kucch
paltu
##adowaisi
sunaein
vahan
##cke
islahat
191
parinday
madharchod
daketi
ml
##ghon
karre
uninstall
chhy
baatil
pemb
kamine
tuo
masro
poh
smriti
chupke
bulan
posso
##prof
historia
##br
pkmkb
##post
##justicefors
vapis
pist
urat
##zain
##qs
##uter
karma
##tack
belon
chhin
kishan
jaish
##mbre
chalan
mehs
hmri
ramlal
qarza
dabey
dheet
fridi
phelanay
bandobast
karbalaa
khusoosan
nro
sndr
##will
kali
hian
abro
##while
alay
##jos
gaa
shahab
bachega
chhap
imtezaaj
abd
iba
vat
گر
##hao
##ikn
apo
banayenge
accus
hamaisha
kamrah
samasya
dekhu
##rotest
pert
donde
chalon
bharnay
wajh
facil
194
tanya
nasb
##assum
##یکل
med
gadar
kaptaan
elahi
defame
mafadaat
##ust
qalb
##ml
##ision
zaib
istandby
ahangi
jse
##tng
197
##xk
karor
##athore
itana
##dow
khizaa
tau
sadaqat
193
corpor
katal
marahil
naukari
jaroori
khenchnay
##hong
ching
##thakkar
bless
mujrimon
##hassan
##کین
##hawa
semes
toti
paane
sidseterifat
198
##ppers
daik
##ايیڈ
kanpur
nz
##jer
det
rkhi
dhire
bersama
int
acabei
kute
lv
##skar
##dade
baam
##khya
viva
##ingo
##ulad
machin
##rim
enqu
duain
jaihind
##bhaq
##wari
mns
jashan
araam
196
panchwin
saqib
nabuwat
فنتاسی
dud
poon
ایپ
##zet
##fli
##alli
khn
jach
alhm
##osi
feminism
##lat
aaoge
batin
tril
durr
deramo
snaps
nuqs
mushtaba
##akes
jumle
mindset
insaniat
##onsn
khalil
sap
gangster
gamb
##baku
masrufiyat
bung
flix
lungi
nish
audi
rw
رین
##azan
panchayat
hiz
shajar
dilkomainedikasam
sidhu
kons
dikhavay
##hetic
swami
##says
##urus
##assus
dhakel
##masti
hussain
jurwan
##وسی
mahaaz
kharidari
vie
##binod
rubika
mute
continu
effe
deikhein
##endramodi
ire
wt
##fv
##anway
##press
kijye
nadaan
##issr
##apun
usny
cs
usloob
ao
shabih
barpaa
kabse
pehchaan
mazi
sochye
hmre
mayk
##faad
aashir
mardo
ethi
krege
aansoo
mujahid
##upports
##uja
##mur
##fd
kep
##iler
wou
yahee
##gil
rout
karobar
chothi
atra
charger
tajassus
khelti
hansaney
sahar
salebi
dikhne
##reeram
celebri
ismein
##byyour
ghoomta
##crimin
doo
##cessary
gunaaho
harkate
tardeed
##prabowo
bewkuf
zalzalay
fub
jta
ٹر
naki
sabut
mujra
pasar
pataa
chic
halqay
lamhe
chahne
laip
sidnaazforever
alwaysbyyour
photograp
copter
rata
##chenge
##madi
naali
kohi
thehra
kism
##hea
batai
arhi
kerny
garaj
seema
thikana
bachayen
smjhe
sukun
hiln
##vati
mazmoom
akhbarat
jhatkay
##uxe
dhrm
chow
errado
khwaish
مشیل
##pubgkh
alwaysbyyoursidesid
lkh
tao
oooo
گیگ
##fun
haia
hait
bali
##ahon
##kari
##chup
haali
khaber
pl
##ainte
machal
movee
asti
sii
forno
trk
farmaan
duur
namaste
hisse
##sei
##paastumho
khushii
bybi
viu
berat
indv
mosoof
geo
duba
phansay
thnx
bela
khudkush
marhala
##gor
##gehlot
bori
dkha
sukla
##bish
hush
maas
##mez
kamra
pov
chomu
taley
tamas
blm
jitny
kuty
sens
tabdee
cmnt
ashfaq
devgn
gee
shirk
vamp
faaltu
hukmraanon
bora
git
sindh
kuk
kkr
hm
##dost
bey
hoten
dewaron
kamane
hotaa
jabeen
haris
rober
impa
farosh
##hasan
gulab
raeesbhaicheabkibaar
anal
kamaai
werna
ningum
fah
oar
janata
uri
##سو
sete
saadi
##utosh
humra
dd
sobon
pakki
badlo
sunah
dikhi
awami
riayat
mamnoo
bruh
donkey
vipaksh
idraak
##bhaya
##asaheb
yunhi
stevin
zalz
##dono
mehndi
##video
naray
veena
##jx
neces
##azo
shana
lame
walaikum
sans
pech
header
##chaya
##xx
pakr
dao
sharif
bivi
akash
dekhain
tambin
##spira
##trz
tayt
milo
postpon
jahilon
##maine
kalian
sacchi
##friendship
refund
cinta
hume
aki
ov
pory
sya
##nye
bebas
acr
dilkomainedikasamtomorrow
bis
passo
salgirah
migr
qadyani
gundo
samjhao
payegi
platon
jimmedar
bewafai
bhoomi
##tom
beshumar
##ulu
ahista
oont
swit
ول
##pana
##usse
jaein
darbaar
thoo
saymn
puraka
jina
taqaza
bayanaat
vaastaa
##tapaj
akshays
##raz
haisab
##ako
##azeo
tandrusti
##mallik
engrazeo
yer
mng
wik
krey
khaami
shumar
donu
paragraph
tabassum
reallyswara
##nsn
khusihyan
quien
taied
##proud
jrur
entertain
criticize
humpct
drowna
sini
مل
مین
##rul
##ayeh
muhas
##azam
anc
alvida
chub
kisike
bholi
kalsoom
firdo
##erein
suara
tasn
ayya
pidi
patel
claro
mrfi
khulle
##hak
aaiine
tidur
sidnaazians
tiempo
##cl
contribu
kaptan
ezat
lant
nend
##lab
##iland
unlogo
##hats
shia
samvidhan
manmohan
ched
permi
##shak
tambaku
mart
umeeden
##isto
typ
khilaya
##aran
akhrat
evic
chakka
mansoobon
ravay
##mt
##osidharthshukla
znd
روم
کھ
kite
##erto
kareen
##apoor
muhajir
dimak
liza
huve
umid
chalaki
gharo
malai
khargosh
kerja
bheje
gupta
halaf
##ujan
qadr
deewany
sonakshi
initi
kasy
sambitswaraj
bhavish
mubali
cukup
fahmi
iaf
lud
##orum
##stra
کرن
##amai
kaudi
bapak
jawa
mawra
##hini
harga
waqiya
pocho
khopdi
malu
namor
rakhni
maartay
disrespect
##ونز
kaarkun
akhrajaat
jhoothe
ankhe
shehzada
ditta
winningsid
gare
##nl
برا
بوگ
##لے
##amera
khole
partic
muasar
##dition
quota
##hour
abla
kamanay
manush
shol
baho
##aahi
progr
fahad
jaanwar
asimsquad
ahle
samajhne
janaab
hack
estn
ishqbaaaz
bulb
valter
##ینڈی
##vresign
bundon
choutha
caller
benef
culprits
dozakh
##arts
لاينر
yab
جول
kilometer
aurto
bezz
huti
##kahi
##arachi
daulat
rehy
waap
##pedia
satar
qabaili
##asirf
##ونک
indvs
chamakti
comida
junooni
malomati
##ject
abhishek
kapron
##dio
haime
haikuch
deac
##aph
chaya
lodu
##khy
khushy
sabot
##erem
talah
##nown
terima
mier
chutiyon
##youasim
desper
surakshit
sayed
##gaj
##gando
hue
##xl
kaay
##usnya
yahoo
##lane
alka
bhaio
##hamare
scor
mulakat
jageer
brut
khet
##krit
schoolon
qaazi
##oting
pang
rainin
##janta
jazeera
culprit
bya
dande
ووڈ
##گن
kahty
parah
##ush
dharma
paraya
ghoron
barket
##udar
sirplease
nikkah
abusive
kone
talabb
misri
pahla
ruko
guzaray
ehkaam
##yen
##zak
seedhe
tahu
##pose
##tur
qitaar
jarehana
piye
##فیل
kaant
apman
bhaw
##gat
bhaid
bolwala
pree
hamaqat
amwaat
rahunga
av
sharabi
shareer
imrealasim
##motiv
##bara
ras
utre
tmhra
199
##cob
patha
bully
##prt
##kaya
##enger
blokir
avhay
##zam
coronavirus
vidhayak
fayrng
lakhs
mbak
khatima
deikhna
akbar
minggu
chokidar
ڈایناس
himanshikhurana
##withsameetthakkar
##مان
##tiyan
##oood
hao
huu
acab
samajhna
munharif
##thing
makam
##wait
neecha
alaat
piyush
irritate
chlega
ghaseet
flipper
kembali
loksabha
ڈایناسور
aart
yhn
##aani
##chu
##zardari
##hap
##atbar
##asay
##unan
##aly
##khla
maah
kisika
##rano
aje
provid
haqe
tasurat
chipak
thanx
daitay
##oman
ely
bhagnay
##pire
chupane
greeb
##aq
samjhdar
password
##piff
bahaq
mooatbar
alamnaak
zrur
gilgit
jamiat
namoonay
chaukidar
نا
hoey
krsk
##mani
bepan
raheel
sidhartshukla
itnaa
saree
##kkan
##eli
##inet
##cao
misra
caralho
delcia
pany
fehm
daarhi
youthi
varun
cheema
##fortrp
krwao
tiranga
##yed
muqaam
inqalabi
##under
mubaligha
avhayyo
bint
mbah
##anth
##amento
noha
tabdeli
urdan
minhas
##khana
rukni
childh
bsss
bram
tamancha
madhya
aalo
پیٹ
##lena
گول
##phon
##gant
##jeet
##alar
##lb
##amul
kapan
naka
chhaa
moamma
asbaab
arhan
sall
zarort
yaadein
tujhay
bajrangi
guzeer
boycot
##polic
chairr
kardoon
ir
sridevi
wkw
neroo
tila
##xc
##alvi
##astic
##ishy
prom
dita
##raam
shre
jaishriram
propo
##matlab
naamkarann
##kkr
kerni
umpire
majaal
sonam
bulbul
realidad
mangnay
bunyadon
farmaaish
kahega
ssr
sanskriti
cheej
karien
najane
balatkari
##tery
sasural
ud
##yearsof
aamiin
netflix
atyachar
tabdeelion
condom
##vresignor
ik
dando
iasi
##bet
میٹ
کین
##adin
##endi
raaste
becoz
usah
##aqon
##mian
##tial
andolan
##atel
jib
kahawat
weloves
zamin
delici
ibu
bu
buddhe
##omi
saib
housefull
##sas
اسٹیو
mazakraat
zakir
##rette
baichnay
justiceforsushantsinghrajput
jhagda
sebagai
babu
eb
fy
vdeo
مون
پا
sarcasm
chadh
krli
alli
mujahi
hamesh
amish
##ffa
addi
hogaa
chouti
fig
bhagna
inteqal
achei
naukar
##cbissr
##zk
##fg
##تو
##lr
##hame
nah
naeem
##heera
chun
##akha
nehin
khaana
uncha
shahar
trhan
ajib
farji
weap
bharam
aamin
makin
daity
chhur
sahul
zimad
ro
##lerin
dakhil
tahreer
##کنز
sosan
oncologi
karishma
loktantra
aabaad
ntar
##نے
dora
##xb
##sham
paros
lek
gobi
bhukla
issay
##waqt
poray
##atherine
wafadaari
aatanki
shehwani
##mata
taqaton
maravilh
gi
ngomong
icin
jil
zror
##hee
تع
جیک
##yers
##fandom
karz
##ahkan
##lel
lagayi
##wazi
lade
##udi
khushiyaan
sanki
##bru
odi
pagl
cima
dubey
hahahahahah
gilani
otro
priyankagandhi
qaafley
##aintezaar
tasneef
zir
ایس
##spe
##ٹک
medam
kaabil
isha
parna
khaate
khabara
sod
nobat
dekhein
arbo
roko
hostel
goonj
kabul
chaliye
freez
yd
basta
sochon
mulana
broks
zarea
sensible
mitra
chatuk
wifi
vezes
intahaa
destro
fsdf
disagree
shenshah
ration
uy
##mubarak
##yal
##high
##atir
kecil
kacha
##isco
lago
shafi
chli
##chas
tuhan
daa
mazy
##ashti
bilaw
lai
prima
##ples
hmra
##bina
patang
mahf
kc
behnain
bhadwa
abaca
riwayat
bun
##student
dentro
sajjad
ato
aein
##kia
hny
ose
saye
بیل
brasil
neki
##daal
moak
milli
##kim
kisiki
dilkokaraaraaya
batam
salgad
samajhdar
rb
##vote
sha
nisha
starplus
tagar
##ursday
varan
nirbhaya
tanqeedi
##uresna
##films
##final
axha
nesse
##aur
jahazoo
mulaika
##cter
##tour
suraagh
distancing
##rain
ghin
nhai
nome
##iley
usted
dilatey
##stal
##anshi
newsp
##qita
patla
chaley
keemat
##انو
negeri
اسٹار
ut
famlia
estava
ghaznavi
sidseterifatikya
bno
vats
##dry
naah
istarah
##tih
##aret
rahien
aziz
##log
urg
kashmak
kahti
rukna
smjhte
uthte
yousaf
piddi
میلوڈ
talafuz
govern
ravayye
vp
ludo
teng
##urant
##hede
chadha
maw
filhaal
kambakht
kabza
phirse
bharose
##tras
grp
realme
##انہ
hanstaa
uchhal
##pura
nashta
namaskar
kaarkunon
fanaa
ls
rapp
##wey
##lj
dictator
##mk
##unu
##undo
baaat
infr
unwani
digo
reve
##tm
stro
##anew
matal
cheers
talat
girne
aqli
pappa
histor
nuest
messi
janamdin
cigrette
kurkuresna
##ication
bhaiyya
pbuh
manqola
gest
oss
tud
اڈ
فرین
karar
chew
##islam
khabees
livin
umri
##edad
##gardi
sanwar
blag
##ined
sktay
chupaye
ganhei
tasweerai
##uld
caso
##vrt
quran
abacaxi
bicha
hari
sme
##roo
##fj
##feh
##atv
nazaad
raft
bose
koee
apro
##tep
inget
behal
beje
##rez
ib
lagaa
dogi
aggr
pegar
gawa
sharafat
taso
yaaron
vibes
detey
ui
aasmani
aasakta
injustice
bhagtay
fansi
narr
maano
##rahul
presente
##passt
qaidyoun
nisbatan
bgt
bord
lq
kiaa
sekh
##isliye
##bron
##sr
##oswitch
mecca
chato
aapi
##gae
samaz
hareem
shyad
aaeni
lal
haqdaar
##orao
##dai
coll
tehzeeb
bhopal
##ysm
##انک
donate
af
baithna
lau
zaidi
taskheer
aankhen
لیوک
astag
staystrongsidharth
irtiqa
tal
##asi
wickten
bebida
kmy
nira
otra
rj
yii
hoaur
sever
##ikes
muhtar
haak
lom
almaari
##kita
shaant
barq
kaml
bei
noch
esay
majaz
pee
##priyan
##یلر
doosro
sul
##mail
##kyun
everytime
sering
seria
##tainment
bika
borng
besok
asslam
bachey
hifaz
restric
bjaye
npr
philosop
aukad
intoler
##pubgkholo
bism
eak
dent
jasi
sev
seene
##ilii
##tize
muaziz
abis
##tya
pronto
kamini
##istas
samaa
taunt
daaway
jammu
badami
siz
passar
naira
poti
chuda
adaa
bnate
mer
##joko
jams
pouch
bhagta
tempf
jazbat
hansti
olan
bala
bacchon
celebs
cahiye
afsaraan
nidhi
##رلینڈ
taqwiyat
vashngtn
kashmakash
ff
kurkuresnacks
##ahu
gosh
jst
kiyo
##onfire
##akte
dl
isma
##hank
paresan
bhid
anim
bek
doa
asadowaisi
kaboo
roke
myn
buka
kayar
##trend
aadhar
clari
aazm
##office
istehkaam
pohnch
istandbyasim
aoor
kuda
##tral
mto
rhiye
##وش
##vasi
##urd
##asaan
gel
kodi
apnab
baalo
##daat
anwanat
manty
raheem
##angkan
##azian
jaaoge
##oof
##pls
##bok
mardum
##stand
kholne
bichari
##killedonjun
masnoaat
کوریوگ
dms
mgar
nue
ون
##arkar
##aihi
bawj
##tej
unblock
merda
##rup
chhar
hamle
maslak
chel
shel
azeez
jalane
aamaiz
paich
ist
ahli
dalito
btata
##انگ
rupiya
##wai
##یڈی
hawaon
sanamade
pashtoon
berozgaar
credibility
fir
bhugat
apologizet
##uslaugh
ooh
##sam
##dull
##fw
nadie
doang
##eem
darind
##ubi
sarr
eski
bachchen
munqita
hojay
##pro
fiel
##ugust
safeer
bhand
najaiz
##rani
carryminati
##zindagi
taimoor
bong
fero
jaza
vsk
##cado
##وین
##joshi
##qin
##fty
##aikan
hoshi
##aber
totay
##ahul
##vation
##khul
##ingat
badhane
##gp
azma
laude
malang
##than
firqay
hmry
drtay
khiyal
##ndtv
offline
durusta
yakki
##engay
yahood
hanste
slee
rani
lasani
klasra
cosas
##rance
psp
##jeel
##لین
##تے
##chhi
##unuz
tab
rawai
saand
sochi
##ceu
rakshabandhan
##anto
mashal
instig
bachne
##kr
bnne
suron
laytng
##riyaz
chattaan
khasiyat
##ichalo
##iter
fayaz
##eeeeee
jnta
jul
tareqi
mishbir
pabandiyan
durustagi
vakr
zard
##میٹ
madam
##only
##abir
##uski
##iyt
##vir
alikum
crore
nokar
tawaif
bhart
##qaar
polici
ahsen
sandi
##eral
nasheen
qissay
khuw
kb
kasur
chamk
samjhaye
##ajajajaj
bonito
geograp
##dministry
##aintezaarkarna
##passtumho
##aroo
superb
karak
rawabit
siraj
kamtar
##gm
youll
sheri
masawi
ghark
##warrior
##wano
ayd
munta
khushian
##gggg
brabar
visi
mahaul
hainafsos
zakheera
##rot
eee
msi
sko
fen
##gye
bahadur
##rom
##beni
kahon
isna
##chka
bhasan
vip
diper
##wd
booking
shamat
thika
saku
ambul
shee
azlaa
giraya
majal
pattay
rassi
##from
##ltn
fasana
hatao
adhik
gatar
meteo
##withamaal
##friendshipday
hwe
yash
zina
##pilih
##atra
toheen
entertainer
##icide
##ahmed
asb
gohar
gharane
urdus
ramadan
##org
beech
##wana
rajat
khayalon
hahahahahahahahaha
chhaati
ru
cancelcomp
ghalba
istimal
het
nichale
mutabik
mahatma
madniyaat
deem
##noor
##mq
seja
khona
bolkar
hamisha
kisy
dawood
##mber
sharad
kahain
chour
##dout
bagus
bai
qism
chalao
panjab
nawaze
##hanaat
airstrike
sudhr
kholna
deeni
nanhi
kakak
khubsoorat
maatam
dapet
krska
talemaat
sialkot
sayasatdan
lis
nata
مال
##ngi
##lq
##وسٹ
##kor
seor
##eneet
anush
dios
boh
##ones
pemer
##uti
lihat
pehne
daykhna
jeety
khalid
brtn
ikatees
maarte
##voice
bangsa
pichwada
senkron
tarjamani
##ishing
karwaye
##lsn
##hhhhh
##corona
freind
meese
##urya
sufi
##hek
seer
##nap
khonay
##teaser
##olah
##itum
jaungi
acti
terl
##sem
takk
harass
pois
lund
upa
ala
hen
qui
chorh
##akarta
ghusal
khasta
zimbab
parecido
sas
dangal
armaanmalik
odisha
sanamadeuslaugh
aabi
pe
gatiya
##guj
##ehar
massage
shen
haare
beche
##riz
agye
corona
pron
pedir
##mele
tarikh
sarak
##honi
##walap
##ghty
hasne
majnu
asalam
tareeke
intzar
nibhaya
rasty
esperando
tyre
launde
##cp
zalzala
nger
yall
cheat
kamal
وین
##clo
##jw
deko
##unal
afzaa
theh
beber
uspar
##atif
dardi
##vedi
janji
##hyon
propos
##vah
charsi
hoc
nazir
sper
bigada
bitayen
sim
congratulation
vrna
numainda
##pilot
aafat
##sushant
##jen
##vya
##api
muhaj
##ended
##hampton
haai
havent
sidmaniaeverywhere
convo
theyre
uppar
girtay
mulq
##hadgi
santi
rakhny
dasti
sendo
sadaarti
sayaq
bulao
istiq
kesari
dkka
biasanya
boob
eg
jna
lind
mf
nda
tjhe
##اڈ
##inar
##erta
haaan
kriye
niilii
taraki
wed
hmlog
uryaan
##airforce
maka
dessa
cub
gadhi
politik
tener
embar
zeaf
scient
vans
##acting
soochey
muqadmay
kulsoom
manzoori
ghaflat
enquanto
cau
dps
فیل
sehan
sabb
pasmand
butuh
burrows
changa
thane
ilti
feito
##ctions
##agardi
dhundlaa
boo
paaltoo
##aaaaaaaaaaaaaaaa
vskonsn
dagh
ksh
uang
wager
##nalo
tolak
##eso
thaak
ittif
##saeed
##wafa
##kout
hamm
##sthan
quo
##eeds
##karta
khob
mehmood
jalanay
tanaze
bliyr
##ange
charan
btas
##یوڈ
##aimana
##masjid
intikhabi
chouthay
napasandeedah
advertise
hartaal
setelah
bhavishya
edu
jra
rist
tain
tbi
##cere
##inaa
##tira
nw
##iyoo
inky
preet
##apa
siraf
##upi
##pio
muskr
sunil
batti
chenn
pase
roty
khanjar
behosh
rashid
jagh
pite
##bas
sonch
ehsasat
##ply
##rahman
awazon
iamwithsidshukla
istaqbaal
aw
roarlikes
shagird
##vresignorcbissr
##beniwal
cag
otak
nokia
##wain
hz
##mrankhan
##من
##isn
##words
##olas
bhaik
##iyet
##ulle
ghora
rc
mohab
kamo
badboo
baddua
gopal
qabeela
##dm
jeki
rhyn
credi
fasad
degiye
##yt
buttermasti
bgh
berita
اول
فرا
hamas
meen
melo
raakh
muharrak
yeha
liv
mois
##chaudhary
dilao
clg
charo
shakeel
kutch
##kariban
nawazsharif
hongey
##human
comemor
payearidgroups
sikhate
lgega
pujan
##targetingsid
dalehede
shaitano
tarbiat
chhuranay
payearidgroupskariban
dalehedepression
fasi
graf
llu
ostan
rhn
ڈیان
##کل
ketemu
##apad
saff
bhaar
##riel
ghreeb
##dim
mahab
##astr
rana
noti
manish
nia
janne
##alaat
rakhon
paheli
##viol
vohi
attemp
madhu
##ulla
suco
burha
pak
chicha
##م
dusman
kutiya
lyf
matchon
munafe
automat
##test
juloos
pouco
congresafsos
madrassa
khittay
firdous
mujahideen
bair
gaf
مص
##keh
##bp
kotha
##ahmad
sg
agend
ekon
marham
##ghan
##dem
##demo
perha
jayeg
sheesha
suchi
galiyon
bulana
iqra
roomi
churra
natija
##sho
dhayan
prakash
ctemp
nwaz
qilay
taid
vendo
##khat
##qd
##erno
##home
lege
##utra
##idente
doaridgroups
soute
ando
aahe
##habar
bhj
##noy
bhagvan
##ind
##danon
##akib
udr
udhav
achey
ax
jasaktay
susah
pandito
##ups
nonton
lapar
patwario
nazrain
##hp
yazeed
##vspak
dhai
taseer
##aian
##onment
##iyas
ankhain
##arious
gaee
mazz
tru
mehroom
tamatar
issliye
mayarat
sadgi
##km
##covid
zahid
sanati
surang
jamali
irmo
mort
ranga
yuhi
labon
phili
##labh
trouxe
mangetar
ikathay
franss
avlyor
mierda
roarlikesana
tant
مت
##sati
##fee
##erjee
##akbar
tout
##udin
majhab
aadh
tehseel
kudi
farmit
tis
khulti
zehnon
poochne
##ghazi
karwnay
##وکس
##pet
navlon
dheelay
cy
karporasion
##kus
bezzati
pdi
ria
مس
##ھا
keu
##kians
mahen
arul
arro
mazedar
ahwaal
mens
mending
ramayan
fofo
##اير
lakar
avg
sudh
alava
##province
##haraman
jindabad
ruswai
andheron
comprom
##ilo
tumhaari
mughfirat
lionsgoldawards
fayeda
kue
لوگ
ٹايٹ
komal
tos
kroo
maheen
##tero
##chahe
##alive
##heart
maskh
##pec
sharts
jinse
taliyan
girty
ayashi
ayushman
majid
rasookh
hataya
aqliat
fait
msgs
garmion
thandak
pakdae
lia
bashinday
rara
wsy
ریو
##وت
follower
##مٹ
##aif
##hina
kiran
haijis
kimat
##uslim
deka
rac
##lega
govt
##uten
dino
krre
bool
agly
jabab
##angka
ayk
cros
asimriyaz
##wizaat
dalte
sachy
btane
##arth
kashmiris
##sidy
soni
chamchi
chutia
smjhta
sushil
quresh
sms
kardya
##aton
dastawizaat
kalie
hinsa
julm
nazriati
universi
disappoint
garohoon
aega
jurat
##esa
wir
##gand
##erh
##adlaal
tola
##hanway
saakht
##idents
##ateam
aahat
lawan
prope
shekhar
sharf
##kti
hmaray
rhey
##doh
bari
yaro
veg
msm
kapra
comeu
istadlaal
sarcastic
jhak
ankit
attach
horas
##maheshbabu
haei
nabwi
doobnay
classe
##though
saghar
kavita
pengen
hzar
jz
qazi
روز
haitu
khaal
khushbu
##rou
##sach
kamp
sakit
masawa
farman
##xon
jaano
chini
majdoor
##quotes
bulate
yearsofepicchakdeindia
##ever
##jjati
wagera
##khar
##election
pleas
##tet
alguien
masawaat
hase
##wide
yn
##ghat
##vw
naha
aftab
alum
logn
maakh
peena
darbar
laraka
lugar
jhuti
nazer
gairat
##ايے
hena
##march
angrezo
khamiyan
bahasa
##ualaikum
##fp
simples
hijaz
ishtira
mbbs
pahunchti
awwww
iraadi
bowlers
dici
ikk
pilih
tysm
##sani
##jaise
porn
hola
afia
aawara
perc
##vijay
tabse
potty
hk
ich
dikhaoge
foda
baju
budd
faiday
##iseof
##yp
rashk
asaab
iamwiths
rizq
##medical
laashon
##js
taazgee
dialogues
##zindahai
hriday
atraaf
apologizetosidharthshukla
iit
luk
sye
واٹ
##rees
##jir
##amo
##hihi
##oldout
himal
belo
koie
hamar
gaad
liaquat
sunataa
##daro
dayan
exaarmy
chitrol
thod
mammy
tmse
murta
jehadi
bachata
pappi
jumaraat
zameeni
##وٹو
dhoondh
baqaid
andazay
pyaare
rud
saste
ٹرا
کلی
##qp
##ayun
muaf
##aker
chaw
tuze
asee
astayn
manaye
biga
chela
##ctv
bhole
##otum
sadarat
ilaqai
garmiyon
mata
maksud
daikho
dusry
guneh
guzre
hahahahahahaha
oppos
japaani
alehadgi
sepertinya
bushra
savarkar
sanjivani
taytlz
##bha
dhik
nagin
##ashe
deera
apare
inhy
chaaray
##athers
agak
sourat
ters
aajaye
##aaah
vocs
escol
tasbeeh
##course
lgty
gariyon
dainy
lakiron
kanwari
emak
felic
bjy
karname
tanzeemon
jashn
aust
nuzool
pisha
لوک
کرا
##wsi
##پن
##atti
##ayna
kith
##forms
hod
##ooki
lode
aliiiii
unne
mandir
tailor
janb
##death
duas
mehsos
girna
charas
goodnight
latak
smjhty
golian
bazoo
muskuratay
varanasi
aiy
deri
pmo
##nesday
##xj
haiaaj
kranti
yel
##tica
ghon
zabani
arri
adhar
perf
bakre
tmhain
febru
patti
mukhtas
##aja
polio
pudim
chodne
##ganj
maharasht
##sari
##اسک
##یاز
darjaat
##وسکی
##residen
##hahahahah
##sf
boycottbollywood
##fia
##ncia
hahha
##newsong
mehnga
darakhton
gabbar
colocar
najayaj
muslaman
bard
piro
vang
##nit
##تیب
apar
boca
##apki
bhains
##ajak
##ardom
jae
barhana
##ggy
kyamain
bazaar
kabhe
perh
shobay
popat
##lite
##mod
##motion
khary
jaiga
##artmente
raseed
##alia
charbi
mummy
berm
##adeira
##ushanth
ghanti
etne
tha
qaom
falah
maraah
sukhi
##pta
bajae
dlm
##exam
bti
buch
bayi
hira
mada
بون
##poll
##jum
##aky
##ehra
muhh
haur
shaheersheikh
##idt
##raval
shoo
musheer
sunega
##story
mor
sbr
suport
hashim
bhttt
kan
ahh
liyee
saveidbi
dramy
shreef
shubhat
io
moujza
begherat
propoganda
qran
tair
##unn
##iyabi
krwana
shaf
docin
vicky
andal
##mony
sakain
taron
##gum
pd
##real
thore
yun
##matma
sane
behla
pury
awaien
namard
bb
urself
chanel
##gam
##uruh
tanda
paytm
typing
fiqa
tempat
faisly
sono
pedawari
gadbad
indraaj
guluk
kaaran
bunyad
##vat
istri
zakhm
joote
turk
kosish
mehbooba
##akhand
##commend
introdu
sl
##uge
farishtay
scripted
##hta
wah
##jn
lnd
vend
wse
##zeer
haiki
##erte
sesu
##isat
baaji
##next
chaak
chaudhary
login
hamrah
sift
sidhart
frink
faani
uthay
chich
##ays
baitho
husan
insaa
naqadon
sangh
uthnay
##laya
sinha
maulvi
##sunami
theriseof
mzak
##lagta
##mit
gustaakhi
##artmentexam
clot
sania
yung
yoni
##tki
##bhutto
dia
##لان
##ير
##ayee
##roid
##ajd
perdi
laago
ajit
basheer
rus
faw
ayn
gyani
bro
smajh
islamia
qatra
##ours
berapa
rajeev
msl
problema
ranveer
zimn
##buat
peshkash
سنیم
##gues
##playing
nnja
phainknay
shubhkamnaye
choudhri
haqeqat
##agi
tc
lluvia
aandhi
boni
gom
kudh
##raza
##meet
##btw
##estic
paro
bhir
sahir
##khte
khaj
shaay
pram
pehel
paagal
kehtey
disturb
enti
behti
chode
##ekarachi
larko
asimfandom
##ppp
duroood
dekhnaa
##bhav
##ونا
morepower
jobless
nanya
afrata
chakra
bakhsha
##vnz
کارن
bimarion
condet
noida
bhokne
qutub
jyoti
ترتیب
cla
swab
بور
mic
نول
kich
##onya
senat
##isho
##unko
ingat
chakraborty
ussy
siri
dekhtay
paadri
khattak
khatraat
##jie
##mun
aydm
##paar
ladd
##pration
##pradesh
halla
naseem
##uj
lamhon
bataa
hojane
suray
##jokowi
mane
hrdministry
hakikat
##space
tayyarah
ox
dakhli
##vern
pradhanmantri
hua
##mento
amaalmallik
##alo
uv
abpnews
nakhushgawaar
##motivation
tahreeron
slay
##lv
##look
##kyu
paragr
bhauk
ung
beaker
##ardad
asmaan
##ukhi
daerah
concent
mehwish
##wazan
vig
##chodo
beete
mahagov
rojgaar
##aman
zoya
hmmmm
psych
gustakhi
##arrestrhea
morepowerto
dhin
fale
gull
ous
وان
##lara
kije
kaab
##aprotest
thein
hont
##inn
recharge
hardi
hargiz
nifaz
raky
namzadgi
badalti
naqali
shabir
##rashamidesai
##padh
hahahahha
ghaleez
##tek
krsti
##kahaantum
mosiqaar
##ukammal
doglapan
##profile
deactivate
afratafri
پیر
##anand
##also
##istan
nache
##unka
taluk
##apke
aapk
lagwayi
##kaal
mainu
biw
##yes
karengy
padenge
riasat
fran
##forsh
nasl
musa
jhum
congratulations
argent
##یوپ
husain
##wser
##یمر
naqab
possi
vaar
khazanay
chaahe
chaahiye
laagat
##eran
alhmd
kaanton
apnabharat
cil
fs
hma
kdr
##cking
nand
vyav
##inging
wth
yese
qur
جن
##crat
سر
mustard
کیل
##emat
keera
##ismat
krdy
hamry
##dit
yojna
batayenge
bahur
conhe
##shivraj
halwa
fay
sann
luar
amar
nik
bajaj
qadmi
palak
dhokay
bhoolna
bacch
vaale
انج
jalao
tashweesh
prabowosandi
##idodo
pohanchana
motivate
##iterate
##zoo
fikri
##bhakto
itaat
##asimanshimet
مول
##cx
##cche
toi
##ikaat
##dih
##omaharashtra
nad
##kaab
dohra
tata
daon
pakistaniyon
madoo
chuva
faha
urs
##giri
halchal
aagye
jamana
dheron
##یکو
##ronic
mangay
pensar
aarak
oops
babypen
daraonay
neher
hahhaha
chaatne
championsidshukla
balighon
haryana
badtameez
##rapati
boon
naseeruddin
##ales
سلیشر
acordei
esaion
##pit
pemerin
theriseofsidharth
##ekarachianew
faj
##moon
##qb
wr
##aha
seeng
ism
##ikay
bahe
parso
raaij
chatu
sahal
hami
arent
rohing
goon
##ashmi
##ashwi
dikhna
purany
larr
##gl
namukammal
riha
jahanbhaq
tmlog
##free
mengal
maaon
##yadav
discrimin
intekhab
keem
iqraar
nawazi
##ooooooo
hussaini
dhanchay
zehr
ankhein
##namh
andheri
khalq
lannat
mustafi
hichkicha
fhir
laty
nud
pkr
hash
vais
yug
##creat
##phr
##must
chaplin
haiyeh
naks
##isko
lect
aconte
##ligi
limo
agama
noj
jana
##kot
milen
##mple
pehar
aajiz
trag
sarj
mader
##virus
banae
baksh
##quat
##یکر
intesha
##mind
estamos
dabang
sahafion
kahaanhum
curfew
qafas
atey
cak
jwb
##when
haiapna
mena
##tiyon
tumpe
jok
shaheer
tumharey
rahege
ghayab
picha
siang
envir
hadsati
bnti
##brar
matloob
jhuta
##ousid
aqeday
jamati
kintu
nominate
ayaz
pula
sheron
angrezon
##hom
romil
dhandli
khandano
ohhhh
comigo
republicforsushant
ouncha
phulka
sanbhala
##jokow
lark
heroicasim
##gx
jahat
ev
##ingin
##udgi
pakro
jabasimanshimet
tori
aache
pohon
##eshameon
##amaan
nepali
urfan
samjo
rif
##ango
jhoom
ptaa
##bser
doosray
ulajh
##kyuki
capac
khoobiyon
cuenta
dilae
rakshak
ravani
manipul
duper
pishr
rash
##hussain
masrofiyat
gani
gatay
goray
lw
nini
الی
تیم
##aii
##akhtar
##eehat
##lak
##oshan
##itharaman
unpar
behes
##kaun
tui
gaoun
amat
harkaat
teve
##dex
adhy
pertan
laad
##allat
##block
awleen
bheem
comprou
makhan
katna
gaddaron
saraha
srbachchan
##hisab
mafooq
chatukar
khtati
somos
shivaji
maholiyati
dulha
bhens
jimme
##express
##uhanshivraj
shadab
##alized
##cycle
##isse
pragya
inteshaar
gasht
raiz
##inge
tf
taya
میڈ
ڈور
##pang
##mj
atheist
##qx
kod
##eeha
##eesi
baasi
parist
chahanay
abvp
humme
sahib
divy
##safi
ordin
takhta
##olic
shola
confe
rahye
##ices
##hamara
atti
##lll
##ekum
rhegi
kirain
mend
sahiban
danon
hatane
peete
nafar
deewani
lahor
siton
pille
belajar
muntazmeen
chipka
tamacha
aud
kd
vatan
سب
##eraj
kahay
nahy
holo
khaani
bedaar
##kiat
ghumta
paksh
nehru
allam
##thu
shararat
chuute
bhtr
piinaa
##prise
za
halqon
dyna
keechar
yahya
mutawazan
sulag
lucknow
pheli
##hani
majburi
moodi
##وبی
jonathn
##boycott
kaagaz
vnsnt
##violence
baqaidagi
andaleeb
aaise
qam
لوس
##jel
##گی
##abadi
ishi
yaari
anur
jaaa
barron
kridt
mujko
##dak
agg
darne
astr
##afil
##afri
gayaa
janazay
mashoor
matha
##baaki
##matar
bhla
bhule
dekhana
##erec
hmse
wasnt
##kit
ck
kerain
ourpri
##vou
insaano
typo
yahoodi
lafafa
mani
##cons
rakhega
##baby
bdalty
artisingh
##kir
rayazi
hahahhaha
berojgaar
nape
jhalkiyan
therap
dhondhna
phupho
hawiley
muharikaat
tonguetw
blokirjokow
blokirjokowidodo
##hh
fvrt
kf
vlog
##err
##ases
seti
semp
##yaft
saadat
bhasa
##terror
##essed
chol
kamaan
##ueen
rhai
angoor
wats
##یوٹ
##hazrat
##film
shivin
dilaati
khurshid
utaarnay
yogdan
##walapappu
hsi
##ل
zaa
liter
برن
adorable
کیو
گلی
##لک
##گر
naag
##esai
##body
jawaan
kaye
beiz
begar
mil
huee
lagg
##ago
gherat
##sahi
ghumz
gawaar
bathain
gelo
tienen
saran
wai
##shil
##ustad
akhand
kerwa
##bh
bakal
tmy
##oun
garm
duaen
parhne
amp
##urrah
aatey
muqablon
bhejne
rakhenge
juban
tentees
rastra
justiceforsushantsingrajput
devoleena
fawaid
danay
nari
zee
نور
##zara
##jara
padma
##ality
haichalo
kawa
kaafir
##bri
hore
aleem
lagany
mujre
##ukung
marrah
paana
challan
immi
tt
behta
suba
bheji
bnna
bndo
phod
stopusing
##desid
dat
nazriye
surpresa
tadipar
##friday
hyper
flipkar
muharram
ukhda
wiktoria
maravilhoso
ourpridesid
beedar
wd
jang
yud
##wass
##uska
##ign
muka
##azer
pow
incom
bhalo
divid
lagakar
mahas
##ading
stardom
##upun
paun
##ships
achai
firr
burhena
superi
chars
##bela
dusray
jayengi
sareaam
jasay
##girls
tazaad
alhumdulillah
shakhsi
##newsongtomorrow
dpiff
kina
niyam
##gai
##git
ہم
##nain
##cers
haif
karwan
muheet
##kaad
agh
jabariya
##uble
janda
biya
##zaan
utara
tameer
durlabh
bombari
##lipop
dastaweez
##million
##نٹو
sainik
##worldwide
hpah
kkkkkkkkkk
danday
permier
##ekarachianewprovince
##door
ghumzdaa
wuq
پین
ڈری
##laji
##hj
##jais
##vf
##لینڈ
homz
sehna
afwah
mag
hamasha
##vei
dilbechar
##ubali
##rob
bater
jaanun
kota
bandook
##lz
badalte
betho
##first
hukoomaton
chodh
aitdaal
horahe
muzahi
karwate
muzamat
couldnt
unglio
tulu
##akoi
hichkichahat
juj
mshi
tyo
##wala
روڈ
فال
ٹرو
ہنس
##swithamaal
##cj
##oge
##مول
##onee
##asam
##agree
incharge
##break
hie
thap
lekan
##ajid
boho
mote
dogli
asap
stalk
##alij
enten
bharne
##chill
malkiat
mamata
udaasi
##veni
dhagon
narak
galib
assign
lolz
aaropi
است
kamzori
jeson
ukhar
dhruv
zakhamo
##fitrat
afsurdagi
bhgwan
bk
##fehmi
haakim
buttermastichallenge
damaad
zm
سام
##qg
##ql
##qid
##hairi
##alt
##heiro
##naah
bhaav
##inda
ghtiya
waloon
##kohli
barni
darane
asghar
sunane
umas
sarg
poten
##jida
drin
piog
aagahi
comput
bachaaye
pancha
udher
ape
netaon
issey
pande
nt
billiyon
aatankwad
kartoot
ulatnay
pahuncha
musawir
cun
ek
jaja
pz
##pink
##qati
bile
##vol
##فر
##erc
ketu
rachi
chaudhry
thalag
##dians
letey
##khli
bhaijan
tuta
##entena
shura
ekk
tema
aaaa
##roach
bia
torna
umra
##ufeeq
zindage
hund
bnata
lgai
matlabi
##ining
jaae
homo
dhakkan
##kyunki
veio
lgao
rapists
rkhta
hawalon
matawazi
rizaq
eewsi
ksm
##kapoor
favoritos
nibbi
astodyoz
tanazeaat
##profilepic
pishrft
pioggia
hram
pvt
qaza
##می
alfitrat
diba
walikum
doonga
##isha
##upar
achii
khudara
##ryon
sharjeel
weld
scq
ode
##fff
mafad
nabina
adhikari
##nee
fadnavis
zamaane
fosse
##ftheday
لیسلی
df
latay
ska
miks
این
ڈرا
##balo
dess
##apr
krwane
hujan
barom
kamraan
darin
##ape
kissa
mantan
fora
sayang
bhs
waqtan
##yarakat
subko
zaeef
raseedah
##anu
jhute
aasmaan
##amy
haty
bechna
talaab
jhoote
tahre
pinj
sui
alhamdulilah
##bhaijaan
jangoo
adhura
surgicalstrike
kirolayna
alleg
##hitsm
zoom
gathbandhan
iamwithsana
mn
aqi
pesy
##bta
##bazi
kachi
kartar
##iska
##isme
##ingy
chont
zabar
protes
saddam
banda
fareeq
blaming
bhram
athe
billa
sbb
asiayi
jaya
samje
indiaagainst
nikalay
cler
shuker
amiga
jugad
tknalo
##leen
larkion
lollipop
jamal
rkhne
gerek
jornay
khareedna
dangai
explan
mulazmeen
##eras
##gol
shaheenbagh
peetne
javab
burhenapa
##good
tknaloji
aangan
eolo
htt
ika
پیرا
##tistan
##hii
haiso
##iyad
inhpa
##his
analy
dizer
ushe
usaat
itra
kambal
siasi
##ishq
onde
khanda
sahid
##grade
##mato
naamwar
purvaj
warq
verdade
foq
larkian
betiyon
##یٹا
##hay
senin
mein
parascha
mansik
wo
sulooki
shehnaazgil
cher
evnow
asimriazforthewin
totmm
bandargaah
tehqeeqi
wsw
mohalla
snapchat
amraaz
asshk
kamlesh
stopusingsid
tme
##zol
##مون
##ہیں
##yafsos
##bah
##ulah
acar
qu
barang
mainay
ado
khudh
kyunke
salwar
burqa
scat
sade
mandou
jayn
bestfriend
papaji
bhoolay
bangali
kasheed
mithaas
shayarana
churaya
zubanain
assalamualaikum
practic
##thank
سلیشیر
bash
##homicide
vktr
##ump
##main
barabari
bhajpa
کیس
گو
depos
inhain
chaiya
##daf
leftist
krva
thei
##sek
lite
stra
nigh
badho
aaaj
aaey
tabqaat
##apped
hmsha
dona
jalsay
followback
swed
ia
oski
worldcup
bangladeshi
##aster
vivo
bhulana
sardiyoon
kidhr
easthampton
majaboori
criticise
##buddhi
kishore
irtikaab
skrg
ensole
##wat
bawarchi
ismael
ittifaqi
usaatzaa
stopusingsidfortrp
diyo
gata
hva
kpa
llam
soom
wl
wooo
##vikas
##پٹ
##arn
##ooor
antr
##iny
dign
kamino
##oshi
aso
jiom
purcha
dayanat
jalay
patrak
##cot
katu
tempoc
sikhe
hoskta
##یکٹ
##fk
##itas
tafheem
gumnaam
ashutosh
sanju
##say
fayada
usmein
chhupanay
samjhoge
notifications
lnda
mutanasib
##pic
narayan
photoshop
##fast
ghuroor
sazishon
##illement
##harthashukla
cvent
lath
qus
ure
vdo
yesa
بال
ویرو
##aameen
##cf
##rha
holl
##yaha
bahaar
mukk
##hota
afaq
bhatta
humsafar
boldo
barbar
pemai
gav
shona
saro
bilkhus
jalana
danista
panchay
dhari
mnhum
##pluie
mmdern
amrit
bikao
mandal
solaire
overacting
##mare
milne
illiterate
alamgir
##students
hpahpluie
ensoleillement
mmdernire
fome
ghoor
madaar
olaad
##rang
rola
sz
vom
yk
ویل
##sorry
mechan
##abhai
##ahh
parlim
saap
anso
jed
##ayaat
##reunion
maha
shahna
prest
##vibes
mamad
##arton
##sarkar
votefor
iftar
toofan
shukook
##with
vei
##yie
ijaz
daaru
manzir
qurani
##ception
aoa
gunahon
kahoge
gareebi
gazleen
##lakin
bhooka
yazid
##weets
amin
میلوڈرا
cena
hdsn
yal
zel
لا
##nana
##yai
##tna
##bile
##فری
##hela
hoay
rawish
abusing
##kher
##rage
humdard
maus
bolun
rehay
gaata
##jected
masyarakat
##bill
bhukh
hugs
frmane
firke
wasa
##dek
lenay
##ranj
misunder
##tual
maksad
##tiyaan
kanj
ur
##outtomorrow
dushwari
##them
##tf
rooth
harkaton
slamat
##buah
##poso
sandeep
happybirthdaysana
cbseindia
mohalle
kazmi
##ayyub
kahaanhumkahaantum
miksikn
cctv
ora
ovo
بین
alf
chop
##vaiz
##amu
naaray
##kat
##enar
deil
res
##apakistan
##hoda
anxie
terko
kamse
asf
concl
pado
##ranwala
ataaq
ilam
pyary
ibad
##adoe
calcul
goverment
kyoun
sethi
mitr
khairaat
anaari
##adatar
nes
##karachi
oui
samjhota
contra
ts
##heartsid
maizbani
mach
sedang
werzish
zawiyon
acharya
karin
zalimo
shivaay
sahuliyaat
kabootar
ahok
jahar
xy
سار
##sya
wal
##jf
medio
##ikit
muita
thae
thag
jaatay
khaty
mujeeb
prith
barda
jispe
manen
##chon
tac
ghadi
##anghi
aahang
tarzan
trai
tipu
sco
samjhana
samjhty
##hur
mulu
rahogi
muncul
novo
safah
pagar
bayaniya
faislon
keede
ic
jummah
advani
fasla
lanjut
##chennai
patwarion
chuttiyan
istandwithsameetthakkar
anokhi
gara
kz
phee
asha
siso
##bek
ریڈ
##چی
##azad
##diq
aneh
##ulay
##kifli
bolde
recom
badd
##manirbhar
sayid
##appa
maghl
sathe
khitab
hnn
upbringing
halan
nowplaying
blessings
kahunga
##khabri
dilaane
##bersam
atankwad
pia
baithay
##centage
ninsi
fotos
gobierno
wagerna
cg
cach
nfak
pns
tika
##zid
##fah
##aroon
haimera
##alp
kehe
ekla
ziyarat
##grat
##appan
walau
leng
pmik
##ardo
murshad
##ايس
sunaate
tyari
dun
putih
bikne
##indias
tapak
phaily
##tttttttt
##puri
pachta
baised
fei
gr
branco
##poo
beemar
marakaz
kalyug
mkr
niye
pharma
anchors
sushants
ٹیر
##last
hotha
##ehman
hima
affe
lewa
shauq
chd
kameez
sakey
raheen
launda
caf
##abiz
jalli
kaisey
misrey
patrio
##ankhan
qadamat
jamane
fankaron
##nkj
##bn
aima
overse
##jm
##miss
mcd
cloudy
conde
muawnat
chowkidaar
halakaton
ralf
deixar
##wetasingh
##oneexo
zin
ویر
##gri
##ksh
##inhos
##asna
##ikt
bawan
himan
##itn
unnao
##safe
asri
vu
sunlo
adarsh
timatar
saly
verna
mtlab
viswas
pureheartsid
muqadar
##rested
saveustad
gaandu
anjum
choohay
##boyasim
ugc
manusia
##ege
##zulkifli
haste
##forshushant
aarakshan
foqtan
saveustadzulkifli
cosa
rolo
rhty
tsh
میر
کس
##pl
##wf
sis
##جی
##ampe
kaate
koti
##hando
##agiri
##osed
apenas
bhajan
krw
shawa
bhaiii
ghume
rhea
##afaat
takla
##rows
passa
##zaab
sidhi
champ
dekhao
newprofilepic
tehwar
ayaa
##versy
##zaib
##aaaaaaa
khreed
kachray
mango
##joy
برینڈ
##attack
dugna
muhallay
daonlod
maghloob
liyo
wari
##ہٹ
memp
sebuah
##mana
##ishain
##utha
krungi
maujood
##rahat
hamid
##loyed
daraz
shra
jihad
tarseel
##ctors
chegar
trisi
farah
akr
##opresiden
intellect
##wants
hisi
##tou
wasal
minut
sb
##ی
##ارک
garb
ikan
hojai
pahlay
bayar
dyta
jarurt
tention
calda
##charya
begana
whos
##dev
tlba
causa
seenah
##gul
manif
vinay
pakhtoon
ltife
ellos
tofeeq
switzer
muntazim
pasta
##wetasinghkir
bardast
cet
kup
مک
yoon
##gara
پاپ
##sharma
##dgi
##jl
bn
##jain
##حی
##alapak
khpal
khake
alvi
##ulhassan
ghol
amu
lig
aau
comun
roh
##hayin
matar
##ufi
insul
eske
kv
##ranay
majm
zaalim
rasan
kheti
##cum
safaya
##being
integr
phol
fazol
shamsi
bcci
estaba
dew
osko
bran
gariyaan
##اکس
dhoondtay
shehnazkaur
australvi
##standing
vahm
jgah
کامیڈ
gundagardi
##boys
##spiracy
##vious
morepowertoyouasim
aer
ziya
##vart
kaghazi
nadim
##chai
tode
##texposed
##iyn
inam
##gang
krra
##ater
boltey
reerh
andazi
kyayeh
kyasirf
taare
azal
asimraiz
hanji
aasra
nazyon
qadeer
qarardad
kuat
hows
##waty
##conf
nakal
mana
##pati
##ilihan
bjp
sahaf
dakha
khaleej
madaris
sekhen
wkwk
hadion
dhulai
ablaagh
terlalu
csk
hga
hra
##vish
vuel
excel
فران
##zb
debe
parmatma
##teza
muhab
saver
ns
##dur
##ingay
bans
huj
##anib
jann
##antes
daale
ghaafil
muskar
syast
suvar
##mpa
satwen
minum
bagher
ahliat
##ament
smugg
blkl
bradoe
##اری
outra
maange
msnoy
besti
rooz
partai
##scam
gorakh
gujranwala
##realheroarnab
mukhalfin
churras
ancest
##scanner
duld
zoor
##dri
##qah
##foon
##ammat
##ispr
ci
##lang
##tians
combo
##unke
thakan
modo
##astar
sooni
rezim
##rh
coco
mutnahi
larta
bandha
##hadh
##joining
peg
kuttey
kashmirion
##vidha
roast
blackmail
doctoron
zalmi
##اتا
datang
##sirf
dhuwan
seguir
niyazi
ristoran
duldul
dpt
klay
##mming
soot
ڈو
##bala
گوڈ
haitumhara
##inko
karata
##yaz
pinto
##tio
parwan
##khuj
##idos
samer
tezi
maryada
##jaans
salook
##eebi
duit
khoyi
haqeer
paishgi
alim
phla
##یول
trave
mariam
taiyaar
nsitharaman
hijde
##cbse
pochna
##zzzzzzzz
thukra
gustaakh
bhaisaab
youtuber
thikaane
##cloud
raju
eti
jura
##tip
vjh
سوف
##cuj
##zor
##dont
kidar
seng
thaab
barsa
teman
maroge
##layam
imla
awamil
kono
hadith
baityon
##sarkaruvaaripaata
bajate
##anger
aqval
jeo
hazoor
##khauf
##pless
yakam
hraya
msori
msajd
betiyo
ehl
tagline
todna
susu
larkon
##urity
holnaak
khidki
bazyaft
classi
##istaan
insidaad
chatukarita
##erecording
speechless
shehnaazgilll
bilkhushoos
##texposedin
dutt
ہیم
##yad
##bang
##wv
##heek
##uns
banya
##idan
machar
teu
insya
sadhna
bane
pooray
mureed
dekhoge
hazem
sikhi
talawat
indore
laitay
falsf
cmomaharashtra
mitha
moi
soy
olarak
##ofsid
manndi
qeematon
taiyari
kangna
bhadve
danishwar
chamakta
prosper
afsanoon
aurangzeb
falsafay
##dullilah
biyan
cus
dyo
jdi
jsy
rerecording
wjah
##lng
##know
##xol
##arrat
degil
apaan
intern
##adia
##tedar
haay
allo
sabor
lash
##waop
ee
sakata
dekr
hove
pergun
chaloon
salay
chotu
bagal
bagaimana
cas
roi
sachhai
##khala
porki
jonno
giraftar
moakhar
لوکاس
eent
hth
nutt
sbi
wey
ڈریک
chama
kabr
kabeer
paay
arbon
kaleedi
##anthi
ilha
jeito
tajawaz
##kalyan
##mesid
##oyn
zimmedar
emojis
raahon
korte
apnai
pyaara
difai
##gfamily
pahannay
kasmiri
zawiye
sucide
anushka
falsfiyana
cjp
easi
moat
gc
jayi
rr
##twitter
##done
##jag
##ayur
kars
isky
yawr
##dig
annu
##ulta
##idas
##kek
##tertainment
tran
##araa
nous
shkl
dekhay
artalees
comme
##zai
imdadi
vis
##hae
bhuj
atak
firdos
balu
jitnay
mie
##mini
lakn
jayo
dharne
##bohat
##سٹری
##anyon
bam
expos
munawar
zaireen
##nh
fra
ummah
bndron
##sssssss
sasur
gunaah
darwaish
jooton
mahoday
maakhuz
##chester
ahy
##sng
##yabi
##lil
##بری
##xv
kij
haintum
chaina
hizab
sahay
##omkashyap
jog
mafaad
agayi
tars
marni
isla
areee
bahera
kaladam
escap
scen
##ior
##cow
kaunse
indra
karsakte
phali
biased
sy
dakho
semakin
krig
adiza
##issue
dupatta
##singhrajput
thakawat
curios
spokes
urdushairi
aiye
mnd
nb
##cek
ome
ugh
کم
##yee
##zt
toheed
bankers
khori
krin
##ports
humre
humdardi
dipik
hek
terse
dile
##giii
##angga
##ashmir
##ryoz
##nad
##honest
sharai
guleen
malak
##gli
sanaonfire
ramazan
blan
##ورک
americ
ruki
aie
yunan
wafadari
##ccin
majbor
rishty
qurbat
failate
##makhan
reyasti
pahunchte
javaahi
ayndryoz
swat
kemarin
ref
##amitshah
##bdmaheshbabusarkaruvaaripaataurstrulymaheshmaheshbabu
javaahiir
lgg
rjd
tane
ua
پھ
##alla
##qc
##xus
##anh
##amir
sw
kosh
kook
##ilon
chab
abaid
mathew
aloo
logi
aghaz
prerna
kabja
paala
tive
##pective
imdb
khoti
zarrar
##ereal
jalo
giroge
##itan
kashyap
monstr
chupay
khelny
windn
##athi
hahaa
##hab
personas
karim
panda
justiceforsushant
##nail
##vc
kholta
bossbht
phely
hormat
homem
chhapa
biasedbb
patrkar
keknya
##payee
##pride
mehrbani
nessa
smpsn
کوریوگرافی
##mission
murtaza
chontis
sray
##tort
سیم
گڈ
##keep
##ٹل
##anha
##amaz
memar
##apo
bhair
jaayen
alamaat
bareek
darbari
andesha
##vio
billions
diljit
##ubar
roposo
##stood
waada
khans
##baron
##kt
ld
malkaan
plss
##chayz
yaadon
rame
##sidd
cambi
priva
mrk
als
hansta
mitron
##ference
zimni
sifarat
##bm
dako
hifzo
##hhhhhh
challeng
irres
ہايپ
نیکول
frnchayz
lillah
qaida
rdo
##aren
##ayodhya
eng
karda
tole
##ensi
##ilat
##ishe
##istir
##oson
##esse
bew
waldain
##uku
masool
salud
khouf
keral
tmhry
smja
##latoon
bajrang
##johar
veget
gully
kasheeda
angrejo
rupaye
karwati
shehbaaz
hmein
##chorhai
amaada
کارل
##cta
##ا
intazar
iftitah
##bhagwan
usmaniya
اتلی
beemari
btaskte
##uses
wuqoo
nerv
##qf
##alai
destru
chamar
haus
boond
jabir
##uption
musallat
batees
shetty
kahate
frmay
##baran
##tsalmankhan
myoz
scoo
quin
baita
##rrpnishank
ohde
realmente
mardan
##banyak
phaila
rishi
wb
##shah
devdas
##results
dehshatgard
sthon
##zainab
pertama
##khulwaop
##hg
falei
tahreerein
##texposedinssrcase
myozikl
gte
jik
qari
tallah
گرو
##hega
mx
##taari
##dhar
##isar
paran
woe
pens
unta
ungl
dimana
huga
huwy
petta
kamin
##matter
fruta
faay
baghi
rasham
qadiyani
##dddd
##khane
cepat
saber
meethay
gosha
habis
shilpashinde
imagin
boseedah
mubash
kasauti
brownie
ڈریکلا
rath
sne
##mad
##rao
ue
ایگ
##cmo
##hbi
##mary
##yeh
##سپ
##ٹینو
mutay
alq
alkht
##shya
##geon
mananay
waqas
perta
enna
##hamesha
chokhe
##mah
##yd
kalyan
esleha
##movie
kayo
ladakh
lambe
gandy
peela
writ
katai
alla
pagalpan
prev
mirz
amman
##cont
bareme
explo
rista
##gf
bahaut
talkhi
chamakdar
##idades
twitt
deixa
bhijwa
eslehaath
aint
dhone
fase
gant
iks
jey
jamil
kmp
##til
##xg
medon
##aders
baaj
saheed
jaaz
alstar
##kijaans
##ardan
moueen
##hirt
kisise
jabardast
daag
badhi
suniye
rahmat
khudka
##bacha
khangress
dikit
mehv
jalna
waisey
dhaat
sensa
hakim
rkhte
chakki
wwii
uthti
seekhta
hawaas
faizan
chirya
##wellsoon
chappan
tinggi
trabalho
wroth
supremesid
ashirwad
gambhir
kmyon
comemorar
patrakarita
mni
qn
ubal
vz
##chool
baand
##col
inpe
afkaar
jogo
alz
mille
sakhi
badast
arsal
##jal
##jaar
##baazi
shenaaz
##ufa
urusan
padna
tmhen
sanaworldwide
verma
mohabbaton
indiast
jeafri
dhuk
desc
##enial
vides
##larn
peso
zaher
saanson
jhoti
intahai
dhram
momineen
malaal
kns
laz
pud
sra
پیل
bae
کاو
##gayi
##yay
##pb
marne
##چو
kav
##abaat
jahir
ghlti
prn
##thn
##ukone
waqae
##jaane
##habad
taskeen
thop
munici
menina
kheer
mujhpe
dhood
fazeel
dynam
singap
juye
tajir
budhe
veere
indya
sham
raftar
asaram
lootne
sajish
primeira
##tp
mastermind
shameonmumbaipolice
consigo
feder
##protests
##oton
##urance
falou
##chennaiexpress
ley
iyi
##ayan
char
kurrah
jia
vji
haiap
kif
##association
komp
##abta
##ilm
##arat
deye
muts
loda
jaaan
banon
maaa
prais
barsaat
##dern
##chaap
##lete
asr
assa
tumharamain
maidam
adhe
##vered
robo
##biz
bhum
kahaa
##darshan
bachchi
daiti
peelay
##cau
rajnath
bulaye
estos
maracuj
##khand
##vard
momo
bikul
dhancha
janwaro
patharon
tweeted
##wkidar
assalamu
justiceforasim
jajajajaja
haimujhe
##chee
pohncha
tankeed
jawabi
sudhirchaudhary
##romance
##vies
nk
mujremana
bchy
ama
cort
fle
fet
foll
lue
انگ
سد
مزا
##cara
##adores
chakr
bao
krye
krate
beton
##rein
##kid
mantra
maash
doun
batado
adity
hyy
gan
laam
lauda
sarma
inshan
dayrik
##akhti
tasrat
chorne
aysy
mame
##orium
##fect
qattan
fela
berhate
jarsi
##uw
##plano
goth
visale
pichly
mirch
##lionheart
dabbay
fayde
lehr
fatia
tumahra
raastoon
kudu
vinod
mundo
##bari
aussi
paintees
bithaya
##murder
preciso
looser
soomro
aoo
pangg
yus
ڈاي
##dg
##jg
##bbat
##ece
##پی
##xw
kaki
##yahi
##edo
##ithi
afgan
abdi
unban
lagenge
##wad
pemimpin
dariyo
dekhunga
badkaari
guss
adho
##waris
arjun
sataish
utun
##odhy
tmc
##pon
aryan
babur
##thackeray
gall
##ورس
mors
##hei
##getum
mandiro
gulzar
bikhare
bardash
bahaya
lashain
kant
shaheedon
انڈر
discus
hana
hurmat
techni
jooth
seharusnya
despus
##illahi
##bukalapak
sargaram
pichhle
mehmanon
quwatoon
feroz
asimfandomhitsm
pemerintah
aney
tans
wle
##great
##rooz
##bai
##jhi
keli
##chti
hainhum
##hou
basha
##riat
bhaia
boil
chhari
##wae
aller
jabhi
maior
paseen
cou
produk
##kla
shehad
buhot
hunda
hayati
ilaz
bunda
dhoya
sharechat
##dee
edhi
sazae
psand
rhoo
distri
waarsat
##یریس
piyaar
parindy
gulaabii
mohtaaj
mehanga
cheekhain
maweshi
bacchus
bohoth
##wetasinghkirt
medonna
umm
##haya
aaisa
dny
mhar
##heeh
karb
##enya
khosh
khared
hainn
anjan
humey
##kafeel
samz
ampe
wahiyat
fareed
##vez
bhra
faar
drs
pun
bujha
canad
##yat
arya
nazay
bajana
galli
dykh
kanwal
indianairforce
ruh
puchho
sudhre
kurbani
kurtapaj
chahati
ashram
tahleel
mufad
gujjar
berozgari
adalti
kade
chasma
##roshan
washroom
sebelah
toseefi
##tejashwi
##utenant
##ushanthsinghrajput
sarjnt
ہنسیوں
esos
qomi
visto
##rir
##dub
##جن
##فٹ
##haari
komen
situ
bhao
baney
mouka
prha
pakri
astit
mantar
taayun
kabeena
maira
laaj
merepasstumho
madre
burkha
pior
paiter
tanveer
bailay
lgana
jhola
##waji
yarrr
poke
inteiro
jayee
estado
bhulane
bukti
fai
kala
##sur
azaan
##blos
hawaly
maangne
ryt
cabea
haber
rubik
jd
ric
scanner
##kkkkkkkkkkkkkkkk
dehk
aimly
stoptargetingasim
cv
##hair
chonka
##harshbeniwal
##uy
kanganateam
pishaab
pemaiesh
alam
shahnawaz
hs
gashti
jado
kle
nub
جیو
روب
##cit
کان
کیمپ
##rashami
##لوک
keta
kaks
##chd
baati
parli
chabi
ansh
boll
itn
##chale
sambil
pakd
pakode
ste
##gim
raka
iq
tetep
pahen
##uffer
mehmaan
##otr
satguru
##dok
aysh
kery
warga
sachme
complic
colek
##assy
dyty
maru
sont
sonra
harta
bangun
wahaan
##یسا
powerofsid
bardari
farmaey
sumit
##wk
cantt
sehatmand
braay
tumahre
fesla
islaam
##dryclear
lifafay
gustakhana
ilyas
daty
elim
nailed
فین
##×
پیک
ہو
##gato
##pari
##beh
##ashamidesai
karton
##aghat
khosa
hilarious
tumy
ante
stats
##ingan
merah
barood
amn
aachi
paseena
sidharthashukla
trin
gein
##eesanth
payal
iktalees
makkar
##belie
beryani
##adan
secara
##fb
tajrib
tukang
grapher
janglaat
ارک
nirav
seerhi
##melec
rickshaw
mutayyan
##tick
tajribati
ehh
jos
bum
jir
iss
##kangana
##onga
##mson
sera
##fake
kartu
##ishas
param
##iyak
##lect
bhain
lagatar
chp
chz
bardaar
##khan
samney
jisey
jabtak
aawaj
musarrat
povo
taqleef
##hri
laraz
asifa
chortay
##tanya
kanjo
indianarmy
superhit
##pakistani
tagayur
##frnd
##اسن
##chuka
vansh
almoo
##games
bloging
sambhala
jangju
partiyon
domin
dilip
nenhum
کیمیو
bhaisahab
ittihadi
khwahan
uljhan
ej
lma
wol
zong
##ugi
##miyat
keb
parth
humesa
daway
##nai
##mizi
prank
tb
sido
enfi
##ciendo
firaon
##eeling
##nots
ayl
ayman
gujarati
kayam
nazmein
faisala
##mei
mnzr
mangty
phale
##tirathore
haramkh
dabba
belated
siwaay
##hope
pitne
##bhushan
##restrhea
ami
khayenge
iamharshbeniwal
nishanaat
tilgo
mushtarik
dagha
##patel
sholay
shawahid
glat
luter
nooh
wesi
##thar
##پری
##adr
##tivo
mulayam
diay
soaz
##mix
##ador
khudmu
sarshar
hogia
mukkay
byk
peng
##enas
dallo
achhai
##imam
cong
##kyon
msd
dhany
rupy
lashari
اسٹراي
nirman
##ومب
##aexol
womens
chhorey
bhonkna
dgp
qasoorwar
##vb
##zd
##یانو
##hein
##bagga
radha
mehsus
isilye
soooo
uchit
بو
##thee
##jik
##qismat
##haf
haie
##ayn
kemana
lear
meas
##esab
leja
ankita
moder
##shon
prath
##uddha
rehain
pakis
niat
chega
esses
balasaheb
##aar
ridi
##tros
bajane
gandum
offend
puhn
bahawal
##eron
vikasgupta
jug
trell
mohlat
muawiya
najam
muskurata
tilak
nawab
malaa
pendukung
mizaji
bugti
naarad
darwaza
fukrey
hifazati
ekonomi
zeng
ریپ
##cance
##meez
##anas
##ansi
koq
##hear
seke
muaser
prem
aapane
##aqu
dokha
sibl
rehmi
entah
bhkt
##opal
##opakistan
magan
khatma
giran
mayar
bakht
bnati
sachchai
katta
chupe
desho
sahaafat
##ashah
nirala
meses
##titute
rehem
indonesiacall
hypocr
nidar
pahariyoon
kishwar
##mahagov
karrahe
pukhtoon
aiims
nikaali
thug
##blackday
meherbani
رینال
##studentsp
paristaron
##roshanromance
کال
##caanrc
##jyo
haihar
sehnaaz
##enquiry
istif
parat
chachu
aliks
khushkhabri
##wahan
##anaam
viz
##istkaro
##sein
nifi
janas
mustaf
##stars
##people
wekawe
akad
hahahaa
bayalees
sahabi
yaksar
ghanemat
intqal
dushwaar
mirip
dekhegi
sangharsh
##frt
turun
yogiji
sukkur
sikoylz
##rikes
joshi
##cutta
سینڈرا
acabou
ترتیبات
jiomeet
aeh
qs
rung
##pable
kiri
##aplog
saay
##uso
##khr
bok
mab
itani
jioswitch
laati
chandio
btate
samajhti
almighty
ellahi
mauke
##ront
rakhnaajay
chaheay
##talis
##ofindia
اسن
##wt
munafiqat
kei
##dilkokaraaraaya
pyaaz
imrankhanpubgkholo
republicbharat
برون
jiobro
badshahi
kagajscanner
##tizekhuj
instigate
boobs
elyments
jiobrowser
glam
hte
hing
kujh
sikhs
mme
oqat
khbr
intaq
##tage
jawah
bedr
##ubat
nige
nipat
mainbhi
dea
arrahman
saling
shokh
imdad
khotay
##gical
zarurt
suis
dt
jalal
minaar
bandagi
lgne
jholi
pahn
falaste
##twee
naseebi
tangan
akhirnya
qurbaan
khalistan
maangte
##hahahahaha
kalimat
##komt
##jamad
twiter
puedo
dukungbukalapak
weareoneexo
anjanaomkashyap
utaara
mujasma
khinchtaa
bkn
deek
juma
##thin
kiay
##ables
##tav
lodhi
##lek
humm
banaras
lagda
##lives
moht
bareng
terjadi
allahu
choari
chouhanshivraj
zarai
shipper
bandhi
ladayi
hatana
aql
sonho
dhaar
wrest
##یٹو
mumbaiwalapappu
##cr
pende
mitane
tangen
##ducated
paintalis
pup
oppo
resto
cozinha
laathi
gustakh
yaqoob
utrney
ketika
ghnta
wanita
paighambar
kehlaanay
sndrila
allamti
indiastrikes
##dou
fazeelat
ksa
kvi
zbr
##anta
بیٹ
ڈون
##kd
##bam
##frat
##hade
haikal
##aksh
##chop
khos
##apas
thal
khayega
hutiye
##kib
##cet
stre
##oora
chalati
sho
##vities
##asif
baltistan
##vahi
mumasil
notification
jeeto
##ths
vishesh
bhejte
dunyawi
poochh
##bullying
nashriyat
##khtaari
dhadkan
khoshion
agae
astaghfirullah
kasheedgi
nighdasht
khudmukhtaari
ove
راک
##kamaat
##یسٹر
##qbal
pei
##vane
##inte
##asad
##abus
##abul
tooo
khl
rahan
humri
difa
bolain
dohr
barsi
sakin
sakshi
shrif
nida
rakesh
rofl
condol
jitega
behne
haseena
chikna
##erim
##md
pix
##utter
munjamad
blam
outros
##beta
##beda
deewan
ohoo
iqt
chhoda
bors
chodenge
bith
rhoge
bea
balochi
##ticia
nsbta
khuram
muskurane
sekalian
pulang
tarfah
fazaiya
cricketers
gust
dhundo
islamabad
humayun
##bighit
vd
##pz
##qey
##faiz
kajal
##aseem
orr
##open
##oshon
khumar
##icin
alr
behi
banenge
usnay
heer
doct
marln
sunaye
pri
frq
##izindagi
awein
padai
bakar
##entes
##cou
##aanat
tempc
##یلہ
yakja
morr
becharo
khilta
chodna
utarna
beeni
bazabta
hojaega
lei
selama
korban
querendo
##enting
##pg
saahab
tumahri
dakhlay
tunay
##uuuuu
ashish
khaanoon
taarif
hanif
pasmandah
lk
udar
vh
##ntapostponejeeneet
gora
##gori
korup
semb
khti
pars
chaud
chamat
thakey
jaab
unico
##redi
terey
pakanay
mannat
stak
nigal
##alities
##jaha
sarhadi
farinha
exerc
samajwadi
nikalen
sanwi
kintki
##jewala
##jhoot
sunaon
biki
kasm
chune
##نگر
chatna
bazari
karyakarta
##rafia
sajeela
kia
tak
##ويل
mohd
##upportasim
musafiron
mri
nagri
nagpur
##prime
##aliyaquat
nigehain
dkho
بول
وق
##gest
##muj
##bhut
##vaise
seht
isly
apmaan
##dding
##simo
##icks
bhaji
jawo
diab
banny
merci
##ulis
mous
soyd
req
samar
harny
janak
archi
chek
##sthe
goy
bhht
kahana
essas
##sofat
cheezian
chila
##kam
jaichand
angazi
smbhal
khee
appi
aasabi
bajanay
##assam
nisaab
kaif
ganj
justic
##het
gulen
talliyan
اسٹری
tattu
querer
teaser
uneducated
##gaon
gauahar
zikria
tazaeen
staystrongshehnaaz
rafique
darjanon
pajama
naxal
sintalis
ویروولف
##kijaanshehnaaz
##sofatg
jstn
nxt
##lye
##mgr
##vest
kimbl
##iles
dehl
chakk
##ajj
##rios
redu
kamil
manenge
##cei
adwaar
launder
shobo
basath
existe
chorar
sancha
##cor
brak
aagayi
dusare
tun
##icio
btaa
starboyasim
mardangi
puchha
ina
laiken
kasus
##lished
##dates
sikhao
##jjjj
##اکی
karwata
tanhaji
tootne
dhoondata
seenon
victi
tirar
adi
yanha
nmbr
sidharthshuk
sachinpilot
shatranj
imaarton
khraab
equipo
jalebi
sarparast
##فیلڈ
srayiki
kli
rz
جھ
##cop
##kak
##زم
##atr
##esar
##teach
##ires
inkay
thaanay
usee
hecho
##andhonest
sojao
darood
samagh
##lind
##gii
cn
ofcourse
sidh
##toun
##tarfare
konri
girgit
chitra
tanah
chuppi
##mado
fazul
ot
sorte
intizar
larkiya
criana
olur
dabanay
muzak
churee
nikleen
guyz
ghoont
portr
beshaq
swarg
jarrain
batien
tubelight
companian
wnw
neighbo
naujawan
جولیٹ
bawjood
parlimani
mkrmh
luego
soydsh
jila
موری
##lapan
##jv
##xf
##eren
kaasht
##hanallah
bawal
bhichar
leli
abub
atm
##khn
walit
chron
##anahi
hamey
jisam
##uh
taaq
taoon
dauran
ghadeer
bib
chele
chalods
##baani
bhk
bhud
##tarfa
pepsi
basharat
jinn
shikan
##asse
##mph
nayazi
aylit
##amen
chize
##ینر
sadqay
ahmedabad
happynew
bsnl
coron
musalmah
rajsthan
jeetenge
faire
vehi
estas
bikta
unicode
##tumhare
##akahan
pic
pitai
wiladat
##lad
ginat
bhosda
rabia
jrurt
obser
ashaab
sargarmi
kayaknya
##music
bevkoof
رینالڈس
aama
bly
hwin
sult
سا
ویمپ
ٹور
پن
##neet
##hb
##maj
##esweather
##raani
heere
##arm
rahamere
walun
mujey
soja
terlihat
takar
mazza
cono
##cipl
firshton
tasalli
fauran
buresweather
utra
##tram
##goyal
monas
jbhi
palne
##guine
##vana
auraton
memer
naqshay
fuera
##aldo
##jjat
gunaho
pakarmy
sudharne
pathano
chhatees
ijtima
qadiani
lax
##bumps
makhloqaat
agenday
setiap
flipkart
##sofatgchennaiexpress
diyan
gati
rant
reni
فلر
tia
##paya
##jaji
kaur
kaale
##eeeen
divert
##tido
apani
##irin
mudeer
ino
##tify
##hoz
banjar
moong
sunan
kari
##many
matram
bachchon
ladenge
cance
ilaaqon
jhul
btai
auz
berubah
sorakhon
##انے
qaari
saharay
presidente
thakrey
##marks
quiere
qayam
jhang
nitin
sacche
fairandhonest
jaakarke
gulaam
tjhy
asbaq
mdr
wud
ہر
##taba
##ruk
##پل
##gur
##haaa
##ayr
##erhe
hob
sehi
##abab
isol
##agle
saur
jaadu
krney
khaki
##gaari
ghuse
##ety
##hone
##lima
prad
pradar
kamre
aisee
##there
umair
faryad
aksr
awai
uppolice
ayam
lagaam
zaad
##cb
tanta
nazro
fis
galoch
bhagaya
ind
chupi
sikka
hathora
papi
intihai
##inthe
laity
chuney
chahea
risala
shivika
dilaade
putri
advis
madarse
##iiiiii
bajao
sharmaa
raajneeti
guzaarna
chawalees
##chandna
bebasi
##elections
mst3
tyagi
indiascreamscbissr
qadima
rohingya
anurodh
kartonon
ltif
mbar
sng
zol
سوپ
kichu
houlle
karway
candi
##yahan
##ople
##chne
loga
abra
jaang
krst
meraintezaarkarna
hubby
soach
kyoon
manan
ekbar
chegou
tienes
thhi
bhd
webs
awakhr
##cm
pigh
hadse
salim
##jodi
durbhagya
buena
##venue
##eshani
kato
jaygi
dharnay
mtt
##سٹرو
##ganti
##aghmakhan
saabat
kapda
kapre
gehlot
majboot
painsath
aayyo
##haqqat
##hid
doobe
nuskhay
karnama
waduh
##shameon
nichli
blagrz
mazzaq
لوگوسی
ltifon
ble
lallu
##cen
zakat
##mayi
##qj
##raf
##qv
##arendramodi
kepada
naas
napun
hous
##eema
muham
##abas
hacen
##kiyaat
maaz
hewan
chos
chhed
nara
shave
bolly
##inden
##veja
ammen
tarre
tejas
provin
madeen
zarayi
quam
balad
mukka
mahool
##ired
mio
mojod
fim
kathin
toote
##imran
dyan
ganhar
##waseem
kasmain
begini
goo
##sil
##akh
rukhi
aitqaad
##person
shabnam
dharmik
##poneneet
##thik
sukriya
hataane
biscuit
##dun
kadang
adhikaar
کارٹ
astinle
hog
especial
bmc
trabal
ow
spoil
kafeel
fatima
dhabba
rimnd
aeinak
##izindagiikay
aali
cerita
iraad
nunggu
yos
meli
naakh
##heh
holn
dehan
##esath
pares
##irah
raje
thaek
humsha
nur
##uram
##araha
##cham
youm
pakeeza
bado
jimi
aach
sib
##essr
shobha
bhuri
magfirat
##ongo
chizo
fanoon
rv
jayiye
shuklaji
jugar
realhimanshi
khilonay
ajae
wafad
shikni
##برک
rishtedar
##rrrrrrrr
lagataar
kushal
##mmmmmmmm
wabastagi
yogdaan
nagrikta
ahoker
##republicforsushant
tonguetwistkaro
mutsadam
akht
fto
qy
##ppy
ucc
##undi
apsy
bawah
##ooth
unstop
lagbhag
logh
demi
boley
hamsa
##indh
darham
noke
laen
dinheiro
##ends
bharte
tasheeh
ayga
##trl
vimp
mura
spee
hato
raaton
chupaney
##یوان
fazlu
secron
tafweez
maanga
lykin
##yyyyy
amrik
dastay
shikayaat
##ینڈر
##nb
gia
faysal
catup
tharoor
ایلیس
jhota
bgair
nnw
chalayein
earthqu
owais
ltima
##mous
shuroo
dhanyawad
##dolillah
lkhno
chourasi
aina
dore
elia
izaat
sli
tsk
yag
ڈول
ہیو
##whi
##enay
##wese
##kitna
##ھی
##گز
toak
##unte
hizo
abyari
khushboo
maans
chons
soum
##mem
hamd
##encia
milad
milana
tarr
indus
kabur
badtar
##rour
tradi
khudai
salgado
##fat
sarsari
ajzaa
##peace
atna
sochke
##wanya
##vani
nayab
taraha
keray
withdra
bnke
##hli
##wg
charhne
luq
##govern
pankh
larkio
mrta
mirin
dukhad
uno
khawand
haathon
masjid
utarne
bankon
hojayegi
chahia
hotstar
##awaaz
ranaayyub
makhloot
rujhanaat
dgispr
imtehan
kanton
informa
tho
cubby
kartarpur
baluchistan
iksath
##hiti
bzy
sda
sle
sdd
wkt
میں
پال
ہا
##jani
##مس
##erra
koro
##ensa
##isyon
debo
paratha
chada
krl
betiya
terrist
##uno
kamate
darurat
milain
milenial
##dec
artinya
sifaat
tiap
mutwast
kam
vr
cree
nyari
tamana
bakhabar
sadqy
amei
mimin
ze
idara
peechhe
diss
ganwaa
veces
stopbullying
akhlaq
setuju
##یسن
poochta
##ikian
sikhati
siwae
##dilkomainedikasam
mesma
fakir
mutalay
ashokgehlot
jiddat
blockbuster
eta
cachor
gulenaghmakhan
fairandhonestsid
chonsath
dase
lho
pind
riks
اگ
روچ
##iste
##may
وہ
##acha
##lees
##jad
##kare
hohum
rauf
##haran
yaas
pemana
##meye
aaur
sunat
ob
sarv
duga
maliyati
kirnay
tamiz
kerke
##orial
##idad
ramji
provoke
##ols
vib
appko
samajhdaar
##very
compra
wazah
galay
izin
chupaya
##khawar
tafr
becho
osy
##wasa
sahare
ijlas
mahal
begerat
ruknay
##anoe
shabaz
poochti
##jju
kaatne
faken
##zh
muzafati
zahree
khalifa
badhte
##boot
privile
waseela
kenal
oonchai
aloodgi
murdabad
ghazabnak
ٹايٹینک
##colorstv
np
badastoor
aub
bdy
lbh
اب
سول
گور
ﷺکے
##imp
##pray
##poot
##qw
meem
kagh
ispar
##iyu
bhaiye
meng
bhaichara
rahata
##astan
##shp
marney
##versi
##hentic
khudki
##baap
enki
##cz
ende
salami
nic
faroo
##aina
qabul
##hrain
hojaty
uthake
##assador
pichla
flirt
jurey
trolls
umar
rupe
##tyle
blah
##یڈو
##qareeb
##وپی
aditi
athawan
kandhay
tilr
geladeira
##grover
antara
kkkkkkkkkkk
##huttozardari
lembro
ayyaam
goosebumps
canaddy
parliman
elo
jiri
qand
zaka
##hane
##oosh
##iy
##goo
##jits
haibas
medo
kaas
##asp
koyn
##adya
##adrish
karraha
baah
yaw
##ayaa
##limited
kamna
samundar
dilse
badhta
##olf
aajkl
##reen
##hamari
kahaani
##sit
behs
gharwale
wajid
esme
qabl
chorando
##aday
##onte
paiker
bakray
munkir
menye
resour
blky
ilaka
##icious
chhura
rajesh
dasar
mrne
ladkio
captan
rabba
chatni
smjhti
cabe
metoo
sambhalay
zrurt
beij
anuragkashyap
infiradiat
##yearsofsrk
meteobridge
مزاحی
bw
ena
eins
flim
oni
rend
##harat
##week
##pna
##eries
##jori
##aiti
##ayl
keht
kast
naveen
##usic
chatt
hiten
thaaur
afwaah
dipak
banwaya
shaba
chole
stat
##kao
pric
pedo
recon
##upe
sunty
##dekho
brit
arbab
trj
chalak
##shish
kitta
basar
jinna
insti
sule
iqbal
jaanat
cheezen
pairr
ladh
##qiq
tay
##ados
dalalo
foz
pyaray
kano
jayaj
fatati
tabdili
welldone
listrik
phek
rathee
gambar
jhand
stavan
ghalazat
bhukhe
muzammil
##thanks
matehat
bolentertainment
##pre
janasheen
aee
jyega
vender
dh
##jate
##ince
##akhilesh
isliya
baut
##olak
sahan
humili
usama
chheen
asmano
associ
jabray
##upat
##dew
bahkan
ajaz
chuhe
awwwww
talve
##noa
och
shayron
##cuit
patlon
mushri
dikhayega
##bras
berbeda
haji
tayyi
deewane
gs
umeedwar
jarhiyat
palan
shadid
pagalon
oska
mabzol
rato
incr
qasm
ashray
dariya
lawde
selmon
##kamra
aseer
wat
albm
##uvaaripaat
centi
##ently
ktna
tinka
sanathe
##happybirthday
jhagde
##kaweka
bevkuf
obrigada
sarparasti
demagh
##ikh
##democracy
nacheez
immigr
untaalees
falasteeni
mst3k
eaanat
arun
fn
kly
nce
##father
##athe
medan
nacha
karib
##naagin
##unci
khlal
inhein
bekas
dije
indira
shaqq
##inga
sokal
takr
aaegi
batayen
##ately
##edh
btaiye
murt
iden
yargham
rajats
jhootha
##ains
ghuss
larkiyo
soop
##tabhi
shaanti
pear
mukhtar
muskurana
nashtay
sanihay
panjatan
انٹون
entertainersid
##proudof
bigaad
oj
تری
##yati
##cendo
##dili
##vaa
##ambar
kaus
naap
raahi
muth
##sider
aln
yehan
ghunda
hemil
sabd
prapt
dekhane
coas
deter
chalai
faroshi
tn
qabron
bandon
##count
##thakur
chupana
khaasa
swati
veo
bhoolnay
bnaa
latt
rkhty
istmal
##bbwinner
kamzoor
maalum
ameeron
chunao
hablar
##atoday
beeswin
##ushantsinghraj
diyook
qatilana
bheria
pohnchain
dbng
ڈیلن
zndgi
tuhanu
stopbullyingasim
doobi
hbl
jene
layenge
nurs
pnd
suspend
zro
ایری
##ghay
##cdp
##mala
##family
##arab
##hiday
haijai
##insha
kaati
##tact
isro
isase
ansi
alab
altern
dijo
##arios
##shy
manisha
libas
##entinha
jandaar
badam
##pek
##duk
bal
cad
##etum
jaipur
##ongan
chidiya
keras
lux
crpf
jahanum
##hre
smh
rakhu
gaii
fanaplog
kann
jazair
lyk
zewar
ehkamaat
anwar
chindi
devgan
eian
tentalees
saudade
##uarjun
fanaplogose
wadi
jya
lke
tgfamily
شا
ہی
##wek
##zs
##disi
##يیر
kida
##chur
antin
##urse
##wee
behis
bannay
##mies
banty
##teria
dartay
sakon
takhall
##tyan
pahad
##vij
pokok
puro
samjhenge
wasool
jalan
wasiyat
quanto
angka
rashi
ikram
khyber
ilan
maqalah
fif
raatain
aukaad
collab
hazara
mnh
sentir
##uls
molk
##wadar
lassi
laraiyan
zakhair
noorani
tharak
##cricket
##devgn
gauhar
khutba
maghrour
ghuroob
precisa
hbds
ounchay
karnamon
jaishreeram
astagfirullah
thehray
فراہم
astitva
rubikaliyaquat
وقوف
jirimi
hemilton
takhallus
ezzat
iye
iht
jall
otha
pf
yuz
ﮦat
##wri
##gunt
##cah
##fad
haibhai
##amam
todi
topper
##ilal
##usne
ingin
anusar
krri
maeno
prs
bain
##maid
barheen
ambi
mushaqqat
mazar
pervaiz
tras
dikhan
##target
##targets
##ually
purush
malem
shidat
khatna
##jio
utang
##ghr
lagae
lgay
##ارو
safed
aula
disp
sikhana
jbki
bhoj
derr
justific
##taindia
sreesanth
##balik
sidnaazis
zulff
bhulad
##یسوڈ
programon
##یات
bot
este
##abi
chehry
hoax
consum
##bla
##یيل
untung
sazaa
bhooton
##penter
urrnay
chokidaar
bastante
##duniya
##hobbat
##rest
fidya
nuqsanaat
ishtiraaq
##vartan
knsas
hsas
ihs
osi
salman
shitty
sket
##kian
tapp
جو
##pv
rm
haikisi
kide
kela
##enes
kachay
##tao
##wash
topo
deja
nego
thack
leag
jac
jaedad
unge
territ
ande
maina
##rof
herkes
akkal
sataye
bux
bandish
##ando
sadiyoun
joo
mengg
##rem
ilaaz
lute
##engey
kashmirio
flop
##yshehnaaz
chandr
##colle
jumat
quraan
gunahgar
vidhan
##imum
##rajya
##وٹا
##sssss
chirak
gndi
nachnay
فلم
krdya
##hum
manuga
bagian
##uringsid
masomiyat
rohan
##judg
madhurima
weekendkavaarwiths
chhyalis
unchaas
gorakhpur
catupiry
pust
qr
sook
mis
میپ
##vam
##گم
##inter
##cana
##abd
ista
bahal
chaon
chamach
usar
##kiawaaz
shaaid
takal
cheguei
rehkar
thx
shoping
kitana
##otas
##gree
upbr
balti
##zians
bakwass
ting
hndost
mukab
byanoe
ganga
lgata
himlit
dhk
dhmak
pooj
descul
lehaz
##conne
stoptort
nationwithasim
rukne
engvpak
##dambar
arnabgoswami
rulaya
bhrosa
ghom
pawankalyan
madhosh
darshanraval
rec
ttp
nakhre
##allaha
copian
dajjal
kemarenan
##subhanallah
karorron
fehmiyan
##atellite
vatsn
confuse
beberapa
tod
hndostanyon
aasi
simi
ere
eto
kull
oke
##huma
##jc
##fail
##فمین
keun
##urdu
##akon
##ahnay
hains
##iture
##sip
##sita
bhaya
##ainssrcase
##ultan
shash
chm
mohit
nichor
aawa
masak
kitabi
polisi
timepass
mayos
vim
murammat
kutt
sikhna
khaizi
aurato
tajaw
ganas
##ismati
zeist
aaney
dorr
ashdeep
##cam
tlp
rkhen
jorta
ailiya
##poserhe
darjeeling
dicen
##umkinhai
kandhe
barfani
jhelna
aastha
##mahagovt
bezti
gubhar
fonda
cid
##sg
durga
khainchti
daghdar
abubaker
##targetsasim
hsasit
bjay
سوس
ہیڈ
##bare
haidar
seme
##eesha
##ikut
deakh
baeed
savi
wohe
jaada
kraya
alh
##inghearts
subsidy
beja
##lover
chullu
##ateful
shugal
ter
##ici
esa
peshawar
shwetasinghkirt
rahun
sayah
idiots
##mpi
samjhy
##ostsid
ahti
patte
happyfriendshipday
blkul
##pppp
buscar
kutay
passand
kuy
palti
##bohot
whopper
saima
calon
sharef
khairat
rishtay
pehchane
telecast
taisi
cabelo
llor
chhorta
machaya
zruri
sundayswithamaal
choohon
poner
mehroomi
khwabon
madrasa
tq
سايیک
ghutnon
samarthak
گریف
vagon
fuddu
##dexposerhe
czn
junt
chopra
sre
tunggu
ہوم
##other
##mla
##voo
haig
naala
##akum
toma
razam
##neta
nechy
haari
##dii
humhe
dite
didu
hutiya
##riors
acara
bhaihbdmaheshbabu
movi
amree
arnav
##ayo
adw
##mita
##veria
thhour
hera
pota
##hahai
gie
banaoge
##awaq
angin
hadir
munnay
rashan
khete
lgaye
payer
aasteen
spt
gaie
bhagne
akelay
gola
##hasil
ikhte
khilony
boysssssss
rkhti
bewaqfoon
obje
##miento
##villa
apnon
partido
condemn
kudos
yadavtejashwi
chirag
##ghi
darwazon
muqarara
arakshan
nibba
hathiyar
##boxing
badshahat
mizaj
signif
masalas
parvarish
sadhvi
ایپیسوڈ
bajrangibhaijaan
iltija
percaya
sesuai
bndoqin
churrasco
faayda
dayriktrz
eke
fh
peed
ashok
reech
tni
kun
wuz
##kane
##hado
haiallah
haiabhi
##atumhara
##inhas
##alist
##asana
##adit
##akang
##ehow
chapa
alvid
##ingi
mala
##kies
takeed
harna
bf
##qu
tarw
paayi
rokay
##baari
denger
##tsoldout
khoty
##jali
##weather
jalwa
baka
mojud
gaiye
##iii
milaad
baraat
nathi
aanand
maangi
rangat
izzati
bachiyon
sumameen
dakuon
cheeje
gareebon
##heeray
pinter
tariqa
tehattar
trpking
kaddu
rehnumao
##stoptargetingsid
heenks
meteoc
besharmo
corrente
anupam
bhateejay
uta
cancelcompartmentexam
propeganda
krstina
##adrishti
bz
corao
gly
nica
olu
ریٹ
لنڈ
ونٹ
##pres
##lata
##kc
##mik
##qas
kiven
hoker
##hanks
##chna
mubas
##azon
##sih
lef
unos
behe
chood
filks
prt
hameed
asla
jismon
taresath
daat
jj
##roff
bahno
torne
##ooni
##akhush
ques
jaghen
pau
##hron
##lok
lgsg
luga
teraaki
aliaa
daiwata
pakistanion
rajrz
phoonk
##hume
##لیڈ
maregi
##نگس
fitna
ranjida
kaatna
karwaiyon
##hahahahahahahaha
chunaav
nosso
kulon
apnane
bhrasta
tazleel
zrurat
aditirathore
mushahiday
islahi
kendi
dgnta
pratibha
westandby
nafarmani
sargoshi
hypocrites
stoptorturingsid
vikram
clow
dado
grif
ghiza
##tiv
haga
jgha
mga
plo
mese
nazim
parin
##gni
pardes
raay
mutaq
cai
anum
krengy
unwaan
##idhi
maadi
sabji
##niti
##sav
sotry
terappan
pehal
##wani
darindo
sakha
dali
shwe
tarkin
##app
arkan
##year
sibuk
sifak
gobhi
jataa
dengi
sharmi
##ega
##chis
##cel
taqre
##oles
nayak
jaleel
kasht
bnaty
##iyanus
bsm
illogical
sikhane
rajy
kui
##hem
##kata
##ورین
jazo
parhny
siyast
##oshit
##urrana
##لیہ
sapa
rubbish
bahagia
nalli
انف
aazam
appease
biswas
##kadostsid
aandolan
ووڈس
bilawaja
minutos
istifada
wekawekaweka
ftohat
##oj
meteocat
sifakana
fash
jf
lz
nhee
##wray
##chir
haiphir
kaw
kaaj
##unj
##unches
##olr
##azads
anub
mero
##ror
##raut
kampan
##mafia
stun
sunu
adani
phirnay
aajati
##edgi
##hayad
shari
mutasib
magarmach
sanad
shuruwat
##rag
sachcha
btati
onek
kuc
kuxh
shani
##plan
sawalat
##lugu
qaabiz
pensei
underrated
lgaa
footpath
##isan
##carry
pry
kaaam
qurb
##dict
kamyabion
lehron
lalchi
franko
zakheeray
hijjay
alguma
اسپل
bhookhe
phenka
photosh
quarentena
mehrban
oqiyanus
zehniyat
bingung
reechh
aaq
aaind
bche
esh
htum
jhi
mko
vamo
zindi
سیو
##nrc
##pla
##then
##bbra
##fol
kartin
deket
khne
parde
##iraj
##iyya
haap
loi
bhada
##aks
khaoge
lagt
boj
##zle
boya
moq
moga
darust
milla
milawat
sholat
adeel
cheisat
pakistanarmy
##viz
dengy
atul
maliyat
##antr
tamir
multa
bataon
hattar
disso
bhojp
##licate
jaraseem
##boht
##ysy
farmata
junto
amrica
saifi
kasab
##for
naqais
##janas
ngap
humarey
sanskari
simran
##wadari
bdutt
pith
guftu
certeza
apradh
##donald
##bf
trem
##mnon
sufiyana
##ابیل
##deshmukh
paryoon
jafferi
rn
numainday
lavde
brhhawa
surbhichandna
mahfooz
kasautiizindagiikay
ridicul
intaqal
naakhun
tarweej
##azadsln
##miya
bth
eyan
fone
bien
faid
oos
sma
uks
واي
##need
##jitna
leaks
##erd
kop
##eede
##iksha
##azhar
afwa
pandit
afzl
loya
jaaty
bezaar
##tat
##you
banayega
hars
dava
waqif
phirte
bashing
##inho
suja
##rise
ae
irritating
nay
##haib
kharap
minist
##vaus
kata
sadiyon
##prit
brono
maqabil
peeti
##yout
pagle
palta
dhobi
vulgar
##kanwal
flir
bhulna
karwaen
zalalat
##patti
انیم
lotney
##ويی
nishanain
culpa
pedaishi
ghazlon
##scan
foo
correntinha
##demandcbiforssr
ovely
ungelian
##dexposerheainssrcase
cud
dhat
ech
fcil
lf
penge
pamaal
ruda
ars
tng
اوس
ریس
میتھ
ڈوم
##lere
##jnu
##خش
haisid
sedih
defa
baandh
rawadari
muht
inni
saaien
jawar
shaori
##loun
bogi
retwee
darny
shuj
dav
athanway
purn
paishi
esti
tashee
faul
##shahid
minton
thatta
##just
hns
mahz
fof
ry
charwaha
##quar
kuti
bunun
deshat
##ddd
##urious
flor
tujhpe
##upt
rafeeq
##rip
seeker
rkhiye
kidher
ronaldo
shilpi
jruri
segala
##gano
badlega
rashtrapati
dil
##akshaykumar
pohanchna
jadugarni
##rulinghearts
atiya
ghira
tre
kuran
ksy
ie
اوٹ
dept
##ھم
##خت
haiwaise
kawan
nass
sedha
##haro
anqareeb
ghhoom
maff
##opa
moqay
motab
filmy
##sir
##waf
petaindia
kamana
##sebest
andray
harasan
nifty
##alaunches
arah
advan
salmani
propi
khansi
chohtr
gharat
util
smule
##ggg
lucu
bajne
tayees
huey
##wewant
##ilekin
daalne
khuwahish
mangti
ishqsubhanallah
##contr
chamray
rabbani
##pone
baithne
bolege
sanskaar
sayahat
aaraaam
dastaan
badhao
##lib
badhawas
zahra
aunque
vet
segundo
##sharmak
laalchi
##mediate
unsath
ravishndtv
sarkaruvaaripaataurstrulymahesh
ata
سینڈلر
ks
vo
##vishwas
arrestrheachakraborty
reshmi
bepannaah
nojwan
agra
ghhoomti
fq
hpi
hjri
لیگ
##bans
##منٹ
##زن
haiand
kasha
karlena
baata
mudd
lagya
##hattar
sabia
##saad
##udan
noche
samil
kisanon
##after
patna
mant
shyam
taamul
paayega
muskaan
congi
gele
##pez
##nyak
wegas
##iyaa
dekhai
kharb
choranway
quente
aadami
bajti
oneplus
tbs
qarzay
phoo
bulata
dafatir
##indiatv
sanjay
whn
notebandi
brid
seekhi
##club
cutest
pkka
difcil
refug
ارج
uddha
godimedia
hehehehe
atifcam
trabajo
nakhun
tableeghi
chaplusi
hajaro
uratay
eviction
panchawan
unstoppable
sanathebbwinner
gagal
hne
kall
maye
pch
rora
zda
##px
##that
hothon
##akapoor
ishaar
##irad
##iyeh
nepo
chapr
walekum
chcha
pemil
##deki
salee
khanna
##days
bharosha
logoko
suj
girane
chorni
balai
mamly
baksng
##£
##¤
tmari
sadece
vivi
##¨
achch
aagar
##yogi
opini
tayyari
##±
##´
jeetain
desen
lafaf
##º
thikane
khilana
aarab
hardwork
chutye
##ð
shehla
cerdas
##ويٹ
sambhale
##ssrkilledonjune
##œ
bismal
faisalabad
sandesh
##rrrrr
##yearsofepicchakdeindia
haatho
nimaz
yesss
weareproudof
qeht
restauran
satyame
angothay
mukhtasran
pehelvaan
biasedbbtargetsasim
kanjoos
dki
qnd
xtra
وکٹ
کیا
##sang
##amn
kob
##ussidnaaz
dej
dewar
khum
parveen
thaali
jogi
khae
lagra
shashi
mahana
##yet
filho
dohri
arbi
siway
jiha
kabhie
imo
zindegi
billo
hindo
karengi
namoos
paiti
##ggers
bbshow
passando
bachaaya
bhokte
##assir
kanon
##yanway
desco
puchiye
##queen
parivartan
naqli
chatte
انت
tafseeli
##ومی
##restrhe
bakhs
farzand
divya
heheh
##thoda
nibhana
refri
##sunny
thekedar
yasooh
bidesh
btsbighit
chheyanway
jhonk
chahtin
esaiyat
kundali
shalwar
لیمون
laxmi
##bservers
happynewyear
tafreeq
aasim
eis
gli
tuch
vya
vek
کیگ
##يی
##ayt
##onti
napa
##tiva
depress
apana
khoso
paraye
##iyab
mukaam
bhal
khass
yey
##ardhara
##yek
rahana
##save
samo
##ו
asna
asool
aspir
jant
pax
adami
behte
larh
##מ
##ן
shippers
padd
broo
braber
batae
chahtey
shaher
lyty
##ר
getwellsoon
##یما
uthne
##ء
##ب
##ت
##ث
##ج
##ح
##خ
##ذ
##ز
##س
##ش
##ص
##ض
##ط
##ظ
##ع
##غ
taraqiyati
##ف
##ق
##ك
##و
jhootay
##ٹ
##پ
##چ
##ک
##گ
##ں
##ھ
##ہ
##ے
shaitaan
ujala
##उ
samjhega
##क
##ख
##ग
##च
##ज
##ट
##ड
##ण
##त
##थ
##द
##abhoomi
##न
##प
##ब
##भ
##म
##य
##र
##ल
##व
##श
##ष
##स
##ह
##ा
##ि
##ी
##ो
tentar
justiceforzainab
inspirationasim
taranah
لیونارڈ
muhtarma
msica
mahabharat
nazayaz
pradarshan
napunsak
bchi
radi
vry
yudh
لیل
پی
کٹ
گلو
##wid
##cplano
##aiat
##ন
haikahan
kibl
##ভ
keye
##য
##র
##osto
mudah
nekal
saary
levan
##া
##ি
##iyega
pega
hams
samai
marja
sunder
batla
pash
mazalim
##zaade
##endment
sarai
ajdaad
tabish
sheela
kona
myan
minnat
blagr
ghairay
bataun
btain
udaan
katt
katha
baydaari
##medesai
genoc
intak
##psc
beghar
rupya
turkoon
rumania
bhanji
##adarsh
saaday
##نسکی
##ووا
##goswam
harusnya
competi
humaare
sintis
waapis
intolerance
paraschabbra
daruratcplano
eth
##nj
##cando
##resign
##لینگ
##akuch
##isab
##aht
dehaat
khood
bajp
##neg
sawa
jawaa
khaar
unboxing
maata
doces
sogra
hamsafar
rekha
##isty
bahubali
perse
##stha
enke
entar
twink
sochy
suvidha
talli
cres
mumma
##cover
maqaam
alig
monti
iblees
howey
##uries
bikhat
##راڈ
chodte
nanak
qasai
jatt
fasadaat
jhank
krien
anjali
dramon
ikhtal
ghour
rakhiyega
recogni
seorang
shafeeq
kaghzat
rajatsharm
azar
beri
pdha
vand
vaisa
zaye
بد
##cool
##jane
##bho
kece
kareena
##ahhh
thake
haciendo
jooray
##hatya
##liq
##chaudhry
sakein
lihaz
batne
waheed
troma
goons
faraghat
kitane
mehta
talla
balk
##tru
mahsoos
ilmu
bbkijaanshehnaaz
deepik
##kkkkk
palghar
keeda
poojan
stru
srkar
srkians
dikhnana
kholeen
silsil
juram
tangon
jhaank
rishab
jaatey
bewaqof
اسٹیف
chaie
putra
jesey
ertu
jhuthe
##hhhhhhhh
phenkna
hungami
khaima
سلیوان
siyahi
buzurg
والکن
gairon
kunalkamra
iqtisabaat
##amaadmi
sushma
keluarga
consegui
naghmay
aprove
souteli
frinkln
divyadrishti
##khulwaopubg
cdew
##€
daka
ibaad
iftari
jfaa
nall
##™
oka
pum
pene
zariya
پوٹ
کہ
##mran
##been
##onon
hotee
istr
##eey
##ikin
deol
inven
sauda
##iton
jaar
krishn
humny
banoge
merce
ustu
maay
##arif
##indori
harap
rakna
aaunga
confi
chalenge
ajate
thukla
gitaar
gharwalo
majmu
munq
munda
##★
menj
sanvidhan
aadesh
khena
bhagte
ourhero
discipl
ibham
kanhi
kanan
jarha
pooche
bechar
familia
##luck
laib
nuqoosh
solu
bhulo
khubsurti
##eeeb
mastung
tarjum
dheeray
muddo
##hindustan
##united
kasihan
bhonkte
akkian
##nbhatt
tshirt
khincha
haikabhi
nashedi
fenk
lulli
hzari
angothi
zimadar
##awaqar
dube
kuld
uq
wira
مر
##ugu
##pappu
##مو
##almente
##akakar
##ussa
##unday
##uniya
aplogo
parar
sawer
krao
walla
##andah
milane
askal
manag
batad
sigue
perce
lachar
pataayi
akhiri
purey
##amahesh
nambaron
burhan
bachhi
waran
jhol
wazarat
bbhuttozardari
makhoz
katoti
tajdeed
hansty
latayen
wafai
muqabil
bukhar
assass
##khabar
susant
##ghair
hotta
shrad
beyhadh
abaadi
##devgan
seddiq
iqrarulhassan
dhadak
panjang
##anjali
oncologie
biwiyan
dehleez
iraadon
tayyiba
edar
haba
jakh
mami
wana
wjha
وايک
##oq
##bada
##fati
##فس
haitoh
haiwoh
##ayati
kiyat
karye
##iktr
khdayi
aftaar
anubha
krishan
machane
dop
##waadi
soyi
darinde
samp
pakdo
asp
takheer
##ukti
mariyam
siddar
kaamo
salir
syasi
##tool
frmaye
chodi
nayapakistan
modiha
##shaat
ayan
jaiy
##truth
brdasht
maqnat
votefors
makekarachianewprovince
chahunga
delusion
serius
malikan
##choices
vejo
qaabil
##راس
jumlon
##palji
sinto
wouldnt
##ensation
kardena
welcom
empo
sambhav
jhutha
tutne
mbwind
chamakate
tulna
suruh
##wwwwwwww
misalon
sedikit
qeematein
ghazwah
follo
preshani
pavitra
bezati
hemsha
##roborty
##studentspm
sidnaazisrulinghearts
##janasanghi
cdewpoint
bki
jhad
odio
sina
snak
ٹمٹ
پار
##gain
##teshwar
##lando
##zx
##dst
##jul
##bli
##bute
sear
dewa
deber
##diz
lohay
krda
alwa
dixit
bhaion
sobr
kamaye
##mahira
dilata
amhigh
matr
enka
sarsath
merece
merepaastumho
poda
taqtee
wajeh
##ersin
exaexol
tasan
satat
haso
issy
bandhu
nikalenge
bycott
bnya
sachha
##job
ouron
##diyaan
pedaos
pichlay
elaaj
zulfi
gandhiji
looh
cie
aitbar
smjhna
saarey
kbhe
nigam
antim
piyara
##وڈر
darjat
badhne
danishwer
paicheedgi
happybirthdaysalmankhan
##adays
mehnati
velle
jahn
hutch
tetangga
چھد
senetor
bismillah
syeda
shaayad
yarghamal
ahin
awaron
iki
mkal
nhon
ozaar
reet
sza
wukla
پشا
##gq
##fill
##ashan
karati
khras
baahum
chaey
aftaari
##icant
khalo
yek
lagani
shabab
##asto
darty
tution
takrao
niii
masajid
rehtey
rahoon
khanzeer
abhiyan
athar
azeen
mutton
chiya
##ksk
##hotra
ramu
cortar
likhny
kini
sikahnay
fazil
kaithi
mtnoa
ganesh
avn
kliye
aatm
rokti
kunji
pilla
failana
laborat
##arohit
##وکی
haddiyan
##برن
darjah
lapet
##essive
totnay
bhikhar
daque
saniha
grig
##mailcom
taaluq
gregori
intrest
bhatija
cocok
mullon
sozinha
hammeed
bghdad
odeio
maksudnya
informacin
پشاچ
nost
pilihan
sory
ujar
yada
اش
بن
میری
چار
##gv
##uicide
##بیٹ
##atas
##atri
##alaman
##chare
##este