[PAD]
˜
؈
؍
؎
؏
؛
ؠ
ػ
٪
٭
ٮ
ٴ
ټ
ڈ
ډ
ڑ
ژ
ڪ
ګ
۞
۱
ۺ
۽
۾
फ
ॉ
ौ
०
१
२
ਇ
ਕ
ਖ
ਥ
ਪ
ਭ
ਰ
ਵ
ਸ
ਾ
ੀ
ક
ગ
ટ
ડ
થ
ધ
ન
ફ
મ
ય
ર
વ
શ
સ
ા
ો
⁉
⏳
☕
☘
♻
♾
⚘
⚠
⚡
✊
✋
✨
❓
❗
❤
⬅
⬇
⭐
⭕
ﭐ
ﭘ
ﭙ
ﭨ
ﭩ
ﭼ
ﭽ
ﮈ
ﮉ
ﮎ
ﮐ
ﮔ
ﮕ
ﮞ
ﮟ
ﮦ
ﮧ
ﮩ
ﮫ
ﮬ
ﮭ
ﮯ
ﯼ
[UNK]
[CLS]
[SEP]
[MASK]
ﯽ
ﯾ
ﯿ
ﱠ
ﱡ
﴾
﴿
﷜
﷞
﷠
﷢
﷤
﷫
ﷲ
ﷺ
ﷻ
ﺀ
ﺁ
ﺅ
ﺋ
ﺌ
ﺍ
ﺎ
ﺐ
ﺑ
ﺒ
ﺕ
ﺗ
ﺛ
ﺟ
ﺠ
ﺧ
ﺩ
ﺪ
ﺭ
ﺮ
ﺯ
ﺰ
ﺲ
ﺳ
ﺴ
ﺷ
ﺸ
ﺿ
ﻋ
ﻌ
ﻒ
ﻓ
ﻔ
ﻛ
ﻞ
ﻟ
ﻠ
ﻣ
ﻤ
ﻦ
ﻧ
ﻨ
ﻭ
ﻮ
ﻳ
ﻼ
￼
￿
🆔
🇮
🇰
🇳
🇵
🌈
🌚
🌟
🌠
🌱
🌴
🌷
🌸
🌹
🌺
🌻
🌼
🌾
🌿
🍀
🍁
🍂
🍃
🍷
🎀
🎂
🎈
🎉
🎊
🎓
🎗
🎤
🎶
🏏
🏘
🏵
🏻
🏾
🐅
🐆
🐖
👀
👁
👂
👅
👆
👇
👈
👉
👊
👌
👍
👎
👑
👣
👨
👩
👪
👶
💄
💅
💍
💎
💏
💐
💓
💔
💕
💖
💗
💘
💚
💛
💜
💝
💞
💟
💠
💡
💢
💥
💦
💧
💪
💫
💮
💯
💰
💻
💽
💾
💿
📌
📍
📒
📖
📝
📢
📣
📱
📲
📼
🔊
🔔
🔥
🔦
🔫
🔴
🔵
🔶
🔷
🔸
🔹
🔺
🕋
🕓
🕯
🖋
🖐
🖤
🖥
🗨
😀
😁
😂
😃
😄
😅
😆
😇
😉
😊
😋
😌
😍
😎
😏
😐
😑
😒
😓
😔
😕
😘
😙
😛
😜
😝
😞
😟
😠
😡
😢
😥
😨
😫
😬
😭
😮
😯
😱
😳
😴
😹
🙁
🙂
🙄
🙇
🙈
🙉
🙊
🙏
🚙
🚩
🛁
🛑
🤐
🤓
🤔
🤕
🤗
🤘
🤣
🤧
🤭
🤲
🥀
🥛
🥰
🥺
🦁
🧕
##ڈ
##ﮦ
##👎
##ڑ
##😉
##😄
##😂
##💔
##🌚
##🔥
##ﻼ
##ﺳ
##ﻞ
##ژ
##😁
##😛
##😜
##😊
##🥰
##😆
##😅
##ﮩ
##ﺋ
##ﯿ
##ﮟ
##🏻
##ﺌ
##ﯽ
##💚
##ﺿ
##💐
##❓
##🔶
##👈
##˜
##ﺅ
##💕
##😏
##શ
##२
##🙂
##✋
##ਥ
##♾
##ફ
##ર
##👌
##🇮
##🇳
##💟
##🤣
##ﺮ
##ﯼ
##ﻌ
##ﺪ
##😭
##🍀
##ﮯ
##ﺑ
##ﺴ
##🖐
##👆
##ٴ
##👇
##મ
##સ
##ﻠ
##ﻨ
##ﺰ
##💅
##👑
##ګ
##🌿
##🙈
##ﻭ
##ﺭ
##ﮔ
##ﺎ
##💡
##💞
##💓
##⚡
##😘
##😍
##🌸
##😇
##😨
##०
##१
##😃
##😳
##ौ
##￼
##🙄
##💝
##💖
##ﻮ
##ﻧ
##ﻦ
##🌠
##🗨
##؈
##🤔
##😝
##🌼
##🇰
##🌾
##ﷲ
##ټ
##🥺
##😢
##😞
##😎
##ਕ
##🖤
##💯
##🌹
##😕
##😯
##😑
##ﺀ
##ػ
##💧
##ો
##ડ
##👉
##😮
##ﮭ
##ﮕ
##ﷺ
##વ
##ા
##ય
##ﮉ
##🔷
##💫
##🚩
##😀
##ﺍ
##ﻤ
##🤘
##🌷
##💏
##🌺
##😔
##😒
##📢
##🛁
##ॉ
##💮
##💠
##ۺ
##💦
##🎂
##🎤
##🔴
##🍁
##💍
##😓
##📖
##🤐
##🏾
##👊
##ﱡ
##ﭐ
##ੀ
##ન
##ﺗ
##ڪ
##🙏
##✨
##ﯾ
##👀
##🌱
##🇵
##✊
##🤓
##😋
##۾
##ﺐ
##ﭼ
##ﮎ
##ﻓ
##🐖
##ﮞ
##😠
##👩
##💻
##🔸
##ؠ
##🎈
##🎉
##🎊
##🔵
##🔹
##😟
##☕
##￿
##ﺒ
##🙊
##😐
##💪
##🐆
##🌴
##🤕
##🍂
##😡
##😬
##👅
##⭐
##💗
##🥀
##થ
##😴
##😹
##🔫
##😌
##ﭨ
##💢
##ધ
##ﻳ
##🍃
##؎
##ﺛ
##ﺕ
##ﺯ
##ગ
##❗
##😥
##😱
##👂
##ਰ
##ਸ
##ਪ
##👍
##🌻
##ډ
##🤲
##ﻔ
##ﻒ
##💰
##ﻟ
##ﭙ
##🙁
##ﺸ
##ﺷ
##ਖ
##💘
##ﺠ
##🤭
##🤗
##🕓
##🌟
##🍷
##💜
##🙉
##⬅
##⬇
##📣
##🆔
##ﺲ
##ﭽ
##ﮫ
##💎
##ﺩ
##ﮬ
##۱
##ટ
##ﮧ
##🔊
##⏳
##ﭩ
##☘
##۽
##۞
##📲
##📱
##💾
##💿
##💽
##📼
##ٮ
##ਭ
##ਾ
##ਵ
kar
aur
nahi
kh
bhi
hain
tum
aap
aik
bha
yeh
##iye
kya
kr
afsos
kha
##aye
lag
khush
gh
liye
bhai
raha
sab
bol
fil
kuch
woh
muj
koi
ghum
baat
thi
nhi
mujhe
sak
lekin
dekh
sath
kis
jis
zab
bohat
kisi
ais
kahan
hota
apna
##ardast
jab
tumhar
zabardast
rahe
apne
gaya
lagta
mera
har
karne
##wit
waq
kab
peh
gha
rak
agar
toh
##tay
dek
##ayi
##witter
achi
mus
pakist
tumhara
diya
gussa
sirf
phir
rahi
aaj
pict
bah
maz
lik
bolo
apni
##wittercom
pictwittercom
chalo
baad
reh
kiski
kaam
hy
jais
keh
kabhi
rah
terhan
khud
karta
rha
karte
jaye
kiya
ziy
kyun
chal
ziyada
itna
jata
nai
##eeb
hoga
##kay
meri
usay
karna
sahi
hoti
shar
pata
abhi
##hiye
bh
kaha
karo
beh
zind
##haha
bhar
dik
tw
naam
ghar
waqt
bil
sakta
pur
acha
kho
aisa
baar
gaye
yahan
wali
saal
chahiye
##esha
pais
##daar
logon
taq
haq
zar
desh
soch
##eeq
kal
nazar
mut
waj
meh
wala
rahay
lar
##iyat
pehlay
dekha
gayi
tas
##eel
khus
hwa
jaan
zindagi
##hna
bur
walay
pasand
kon
rhe
##aza
qab
khat
kir
tweet
asi
##amil
bahut
jal
gir
modi
cheez
khar
chor
isl
liya
##alat
samj
bana
sup
##chay
itni
yaad
##wab
ay
##aray
dono
jee
##aiz
kais
aam
honay
wor
hun
wajah
baray
##anay
mul
jag
kyu
gya
##ین
samaj
adak
karti
bht
khauf
ker
happ
hona
##kul
kirdaar
pai
mam
raho
##ayen
bhe
koshi
hamesha
isi
kamiy
asim
apko
##jp
paas
bilkul
khi
nikal
bak
wale
dost
kash
mun
##waz
taraf
laga
tou
kamiyabi
jahan
##kht
tm
##ollow
haqeeq
koshish
gy
zaroor
magar
##eef
tere
kahani
jati
##areen
khushi
yaar
aata
##saan
duniya
hn
maa
aisi
mush
deta
aise
tuj
teri
sana
aaya
jaise
rakh
shayad
shuru
hogi
yahi
jaisay
##habbat
theek
bl
##qeen
aad
ame
##yada
muk
congr
thay
vide
waqai
py
##lease
##oob
dikha
ver
bola
kro
jit
##iyan
hote
wais
mah
fo
##naak
dete
zam
jao
qabil
haan
bab
dekhnay
num
ila
khe
##afi
lg
##ار
matl
kahin
##ukla
hahaha
khatam
rhi
sach
kare
baap
ghair
gar
bata
jh
bahar
tamam
herat
dena
yaqeen
!
"
#
$
%
&
'
(
)
*
+
,
-
.
/
0
1
2
3
4
5
6
7
8
9
:
;
<
=
>
?
@
[
\
]
^
_
`
a
b
c
d
e
f
g
h
i
j
k
l
m
n
o
p
q
r
s
t
u
v
w
x
y
z
{
|
}
~
¡
¢
£
¤
samajh
¦
§
¨
©
##orat
«
bir
®
°
±
nahin
paish
´
aas
mohabbat
·
pehle
º
»
hoj
½
ach
¿
×
ß
æ
ð
unhon
ø
aag
naz
insan
khaya
moj
##atay
œ
##kaar
pta
bagha
##aat
mur
saath
hone
##eek
aak
jawab
aaye
saf
kitna
uda
baj
gai
agr
maq
comp
indi
##enge
##uq
kyunkay
matlab
##hiy
hoon
mand
##ket
##ری
waz
maar
maza
##harth
tera
haqeeqat
mujh
dukh
mak
##kil
behtar
##tiya
mila
pyar
gand
jagah
##ank
shak
haal
cor
ameen
khof
raat
qat
imran
##maal
wap
aapko
iste
huk
kaafi
##uran
sarkar
udaas
aq
qad
kharab
iz
dekho
kut
pah
aayi
filmon
qis
sakti
aati
chah
beht
khofnaak
likh
##asil
##waj
ber
dus
##khs
khayaal
dua
bara
bacha
mulk
usko
##iyon
pag
bhag
wahan
##riend
tarah
##andi
haz
muq
dis
mojood
yar
##اي
##thday
kita
temp
tumhe
inte
musal
dosray
dur
##htay
howa
istemaal
chup
qar
kaise
sik
krna
khaas
teh
naf
jb
shakhs
chh
likha
behtareen
sakte
hotay
bho
##یل
##یو
hamein
ish
hos
kiye
khila
hamari
ו
bharat
##soos
mau
haasil
seri
כ
utha
tumhari
מ
ן
dain
mukht
hus
sahab
apki
mushkil
asal
uske
ר
##eshan
aisay
،
ء
ا
ب
ة
ت
ث
ج
ح
خ
د
ذ
ر
ز
س
ش
ص
ض
ط
ظ
ع
غ
aakhir
ف
ق
ك
ل
م
ن
ه
و
##sid
ي
ٹ
پ
چ
ک
گ
ں
ھ
ہ
ی
ے
roz
आ
उ
ए
क
ख
ग
च
ज
ट
ड
ण
त
थ
द
##hnaaz
न
प
ब
भ
म
य
र
ल
व
श
ष
स
ह
ा
ि
ी
ो
##aal
##tey
ake
অ
poori
ele
fais
##mag
chala
lak
mubar
aya
bta
pehli
faz
ট
bura
shaamil
umeed
##asir
dy
mukam
ন
angaiz
lagi
ভ
uski
য
র
uska
dekhna
khuda
doos
##jh
া
ি
jayen
manzar
tumhare
##kkkk
##jiye
chale
##waq
chahta
zaroorat
dhar
hel
jeet
gol
bul
##iyo
galat
jaa
##ور
khaiz
hath
aadmi
##diya
adakari
madad
yaha
##bhi
hein
dilcha
rakha
shadi
##ushan
pareshan
dilchasp
satke
nis
shuk
aan
yak
walon
awam
kahi
peop
adakar
kehna
hes
##tice
##eez
##یک
diye
insaan
jaz
##سٹ
sala
dha
dho
tujhe
kehte
daur
mubarak
krne
mukammal
anda
kee
hala
peda
krte
maloom
wohi
taf
hamare
mash
sor
daal
pap
##oomat
poo
barri
jaisa
bhut
##reat
aurat
##ون
sidharth
pra
badal
hamaray
janta
amer
bech
unko
nar
phr
##allah
qatal
taj
pagal
maan
famil
##amat
boht
kitaab
jaane
umdah
krta
ajeeb
taree
##icket
inti
baqi
mehf
musalman
tk
pho
##yaar
deti
suna
ghalat
dimag
##ayat
##taf
gad
kaun
poli
##tif
##ublic
sch
nawaz
larki
dekhte
##ikar
rehta
leha
khu
inhen
##raad
khel
–
—
jitna
plz
‘
’
‚
“
”
„
†
##azaar
•
…
sawal
parh
##haka
andaaz
guzar
bohot
amal
##awat
itne
mj
kitni
hesiyat
##haz
##haar
naa
hazaar
jyada
ilawa
hissa
dont
##shukla
jaldi
ahe
walo
apny
##naaz
##qaat
str
afraad
mazhaka
dard
waisay
rahy
zare
lah
gye
pura
rahen
ghan
jatay
pti
ly
mard
hamara
€
zara
socha
haha
abb
khobs
™
mazeed
paisa
gro
wapas
jus
tala
jayega
puch
zyada
mang
mehsoos
shair
##urat
##asht
zareya
asli
##alif
warna
dekhi
##taq
##maan
kaisay
beti
khobsorat
##ول
achay
baghaawat
yah
isliye
##lywood
balkay
##asim
##jab
banaya
kah
yr
bigg
anay
##zaar
★
kere
chand
inko
##hammad
shehar
gali
buri
##heen
kardiya
##asat
sil
##jid
mahi
bhool
manaz
blo
rhy
qa
milta
barray
samjh
karke
jari
daf
comm
unki
manazair
jate
ishq
lain
chho
##jay
##ait
saari
##yy
##pect
mukhtalif
aapke
bada
unke
##taar
##weer
##tak
dush
saaray
##esi
janab
tasweer
pani
zahir
ghabra
tra
##hesh
##uu
dekhen
thora
##daron
yg
vir
##یٹ
masha
##ww
bayan
pich
kuchh
wahi
mout
sharam
naya
dehli
##یم
ney
bajaye
##sak
yad
insa
wazeh
qareeb
lol
amr
agarchay
##abiq
##aim
doosri
lehaza
bachon
##lti
tareen
tabd
sah
nafrat
ehs
##ushant
aakh
bina
parta
mutabiq
fal
waise
baghair
filme
bahot
hak
dainay
bananay
sare
laf
apke
baki
guz
gul
kitne
faisla
whi
aakhri
ini
zi
rahul
salam
bik
siy
isko
##barah
honge
tweets
jaha
nd
mol
bna
ikh
ghabrahat
kaar
kas
mili
##hain
choti
khail
muh
tayyar
rehne
ij
lete
##boss
##ason
duk
##fir
##unga
khul
jani
nae
kl
##ooq
aawaz
andar
hogaya
majmo
chuka
##anat
ghabr
khoon
ladki
cham
bor
agay
##char
atay
dene
kayi
nuq
thik
shakal
aapki
jad
acco
sher
samnay
##indi
bes
sidnaaz
khoob
ehsas
##india
saab
naay
apka
rab
izz
ahem
jald
ghareeb
paras
dikh
##azat
pyaar
rakhe
waqe
tuk
kami
aankh
kre
##akar
usse
proble
puri
angre
aksar
masla
chore
muje
qo
gover
##reeb
talaash
thoda
kap
khana
sabko
haf
chalta
shukla
baith
theen
##bab
##oooo
bachay
sind
ghabrana
waqay
##reer
yakeen
##رو
khabar
##ahi
##riya
yehi
raq
krty
intehai
karsak
spe
##aty
douran
saat
iska
##را
sabse
rehna
meu
halat
pari
lutaf
##urr
haqeeqi
muta
taham
khil
##ubs
sama
krdaron
paise
izzat
hindust
eid
dobarah
##bd
hosla
rakhna
##aaaa
leke
bhot
##shad
sabhi
##wahi
##hehnaaz
aapne
politic
amrici
lage
samjha
alag
yani
sari
##ateen
kark
saktay
ela
##umar
bolte
mehfhil
kham
gyi
chahtay
zul
##raat
lat
taqreeb
saaf
##ayega
##sain
lagti
##sad
loo
tareef
roo
uni
hpa
tash
##wah
qisam
daikh
##fans
##aish
galti
##str
##htar
wh
##pak
##andar
mamool
aks
##لی
perfor
jud
gham
bawaj
aar
aeye
aage
akh
##oos
##jawan
kyo
aja
hukoomat
aal
karsaktha
##oosi
abadi
##anch
kyon
##mahesh
feh
##kn
haar
dushman
mem
##tahi
jese
subah
krti
naq
chod
##eeda
khol
##baat
bade
chahe
##hoor
tareekh
##alik
insha
##ather
##leef
majmoi
jama
##akay
waha
papp
hosp
mujhy
##khuda
cri
mos
ati
sey
the
of
and
in
to
was
he
is
as
for
on
with
that
it
his
by
at
from
her
##s
she
you
had
an
were
but
be
this
are
not
my
they
one
which
or
have
him
me
first
all
also
their
has
up
who
out
been
when
after
there
into
new
two
its
##a
time
would
no
what
about
said
we
over
then
other
so
more
##e
can
if
like
back
them
only
some
could
##i
where
just
##ing
during
before
##n
do
##o
made
school
through
than
now
years
most
world
may
between
down
well
three
##d
year
while
will
##ed
##r
##y
later
##t
city
under
around
did
such
being
used
state
people
part
know
against
your
many
second
university
both
national
##er
these
don
known
off
way
until
re
how
even
get
head
behan
didn
##ly
team
american
because
de
##l
born
united
film
since
still
long
work
south
us
became
any
high
again
day
family
see
right
man
eyes
house
season
war
states
including
took
life
north
same
each
called
name
much
place
however
go
four
group
another
found
won
area
here
going
10
away
series
left
home
music
best
make
hand
number
company
several
never
last
john
000
very
album
take
end
good
too
following
released
game
played
little
began
district
##m
old
want
those
side
held
own
early
county
ll
league
use
west
##u
face
think
##es
2010
government
##h
march
came
small
general
town
june
##on
line
based
something
##k
september
thought
looked
along
international
2011
air
july
club
went
january
october
our
august
april
york
12
few
2012
2008
east
show
member
college
2009
father
public
##us
come
men
five
set
station
church
##c
next
former
november
room
party
jisay
december
2013
age
got
2007
##g
system
let
love
2006
though
every
2014
look
song
water
century
without
body
black
night
within
great
women
single
ve
building
large
population
river
named
band
white
started
##an
once
15
20
should
18
##taa
service
top
built
british
open
death
king
moved
local
times
children
february
book
why
11
door
need
president
order
final
road
wasn
although
due
major
died
village
third
knew
2016
asked
turned
st
wanted
say
##p
together
received
main
son
served
different
##en
behind
himself
felt
members
power
football
law
voice
play
##in
near
park
history
30
having
2005
16
##man
saw
mother
##al
army
point
front
help
english
street
art
late
hands
games
award
##ia
young
14
put
published
country
division
across
told
13
often
ever
french
london
center
six
red
2017
led
days
include
light
25
find
tell
among
jhoot
really
according
central
half
2004
form
original
gave
office
making
enough
lost
full
opened
must
included
live
given
german
player
run
business
woman
community
cup
might
million
land
2000
court
development
17
short
round
ii
km
seen
class
story
always
become
sure
research
almost
director
council
la
##2
career
things
using
island
##z
couldn
car
##is
24
close
force
##1
better
free
support
control
field
students
2003
education
married
##b
nothing
worked
others
record
big
inside
level
anything
continued
give
james
##3
military
established
non
itu
feel
does
title
written
thing
feet
william
far
co
association
hard
already
2002
##ra
championship
human
western
100
##na
department
hall
role
various
production
21
19
heart
2001
living
fire
version
##ers
##f
television
royal
##4
produced
working
act
case
society
region
present
radio
period
looking
least
total
keep
england
wife
program
per
brother
mind
special
22
##le
am
works
soon
##6
political
george
services
taken
created
##7
further
able
reached
david
union
joined
upon
done
important
social
information
either
##ic
##x
chuke
position
ground
lead
rock
dark
election
23
board
france
hair
course
arms
site
police
girl
instead
real
sound
##v
words
moment
##te
someone
##8
summer
project
announced
san
less
wrote
past
followed
##5
blue
jaisi
al
finally
india
taking
records
america
##ne
1999
design
considered
northern
god
stop
battle
##hayi
european
outside
##nab
track
today
playing
language
28
call
26
heard
professional
low
australia
miles
california
win
yet
green
##ie
trying
blood
##ton
huwa
science
maybe
everything
match
square
27
mouth
video
race
recorded
leave
above
##9
daughter
points
space
1998
museum
change
middle
common
##0
move
tv
post
##ta
lake
seven
tried
elected
closed
ten
paul
minister
##th
months
start
chief
return
canada
person
sea
release
similar
modern
brought
rest
hit
bom
mr
##la
1997
floor
event
doing
thomas
1996
robert
care
killed
training
star
week
needed
turn
finished
railway
rather
news
health
sent
example
ran
term
michael
coming
currently
yes
forces
despite
gold
areas
50
stage
fact
29
dead
says
popular
2018
khilaf
germany
probably
developed
result
lakin
friend
stood
money
running
mi
signed
word
songs
child
eventually
met
tour
average
teams
minutes
festival
current
deep
kind
1995
decided
usually
mamu
bawajood
##ness
episode
bed
added
table
indian
private
charles
route
available
idea
throughout
centre
addition
##heed
style
1994
books
unhe
construction
press
mean
wall
friends
khaw
schools
study
##ch
##um
institute
oh
chinese
sometimes
events
possible
1992
australian
type
brown
forward
talk
process
food
debut
seat
performance
committee
features
character
arts
herself
else
lot
strong
russian
range
hours
peter
arm
##da
morning
dr
sold
##ry
quickly
directed
1993
guitar
china
##w
31
list
##ma
peechay
media
uk
players
smile
##rs
myself
40
hazrat
coach
province
towards
wouldn
leading
whole
boy
official
denge
grand
pos
##el
europe
attack
japanese
henry
1991
##re
##os
cross
getting
alone
action
lower
network
wide
washington
japan
1990
hospital
believe
changed
sister
##ar
hold
gone
sir
##aise
ship
##ka
studies
academy
shot
rights
below
base
bad
involved
kept
largest
##ist
bank
future
especially
beginning
mark
movement
section
female
magazine
plan
professor
lord
longer
##ian
sat
kur
hill
actually
civil
energy
model
families
size
thus
aircraft
completed
chutiya
data
captain
##or
fight
sakht
bandi
richard
bridge
taqreeban
1989
officer
stone
hear
##ism
means
medical
groups
management
self
lips
competition
entire
lived
technology
leaving
federal
tournament
bit
passed
hot
independent
awards
kingdom
mary
spent
fine
doesn
reported
##ling
jack
fall
raised
itself
stay
true
studio
1988
sports
##dul
paris
systems
saint
leader
theatre
whose
market
capital
parents
mumkin
canadian
earth
##ity
cut
degree
writing
bay
christian
khilaaf
natural
higher
bill
##as
rish
provided
previous
senior
ft
valley
organization
stopped
saam
countries
parts
conference
queen
security
interest
saying
allowed
master
earlier
phone
matter
smith
winning
try
happened
moving
campaign
los
##ley
breath
nearly
mid
1987
certain
girls
date
italian
african
standing
fell
artist
##ted
shows
deal
mine
industry
1986
##ng
everyone
republic
provide
collection
library
student
##ville
primary
sils
older
via
heavy
lafz
makes
##able
attention
anyone
africa
##ri
chaar
length
ended
fingers
command
staff
skin
foreign
opening
governor
okay
medal
kill
sun
cover
job
1985
bhul
chest
hell
feeling
##ies
success
meet
reason
standard
meeting
novel
1984
trade
source
chuti
##land
rose
guy
goal
##ur
chapter
native
husband
jaanta
unit
limited
entered
weeks
producer
operations
mountain
takes
covered
forced
related
roman
complete
successful
key
texas
cold
##ya
channel
1980
aate
films
dance
clear
shehnaaz
500
nine
van
prince
question
active
tracks
ireland
regional
silver
author
personal
sense
operation
##ine
economic
1983
holding
twenty
pahle
additional
speed
hour
kehta
regular
historic
places
whom
shook
movie
pehla
secretary
prior
report
chicago
read
foundation
view
engine
##hty
1982
units
ask
airport
property
ready
immediately
lady
month
listed
contract
##de
manager
themselves
lines
##ki
navy
writer
meant
##ts
runs
##ro
practice
daar
singer
glass
commission
required
forest
starting
culture
generally
giving
access
yout
test
couple
stand
catholic
martin
caught
executive
##less
eye
##ey
thinking
chair
quite
shoulder
1979
hope
decision
plays
lga
unka
whether
structure
taiz
slowly
pain
ice
direction
##ion
paper
mission
1981
mostly
200
noted
individual
managed
nature
lives
plant
##ha
helped
except
studied
computer
figure
relationship
issue
skta
loss
die
batao
gun
ago
highest
1972
##am
male
bring
goals
mexico
problem
distance
commercial
completely
location
annual
famous
drive
1976
neck
1978
geh
caused
italy
understand
##ream
highway
wrong
hotel
comes
appearance
joseph
double
issues
musical
companies
thori
income
review
assembly
bass
##raha
parliament
artists
experience
1974
particular
walk
foot
engineering
talking
window
dropped
##ter
miss
baby
boys
break
1975
stars
edge
remember
policy
nojawan
train
stadium
bar
sex
angeles
evidence
##ge
becoming
assistant
soviet
1977
upper
step
wing
1970
youth
financial
reach
##ll
actor
##tw
##se
##st
hame
aapka
##ation
minute
##nt
believed
sorry
complex
beautiful
victory
##trol
temple
1968
1973
chance
perhaps
metal
##son
1945
bishop
##et
lee
launched
akela
tree
le
retired
subject
prize
##uly
yeah
theory
empire
##ce
suddenly
waiting
trust
recording
##to
happy
terms
camp
champion
1971
religious
pass
zealand
names
##gaar
port
ancient
tom
corner
deen
watch
legal
anti
justice
cause
watched
brothers
45
material
changes
simply
response
louis
fast
##ting
answer
60
historical
1969
stories
straight
create
feature
increased
rate
administration
virginia
el
activities
cultural
overall
winner
programs
kbhi
legs
guard
beyond
cast
doctor
mm
flight
results
remains
cost
effect
winter
##ble
accha
chaha
problems
chairman
haath
commander
isn
1967
pay
failed
selected
hurt
fort
box
regiment
majority
journal
35
edward
plans
##ke
##ni
shown
pretty
irish
characters
directly
scene
likely
musht
allow
spring
##j
junior
matches
looks
mike
houses
fellow
##tion
beach
marriage
##ham
##ive
rules
oil
65
florida
expected
jabkay
congress
sam
peace
recent
iii
wait
neta
cell
##do
takleef
serving
agreed
please
poor
joe
biwi
attempt
wood
democratic
piece
prime
##ca
rural
mile
touch
apnay
poora
karni
1966
soldiers
##men
##ized
1965
paida
closer
fighting
claimed
score
jones
physical
editor
##ous
filled
angrezi
specific
sitting
super
mom
##va
jum
supported
status
fear
cases
store
meaning
zameen
minor
spain
tower
focus
vice
frank
follow
hoo
separate
golden
horse
pres
remaining
branch
32
presented
yakeeni
##id
uses
secret
waf
##co
baseball
exactly
##ck
choice
note
kkhuda
travel
##یس
truth
russia
ball
color
kiss
dad
wind
continue
ring
rehti
numbers
digital
greater
##ns
ans
aane
direct
increase
1960
responsible
crew
rule
trees
bac
##no
broke
goes
individuals
hundred
weight
karenge
sleep
memory
defense
khair
ordered
code
value
ilm
windows
1944
safe
judge
whatever
bolne
realized
growing
pre
##ga
cities
mazahiy
##aqat
lies
spread
##endo
letter
showed
situation
mayor
transport
watching
workers
extended
##li
expression
normal
##ment
chart
multiple
border
##ba
host
##ner
daily
mrs
walls
piano
##ko
heat
cannot
##ate
earned
products
drama
era
authority
seasons
join
grade
##io
sign
difficult
machine
1963
territory
mainly
##wood
stations
bataya
1962
atta
iron
cle
##led
serve
appear
sky
speak
broken
charge
knowledge
dahai
removed
maf
article
campus
simple
##ty
pushed
mauqa
##ve
leaves
recently
cd
soft
markazi
latter
easy
musk
poland
##sa
quality
officers
presence
planned
nations
mass
broadcast
jean
share
image
influence
wild
offer
naye
electric
reading
usi
ability
promoted
yellow
ministry
1942
throat
##hoon
politician
##by
azad
spoke
cars
rho
males
lack
pop
80
performan
acting
seeing
bhiya
##ti
dekhe
shaam
pressure
johnson
newspaper
jr
chris
olympics
online
conditions
beat
elements
walking
vote
##field
needs
bolna
text
samne
global
block
shirt
levels
francisco
purpose
females
et
dutch
pha
ahead
gas
twice
safety
serious
turning
highly
lieutenant
firm
maria
amount
mixed
daniel
badi
perfect
agreement
affairs
mutasir
seconds
scri
paid
1943
prison
save
kitchen
label
nahe
biggboss
zikar
satah
nice
teacher
bre
1956
ruk
itnay
ben
nation
lye
shut
1958
muqab
housing
victoria
seems
opera
1959
ghus
function
von
mentioned
picked
build
naseeb
hada
protection
picture
dhan
exchange
elections
aao
loved
percent
nehi
fish
dum
garden
volume
hockey
1941
ait
settled
##ford
1940
##نگ
replied
utar
1948
actress
bla
qan
steel
##aliq
farm
steve
1957
risk
tonight
positive
magic
singles
effects
minha
screen
dog
##ja
kamy
bus
sides
none
buk
literature
polish
destroyed
flying
founder
##waar
1939
lay
reserve
usa
gallery
##ler
1946
industrial
younger
approach
buny
urban
ones
1950
finish
##waqqa
powerful
fully
growth
page
honor
jersey
projects
advanced
jas
basic
90
zeh
pair
sahe
visit
33
evening
search
grant
effort
solo
treatment
ani
zabaan
produ
bottom
owner
##cause
israel
gives
jim
dream
bob
remain
spot
70
notes
produce
champions
contact
ed
soul
accepted
ways
del
##ally
losing
split
price
capacity
basis
trial
questions
##ina
1955
azam
guess
officially
bhagwan
bhej
initial
##ization
##ال
usne
engineer
##ful
sydney
##go
columbia
strength
300
1952
tears
senate
00
card
asian
agent
1947
software
44
draw
warm
supposed
com
pro
##il
ekht
jur
##at
candidate
escape
##hiyat
asia
potential
activity
entertainment
seem
traffic
jackson
murder
36
slow
product
orchestra
haven
agency
bbc
taught
website
comedy
unable
storm
planning
bole
##ataam
environment
scientific
fav
protect
##hi
boat
##qat
1954
1953
damage
principal
divided
dedicated
mount
haa
##berg
pick
fought
driver
##der
empty
##ikas
sort
thank
berlin
afzai
account
freedom
necessary
efforts
alex
headquarters
follows
himmat
des
ekhtataam
andrew
jara
operating
learning
steps
1949
sweet
technical
begin
easily
34
teeth
speaking
kese
scale
##sh
tasaw
ray
max
enemy
semi
joint
compared
##rd
mushtamil
leadership
analysis
offers
pappu
pieces
chuki
animal
deputy
guest
dah
##lin
tony
phe
method
challenge
hoty
huge
wants
saza
sons
rise
crime
types
facilities
telling
path
1951
platform
sit
abi
##lo
tells
baaz
rich
pull
##ot
khawateen
alive
##za
letters
concept
conducted
wearing
happen
bought
becomes
holy
gets
ocean
defeat
languages
sushant
coffee
idhar
vaq
##q
declared
karkard
aat
concert
sounds
jazz
brain
##me
painting
fleet
tax
nick
mene
ہار
count
animals
leaders
episodes
##line
content
##den
birth
##it
##ube
64
palace
critical
uma
fair
leg
laughed
##afsos
paye
##haan
harkat
corrup
sharm
connected
rome
medicine
rok
taylor
santa
powers
adam
tall
shared
focused
knowing
natee
entrance
falls
##wa
calling
##ad
sources
karkardagi
dunya
resources
yard
##ite
nominated
silence
zone
ghatiya
##que
##gir
oop
38
bodies
moon
##ard
adopted
christmas
##esy
register
apart
iran
premier
deegar
du
unknown
parties
##les
generation
##ff
continues
quick
##deed
brigade
quiet
teaching
clothes
impact
weapons
partner
flat
theater
supreme
1938
37
relations
##tor
plants
##but
1936
wilson
kids
begins
##age
zada
seats
armed
internet
models
worth
laws
400
aab
classes
background
knows
thanks
quarter
lgta
humans
carry
killing
format
kong
hong
setting
75
qas
disease
##kaam
inc
possibly
wish
arthur
thoughts
harry
awa
tujh
##di
crowd
rup
stomach
tone
unique
reports
anyway
##ir
liberal
der
vehicle
thick
dry
drug
faced
vaqata
facility
theme
holds
creation
strange
colonel
##mi
revolution
bell
politics
turns
silent
rail
relief
independence
##khab
shape
write
engl
sales
learned
shab
finger
oxford
providing
cine
heritage
fiction
##ooz
##aron
mula
tumko
gae
##est
sight
interview
batain
waly
##ria
toronto
afr
keeping
guys
damn
claim
motion
sport
ziada
stayed
##ze
en
sada
receive
handed
##haat
dress
audience
granted
brazil
##well
spirit
##ated
noticed
etc
olympic
representative
eric
tight
trouble
reviews
drink
vampire
missing
roles
dosra
newly
upar
finals
wave
critics
##ee
phase
pooch
pilot
unlike
abad
bright
guns
crown
##zaam
roof
42
##unty
clearly
tongue
andaza
circle
fox
korea
lekar
brian
##tir
sexual
supply
yourself
inspired
labour
fc
##ah
reference
vision
draft
connection
brand
reasons
inki
classic
driving
trip
jesus
cells
entry
1920
neither
trail
claims
smj
orders
labor
nose
afraid
goli
intelligence
calls
cancer
attacked
passing
stephen
isse
cre
grey
jason
39
sunday
48
aza
avoid
extra
uncle
message
rkh
ghr
surprise
ese
fame
hunter
##ji
1930
citizens
figures
azeem
chay
confirmed
shit
karwa
di
performing
difference
acts
attacks
##ov
mehnat
votes
opportunity
nor
shop
gener
trains
opposite
pakistan
##pa
develop
qoum
##eeqi
actions
reality
colle
##ish
barely
wine
conversation
bhakt
mazah
ends
documentary
nuclear
stock
grace
sets
eat
alternative
##ps
bag
maqsad
creating
surprised
rad
hojata
drop
finding
sarah
cricket
streets
tradition
ride
1933
sidharthshukla
target
ear
explained
rain
dor
injury
apartment
municipal
educational
occupied
kch
clean
billion
constitution
learn
##veer
maximum
classical
##hira
lose
opposition
jose
manz
bear
core
hills
lainay
ending
krny
permanent
fun
##tes
##lla
hadaayat
sites
ghazal
maaf
##way
scoring
height
1934
##house
lyrics
chak
55
officials
qaim
snow
hei
##tic
orange
##ger
qualified
interior
apparently
kafi
thousand
dinner
lights
existence
fans
waal
41
greatest
farma
send
bowl
plus
enter
catch
##un
economy
duty
##یڈ
speech
authorities
princess
performances
##eep
shall
graduate
pictures
effective
remembered
poetry
desk
crossed
starring
starts
passenger
sharp
##ant
farq
ass
weather
falling
rank
fund
supporting
check
adult
exp
heads
cm
##یر
lane
##burg
application
bc
##ura
les
condition
transfer
jha
display
ex
dast
##zad
federation
cool
safar
##koon
besides
bunyadi
nhe
misaal
##town
mix
##ding
reaction
liked
dean
express
peak
1932
##tte
counter
religion
chain
rare
miller
convention
aid
lie
vehicles
mobile
perform
squad
wonder
lying
crazy
mashhoor
##ping
qanoon
centuries
rakhnay
philosophy
category
##ize
anna
interested
47
sweden
wolf
shik
chhoo
kg
sus
alliance
task
kak
##ay
chahte
promotion
factory
tiny
chori
visited
matt
fm
achieved
52
defence
internal
mazhab
43
dm
##ging
arrested
otherwise
cambridge
programming
villages
salahiyat
humare
rooms
criminal
conflict
worry
trained
smjh
akele
dham
signal
bird
truck
##agar
programme
##ol
ad
49
communist
details
faith
sector
kahe
carrying
laugh
##ss
controlled
korean
showing
origin
fuel
evil
##ooo
##ent
brief
identity
tehreer
address
pool
missed
baal
web
planet
ian
anne
wings
invited
##tt
amit
standards
yaqeenan
##be
ideas
parre
majb
mahar
worse
albert
articles
winners
desire
aged
ris
dangerous
gate
doubt
##akti
sanj
multi
##ky
poet
rising
funding
46
##hib
communication
violence
##وں
prepared
ford
investigation
skills
rakhta
pulling
electronic
##ak
baare
##han
fazer
ultimately
offices
singing
understanding
restaurant
tomorrow
fashion
christ
ward
da
neechay
stands
achha
flow
tumne
ibti
اس
##aab
exist
fresh
americans
##per
wrestling
approved
kid
hahahaha
respect
suit
uth
angel
asking
increasing
frame
angry
selling
##mati
thin
zinda
##nd
temperature
statement
ali
explain
leta
##astay
dari
narrow
51
jane
flowers
images
promise
somewhere
object
fly
saha
##ls
karega
bureau
faida
akhir
weekly
neg
kijiye
chali
##ai
##au
launch
bhaiya
##ny
mtlb
##ring
waja
strike
un
institutions
roll
writers
landing
chose
kevin
anymore
pp
##ut
tareeq
fit
dan
aman
dharm
barh
breaking
shamshad
dave
admitted
jahil
cele
kher
charlie
specifically
hole
iv
chocol
credit
moscow
roads
accident
larke
proved
wear
##chalo
hey
guards
stuff
rakhi
mamooli
##bani
cat
anthony
##kin
rashmi
##aji
sub
chalay
kamya
failure
plane
zindah
##ron
map
camera
tank
listen
regarding
wet
kry
##dk
link
ep
fighter
inch
grown
gene
anger
fixed
buy
dvd
khan
domestic
worldwide
##اس
mill
##wahish
examples
##head
iske
dusre
turkey
hits
pocket
antonio
papers
grow
unless
circuit
posi
concerned
attached
journalist
selection
journey
converted
provincial
hindustan
hearing
aren
aai
negative
aside
ہارر
knight
lap
survey
ma
##ow
noise
tabhi
mustaq
shooting
guide
bedroom
uch
isme
motor
homes
##alim
padh
##mer
150
scenes
equal
comic
patients
hidden
solid
actual
bringing
afternoon
touched
funds
wedding
##asha
##nak
canal
sr
kim
bolta
turkish
recognition
haram
##mand
broad
knees
incident
congrat
##odi
##jaam
handle
cheek
contest
represent
##pe
talluq
beauty
##sen
birds
advantage
emergency
bani
drawing
notice
pink
##yaan
##ong
somehow
bachelor
hoa
iski
registered
establishment
alan
baro
chemical
dab
roger
retirement
jeff
jaate
##ayenge
sipa
device
threat
progress
advance
##ised
banks
##jri
manchester
kht
teachers
khubs
forever
##bo
tennis
helping
saturday
sale
inka
dikhayi
hip
sikha
raye
khas
ceremony
##ds
lene
ghalti
visual
rakhtay
decades
inner
som
hung
rakho
gain
zim
ghul
engaged
austria
clock
norway
certainly
pale
protected
maqam
jaaye
employees
plate
putting
##icha
##ists
##estion
bhak
##یا
##ries
bd
consider
tur
accept
54
hukum
##eee
concern
wak
properties
institution
ank
successfully
vietnam
##dy
backing
outstanding
muslim
crossing
folk
karoon
usual
demand
ensaan
sard
lawyer
educated
##ana
##duc
##hez
pleasure
budget
items
hissay
colorado
philip
typical
aaghaz
namaz
600
##likes
asks
mental
##ide
56
jake
jews
kil
ltd
dp
sri
extremely
53
balo
loud
thousands
worried
shadow
darja
dosti
weapon
saare
importance
users
tim
rasta
milega
dragon
shandaar
aware
senator
johnny
jordan
sisters
durust
flag
investment
khusi
shock
capable
clark
row
wheel
tabdeel
session
familiar
biggest
wins
hate
##gha
ijazat
hol
request
hor
injured
underground
##tici
hogayi
wars
tunnel
honi
stupid
agriculture
lambi
cabinet
dekhne
joining
indiana
##ea
##ms
push
dates
spend
behavior
##وس
protein
kamyaab
chase
morgan
mention
burning
wake
combination
rakhay
mirror
leads
sipahi
indeed
impossible
singapore
paintings
aleh
##nes
soldier
##riaz
attendance
sell
hiday
wisconsin
shukar
rh
aankhon
inke
changing
egypt
##don
experienced
inches
##ku
aqal
vol
aayega
spoken
switzerland
##gan
reform
rolling
ha
forget
massive
kaisa
bachi
##yaad
rel
locked
values
pand
##mo
ger
universe
sick
dating
facing
pack
purchase
user
##pur
moments
##ul
##reeh
anniversary
intikhab
coal
bewaq
understood
tawaqqa
dynasty
ide
establish
stores
crisis
promote
hoping
views
cards
paanch
extension
##si
raise
kmh
improve
##qay
formal
halaank
##rt
palm
lucky
hide
rescue
faces
95
feelings
candidates
juan
mery
##oray
##baad
izhaar
weekend
59
awaz
cash
##kash
##om
delivered
affected
aqw
carefully
tries
swiss
hollywood
mutaliq
shikaar
responsibility
##he
shore
file
proper
normally
sifar
kaa
jump
constant
khid
friendly
sahih
persons
realize
contain
trophy
jaga
partnership
factor
58
##ینڈ
cry
bound
kamz
##anya
hero
chaiye
medium
##ure
huye
taraq
##ara
57
cycle
##che
beer
jinsi
frederick
qaum
eleven
worst
weak
mgr
bache
chin
loan
universal
bond
pil
pattern
darya
##ney
seekh
##zed
lip
arab
capture
interests
insurance
##chi
zor
hidayat
shareef
warning
cheezon
courts
coat
plot
smell
feed
golf
favorite
maintain
knife
vs
voted
degrees
finance
afg
opinion
translation
manner
ruled
buhat
##edy
choose
jantay
discovery
confused
tired
banai
stream
shayar
committed
attend
ranking
kings
throw
gari
measure
horror
fan
kamyabi
sand
danger
salt
calm
decade
dam
require
runner
##ik
rush
##come
taleem
##ker
hmesha
dewp
gaali
intzaar
insani
sq
documents
cheh
edited
closing
tie
accused
##ajaj
##ini
islamic
##liya
directors
organisation
soorat
banaye
gur
mad
lit
pls
concrete
taste
08
composition
##liye
faster
muna
##aik
ikhti
zaya
twin
اسٹ
##ran
tokyo
karam
##asti
obviously
oopar
storage
rona
carl
pages
neend
desert
thak
universities
ages
terminal
sequence
rosh
250
constituency
creative
cousin
economics
dreams
margaret
baaray
reduce
tees
mode
##manshi
ears
saved
jan
vocal
##ica
dak
andy
##jo
riding
kyuki
chil
##ise
hojaye
meanwhile
hora
compete
repeated
grass
journ
regularly
charges
tea
sudden
appeal
##ung
solution
doston
siwa
dega
glad
parking
##ning
belt
physics
99
rachel
add
##jj
participate
bardasht
khawab
gift
childhood
85
khayal
##red
baz
reli
letting
defensive
mph
##ux
##gh
testing
tarj
hundreds
shoot
owners
matters
smoke
israeli
##maheshbab
dancing
vid
##usam
##abar
siyasi
profit
argentina
##gs
truly
li
##eeli
cole
begun
hist
willing
nig
smiling
decide
miami
enjoyed
kashi
##dale
poverty
rahega
gay
##bi
gary
arabic
09
halaat
##one
##ons
comer
makh
karde
acid
##ary
##qaab
returns
asraat
mail
##ang
##laylikes
strategy
##ue
net
mukhtasir
cook
businesses
mehez
zulm
parha
ill
##cy
seriously
##ors
##ped
shift
waalid
replace
rio
imagine
formula
ensure
##ber
hoi
scheme
shiv
dala
##adat
feels
favor
##and
##ore
khwahish
##icial
hanging
piche
movies
##ukat
aana
victims
danish
##hut
busy
demon
sugar
wese
colony
studying
balance
##laylikeshehnaaz
##ks
belgium
ppp
carter
pada
visible
roshni
iraq
fifa
##im
chai
##ardari
zero
maghri
paaya
talked
janib
legend
bathroom
option
tail
ise
daughters
sadi
severe
jaw
arey
##ded
unhein
khara
hogaye
kate
##vi
rehte
subjects
##ino
temporary
swimming
karty
smooth
ghost
audio
bush
narend
rocks
kaat
emo
zub
##tz
ann
voices
sys
06
memories
rakhy
pure
measures
chahye
promised
66
##اک
ceo
aala
fara
aor
benefit
flesh
dublin
jeen
plzz
allag
patient
sleeping
educ
membership
binod
##chod
wanting
element
scholars
rice
62
limit
survive
makeup
rating
definitely
collaboration
obvious
##tan
boss
ms
baron
birthday
linked
soil
bhala
##lan
nikla
##mann
offensive
zariye
shouldn
waist
janwar
plain
bisa
organ
resolution
shukriya
tl
relative
conf
98
dhon
moth
marketing
chaye
crash
72
heading
partners
##gham
carlos
moves
cable
##zi
milti
##out
##naam
bottle
tart
rejected
andh
shuda
04
jobs
denmark
lock
##ating
treated
graham
hae
talent
commissioner
drugs
secure
tests
reign
##ork
photography
##gi
##asal
##asta
designer
bachpan
grin
tanz
robin
cbi
nabi
karkay
##gate
zakh
las
laughing
satellite
kabi
visiting
##wur
interesting
gos
hawal
tarteeb
norman
##water
stuck
speaker
rifle
domain
bri
##her
dc
chl
actors
01
reputation
ane
kary
filmi
fikar
script
##nce
leather
injaam
wahid
leh
admiral
nal
dara
guilty
taakay
gender
jawan
fruit
##bs
laboratory
nelson
fantasy
marry
rapid
aunt
karain
asar
lakh
suicide
amongst
adams
bone
##adesh
abc
kick
sees
muza
didi
column
rough
gods
khandan
##inha
adakaron
nikaal
##ek
spending
ty
##kaan
miley
waza
solar
vai
zal
##tta
qub
drinking
waste
index
jitni
charity
bich
zaroori
tip
flash
kamzor
friday
enjoy
singh
poem
listening
##back
##lop
##ident
differences
##hista
bomb
jaati
surgery
corporate
masters
anywhere
##more
waves
odd
sean
portugal
chutiye
dick
debate
kent
eating
shaheed
cleared
96
expect
cinema
97
##bdmaheshbab
chhootey
bij
agree
apa
depth
dying
panel
struggle
##ged
marzi
insaaf
barish
dhe
tasawwur
metro
thodi
shoes
tamil
tafreeh
meets
prove
beating
sabi
heaven
scared
sending
marks
kutte
dri
superior
03
fouj
shopping
##tive
jannat
bator
malaysia
technique
neh
##ola
samandar
maintenance
destroy
extreme
qader
120
qismati
##yn
fill
advice
alabama
muqablay
policies
ghali
hat
battery
smart
jhoo
admi
soundtrack
samb
shir
lb
taw
liy
izaf
funny
outer
ambassador
roy
aameen
couples
khal
dna
loose
chee
qabal
bewaqoof
gonna
88
monster
##res
shake
agents
##asib
tah
dogs
chahti
61
gang
plastic
easier
aasaan
gulf
blade
exposed
colors
industries
markets
pan
nervous
electoral
qubool
nakaam
gunah
##oobi
mac
appointment
jayenge
copy
sarkari
socialist
abbey
lanat
license
diff
employment
jay
93
replacement
charter
cloud
tareeqa
suffering
accounts
oak
aul
strongly
moseeqi
colour
crystal
wagh
context
##ullah
##pk
mais
gabriel
jerry
##cing
vou
mp
##ens
manage
schedule
totally
remix
##ii
shairi
haye
print
yaa
dila
##odh
##ilay
engineers
76
roots
seek
correct
gyan
und
alfred
doub
hop
##des
kyunki
ros
todo
nya
welcome
mausam
achieve
67
exit
rates
jayegi
letay
larka
##cs
sing
deeply
adventure
bobby
rick
skte
careful
bap
cap
useful
personality
islami
##shi
pushing
lagey
02
protest
ca
religi
waghera
##sis
63
boundary
##baar
maal
considering
##eeee
tons
##work
##ft
##nia
cooper
trading
dear
conduct
91
illegal
apple
gam
holiday
definition
harder
##van
jacob
circumstances
destruction
##lle
popularity
kalo
mazak
liverpool
donald
rishta
karw
seeking
honour
approval
92
mechanical
till
happening
statue
critic
behen
immediate
describe
commerce
vikas
##ster
indonesia
meat
guf
waqea
baker
hahahahaha
depression
karein
gana
naked
##pat
naan
sentence
ameer
hawa
document
77
criticism
wished
##tiful
spiritual
bent
virgin
dein
minimum
hasil
lunch
karan
fut
##dayi
juga
false
blow
hoja
68
raising
78
cutting
##board
humari
##up
taraqqi
cheeze
81
hated
barah
jon
saya
barry
scholar
ah
##zer
dijiye
##gy
stick
chut
meetings
zardari
spell
romantic
##ver
ye
hosakti
photo
jaata
customers
##ac
kkkkk
mohtar
taaqat
keys
khamosh
##rif
jeans
##ious
upset
raw
phil
aasani
hiding
##akht
raah
##bly
rk
diamond
##ungi
coverage
lucas
btw
parks
franchise
jahaaz
bible
jisko
dilchaspi
celebrated
il
lift
profile
##self
##aaa
mjhe
mills
##su
nobody
achievement
##uji
fault
##ustr
##usi
initiative
breakfast
carbon
700
69
muqad
violent
74
tat
ken
killer
kag
saka
wapis
dollars
mazb
94
remove
majboor
guests
sang
chemistry
##vin
qarar
disney
##bridge
uniform
laa
cant
proposal
purple
denied
ammi
karl
janu
miya
nights
stones
intense
aunty
aay
71
84
##ld
pace
nazi
bhee
ny
blind
reporter
tanha
##laat
sidd
burn
qee
forgotten
assar
filed
collections
kehnay
toot
manual
adv
description
appropriate
madar
tag
shehna
jism
##voot
gayab
triple
73
elder
##jriwal
warriors
##qt
julian
ikhtiyar
stronger
amazing
maang
yhi
aara
happens
sel
khule
bare
watan
fic
ignored
dawn
mabain
##port
producers
##ram
82
luis
##ities
kw
admit
expensive
electricity
ان
exception
symbol
##ving
ladies
shower
kor
actu
##je
pmln
button
ratio
maam
kaho
angle
##iliye
sheh
foster
aahista
pants
chacha
tafs
larai
advertising
kicked
patrol
suppor
muzahira
lifetime
pasandeeda
waah
hojati
##dil
sponsored
89
rob
nomination
lagaya
nab
##sm
creature
ajj
##tra
credits
harbor
dust
josh
##so
wazeer
milk
infrastructure
aqwami
thailand
indians
leon
yh
##sy
assist
pitch
##iiii
chahay
girlfriend
kutta
saaz
hence
sad
##fiq
fur
dj
sessions
hp
refer
nir
##ora
exists
sakay
##ten
scientists
dirty
penalty
burst
masoom
seed
79
pole
limits
rival
jor
stable
alpha
grave
constitutional
alcohol
arrest
flower
mystery
devil
dunia
relationships
cer
araha
##istic
maienay
progressive
remote
cotton
##ics
##ok
##atein
andoz
##ming
bss
86
vast
scholarship
decisions
cbs
joy
teach
usme
mansoob
siyasat
eve
searching
partly
taa
gap
msg
fate
excellent
congratul
na
87
##itr
##tab
tarha
##ily
mahol
##ita
##haq
suggest
##ct
discussion
staying
gareeb
zay
jacket
revenue
hamla
bartan
opp
wondering
##hyan
hif
neil
chhota
gard
terry
##ice
apply
padta
qeemat
aim
catherine
fuck
farmers
sem
naak
pride
insaf
bunyaad
ordinary
tanq
comfortable
ksi
tech
##وم
taiwan
representation
sharing
##lia
##em
panic
exact
cargo
##ailer
fat
cried
83
wazahat
aslifans
pa
cabin
borders
##versity
##aap
##isation
badly
bachan
##ance
##fore
asimriaz
warner
bet
permission
##rin
slave
terrible
reham
shares
seth
khatoon
samaeen
darr
benefits
colleges
lond
perfectly
mall
tabdeeli
##ye
##kar
tareek
##ened
nikl
deaths
##kkk
##ae
asleep
humara
sigh
ash
hardly
argument
occasion
parent
leo
sifarish
pehchan
contribution
##ua
talu
1000
opportunities
jaty
##onvoot
auqaat
emotions
sehat
mason
pab
bloody
controversy
bbonvoot
steady
mistake
ibtidayi
identify
tumse
##sk
mumalik
mayoos
spin
funeral
enemies
dimagh
gear
literally
khanay
random
##isode
grab
confusion
requ
transmission
informed
op
##heer
sacred
suspended
thinks
gates
dul
luck
agencies
yours
bhaag
expert
nuqta
layer
practical
ghanta
pati
latest
banane
statistics
rasool
mes
warrior
##maat
mess
supports
saamna
eagle
ohh
haalat
aulad
##jabi
bakwas
##ano
stops
##fors
files
qismat
keith
##vo
delhi
turner
pit
affair
belief
paint
##zing
mate
##ach
lala
victim
##ology
maut
bonus
##kaat
walid
##ud
haina
nateeja
zakhmi
pakar
##ashtra
##ata
##mai
gandi
supporters
judges
ayen
justin
jat
behn
##ick
desi
controversial
inhe
tajur
spider
bite
##ho
whats
intention
bijli
##ese
roti
bow
tourism
suppose
claiming
tiger
tik
jinhon
vi
##ru
nurse
baatein
tape
##rum
tabah
##rn
##cept
chalne
duo
voting
civilian
emotional
channels
##king
zaati
##asli
humesha
tommy
carrier
yogi
beast
phle
##gar
##zo
lab
nova
bench
discuss
doob
abbu
kitab
behalf
drivers
unfortunately
saddar
##lis
rocky
rakhen
bande
friendship
honey
##rian
##logo
maloomat
hang
posted
governments
##waye
respond
rooh
krke
operator
##po
laura
pregnant
videos
##aiye
##tik
boots
pohan
weird
automatic
businessman
dusro
narendram
throwing
ph
mood
##arah
modiji
dey
jet
tashad
##illah
##ci
passion
kaisi
boyfriend
saabit
##alth
buffalo
ron
segment
fa
abuse
##era
genre
thrown
stroke
pehly
stress
exercise
mutahid
##gen
taluqaat
##tti
abroad
dramatic
wonderful
dhund
madrid
intahi
pade
##sed
tale
citizen
todd
monday
tada
mujy
overseas
hogya
crying
##ccha
##ris
##ameen
fiz
##akat
regime
dekhaya
provinces
switch
drum
dhoka
ted
amaz
proof
lp
cream
##andom
zamane
humne
farmaya
milan
tawaj
karay
bhad
##ague
delivery
tali
##ves
##ans
bars
achan
witch
reminded
takhl
##uk
pete
inter
links
khay
unwan
##laa
rahiye
rastay
##oy
scream
##hu
tension
pegham
likhi
jap
defending
defend
pat
detail
pesha
##pik
stuart
kartay
qay
baaki
tool
bhara
ruling
crimes
answers
deser
shoq
resort
cons
hans
chunkay
munasib
lion
fb
##وک
writes
jamaat
##fa
saboot
ghalib
beth
noble
debt
percentage
arrey
muqaab
ss
hansi
grades
confidence
betay
islam
telephone
retail
medi
chile
hoge
roberts
mashallah
jadeed
ghhor
muqaabla
innocent
dual
jub
checked
##nif
afghanistan
sung
rico
liberty
assets
bigger
options
angels
##eeen
tribute
khali
rehtay
leaf
##yan
butler
fas
forum
monthly
##سن
chehra
quer
inv
ikhla
tadaad
rev
##ians
adakara
##ula
elite
valuable
disaster
democracy
awareness
##taz
hadd
##ins
loop
absolutely
paying
##وٹ
maine
sole
prayer
##aikum
releases
##hash
bull
##ani
lover
midnight
conclusion
ahal
##pend
kren
kbi
##lt
garam
proud
sample
masi
aut
chalega
##mak
kard
chahi
##ston
instant
hony
horn
ain
railways
steven
##ao
tem
janam
opponent
root
traveling
mutahidda
corridor
zamana
badla
sheet
tajurbah
cattle
helps
dist
piy
murdered
sacha
ghulam
gentle
jitne
dinon
shocked
daikhta
rss
##light
padega
##ou
belong
##تھ
desperate
drunk
##tit
trio
ail
raf
dealing
theat
bat
##haa
fehmi
bekar
scientist
pioneer
karoge
##aslifans
##net
delta
suk
minority
mini
believes
chuk
tend
lots
mutad
phool
load
shots
updated
jail
taweel
darasal
aukat
wealth
##ved
slaves
bulandi
rangers
lenge
hokar
##abhi
##abba
flood
muhammad
whenever
relation
fak
moral
repair
viewers
##tweet
revenge
##site
baithe
bath
pyari
breathe
muz
innings
raftaar
iam
##tific
voters
clinton
##hti
ultimate
chur
beijing
lions
isiliye
jazb
gathering
comfort
radar
suitable
fehrist
hms
ban
pine
aaz
atmosphere
waqeat
bid
parast
##ned
##nan
giri
##ane
cameron
recovery
uss
dhoond
muf
silsilay
serbia
laughter
noah
banay
therapy
peoples
touching
##off
nuqsaan
pearl
platforms
everywhere
boli
barabar
lanka
mabni
shadeed
masr
##pos
##mari
respon
ret
thats
samjhta
exclusive
slight
##unch
##dra
winds
bakh
collective
bangladesh
tube
publicly
##hearts
thai
##ys
roj
select
##ric
murabba
pen
asse
ticket
##liam
##faaz
##udo
##ashta
gayeen
110
baq
##maar
khane
hil
##time
phan
hitting
##hn
yrr
##conom
hur
fighters
solutions
##ery
pointing
requested
peru
haya
chancellor
ghoom
mask
worker
kum
mazboot
##etry
shree
nizaam
##tis
reporting
##hl
wire
mahira
btao
yay
##keaslifans
fati
knock
consumer
khubsurt
eu
##یگ
insta
plat
arnab
ivan
pes
hisab
behar
ayega
puranay
tasa
perspective
shops
maps
mutadid
yha
alien
fist
taar
##pers
heroes
fed
saheb
wis
##ros
patent
sara
illness
degr
##gay
slide
jala
naaq
##op
zak
##side
lkn
muam
jhan
se
##ties
jaissa
swing
##bdmaheshbabu
tareeqay
##rie
prepare
implementation
socho
##sha
certified
khareed
chhod
garage
##mm
hawalay
##ball
rage
harm
nigeria
##او
##ren
furniture
bolti
settle
##lus
cuba
balls
client
alaska
zindabad
naaqis
##haad
celebration
hidayatkaar
##henge
terror
##cia
##ening
husn
fee
witness
gaddar
tanqeed
jesa
lijiye
earning
hood
##ei
ahm
wang
karwai
saa
missile
jisne
activist
roshan
worship
safha
package
pareshani
dasta
##ikr
mauzo
koe
chess
bhae
doctors
oscar
##waal
treat
pazeer
alfaaz
##thers
##ire
batana
econom
phat
##gon
##wan
gaand
izafah
amendment
##ento
ano
agen
kisne
dehs
acre
sele
stopping
loves
belongs
affect
kri
jy
jadi
battles
achanak
clas
##hout
qaumi
tenure
banta
romance
pc
##cher
argue
##ical
craft
maryam
www
jes
honest
tyler
yesterday
virtual
##let
muslims
reveal
snake
hahah
radical
screaming
loot
firing
saving
ent
ease
shehnaazgill
##reek
blame
farmer
hungry
grows
darm
##mn
sur
oper
##cha
##waan
sao
##بر
ghantay
##fer
microsoft
reply
qualify
molana
##tap
sweat
festivals
##ken
immigration
dill
discover
khusoosi
jante
explanation
azadi
riy
##fish
hart
tashw
connect
nazreen
nauk
heights
##ayed
##iden
tourist
##kl
slip
lamba
##ction
surely
sultan
brings
qaat
preparation
krwa
commun
##lif
experiment
tasaveer
rahain
organic
qaatil
##ika
##ready
jarurat
##tar
hindu
error
khur
tier
muash
andaz
talks
pero
excited
sank
ho
miyaar
badha
silsila
welfare
sabit
gird
trick
thapp
elaan
salamat
aadat
pq
##med
conversion
##ette
##azir
shohar
computers
conductor
dhyan
sensitive
hello
##ام
bukan
globe
rocket
prices
ameeen
flights
tigers
inn
bharti
emotion
imaan
3d
##mus
tari
airlines
zain
pm
madah
jazbaat
raqba
paya
comment
##ites
esi
nrc
absolute
improvement
##urti
impressed
poun
##qar
##tention
towers
jesse
kamaal
##tin
##lu
daak
hi
##ority
regard
rings
interviews
bharosa
##qm
meray
departments
burns
serial
##wak
musan
nikle
##ix
politici
anj
qal
chaand
muntaq
##ward
##یز
##وڈ
tig
musannif
saj
han
cuts
heran
custom
##dar
nee
daan
graduation
##nts
gl
cafe
mjhy
demands
##daan
democrat
jennifer
dehshat
tawajah
humko
##yo
reha
##afat
sum
darmain
##ational
sochta
tashadud
##py
##ased
##titu
destination
behas
##ched
##hare
rahein
##bach
promoting
maazi
messages
tear
##down
##fully
parade
bhari
dafaa
dram
sth
##hadi
pehlu
pedro
zah
procedure
##maad
zindgi
##mic
shelter
personally
##reme
##od
milna
tested
buz
bangl
mehfooz
oxygen
choro
chehray
dada
jada
kardah
hme
attitude
barbaad
mainstream
zail
mars
shahid
simp
chhup
##vaj
mim
helicopter
wel
##sing
inspector
bitch
seal
parwah
divine
##ters
coaching
examination
punishment
darj
buland
##hahahaha
##police
##ushants
khatir
##fay
##yak
ase
photos
martial
raqam
hmare
rahenge
caa
plates
ministers
zurori
gufta
##len
slept
farz
taxes
chuna
restricted
ataa
likes
bahan
arnold
inspiration
alb
bold
intermediate
arsa
margin
ruler
wheels
##ddat
intellectual
kejriwal
listened
samay
buses
fark
syria
earn
achy
##eshi
##uty
secrets
alham
philippine
##koi
nit
clerk
surrender
breaks
maro
marna
halaak
##lon
ideal
beetle
aspect
soap
ghat
arsay
skti
anglo
nyay
shum
shareek
tough
hab
wallace
karnay
muhabbat
##oon
shipping
purani
comparison
topics
nephew
##mes
##ething
##bhar
ishara
nom
ibn
##over
shaadi
sa
chalti
##yani
fam
##maya
##dan
intent
##mar
##tah
##orrow
bread
karlo
beaten
jaiza
##ona
merit
youtube
hathon
challenges
em
kasam
pare
unf
virus
attacking
agaya
assume
##ere
##hind
qual
##یي
hmari
##cus
##ab
muamlay
glasses
##lock
esse
nowhere
aet
relevant
saja
restaurants
hoye
101
constantly
mourr
##ingh
shah
saale
uthaya
verse
mey
##ira
serv
corruption
##hs
##harthshukla
jany
reverse
##chor
##vic
employee
himanshi
keeps
rabbi
billi
payment
uh
##ala
##mbly
##tre
mashaallah
fastest
sexy
banned
uff
properly
ruth
pathar
dollar
boards
langu
riz
##یپ
favour
comments
ok
naik
bhos
##pression
liay
##ular
holland
likhnay
diesel
kenya
den
usy
##ral
shai
retweet
##وي
rider
##rus
servant
hisaab
extend
torn
##ias
##sey
input
meal
everybody
cylinder
saathi
camps
##fe
bullet
logic
##wn
milnay
bibi
healthy
fool
chocolate
wise
##andhi
pradesh
##ess
respective
dima
bhen
chicken
artificial
gross
aisy
convicted
cage
##eshnak
dialogue
##dor
narrative
stranger
mario
br
christianity
apk
dukhi
laya
buddhist
belie
inf
shr
aesa
bike
##baz
##ering
mouse
##amer
tumah
##adah
##ig
##eedgi
unse
rakhti
masroof
shaan
##ability
drag
moh
customer
cancelled
chakkar
excuse
##lar
liga
suno
##chistan
kilom
##burn
isra
##rk
curious
bin
legacy
##bhai
##my
lambay
##wali
utna
dancer
##nie
grammar
aitra
tehreek
ya
jazbati
sc
diplomatic
hitler
##ser
clouds
##pir
quit
##eech
##ggak
bhula
fundamental
tashweshnak
impressive
equally
convince
dafa
guilt
marey
##weez
##ware
emp
##eeh
hij
mujhay
charac
phd
skill
##ama
reader
hopes
pel
khidmat
hearts
automatically
expecting
bhan
maghribi
gor
nuk
##cil
monitor
fix
##ative
journalism
struggling
signature
kilomitr
encounter
photographer
observation
protests
##pin
jurm
##hr
calendar
##all
cruz
rukh
##adar
akshay
naturally
guftagu
anivers
hook
hais
nigah
dya
alm
dare
konsa
kiraya
##waad
obama
##ain
prab
raaz
deliver
min
raid
bartanwi
muskura
kharid
fouji
aetmaad
mazaaq
betha
##ked
jins
garmi
karen
ager
guj
trap
anchor
practically
christians
shakhsiyat
cont
mazm
pir
lords
##wadi
paal
mujhse
zimma
collect
situations
engagement
160
bahir
arz
qud
peer
tissue
logo
lean
##ration
##jey
##read
##ven
bangal
azaadi
##our
##ments
##yab
##zahir
##رز
##har
khr
banking
raast
bacho
resignation
kalaam
saudi
advocate
inshallah
##seem
soci
divorce
##ras
abraham
jiska
jo
jaiz
matrix
physically
mustaqbil
sust
##ena
##rhe
bengal
seh
##ban
##jaan
riders
certificate
##pi
waar
##tim
saken
kise
##mon
mutual
jise
kii
circular
##waja
ulta
hata
mere
##ichael
##dari
generations
manzil
rahey
##dood
##kya
dece
muqami
lessons
pilots
nepal
ram
google
preparing
brad
aglay
aalam
leti
##ooda
##ably
plaza
shaw
favo
brilliant
bills
##bar
##nik
fucking
shikast
server
nggak
subha
bzahir
mota
fail
beta
brush
daakhil
zai
aapse
sambha
nate
sin
buht
inkaar
joke
afsoos
##hiya
##kom
##low
curr
qualification
celebr
wada
janti
muaw
judicial
##laad
##bed
woke
##allam
abu
thaa
fake
##aind
excitement
khula
zila
##iyaat
##faz
taqseem
siyah
##کی
auto
##bus
releasing
egg
dies
interaction
defender
ce
##haram
glory
loving
##bert
sequel
maalik
http
awake
ski
tarb
##ress
handling
agli
brow
somebody
##kri
grap
fer
hawala
presentation
fabric
tehat
abey
meter
dimaag
lt
haii
rally
accurate
##tha
hospitals
##anki
specialist
hamza
riyasat
shed
zair
zuban
sty
##umaar
footage
##erat
##ender
barbad
narendramodi
faro
dialo
khaali
lebanon
jind
suspect
shanghai
lr
aath
burai
marvel
hatt
##essi
sheep
hin
##guru
##angan
chota
gak
mukh
nama
noor
waale
sochte
boxing
kul
curse
chha
gaon
nickname
sukoon
rang
grid
kesi
earthquake
khela
##zaaj
nishana
##ches
humein
ilaqay
unt
180
gaz
sabka
##mera
aalmi
zalim
shamil
aids
##upport
graphics
apn
##یوں
naj
hii
kismat
workshop
faltu
muskur
trump
bsdk
##point
harsh
nazam
lovely
happiness
##jan
stake
bartari
embassy
##uva
dharam
##ella
sony
mjy
ayi
swear
##izi
purana
xi
wasallam
izat
naraaz
##iat
ilaaj
courage
##zr
commitment
badh
##bin
iblis
aamir
shehnaz
attraction
##cra
cooking
thar
temples
jenny
humanity
celebrate
hasn
keya
sabr
rebel
bastard
##art
newton
##ada
deer
##ges
##ching
smiles
safaid
singers
raza
ankhen
##یری
##akr
##ph
##gawar
barrel
planted
##ome
tid
##sia
consequences
posts
naw
invitation
afs
taaza
##anon
kane
rod
parhnay
karny
topic
bday
daba
blast
austr
muntak
tabs
sahafi
worlds
##lay
##ari
span
##piku
praise
##ag
##tiz
bula
##botpiku
mud
bano
##ions
bechara
##harrak
unity
kitney
bore
handsome
iblisbotpiku
div
thunder
gra
linda
kashmiri
puts
satisfied
##waya
dale
sbko
peeche
panama
##yl
gujar
unhi
experts
##ates
ganda
mahs
##las
##ida
##tu
engage
faiz
##ax
um
bary
melody
kafir
##tig
blocked
qadam
delay
kisses
dosto
murda
##non
tot
krni
creator
appe
##we
##apna
##sim
prin
hug
arre
##ord
complicated
##bility
poll
khari
investigate
##use
##وف
likhna
spine
sena
humor
kills
karon
pya
##du
##hany
ignore
##bu
commentary
##maker
bother
##artment
140
##ushantsing
tit
##geen
##zab
crack
deb
masail
mian
##ses
##view
##mate
yai
gather
bandh
##dani
shaya
##ill
cruise
hehe
carol
punch
##dat
##dulillah
alarm
ratings
daddy
arti
##aqi
reme
colours
impression
guidance
dety
aniversrio
##rat
marshal
qaid
##enoura
##ings
intizam
whatsapp
tender
##pti
bitter
advisor
##habat
##ides
spare
jhut
klas
##ene
moo
encourage
colleagues
cameras
##und
parti
pile
mayoosi
maamla
statements
suspension
alaikum
cenoura
torture
bohut
bags
sabki
chalein
pond
spy
banti
khanah
coup
##og
protecting
hindustani
glow
inde
##book
dug
rul
harami
feat
barn
jumping
##chen
##ologist
##con
beshtar
afrad
jesy
pipe
serie
padi
ba
##bel
khushgawar
mercy
boor
yang
consist
udhar
hafiz
ilaqa
epic
dikhao
sambhal
shane
##struly
bahad
##round
magical
sacrifice
judgment
walidain
##least
mtv
dekhta
tune
das
saan
tarjuma
aese
neutral
jarur
threatening
attractive
shade
aims
##tn
##master
slaylikeshehnaaz
##ٹن
oye
mazaq
refugees
masih
##nic
muntakhib
beroj
##strulymahesh
##iya
##din
##kuch
##arch
karu
purse
bhr
pause
pk
mukha
takhleeq
##lekin
shumaar
kahaan
fisher
ungli
bete
baais
franc
khamoshi
##mp
diet
sake
au
saazish
##jha
##ert
blank
coz
105
##hon
##buster
huz
anime
##lie
##pn
##erv
cult
sofia
##geting
martaba
##box
bewa
shil
disorder
jiske
suni
mia
sochna
tukre
threats
blanket
##رن
muito
followers
naraz
tafseel
mulki
assignment
meer
moderate
protocol
pistol
bila
ishti
priv
dakh
randi
math
tasl
##ual
mustaqil
soor
dikhta
##san
ladk
##vind
grateful
##ushi
uncomfortable
boom
wazir
##akan
dilkash
politicians
chen
puras
ishh
diana
mosque
tribal
cheese
##itu
fandom
sometime
ikht
banata
wu
bend
download
millions
reforms
registration
##osa
mustahi
monitoring
ate
opposi
##uvaari
sukh
ps
fatah
sanam
hifazat
bahi
ey
log
arabi
lecture
sally
favourite
pichlle
saz
lo
invisible
isle
breed
##ator
journalists
millti
speaks
backward
explore
khoubs
imrankhan
##uvaaripa
xd
zameer
poooray
moz
buat
bhutto
##wor
taamer
mashri
delete
janay
khata
##hal
facts
fairy
##wh
kisko
cats
##blo
cop
##fi
announcement
item
paar
tabsaray
aank
marco
frontier
nikala
##ارڈ
##das
loyal
ishhq
khoubsurti
imag
nami
##00
##bul
napoleon
hollow
##ahar
jungle
muntaqil
kharch
milegi
bnd
##wast
dunga
mazmoon
col
rubber
##ssr
payi
diversity
fri
oc
id
##hayat
mulaqaat
##friend
##oe
skty
te
sorat
org
rabi
mustahiq
mardon
lectures
saeed
ronald
frnd
purastaar
allan
bhon
techn
##istry
fes
nishan
travelling
opin
kit
kerala
sanjeeda
buddy
kok
##ith
jaoge
nafsi
batman
##nda
zaat
bo
sek
sahb
fel
deve
##nk
##eray
manga
##ugh
steal
mumbai
iraqi
robot
celebrity
bride
##amos
paa
pot
joel
##she
covid
badnaam
jangan
jn
bnda
introduce
sabar
##yaa
##tii
drinks
saq
palestine
##nis
##aki
dukha
recover
balochistan
hoke
patch
afford
infection
nationalist
legendary
##ath
dalit
inse
gen
##ween
nateejay
amber
##ات
wishes
powell
alg
chhor
tarz
awaam
contribute
pallay
pet
tajweez
##com
##وگ
sabab
discipline
unhone
hinduo
hunger
##ien
gente
suffer
fever
bits
##hhhh
keyboard
kahoon
##hood
jaag
beha
##bad
##indo
grande
kehne
##war
itny
congo
tapi
##dia
si
##hraj
##via
pyare
darmiyan
regret
streak
rape
depends
succ
hadees
pound
sona
upcoming
pub
##xi
taz
##els
patwari
echo
unfollow
janoobi
motorcycle
liz
##zar
atleast
sakty
bhoot
bye
precious
zehni
relatives
booth
mumkina
##mal
citizenship
cheekh
diy
kehty
##hed
srk
feesad
urge
##modi
##gue
ace
baithy
##tal
liber
##وری
##ujood
sonay
ppl
##qon
tasleem
galaxy
nest
chip
qatil
tan
##atan
paulo
chez
##zy
paradise
pabandi
trans
kareem
hyn
##cker
##ju
saamne
raaj
##eena
enjoying
md
magr
##qarar
holder
##heel
jaat
banne
jinko
bowling
trailer
acche
goodbye
appreciate
toy
##dir
interactive
##qdaar
involve
##kan
collar
guzaar
bunch
facebook
##bih
shorts
##ubg
##hok
frustration
##omat
barha
laser
milte
array
##jis
trah
ilzaam
deals
painful
permit
discrimination
##wi
aires
##birthday
sn
ni
##sta
larkiyon
babar
##اين
gho
##یں
shikay
pait
pita
lecturer
##esome
behaviour
##udh
##itay
export
##idesai
shaks
##forthe
kra
manta
aaccha
akal
hahahah
lamha
arguing
tajar
casting
kanoon
criteria
tut
jiski
##hiyon
ub
crimin
adalat
dubbed
##tv
halt
brave
taaruf
doi
pakka
laakh
roza
##salam
raksha
tabahi
ugly
zoo
horrible
mutharrak
buenos
nazd
dictionary
##hah
sanjeedgi
##ما
thek
hosh
chan
punjab
dawat
##lly
sidhearts
ignoring
gesture
wafa
saada
##gawaar
wha
unexpected
eht
barqarar
coin
vaj
##یب
##وب
saad
pin
##ose
avi
haazir
reserved
##urs
buray
offic
restore
zo
hurry
mojooda
##cies
musalmano
suf
martha
##del
##ujhe
chhut
##rated
##dardi
deadly
neo
saans
paani
ahmiyat
##aij
rehn
phail
editing
tarbiyat
java
gaari
arabia
sih
dee
hoy
dit
hindi
sudhar
bheja
civilians
minds
nasa
hotels
##zation
sidharthkeaslifans
rent
jali
hatmi
##feen
ankh
hochu
##azmi
##tions
##tle
pesh
massacre
##cal
satta
##وپ
khtm
souls
laye
chelsea
##seer
tavaj
cab
##bank
aamdeed
##uvaaripaata
muft
rupay
aans
##dal
##ession
##ule
moreover
chus
samaan
tent
farmaye
aajkal
##hsin
tark
##works
wednesday
mamlaat
##kahan
##wale
jesi
kehti
##nation
cluster
sulooq
strikes
soob
##wing
muashray
canon
##ap
wapsi
##ws
baa
##mas
##can
leye
maker
##rehi
##ardasti
aulaad
arif
buying
cleaning
eva
closet
##abb
kiy
clinic
rat
##ez
##ody
ac
##gle
##ising
huzoor
laita
cent
spreading
izhar
checking
mubt
##ilah
disappointed
##ado
##aam
faraham
shikayat
##khush
zehan
ryast
rolls
کل
hint
define
aggressive
repeat
wash
peaceful
##jam
rakhne
ganay
priyan
strict
copyright
##illa
##fsos
mar
jam
likhte
nhn
tafrehi
chall
privacy
hasi
amo
##pp
valid
##amaat
##hav
tavajja
102
##ained
lif
boarding
indust
dastaw
maat
marsh
routine
sabaq
gf
er
intelligent
meko
targeted
##moindia
##forthewin
nada
##agay
pissed
smoking
chiz
inshaallah
visa
kaamil
tare
rav
indies
bewak
surgeon
thursday
arsenal
trp
poch
rid
thappad
daari
bhabhi
fek
alumni
lighter
jeete
whoever
portal
scandal
##ray
adab
dastawizi
uj
shehri
terrorist
##ale
achcha
##cri
mazhabi
duck
teen
guzashta
abby
eager
dhamki
##ile
newport
kad
macha
shame
##cc
mano
priority
forgot
udah
nicolas
##orts
ary
cartoon
##heink
zehen
lonely
trusted
##ande
trop
relax
banner
candy
mahswara
##saar
##rio
legends
cricketer
essay
pheink
edmund
twee
trigger
##uri
##away
sail
alert
mlitay
baji
banayen
tukde
siblings
laat
walida
resist
rosa
aakar
succeed
isso
##ulat
##ulation
##cracy
##tie
##nna
mqm
profession
##nabi
hoje
##una
kaya
polic
maqb
##ooj
cure
##dom
##cket
##andari
con
scope
salah
##khi
##liyat
gut
herald
chap
tore
asad
##kkkkkkkk
##oo
luxury
tin
prefer
##alous
triangle
ven
darling
##reci
sabiq
neez
beings
mehar
sochnay
slam
jarahi
zom
##rohi
lawyers
gira
##girah
##sab
foi
lehaaz
toll
pul
##wki
lobby
##نس
amli
##adio
sarkaar
boot
cox
wasee
savage
insane
##ینٹ
##jai
lifestyle
##ima
##tho
##fta
mizaaj
rehe
##amay
mo
mama
##tein
fights
##mankhan
chances
atomic
hub
siwaye
awkward
reactions
currency
finale
kumar
asif
hali
lagte
gifts
paap
##afir
veins
##harma
sunshine
chi
solve
maul
gon
comi
ethics
huh
ana
khusus
consent
banatay
layout
mujrim
##ces
lagaye
brah
##oma
##grap
##wall
##mont
kiun
konsi
likhe
dra
admission
francesi
kissi
##haj
kaari
brands
batting
forgive
padha
awful
##lyn
##ishi
goi
imagination
##ade
faisal
##ship
##manay
##asthan
dusra
##uaat
##رس
apse
confident
hamary
musl
taala
circus
shetan
dang
mily
thk
fog
philosopher
samjho
accent
graphi
##icke
dair
adhi
lamhay
zr
mohtaram
mature
vish
kurt
rap
##kes
simt
lgti
iradah
##atey
es
marnay
##shan
hmara
karegi
##orn
##gal
chud
demanding
##tional
keliye
##ogi
##ishan
generate
caps
ghana
##angg
demo
mentions
beds
ap
pouncha
diary
##bling
##inc
##iro
richards
##mil
conspiracy
conscious
shining
parda
jeeta
tudo
nih
loyalty
##cul
jaega
jeena
bhat
gym
miracle
kursi
kush
##jeen
ourselves
inves
amazon
badshah
tickets
abba
##pm
planes
##pan
##rior
fori
dalal
jin
khyal
tang
paiche
dulu
bang
##aney
usool
zarurat
lockdown
orang
tarm
pics
##aste
kaan
##love
##zu
chamak
stan
jhar
oo
skirt
est
##berry
bombs
respected
##vt
imposed
dhaagay
deny
khayalat
klasiki
thro
mubtala
##als
besha
aa
experi
corn
##olat
hogai
maahir
disk
kuttay
##کس
incredible
clue
sue
vaise
twist
##cio
tana
##egi
chad
tuh
computing
mohsin
samjhe
mortal
kalau
##baas
choices
yu
##oorat
taali
os
alhamdulillah
geneva
pretend
baab
taizi
##azrat
maya
##une
##hrajput
##bc
##hatay
lut
##ids
uskay
tir
salo
##hus
honestly
diploma
lied
pasandana
aukaat
feast
manzoor
humse
##tel
kos
##action
dusri
haiaur
maarny
کار
dish
##ostan
##mente
matching
nem
destroying
haad
atha
kardo
cake
sachi
belle
##hami
mje
issi
##mie
tuesday
اسپ
##rooni
mante
fraud
choo
##list
##phone
anton
wisdom
hbdmaheshbabu
ruined
khatm
sitam
healthcare
maidan
gandagi
trend
aka
kach
##adav
qabza
tarmeem
hah
laja
gorgeous
fees
pate
balon
pyara
tactics
nasha
pakistani
##ole
sardi
##hall
ajnabi
nazdeek
jisse
fitrat
integral
powder
sardar
waqat
tuje
machi
pemanay
biar
##cho
fayda
cigarette
##rati
##arti
##ree
insaniyat
##inger
##umat
baari
cia
murders
jehad
arguments
loog
assalam
onwards
bechare
bartania
jets
mazay
pori
blog
##alama
gila
##asy
twit
ai
jaoon
inquiry
sta
hosting
lagana
rakhte
bhik
grief
gehri
ori
##لن
euro
equality
tery
poison
aake
seni
patr
ridiculous
bemaar
##esh
##room
beng
##ito
sei
attract
اسک
istanbul
##iness
##sn
meme
petition
libaas
##logical
satisfaction
bachy
dood
observatory
comedian
##mood
toar
srf
layak
wujood
##itna
aah
chaat
acchi
jealous
nihayat
cheeni
sabke
khususiyaat
doc
kesy
cen
allegations
explaining
expl
karle
lance
storyline
inspir
makhl
chupa
dos
##waas
bhook
bheek
lamhaat
proven
voltage
pillow
jazak
butt
jaana
deni
##car
sunen
appreci
##jeeneet
uper
biryani
sag
casual
collector
foran
##min
silly
happybirthday
##kh
##bra
geor
chef
lega
mukalama
nakli
thr
garib
bachanay
parhi
sudah
yafta
cheap
kamray
aesi
zombi
taki
idiot
waris
gup
nagawaar
thanda
likhay
im
offense
rishte
##ori
aqui
##long
bolt
shub
toss
mahine
##wane
##opi
sadak
lajawab
kaash
seb
nails
dekhiye
plantation
sansani
##news
amma
pake
himayat
##alu
pakad
bhol
##coz
doosron
queria
inhi
opposing
nato
##sssr
deewar
hta
ruin
##alah
##oc
edit
nazr
idar
anxiety
ruby
##ological
##mia
tel
bout
taxi
virodh
frost
rainbow
mohtarma
kasi
##adu
assassination
banao
seta
##win
achievements
deserve
tele
##titude
##zada
##aib
##waab
valentine
aitbaar
ei
usta
poin
##minda
chinta
celeb
##azz
seedha
asy
minimal
monte
everyday
##ence
##if
supporter
terrorism
buck
openly
qadeem
activists
carpet
tareekhi
pairwi
mawaad
##yi
cute
coun
tidak
##cht
artic
gud
##urite
ji
qadar
rajni
rajp
##poor
concentrate
##raar
beard
wesy
##ايٹ
jhal
##zzzz
raees
##deer
##abil
degi
ion
raja
faraar
wow
##jus
lawn
##woman
gentleman
memb
publish
##iyam
kiska
##val
klo
##gne
##jat
##ui
darkh
miyan
##nus
krn
musalsal
aun
zy
nav
crush
hon
blessed
##pakistan
##dum
kahte
mansoobah
paicheeda
##gandhi
dif
dobara
##mel
backup
##ared
farak
ura
numaya
lovers
frustrated
alfaz
ahmed
giroh
mit
yadgar
kore
##taab
tamasha
##ledge
pump
moazrat
genuine
disha
dic
wab
##hen
lou
pasandi
tara
rehmat
saki
ton
dili
##tas
crap
marri
dengan
shanti
phansi
wrap
sto
vishal
muhim
##cially
lyon
aku
bros
##ode
snap
koo
tips
baazi
nei
cal
tayari
markaz
##ory
##tember
sends
qom
towel
##fl
##day
bhaij
wishing
malum
bj
##bal
##die
agora
eden
dawa
bacche
##lf
dikhane
glt
##fire
investig
dekhkar
poanch
mandar
##lam
khiladi
##born
boojh
idol
koun
tukda
##ees
##sar
##deep
##ex
notre
khatar
pasht
##akhr
suggestion
larkiyan
nus
##ober
nibha
abdul
beats
salary
reunion
dhaga
alright
bilawal
baras
##zim
gw
hir
karn
##ooh
cruel
stole
studi
sooraj
larkoon
contin
politically
##onj
gusse
counting
##cess
##bb
##ridi
batata
daryaft
keen
bacteria
hamdardi
inno
##نٹ
rahte
paon
jl
anybody
seg
dep
utaar
cock
umer
##aisa
nove
nationals
##fs
trha
molvi
fin
nigaar
citiz
koy
freely
voc
sanaf
##ursat
##af
gaming
pier
khub
banke
##like
aashi
##ukh
##dle
hamlay
pour
kama
rece
waqoof
gobar
pig
wickets
atal
infected
email
##pes
hina
##aw
reward
tumlog
voh
vale
ch
shuttle
##usa
bach
##ostpone
mish
cir
hawai
kapil
iti
bruno
fantastic
##rhea
machinery
quero
asimforthewin
remembering
propaganda
##kho
sawala
tenu
##lig
wives
##rah
chote
macdonald
hakoomat
implement
daisy
fraham
jeh
helmet
jaake
nazriya
##lic
crop
bate
finest
##craft
khwaja
##ute
baitha
boxer
fr
baru
salahiyaton
habit
ballot
khao
akhbar
##zen
setaaray
alawa
sunset
aray
att
mahan
##ilan
app
##gia
##oa
doodh
sawalaat
incidents
nii
##cion
dishes
##oi
bhonk
##ati
##fied
ost
slot
horaha
sae
unn
##onesia
##iest
lone
sponsor
jore
chalte
convert
##aro
ladka
##tire
khurram
basically
feminist
mehb
pmoindia
##bing
strongest
twitter
mushar
razi
ehtram
parr
omg
wrna
lateef
بر
##los
##ille
cheet
##illo
awaaz
ari
##ssss
bolnay
gey
seedhay
##shar
hazaron
junoon
##وز
##end
berry
hunar
nataij
nobel
darkhwast
kk
phly
geography
bee
cc
##yap
react
qabar
constitu
makl
##yu
su
mahesh
fitness
##ukar
##izza
goya
disappointment
##dis
lout
##fil
##row
conta
##cast
##forsushant
##inya
##taan
##aida
hindostan
##yer
carpenter
esta
shor
##hy
discussing
ustaad
lge
pon
khatrah
##abad
fursat
ار
##uff
rao
chowki
wk
lagtay
##bhakt
##afa
##amosh
##ission
##gad
##فی
ka
##asub
cops
##lee
huay
shehr
ainda
##ushantsinghrajput
accepting
##مین
wast
poles
##khe
ladai
deh
filmo
##yega
ghal
shaiqeen
hik
tragedy
##maa
qais
مار
behad
##ela
pucho
majab
contestants
civilization
##ines
wanna
pathan
corre
maghrib
beshak
isti
##ough
nash
##killed
dedo
mentally
peecha
##oyl
bakhash
##hhh
madame
##cks
qayamat
tarf
##hin
hyder
monkey
##ben
##ato
irr
##hiza
copa
saalgirah
governance
hafta
perception
phas
sharminda
dkh
chaltay
tumahray
##rg
##ero
jhat
##lor
mra
foto
graph
tul
##ami
withdraw
saazi
dull
achhe
ses
toda
neighbors
bhaari
munh
kud
propag
##qq
secular
kat
superman
penny
##abh
##usood
freed
update
musha
wade
ham
phele
##کن
gotta
doll
promises
##chanay
myth
nationality
resolve
##hazab
##mark
nasir
dig
sip
colum
bnaya
fold
rohit
daq
hazar
zaleel
confir
swan
waaq
##loy
ladke
chartbuster
sofa
canvas
keeper
khate
##hart
rapper
lagega
mahe
laal
ایل
##kisha
potter
fez
##nn
zan
baraye
##oni
tijar
suru
mehdood
claws
muntaz
ruj
janwaron
##hary
##mein
##ations
infinite
ink
##tia
muslman
##umkin
mutal
##ikasam
yadav
apky
nacional
##cation
chill
laganay
tu
jadu
sapna
##iry
##aze
##raa
gadhe
##wards
##اٹ
rene
##ace
pizza
atank
mukhalif
##vy
jakar
jaali
##oshiyar
opinions
kyaa
marte
##ssrc
saray
hooshiyar
kerna
haftay
ancestors
sayad
sayarah
hd
repor
faat
ibtida
##var
mothers
tey
haqooq
semu
##the
ther
didnt
sain
##یج
##لر
alto
mareez
fe
adat
pote
ambulance
##tian
riway
kand
##ults
goar
dikhaya
gloria
mentor
aayegi
ahmad
hisson
jho
##akta
zabardasti
suar
##agr
##apan
bolega
##10
majaboor
rashami
mercedes
nakami
surrendered
pollution
commit
azhar
khtama
lesson
sabiqa
waaqif
##fication
کر
chir
shikar
maqamat
kiu
fawad
basket
##tumhara
anonymous
makan
##ple
ikhlaq
mohazab
chem
shoe
sec
##ller
complaints
forbes
quando
abandon
remind
##hata
chahat
rokkk
qist
##awa
##gress
contestant
saalo
babies
daftar
##komained
numaish
gn
mna
##yaat
##cu
dahi
continuously
essa
nishaan
khidmaat
mojoodgi
ore
deserved
maid
blocking
isne
jorge
shakes
anasir
mann
##komainedikasam
balat
burden
humain
que
adhay
galt
sou
jismani
endless
##rm
ibadat
juice
chartbustersid
krishna
##hero
baate
thriller
##uch
sbse
muawin
sage
##وو
lebih
##liz
fi
##wazna
untuk
vacation
##ishna
hire
churchill
niklay
aamad
profess
jnu
##oli
pucha
secularism
zarur
##where
##meber
albata
romans
khabr
uspe
##deen
talented
kay
vont
zaheen
expectations
barson
bahana
mawazna
boqt
##oron
decemeber
fard
loser
veer
milay
allama
bataye
pakistanio
akki
matlb
bilal
ikhlaqi
kesa
ava
##urag
##ison
yo
taman
##hai
sterling
bcz
##odhya
##az
ال
transform
##amar
loans
mauka
jodi
warrant
aasman
taqat
aapas
darwaz
youn
apney
##yae
krega
gosht
vil
beli
sings
saala
##qal
ra
manshi
kuf
seekha
fruits
sehra
moti
andher
velvet
vic
waseem
rehnuma
##usar
##chha
inkisha
rip
hay
pr
##uro
banyak
tanhai
bhav
##aria
shilpa
##tomorrow
nafsiati
timing
##cted
lon
dikhana
rkha
chla
exciting
faam
##sion
##iz
##lot
tmhari
porque
##ques
##neeti
rafael
gat
vez
##hanat
incre
shy
heal
prote
worthy
##pot
insanon
bury
sonusood
apno
fallak
berojgar
maqbool
gyaan
nisbat
outfit
ander
##sc
halala
##ase
##tafaq
phen
justicefor
dawson
eliminate
padhe
sidna
##kab
pane
stance
dealer
notific
bhakto
retire
polo
tym
##ht
##salmankhan
hid
##anti
##iyor
naqal
##zind
##aram
mt
ansar
##chak
burma
badter
moist
##dress
latefay
##justice
##یش
##aa
streaming
kamon
jahannum
kijiyej
vah
rajniti
vontade
daramay
##load
genius
##karan
##oria
##aaj
hoe
suits
##ڈر
daant
bhakti
farokht
##hara
taang
reservation
sketch
behna
lets
##سی
charm
hal
##uuuu
ultra
raazi
dot
salon
maklmay
adopt
baara
mist
##hele
sau
##boy
jaao
kitabon
iman
##wind
madarchod
niazi
qadri
afsoosnaak
##eh
itte
##world
mehn
haters
robe
tap
ab
chhutti
##ativ
scot
hongi
111
chamcha
kashti
faateh
cart
aatank
##eri
diplomat
##bak
##ghar
khade
##try
حص
##medari
chang
mola
makhlooq
pdf
misbet
##ural
halka
ups
surkh
sharaab
shelf
makhsoos
ladi
faramosh
fakhr
jajaj
##jor
##ats
hatred
##kai
##keel
makers
##usiyat
doge
mulaz
##zadah
chawal
anees
numay
thomson
dhak
jumla
chukay
conne
lari
vac
##peh
muddat
trending
##kte
licence
barey
intentions
hmmm
talab
logical
nanga
##anaat
branded
augst
hamain
silva
taalib
paisay
samajhney
##ents
##لا
##zaa
cow
rahta
lung
##esso
kom
chalu
atau
liner
##piece
zoe
sabha
dhoop
sapne
anno
jisme
farmaiye
##chara
hasti
lagao
ira
hj
banati
rkhy
ittafaq
##chey
##air
chahy
fazendo
achh
aurton
khasusiyat
blowing
maulana
##hamidesai
screw
dressing
bemari
lagay
scar
rahoge
baarey
##nu
girift
##mine
differ
cul
apun
inta
flip
##gie
mob
wazan
questioning
wiki
##ture
shout
##sel
noiyat
blamed
##medi
bechari
weakness
bos
##of
##zes
kt
saltan
roop
baloch
##harti
taap
##ico
kharray
##fu
bakwaas
ne
##cat
bengali
prof
tashkeel
taqreer
dana
siddharth
shouting
dn
nach
badnam
nazri
sikoyl
musalmanoon
vel
fancy
musafir
##bie
jaien
kpk
bark
hypo
##sarah
saltanat
liver
faila
oath
aty
cur
##gya
yous
cement
daawa
achhi
ree
##indah
guarantee
urooj
sindhi
wajo
##bee
filter
nikalta
mumtaz
pou
daalnay
##aaaaaaaa
suneney
##ult
manshiat
karaye
damon
aadhi
##ichi
lu
##wwww
elect
realised
jaiso
##mz
screening
##arnab
##shit
##fc
kyonki
mz
kirk
wa
kisiko
tabsarah
dg
rota
mc
paiso
payega
surprising
inst
##mpre
shirts
pie
alma
qadray
udd
lein
##moga
safai
baje
sanskrit
mulahiza
mutfiq
pedawar
batein
##erai
stamp
exam
happily
aree
jinke
khaufzadah
##vis
jaiye
hou
##met
pohancha
sakhti
violation
maroof
awwal
lang
pehn
agenda
##waisi
##yyy
spelling
kamyab
##official
ki
nasi
trf
bigboss
asylum
##20
##ayet
teddy
##ants
shanakht
tauba
layte
##new
hukm
rg
fathers
seper
zimbabwe
agla
taras
sani
koyi
lynch
mandate
sunna
yahin
ange
lin
bulaya
##gio
asset
##fali
fitting
kek
##temp
namak
rim
beloved
shark
riot
misal
expressions
indo
muqaddas
bitanay
##ssrcase
abbot
neighbor
pora
##av
##pay
banate
wajohaat
##badi
##یت
tasveer
bure
##oto
tameez
##ostponejeeneet
raqs
divide
tareeqon
jol
##amente
saood
mantri
##baab
clo
deshd
##power
##azians
dash
zayad
afridi
jaakar
shaheen
upload
mg
qudrati
squ
mel
kiske
crow
rahegi
##rine
##upid
##pped
compr
bored
oz
fari
khandani
##ali
##ologi
tahir
##rrrr
qalam
##ٹی
baten
mereka
##nin
phot
janna
gaal
hanya
dalali
faislay
akhtar
javed
##baaz
##sin
mung
##hik
houn
##daad
para
jahal
##eedah
noon
mufti
cam
hopefully
ranger
khy
krr
gujrat
rica
##eer
##istar
ashaar
rajput
##ip
cos
lust
pehan
puj
decent
waali
qasoor
##card
daad
dukaan
godi
##jy
##یان
##gin
##pected
mae
sachhi
videsh
##hte
badle
aitraaz
sided
vahi
chlo
##یکس
zid
nahee
ehad
topi
deya
##andan
hukumat
bachane
##hrat
##asid
pension
raa
jazeer
bandar
##jaj
kahna
ilaj
##gari
dubai
sunny
##khta
babe
click
dz
kena
barf
coinc
ahel
akan
vik
awaami
jer
mujhko
doesnt
sna
naaz
freak
##gether
sti
taaj
qaboo
rational
warn
jhooth
##araar
hmary
din
kaaro
tanzeem
##ort
سن
sheer
kes
generals
guidelines
krenge
##eeshan
##zon
kariye
altaf
congressi
hukam
##kie
soobah
pichli
##aho
numayesh
##bia
##afar
teer
##eria
jio
talaq
hukmar
##old
nayaab
vill
تھ
ilaqon
##mol
rita
disputed
namumkin
pablo
halal
khuf
theke
jaisy
paidai
##رین
##amaal
##oh
qurbani
rehaishi
chaal
jaanch
##ox
highlights
guna
##ann
phones
ped
sandwich
rehman
khanaay
bolivia
baaton
qualities
bhartiya
##nas
##ars
miqdaar
dukan
ficou
ln
bra
##ancy
##rate
ext
laanat
tattoo
container
jaruri
##och
zainab
shahkaar
playlist
##tum
parivar
trash
lgi
pras
dadi
balcony
joh
panah
##ican
shumali
mashriqi
leap
hh
krtay
sary
qaail
kehtay
santo
kadam
pad
karunga
thread
kahaniyan
venus
##dian
beg
raak
daylight
mazameen
##uv
tol
karli
wwe
acceptable
gehra
dec
toxic
##kel
todos
surgical
economist
##daa
ussi
khaye
maafi
ella
##chy
harus
obs
krain
huwe
diamonds
##arey
ga
mehboob
از
##fiyat
##pai
huyi
andhe
laazmi
colleague
samajte
##bjp
cheen
##ila
paramount
##bon
krlo
dim
quar
thode
sweep
##sie
toyota
ahliya
websites
amitshah
##adri
namo
val
##umbai
##qaal
##plane
patience
tweeter
slim
##waron
toe
maja
azaab
inkishaaf
vala
banna
plzzzz
baala
yea
dastyab
ug
hea
maiz
##sof
mandarja
boring
chips
##اب
##hand
##idence
chamche
aitraaf
jami
mehak
azm
tatti
niyat
##hard
##phir
bahr
bolenge
buil
##ced
wong
dhair
sahet
rone
##kta
##tttt
##ern
##rina
uz
zombie
##utt
##most
consul
##nar
hama
kinare
cli
bagh
pinned
nasty
useless
jung
##ajar
##alea
rapist
ix
chahie
tumhain
bantaa
##dge
ente
##hahaha
sanghi
religions
##ash
lata
dairy
##atha
190
##layi
bug
ehm
bombay
quied
vajah
chat
interact
anak
##pen
paidaiesh
pray
salmon
##waa
##targeting
priyanka
kaarobar
publicity
talash
ansoo
toilet
pesso
ganti
tray
bher
dekhke
morad
dhr
chot
geherai
itv
semoga
aajtak
ming
muntazir
zaror
haseen
fu
dramayi
sp
tooth
momin
##wish
raam
##wara
lakeer
khaz
dilon
lid
##nel
hurting
##abaad
##pel
aankhh
bewafa
sympathy
##ativity
bem
deli
##meen
foji
nisf
##rc
suck
hasta
##vaar
poore
shi
fails
nikalo
ای
khalis
gaaye
sunne
levi
buddha
subhan
##aka
teesri
##annya
chhat
tmhe
3000
zeher
neel
khelna
parheen
seas
##ency
##oriat
parasti
sehar
rahne
##ista
caring
mutalea
android
karey
surpr
##dt
kai
tauheen
lehjey
zakham
melhor
sasta
karliya
rahulgandhi
##desh
ta
holidays
shiddat
semua
mare
cane
muqar
sitara
kidhar
mutawaqqa
dong
raj
observe
roar
charming
muqabla
lety
musalmaan
##ftar
##gardo
bubble
tina
##dj
##eda
##hir
ifti
akhri
کو
##eq
kyoki
scenario
par
aaraha
khada
anthem
guru
darakht
specially
dikhata
hazraat
jaayega
jaizay
duet
##wis
messenger
farsi
##lies
etna
hansnay
marr
##utes
surname
gardi
honda
pooja
ginti
shyd
tabiyat
##azim
pue
kol
##ried
aayat
pubg
peterson
##sal
##harm
orat
eli
khushiyan
bharpoor
##نی
viol
lgbt
piya
sed
aisha
compromise
hotey
##کا
tasals
fauj
tasalsul
confus
exci
jun
faas
##quiry
##zay
khuli
khrab
bg
thn
idaray
##fy
##nal
dochar
kutto
celebrations
nunca
sche
begum
sadness
submit
taaqatwar
kalam
dude
##vas
padtee
metric
dushmani
bhoo
tus
mohammad
mistakes
##adhan
##hing
##ass
alamat
mafi
##quer
majmoa
ghot
reporters
nag
hamen
pity
verbal
esy
khir
yahodi
##ٹر
##are
##atic
marsha
sting
heel
sweetheart
bart
roka
brutal
dikkat
tabeer
guzra
adh
admin
##ub
##sss
hathyaar
##aries
complaint
##makers
##haarat
delicious
smjha
karnataka
zeeshan
saara
kitny
seekhnay
kru
ar
defini
tava
bella
pher
chaman
raste
ef
launching
vap
##utanki
gri
qeem
rabita
tro
wao
aliens
##ervation
kamera
screens
jihadi
youre
mahaarat
cheif
desp
dilana
maari
spark
agy
dastak
##killedonj
##een
uthana
##nor
jasoos
banega
apologize
##jaat
butter
congrats
##کو
eso
fazl
kunba
kehl
instagram
jaj
bhaga
##ils
shb
ilzam
jinhein
mubarakbaad
dukhaay
tribunal
absol
gains
##wo
darta
shukr
certific
##kb
chahty
asaraar
##ont
unemployment
ekdum
##ured
saleem
bda
prophet
palat
bi
##rr
##face
##rad
kavi
aram
##kiski
##laf
temper
khudk
telugu
jerk
khayaali
menu
##ote
qaisrani
##aya
crdt
irrit
masti
##rl
laptop
haliya
##gu
##wx
shirkat
valo
jawani
saanp
##arian
upgrade
equ
##mao
lea
nabeel
##apne
flmaya
##pus
tanao
pawan
confirm
roth
hayaat
##pri
jiss
##iah
teasing
mukhal
mh
pct
##kah
##backs
##ckeray
kharabi
mahmood
##سٹر
##ording
hakumat
##uring
##vre
bistar
yap
sunta
chapp
riv
qanooni
bats
stays
psl
hochuka
kp
ayodhya
affection
##ander
##ffic
jess
punya
feedback
##uma
chennai
bethe
heartbeat
nikah
dikhai
kerta
beroz
mon
##sidharth
##ishta
##hoom
##ele
concer
rajneeti
##qam
##haal
shahad
clever
gill
thuk
##dos
jameel
khoobs
chehre
##nc
##mu
piyar
dedication
shin
aiz
rp
parind
trh
bener
chhupa
appreciation
khasi
harf
nikalna
##wati
haider
criminals
raz
unkay
passport
constable
askr
##ukan
chalanay
dusron
ghaz
zahanat
tumhein
phel
seu
##umhara
##lao
nora
kapray
shabash
abh
pasti
ned
saga
memes
##flow
appreciated
yi
riwayati
treating
##haray
pach
matti
##ib
jade
import
##again
##hot
maana
wad
mudda
celebrities
aani
farooq
##gos
cousins
dalam
ache
mehfil
gandhi
vali
actr
leni
shine
offici
prac
detention
##qy
parhay
aae
##gus
##zabardast
lagne
pey
talwar
parody
ahelkaar
muy
shahzad
khuwa
pandrah
##zat
samny
regards
quem
pahunch
naach
karaya
inform
dest
parwa
aagaya
favori
hojao
##guruji
idi
ریم
##urstrulymahesh
##ein
dilli
##stv
madh
chanda
waisa
thief
##own
carr
khufia
##iyati
prose
maara
romeo
lekr
mehr
dup
phal
mk
kea
diwali
##oliat
##ther
yas
rasht
babri
spa
rhay
sakoon
##haqeeq
chowkidar
ple
asliyat
اي
sen
umat
##روں
##wich
hati
##akhan
##vey
ashi
gost
waley
chalna
fazai
##vable
varna
sikhaya
##liament
laash
jaroor
mesmo
chahiy
##baan
dikhe
uthany
maharashtra
muha
va
##khabaat
naram
##gel
korray
khaa
shahr
imandari
##ahmi
musani
##اہ
thand
beghair
##wen
jg
##qe
usey
amlay
urdu
folks
alt
haitum
##mc
scary
jinhe
kohli
imkaan
choos
mw
patli
bott
tahaqeeq
chunav
dabao
لیو
##ران
##ument
manfi
##fiqat
drain
awesome
balki
jeene
##vad
apology
compe
##riorsssr
kadar
lorenzo
fahim
beef
foul
##onia
kidding
mien
sitaron
bato
shart
##ffer
emi
mutan
isteh
karena
##srk
evm
sawaal
##ail
lagai
doulat
nzar
pant
lagata
builder
spray
pazeeri
inaam
##zami
jigar
##urg
baqaida
shohrat
tram
naukri
marke
kartey
aadi
bund
hday
jaen
mister
##alian
arvind
clip
##xo
depend
##ilanka
disco
owe
eik
shiva
gab
nautanki
sahiba
ishtihar
##gation
##yr
larioon
imarat
khilari
##kashi
likhta
acho
intezar
radd
lalu
##hanay
lagane
geya
intqaal
jom
##nate
numaind
katora
lamb
krde
yuva
hehehe
fikr
loge
##graphy
guzara
musta
markooz
rey
hut
puhan
aed
rakhiye
pichle
qasam
uns
qatar
marty
girftar
halki
ilmi
jude
prayers
peet
wqt
roos
incl
##gging
##inon
dekhti
panch
iqrar
negro
foj
daqyan
nizam
vad
tumha
thapar
##omin
ummat
aqsat
trauma
gran
malay
121
aayenge
sunai
##stop
buzz
rabt
##tkari
fant
weh
deke
mps
##gas
##bro
mohammed
myanmar
khwab
chhal
ndtv
##mor
jod
ajay
bangkok
tasd
remarks
pariwar
kin
afghan
confession
##kap
hamne
##kron
jah
##zel
krnay
krdo
remo
##toh
mutali
##matic
bne
insaaniyat
chaa
adal
sugg
jaante
netw
motto
loc
##laq
sooti
daqyanoosi
rast
##orty
daleel
innocence
remake
ghad
baik
daman
scare
employ
rs
parhna
meg
gus
symp
##ude
bujey
##tapostponejeeneet
yee
##iko
doom
muhabat
##karon
nao
##bes
paray
##azy
apkee
nain
tadi
zaruri
saqafat
realistic
##cut
ajaye
competitor
##stan
intikhabaat
picnic
icon
tugger
##ینگ
washing
villain
pairo
micro
makaan
deu
aadha
aksariyat
##hat
##oooooooo
rivayet
##forssr
##jr
##ayenaat
roknay
khatarnaak
zra
ramon
##umi
##lls
krein
cricke
disgust
##uck
torch
paiir
mozuaat
rude
taha
laane
jaahil
zikr
cu
mumbar
##band
##gun
##lines
darwazay
iya
kion
jahalat
##cep
arg
##sive
##sidnaaz
dzni
##jb
chaly
patt
charon
jldi
tasdeeq
##aser
nokari
##iyani
enco
urstrulymahesh
tujhy
juda
##ination
kaayenaat
moqa
shayari
##its
khitaab
gandu
fehash
ruka
haae
zayada
nitish
nge
##tari
##arak
poocha
motivated
bhaal
luc
marha
pays
akka
hila
izafi
srilanka
shahadat
frankie
gifted
addressing
کی
saky
deshdrohi
##hate
kaka
kardi
masharti
ajata
frustr
bcoz
cra
##lio
nayi
mub
astin
dreaming
sack
eff
assim
invol
hbd
boltay
fiza
rkhe
qai
wag
##sena
saba
rahna
deposit
##ishn
vein
wheeler
payar
##bor
gulam
phy
tire
##uon
compare
motiv
pehen
esper
aagai
merry
jazba
nid
sathi
ng
roma
aashiq
mulazmat
psy
sheikh
##eelaat
feliz
jindagi
##aigi
comeback
parte
chout
espe
ko
tafseelaat
bewakoof
barker
haim
zarorat
ayy
##ینو
personalities
begging
mita
pakra
maare
niklo
##gic
kerne
laikin
yat
##boo
##ots
##ugg
##ete
jungi
##kok
dumb
##karuvaaripaata
malbos
majak
kufar
trends
##ef
namal
##rf
premium
arak
bandooq
sadar
##iks
##hida
tug
##woh
##tivity
ghazi
##ilaaf
aayiyae
rozgardo
##urav
khowab
resign
##olo
cambodia
##akho
sauce
##kal
haamil
intezaar
uthaye
mazl
vas
muskurahat
luna
##lers
##ister
masa
drill
##ashi
istemal
feham
libya
anita
tumhen
kabir
rote
shameon
saahil
hdaytkari
riots
##uted
mint
##eta
baali
johar
dub
rajya
ehmaq
mock
cf
vit
wicket
##jd
daali
##adity
analyst
##lum
ag
highlight
muhib
sanat
anaa
numaindagi
jaun
sunn
hv
##pal
بل
mum
##kna
##ante
khuch
incomplete
warming
khulasa
##ashion
nojawanon
haj
celebrating
andha
lalach
karun
##ilet
bahen
farzi
snakes
##city
dedi
tumhary
tajz
atif
bante
mot
pohn
tujhse
kagak
sunte
pedao
hanstay
fade
wus
ramzan
##onay
chas
itt
darjay
boost
madras
inning
##hia
jeetnay
ip
##ورڈ
karwaya
##bud
##please
mela
charging
dose
vista
##aj
bud
papa
##vk
puchta
dol
tri
##cent
inq
huaa
hark
fried
shuba
shefali
goose
wakeel
tawaq
kitaaben
recruit
grocery
js
jel
##fort
daud
panay
ajkal
##hiyo
##rand
##angi
cheezein
janm
bihari
taqdeer
maffi
dabangg
##want
khati
negativity
garbage
nalla
sair
##نڈ
##ikan
papua
##hoos
bimari
italia
aindah
fre
sastay
ull
wafaat
corp
ego
assur
vy
##salik
swag
emang
##yyyy
tp
##dard
##play
jinki
kath
awww
teesra
jhalak
##waise
var
hardcore
dekar
sarhad
gharelo
##fit
mehal
poster
soche
hale
kuwait
##chodi
##ises
##wr
##eed
roosi
munsalik
gayarah
selfi
##uer
##بی
##ariya
gil
##ury
ener
jinda
luv
##sp
generator
guzray
meharbani
baaligh
chle
shooter
fl
##dup
abt
##lling
##gram
feb
##rizi
rese
hrs
ehmaqana
motorway
yaz
paidaish
##tos
aizaz
##cott
sone
badtam
bhuk
minded
##nam
galiyan
qiyam
jinhone
riaz
dhun
dhi
ام
straw
detay
wajood
pid
refugee
bakri
ikhtilaaf
cali
##sung
##لو
deewana
aajay
##rich
rakyat
processor
##habib
##rol
bmw
choor
gitu
##cell
sidha
##eng
btaya
qayadat
tajarbay
besh
mega
ideology
theatres
lya
kabil
saves
secre
cone
##heeda
kara
chhoti
peenay
ful
asan
shades
nib
mansoor
##tro
pend
spit
freeze
uf
##cos
cour
premi
##pasand
huroof
adaigi
omar
padhai
ird
shandar
bukhari
beingsalmankhan
jokes
ipl
gau
kus
siapa
dharti
dhamakay
polite
##tely
##vaat
hag
oho
##uta
##astaa
deus
##zz
zaman
##sidshukla
dhoni
raghib
maheman
foolish
##amal
nm
hassan
##chand
dekhenge
satisfy
##strong
gutter
selective
cnn
nang
##mh
maaray
manoj
##withs
kapde
cease
gawar
##roy
##gro
khor
##ania
bant
nikalne
imti
atalwi
##atab
##cial
inhg
clash
gram
amjad
tawan
baha
mulla
compar
besharam
paison
fare
wtf
invite
zayed
##inay
##tition
waqar
hatta
mitti
##mandir
facial
##rahim
qabool
surah
yoga
میک
haat
univer
oy
reco
mansoobay
ig
almi
waala
kitnay
dekhata
##ینی
duaon
##hehnaazgill
kardey
##hiri
##alka
##inal
##nahi
nov
comendo
jhuk
##ished
namaloom
qk
##chat
khut
##saa
blessing
agle
sonu
fatti
##bharat
##ctic
nani
##utan
##vik
repe
##upa
##comp
thos
##ustom
jawabaat
nc
mirchi
productive
jye
wm
chora
hathi
oct
bhagwaan
judging
khubsurat
##gger
hansen
kashmir
nzarah
##qr
solved
haiye
kabhar
badlay
kero
protesters
laiq
dubara
##iga
injection
choron
sunanay
##firat
siddharthshukla
helpless
##yaada
##tere
prat
liberals
shuruvaat
spo
nafs
plug
##pnishan
##اگ
apprentice
howe
##اپ
aaa
kart
hajj
leone
jour
consi
def
nowadays
phela
rkhna
##vp
##eemi
dignity
norm
numa
##ders
shahbaz
##pok
zia
bhale
##yar
bhaiyon
pose
usman
sakun
ayegi
##haaz
kaali
dele
samjhi
##oda
likhne
karkun
cuando
buraiee
##hne
##ilag
rehty
samjhna
acknowledge
dap
tbhi
ashe
hurts
##istr
##یمپ
faq
farewell
##pyaar
kio
##akak
chum
darte
surat
##kisi
saqi
chodo
nomin
puhanche
calcutta
intel
##court
murderer
conver
khech
kanha
bloom
askrpt
bhayan
seperti
##ict
libr
memorable
po
viral
##uzool
##asan
sarbarah
##bechara
##presiden
qiya
tume
aye
milein
##gard
donation
smil
kardete
banker
addiction
satu
lil
emoji
##ously
conscience
badolat
aaja
quei
gaj
tumari
koshisho
##lets
##set
amid
kamiyab
##ret
hadayat
geet
##ikta
##vie
mushkilaat
##zan
##ونٹ
##ste
##habibrizi
##fic
##wal
ibrahim
kutton
lakri
guzarish
##enci
muqam
interval
##garh
zeli
##reef
kae
pelo
samgha
##lation
paak
##hra
musallah
idhr
##zeb
eur
gue
stall
##scri
abaad
muzam
##inde
##mano
ghairat
jamat
lyn
aqwam
pao
urr
##bles
mulle
##gt
misar
##unter
chura
asta
coo
marx
##anath
declare
saman
kolkata
mat
pode
bermuda
wakt
khowaboon
yon
##vide
ahbaab
##یلو
gilaay
zayega
##public
##tc
pacha
##kashmir
nigari
pesey
wont
candle
rasheed
##aign
meny
fond
sawaar
owl
muja
aish
hafeez
jarahay
lrki
##وہ
rawana
goat
honorable
##saas
skip
parhte
##amad
##hayen
##wb
##pun
##ینس
sehraa
##habibrizieq
vln
##تی
phi
lagy
partition
fellows
nigar
dhond
afsar
##raan
arth
##bre
doubts
bachney
takhleeqi
cbse
noshi
##pada
##akin
##khor
mange
gole
##rap
##یف
leya
##bic
corrupt
scan
##daam
##ams
soins
##wkwk
comparing
jhooti
mutalba
##lish
swar
##یرا
##saf
hairs
underworld
##indagi
semester
batane
barhti
entre
lambaalka
tard
##eedi
##ooba
sensor
gaana
yan
nikli
arrange
dikhate
anpad
hyderabad
guzarnay
##dr
aarti
ittehaad
##nde
quetta
dhang
tarif
heen
pakht
maras
danda
shukria
gore
barg
##odhi
muqarrar
ave
musanifeen
pis
ispe
##ايڈ
jazeeray
qeemti
##eela
doosre
gayee
##krab
iftitahi
gawah
suntay
##dey
tempo
kerte
kahaaniyon
lok
urgent
##rade
tusi
##sidharthshukla
##uuu
festiv
jomblo
##wl
##ool
bliss
mujay
rela
virat
##mmmm
cr
farmaen
lyric
afsur
lara
raut
maray
mahroom
dhamaka
ahad
rawal
sune
##lk
tabad
madina
kahen
raji
##dahi
acade
munafiq
sos
##jadi
lava
alps
andr
##ution
##date
quaid
woody
##page
subscri
##itis
##bees
##maye
##vay
jaon
ast
khoj
jewel
##½
sathiyon
##kas
pahar
sadly
aaina
##ehum
tiktok
fakhar
postpone
flour
##iron
safer
muwa
##lm
##gup
bhaiyo
becha
financially
gharon
bees
##برگ
##mumbai
##ences
meine
dikhaye
femal
ukhad
jame
rpt
فل
warden
resume
parwar
irshad
ing
##badami
usd
ulat
naal
##aux
kisan
tmhara
qatee
##prab
##mere
nisar
gossip
boorhay
najar
dial
##eu
mandi
##link
taknee
maslay
ghulami
takneeki
##wam
bolu
nail
maqool
chutti
##wer
##forever
gah
uthe
lafzi
##daari
blows
laate
tehre
irani
atom
ghante
##pya
hova
ravish
##adon
khalayi
plzzz
qudrat
##appo
##walo
karney
ignor
baag
marhoom
##karo
aagaye
gaind
igh
##late
##nga
##ake
porto
bahhar
likho
kendra
mona
fui
khen
##army
muashi
##dega
fitri
##ido
aansu
ical
jawaab
##lix
##ndr
lagatay
bias
aslam
paaye
sarmaya
larnay
##anda
nazriaat
someday
tama
##onch
##lal
jaey
mahir
##اد
kewal
wasted
tai
##hatta
bhaijaan
bolke
freaking
arha
##hilesh
tmhare
jamh
bald
androoni
khoya
tablet
utni
##ghters
nzr
##koor
##uan
waa
flush
##وج
baant
daagh
pt
speeches
wja
exams
baccha
##gg
behavi
kannada
##type
##pnishank
##pt
od
##mr
lelo
maali
ighwa
مور
fulfill
inhone
nhii
##jao
achaa
iqti
khin
nn
inna
##bolo
rejection
naheen
jau
advent
mafia
mahila
shivsena
##ght
##used
badn
cassette
##ryani
pml
japani
##تا
##eezi
##izz
colo
##alis
nuksan
mutaliqa
dhee
suma
baato
##vete
behno
yaado
stoptargeting
feku
rojgar
##ages
chord
pounchanay
nord
bm
cere
fad
rahat
bhais
sunrise
##utam
muwafiqat
glo
qki
leay
gm
daro
hatya
khiladion
##shat
##wami
##ppa
hindut
proving
tenho
lun
##kad
khad
sirji
##chana
batsman
asm
mara
bahu
basri
og
cig
پری
##hiyan
maharaj
musharraf
confirmation
napasand
##worthy
karr
yemen
asraar
ku
lazy
viewer
nishandahi
##heroarnab
##bhag
##fall
udas
cuma
##jub
mujhey
sharah
safhaat
hakomat
mungkin
tawanai
tolerance
penguin
cum
##ancha
bewk
mushtar
kkkkkkkkk
cand
jhot
سلی
haik
puppet
##azia
tumhy
joi
##yon
bhu
maarna
sidharthsh
wer
##وچ
jeep
wes
shabd
nijaat
awal
subh
shubh
makr
wabasta
ija
sol
##asar
milke
tanto
sh
bangalore
hinduon
bhosdi
wif
##uhan
##یچ
##vers
kaum
inho
bhasha
khai
ditch
rite
##ways
entertaining
##andssrcase
qowat
##sif
mentality
##andssrcaselin
bts
habi
helpful
##some
jut
owaisi
##lying
##atory
##tered
scam
genocide
aash
replies
dgn
##riyo
sawari
shaksi
lmao
chalaye
##dua
mashriq
jhel
zad
andhra
##uda
##atees
##ilab
laag
bnta
wan
disappo
judai
##ame
##bby
lafzon
zyda
faqat
bolty
##guin
neeche
sdr
##ast
##cris
nat
lug
natak
##ented
pam
aaram
jasakay
burnol
abdullah
ekta
satya
kish
##ided
moisture
himat
amain
zip
tumharay
sarkaruvaaripaata
ninja
naqaab
abhin
unk
batch
ahsaan
qissa
yousuf
##too
peel
bolay
rama
##ilih
##star
kachra
gadi
##iyc
bataiye
##ost
lime
casa
paband
targeting
uryani
kaaf
##uru
fazool
lester
aht
##enti
sobre
terah
rele
azan
kroge
jarr
##qo
##dd
holi
bologe
farhat
bairooni
##akshay
##ying
whe
chash
##ajh
##fly
dio
##رافی
##killedonjune
bati
tand
##ه
##soci
rashamidesai
mayaari
kn
bers
mu
##pata
prosperity
deg
##unya
coisa
sachin
bhaut
adjust
khulay
nakam
lle
surf
parhta
trab
humid
comple
daraaz
gt
##cbi
karva
##iyai
marny
dosri
bind
shakir
nst
##بل
##nz
##form
boleh
##uc
raddi
##atar
##kaari
darshan
coba
inflation
flats
dayilag
unnecessary
##hian
jharkhand
##kraborty
pok
baba
balke
zamanat
sambhaal
zeen
##andne
achie
rocked
magh
istand
pala
khafa
##raj
daikhon
ajab
pending
independ
jealousy
haiis
##hm
##uki
lena
gdp
misbah
rozana
tehreeri
kidney
##shu
underwear
mjh
##haw
مہ
mohabat
##seen
dhoandne
nashi
##wise
shayed
gp
gantipresiden
punished
hap
rhta
##faq
##vv
pache
dalta
pi
khelo
difaa
mereko
##illat
tasawurat
tharki
ser
hare
##komainedikasamtomorrow
##agini
nutrition
loug
##isa
immense
##kis
banday
##zie
##eld
##karang
mahireen
jummay
##lp
suzuki
shaksiaat
saud
zaban
sarrak
prayed
duayen
puchna
thu
##urn
gujarat
##pu
##plus
cube
pasha
privilege
vishwas
floods
adbi
akkaasi
vn
سک
approve
##lov
minorities
voter
##zn
chaap
khabri
belum
slap
##fri
bhatak
##zaad
nikalti
ijjat
patriotic
zafar
investor
##uth
naat
hikmat
##minan
##cle
kagaz
janty
bert
bandmaid
##aid
aston
cupp
sweater
intellig
phar
brains
##yari
##adeshi
sajid
agya
selfish
ulti
##jon
##unts
##him
jav
darkaar
paki
rangeen
##nagar
jori
##نا
laun
dhol
genu
fk
aatma
motivation
##lier
susti
asmat
jii
##mouth
malik
sarcas
khatre
hogal
rahman
narendramod
tub
dro
tok
krd
##aqa
badl
awail
newbie
qareebi
##against
##pf
tujy
baithi
debates
lemon
hye
##inah
dom
khoof
armaan
devi
sic
##ateeni
lateeni
ner
aacha
verdict
khatmay
chara
utter
relate
pac
racism
##top
chutiyo
limp
sav
terra
samna
ant
##how
akai
capt
updates
aast
bann
pal
##graph
shehron
zama
haddi
##bone
cara
bril
fuq
barbadi
yog
kisse
azmat
jesay
jakarta
bhayanak
sampai
farsh
iconic
##lah
##park
bitha
moody
sali
baen
##itar
donon
ghanton
chunancha
کری
##jhe
ohhh
sood
mee
unho
shaed
##ayiq
attachment
sammy
expose
peri
pernah
##bil
kinng
idaron
zik
##tever
##ither
milni
kyn
rohani
climax
dresses
pahu
bachao
##stru
mutanazia
authentic
pila
##adhi
tumare
sakhta
gaza
postponed
drr
una
baind
##bat
ankhon
##fqat
imte
##cian
galiya
##teri
siddi
madr
praying
zawaal
akeli
mangte
coke
juraim
gd
jabki
taal
gusta
##ي
##usion
##رل
toba
##ailable
##mir
budh
intibah
tashreef
imrankhanpti
itminan
pakda
roye
##oll
dalain
farmay
sameit
##andssrcaselinked
avo
##god
countless
jaime
chata
lagayen
kharcha
muratab
jyda
nadir
shad
##saat
haqayiq
giraf
estab
mukhalfat
dk
##owo
##itni
banget
##rp
bads
rukhs
khelne
##sl
mangal
caste
dera
##rer
khone
dekhlo
laaye
rub
afwaj
##vor
aziat
mabham
##akragini
gale
tamanna
chick
potato
slogan
##xh
arabs
koh
parcha
mou
tarjeeh
##tead
rand
apas
##wj
dane
maula
courtesy
baazu
##hati
slaughter
repres
paate
##ozgaar
zzz
##haas
ginger
##ttes
##akistan
humary
musli
##times
##medar
##wany
hogye
##bong
##ڈی
bazar
polls
alias
nationalism
td
hawas
audition
farmai
pichhe
ladkiyo
amaan
zaraye
nuqsan
##oro
zeeshaniyc
##tics
isy
chukla
gosto
madahon
سم
sekarang
baagh
bando
##rid
ghumte
sachai
ahan
jgn
dou
##tera
gharz
menos
guzri
mulawis
bornfi
nin
##uie
mahin
dikhti
##vl
manners
hbo
##aan
ours
bullshit
sabe
tarhan
siasat
akun
appro
##jin
##iss
##ear
gumra
bethy
hl
##chiye
anho
ghuma
milenge
nonsense
bharay
sharma
gire
##tical
solidarity
gps
##ook
##rata
ummid
kaf
##uit
shahi
bhaii
##adiya
olad
unlimited
nalle
##jye
diabetes
##caa
sasha
pas
##got
##aldin
##iram
laut
upr
##bilities
##ffee
sangeen
lakho
chu
mahinay
quote
alehe
qualquer
abs
arakeen
##hua
aagah
##cci
yarr
pigs
sadiq
##dad
##adityanath
sore
##bur
khod
##qi
##rankhan
fuqdaan
khuj
hainlogo
mujha
sochen
giya
malah
bandy
naukriyo
kno
kushi
##pira
bahane
parday
##khud
mir
##rei
masno
patta
yrs
hakeem
kiijiye
stunning
##dorozgaar
ishaq
janaza
cobert
gula
dange
azaad
nyaydorozgaar
hogalakho
mai
##aire
fik
posting
mutabad
mager
nazron
packing
fry
pencil
beeet
##bollywood
mutabadil
hudood
gher
vaha
sachaai
bon
neighbours
ullu
##pie
mug
##inayakragini
narendramodinayakragini
pros
dekhni
##vil
badan
reminder
cous
chorney
zahmat
sour
پر
compulsory
packet
##rion
##gah
##elle
##zl
##qaf
depressed
##rit
heroic
##idade
noi
kaira
thankyou
horha
bhatti
rae
##pindi
##pois
##fai
pahan
psnd
beliau
bais
haiab
moka
nimat
judi
ghusa
responsi
haraam
farogh
saar
milkar
lad
janat
taaw
dayen
##dic
pillar
jhoota
##یير
mushahida
hti
judiciary
jash
kahta
##asab
##itos
blur
jhuth
##force
mangta
rukan
dede
shaid
taklif
omega
masood
socks
##asimriaz
rakshas
ijaad
fasa
jid
anmol
itwaar
primera
tehqi
##key
##ooooo
ti
creativity
##owos
##hey
boorha
ittila
sut
taza
##mujhe
shaitan
##یرو
##yam
##pping
##hol
ja
##chan
kasa
adad
baccho
##tei
tahaz
daha
abe
sattar
surak
dei
horahee
emotionally
##bersama
fascist
cobertura
nicha
alot
nagr
manu
##fo
bulaa
racer
##tahkam
shri
##shn
paoge
saalon
konse
vich
wafadar
laden
disturbing
jazakallah
##cture
gal
dhal
nakaat
sunnat
adit
aeen
aldeen
churr
melt
##ures
dosro
tehq
soldi
soda
##mb
herd
shehnaazians
tazkara
haadsay
hum
bornfighters
taawun
##udhary
chalana
khushk
ren
jisy
btana
##law
denial
posters
puja
colorstv
tutor
ec
payen
tinha
##gaya
##gust
shaz
ct
teray
pardon
rocking
##afati
avengers
kehny
provo
seller
uttar
##ايی
nadia
maanta
exposing
##hd
zehar
rukawat
deik
##has
malam
lakhoon
gadha
andheray
##josh
pol
##bol
##kejriwal
indirect
koshis
meetha
pese
##adam
beb
huy
samait
dainee
err
##ddy
blunt
announce
##far
jheel
##atum
aggression
isharay
cooler
cares
headache
##kibaat
gorge
##adaat
sarfar
inteha
ashamed
ldki
machhli
inhisaar
##full
chon
padti
pahonch
thee
bikin
akhirat
##rai
bhii
ads
ghur
bowler
##lip
mazdoor
subscription
goodness
##ically
tasali
##hos
##tech
bhok
donor
##plz
ine
سل
haib
mangi
mazkoor
mulak
hansna
guruji
tijarti
iqtidaar
tahazeeb
##chr
dilanay
sharamnaak
mozoon
bornfightersana
glti
##xe
communal
hai
##xam
##unity
torta
lambai
dukung
lahore
solah
mba
dheere
foreigners
distric
##pc
kharidne
nen
ooo
deed
riya
haara
logun
##adaan
##faan
nanti
proto
commando
europi
##naye
mete
##base
kareeb
##habi
##rist
hadi
##ghe
##happy
kangana
bahanay
dag
ou
##path
##gz
badhai
gardan
fojion
##adh
algo
madat
pahuch
##ahida
maze
pachees
igu
mustahkam
jeeti
munsif
##یٹر
phoolon
ssp
##vs
hoya
julio
pitt
##agal
partici
##oss
samaji
ahsan
##ریس
femin
inqilab
tez
waqeye
chilla
noo
##mam
taleemi
##fficial
horahi
##erature
afsana
hochuki
##owosandi
layi
probe
ساي
interfere
depois
parvez
##rail
krdi
mohta
dosron
exper
justified
tajarbaat
nam
bhikhari
##zindabad
##liat
uljha
shant
karbala
##inder
buhut
##aching
hud
bhn
jagha
cheer
majlis
unfortunate
shat
pradhan
##fan
##zaat
##farid
##bersamahabibrizieq
advertisement
##ility
gung
khw
saakh
niji
madinah
##mans
buj
tajzia
ghi
mao
chakar
sunke
gunda
hahahahah
kira
tawaquaat
qamar
##take
##ود
tokri
##naa
##kokara
qabr
##rating
umatbersamahabibrizieq
toast
badhiya
ulma
thy
mazloom
##riti
awe
assam
aib
childr
mufeed
##rb
lekn
doce
tanaza
buddhi
##bdmaheshbabusar
##shay
##ataa
ballay
##pass
bahrain
rhna
کا
kaal
paidal
niklny
##ayak
##rey
sidra
##lian
idr
raway
jaal
badm
jalti
halakat
dalle
banana
lottery
nim
dhad
bamboo
ene
kub
usk
bowls
lagate
##thi
farishta
##shame
mullo
offence
##inas
husool
thanku
fateh
watt
mumbaipolice
nstaliq
baarish
kanjar
daring
gulami
##hale
##girl
aura
##dike
##onto
##iyoon
goa
nich
hayee
ghaddar
##kokaraara
##indu
##orities
khailnay
knbe
moahida
jinho
surya
##kha
mukamal
guzarta
koch
eqdaar
amazed
ada
soye
dekhny
rehny
gif
khelte
staystrong
posheeda
cola
gazabb
##nah
compartment
flo
haiafsos
zamee
##ctive
kahne
sdraldin
sla
clips
haihum
##ookh
##hajir
packers
##نک
nude
kili
kefiyat
##range
hazaro
jiye
##چک
kot
tens
tora
##apni
anurag
##habra
mutab
insult
baton
baich
samajhte
bajwa
##ریٹ
ghussa
patrakar
nuskha
chit
dhyaan
##tron
einstein
physi
sk
zabt
elle
exe
jaghon
yakin
thor
shameless
##ughter
mantaqi
karana
gaey
##pace
sarfeen
pulw
pachaas
bde
##aien
je
tiene
beirut
paigha
suraj
##vent
jayada
digit
avpira
##ند
krk
imaginary
bock
##witha
##oolat
bakchodi
##gov
rizwan
abhinandan
##alon
##tty
naja
najay
kardia
pary
bail
adaad
gunde
loota
khudkushi
pank
میل
samman
badsha
conse
##hayya
naamzad
godse
rkho
daya
mst
bhikari
laug
185
bachhe
##rz
##ffin
##ujh
karachi
##rishtey
hna
uc
lick
jinnah
ganoon
lm
##hile
##ajo
oppose
maqasid
likhain
##د
##hainpyaar
##asia
##vince
officiel
siya
##ارٹ
perfection
##iting
immunity
bachaya
juz
tariq
patthar
fol
##fiz
karv
##terday
stunt
tuition
dalo
danga
##mates
algum
aesy
jen
##ڈا
chandi
##ond
poochna
dulhan
gaurav
jehaad
iqdaam
asmth
mast
lic
##cular
pesa
yess
hia
legi
munfarid
tanasub
gunj
khaam
purane
##ouse
##hartshukla
neet
##tai
##wada
mex
##liment
dosh
qurban
aaraam
mal
fielding
mukhlis
reject
##pad
##agin
lagnay
kaisy
##cin
##nos
sorvete
nakh
sabun
##tam
##nge
doon
rahin
perfe
zaida
brahman
141
##lc
ٹری
sobai
##hahah
aug
chodan
supp
ghalatiyan
kurk
lehja
paighamaat
dogle
terus
khatray
thappar
afsan
sm
font
bhau
jahaz
tib
bhare
huien
##aking
toota
##fraz
romanvi
dwara
bhabi
eh
ficar
waseembadami
raped
rgbi
rawalpindi
marti
worries
##life
walii
talba
guraiz
lifafa
##tiye
hongy
sins
shud
imthe
kirdar
shoqia
ریمیک
tabadlah
igual
##what
janba
dekhatii
excell
qawan
emer
##mos
justicefors
##run
naveed
##lous
##hainpyaarke
wi
reminds
zabanon
sie
rhega
murad
papu
##zadi
ri
##amain
jaam
rai
sant
##qui
krdia
swe
##bdmaheshbabusarkaruvaaripaata
imthehaan
terrorists
ingl
liat
##wed
##eet
##shid
irritated
naahi
veil
##engy
##rik
ske
xv
##uat
##ows
##cup
raas
unfair
angr
mulai
nashay
aabb
ashraf
istehsal
obe
infinity
##nies
adapt
behtr
jinka
prabhu
aey
domingo
##khera
##gressi
ole
myogi
commenting
halkay
##ais
nashe
garv
##rrr
samjhte
hashta
##bian
kati
##gaye
isay
##rew
mugh
muhayya
virodhi
sendiri
##sters
buzur
waiter
pran
rahti
phup
khudi
taasub
talak
taftee
risht
vacancy
suv
tijarat
yara
haiaap
yep
adil
##nyata
aynd
##quei
pana
##mis
##vidhan
vamos
rahai
##baa
##aaan
##chit
##iiiii
khala
thok
disappointing
mamta
spoon
##vj
##jaaz
teesray
mele
leite
bahoot
jeevan
intiqam
ijti
amitabh
dump
alain
negara
amanh
princi
##cak
karane
##itor
##hindu
awr
nasli
##magar
loads
##aaaaa
dilaata
tomar
ale
pehnay
##cas
jiya
ohday
nites
parosi
tarike
kerti
vichar
jeb
dharna
salmankhan
zubair
rol
##meri
##پر
chaho
haw
ambani
##hes
suggestions
jano
rahu
##ickets
##rishteyhainpyaarke
khun
pawankhera
invest
selfie
##hail
umomi
##views
##سٹن
annoying
shrm
rukhsat
##antly
##ogy
neat
bene
ہیں
kel
replay
jaff
##witch
##esto
humble
uffff
minus
khoobsurat
nashist
##chel
qawaneen
jar
pn
naseer
suroor
audit
##aru
hazir
sahoolat
chhalang
qata
khadi
intentionally
##iri
preshan
shayd
charha
abbasi
tong
##backsana
وال
bashin
hasrat
ark
senti
chamcho
jumlay
pedal
##uka
chuky
parece
ladkiyon
makrooh
vak
##جر
tuned
sempre
##jet
devo
shaa
kripa
##cur
##esday
sid
hija
##aliz
stocks
bichar
sustain
tablee
sochti
betaye
sochne
cha
##gers
zulam
jhag
venom
khazana
##ente
muzammat
idaara
vain
jiy
##ader
krle
##hana
shag
pela
haqi
sentiment
motive
pahun
loag
sako
mesa
##malik
kagaj
sazish
mq
##aishi
ghut
chone
tow
masks
offended
##ues
dekhty
##mmer
rains
gautam
rula
##umho
##khon
##sai
ghalt
arrogant
shira
##fsd
chappal
ez
ntapostponejeeneet
yasir
##لز
copied
gaane
##bigg
##qaad
wasti
sahafat
padegi
paraston
malbosaat
##buk
seenay
mohar
praising
akhatta
fightbacksana
##tega
muhar
tmhy
rasam
##ورٹ
chutiyapa
firstly
sardes
overs
akailey
##uke
##hehe
##bos
woo
##aso
##unil
##pton
##ayeda
##uli
rehi
chipk
##tikhar
maslan
##night
tafseer
presiden
janbahaq
wc
hamre
aawar
wajib
##kill
pareshaniyon
ghusse
dheyaan
hu
coincid
##eb
sawab
huya
##maha
wallet
##abii
mutma
nashar
distract
fixing
morango
khooni
burger
ikhtil
##مر
##uments
pehna
##ustan
obsessed
bachche
##change
saif
##tag
bic
krs
beda
gaan
multan
panj
##bay
unite
##lit
ایک
##wz
clown
##teen
taaki
##ن
##ug
akhilesh
arzoo
atankwadi
sata
bankar
##yk
mawaq
nazil
tehseen
evid
qaw
tht
##یہ
ghaf
strugg
lateefa
anytime
reel
dastakhat
shiraakat
fab
slo
##heb
##unki
bhed
ehsaas
daku
northampton
##asion
patra
kutub
sdfsd
fd
##right
gair
lor
mik
##chh
khon
##hayy
##vida
genuinely
azab
pork
samjhain
aque
##انا
ladkiya
califor
wit
bcha
سین
khoshi
muahi
jaay
chung
tromin
spokesperson
##zone
bhejo
caliber
killers
idk
dhul
rozgar
##enaaz
parwarish
nahii
##vel
wahin
##lain
dosre
frazz
strate
esto
##jk
rhte
##writer
seniors
jamhoriat
##sath
##tk
##wade
##ڈو
##hel
##vg
darri
mamla
verdad
tayar
mali
daini
muahiday
aes
harassment
bio
fod
predict
##dn
##atta
inj
##tyon
##miz
##ffe
ins
##vn
choki
handles
aysa
dikhaane
ufff
winnersid
kkk
sdh
gum
doosra
##sto
judda
sahaba
trailor
ade
karwana
jaaiz
nhin
tiwari
mans
##jhoom
sajda
rawayya
bollywood
ako
ptm
##hali
##wu
sawan
loys
unhen
stud
bec
kindness
sarfraz
jalta
##llect
tex
chuslet
pouche
phon
##leha
kirol
##hic
nigaron
##rib
chhe
##verse
marwa
jaman
kang
latka
naqsh
##anza
gre
##bag
##alay
##andh
asimanshi
nikalte
##aidh
##jar
##usive
ejaaz
khoobi
raab
##ndi
muat
yahe
heera
##uf
exc
amor
ida
hisa
##aga
wahh
unseen
dir
##had
##azi
idio
jhon
bhug
weare
duaa
ayesha
podcast
peeta
bikhar
aour
justify
persona
##olved
jk
##nr
pus
##kum
##aku
gala
farmat
malka
chij
bakol
fuzool
miz
##نز
baath
ghor
##kowi
paisy
suka
ked
congres
mas
raahat
##paa
huta
nind
##pul
naara
hajhoom
usmani
regi
onche
todays
##blm
##sd
chaddi
conquer
queijo
bagi
##soom
lagen
pohanch
kenapa
lankan
mazkoorah
##uto
##noon
infir
tumara
hace
sabz
gaah
##dog
bimar
likhon
jeetay
murak
##sten
bodyguard
pahari
کام
khoye
bihar
##ghum
insano
opener
istila
sal
verde
arte
##cope
hijrat
vocabulary
sebel
tehqiqaat
qoom
tch
vese
shikari
mulkon
kattar
lahoo
khirki
##kun
muze
sua
suwar
##ulous
iftikhar
sikho
##gn
##nath
tarek
lti
tes
ining
chahain
chorr
chorra
th
ge
maaro
jhatka
wasi
سو
dela
acc
##atives
colombo
nigr
##waray
prec
nuksaan
mishra
beghairat
shees
mehdi
ds
##rangi
buss
hatho
drrpnishank
##live
jayein
muqadma
culpr
bast
sushantsinghrajput
sonia
##keen
qoam
mawaqay
kkkk
##weet
isupport
##iyr
##rier
thum
bajay
salaam
aon
##hc
amaal
##rator
hq
jora
##slaylikeshehnaaz
karlen
lem
anil
mari
reche
chalane
##cias
ign
clifton
zamray
panga
aamaal
##np
pore
uchal
ket
desai
##cate
##iling
ankho
ware
##uel
kardiye
hindutva
badsoorat
karnat
bhaiy
hamlon
bunny
dilo
badar
##fin
thook
shara
##your
bhuto
mosam
jaenge
manti
##care
##yas
samjhay
bakra
enforce
##charge
bheekh
mahino
kemar
hamdard
dikhay
##bit
kuchal
sangat
##gency
ws
##irt
ghula
manny
ghumne
chalees
##ینک
cookies
kkkkkkkkkkkkk
milty
uljan
infiradi
haior
hacer
##maam
ghatia
wajha
behtari
tahaff
##abe
##dhe
##appu
##esign
##pop
wifaqi
paata
jalsa
##tr
201
vem
osama
recor
jaegi
moot
gb
##rab
##olan
dour
sharab
tick
rangon
tractor
jatey
rep
buzdil
shaguf
##wra
abp
##ground
huva
lagu
##hor
##mane
##faat
nu
samart
janey
liar
frm
lyrical
##uga
secondly
ahora
ios
rakhain
naqvi
bakhoobi
habib
punish
rhen
##abff
##ayaan
bantay
institu
ranj
nyc
seedhi
##enta
nagar
prjosh
darna
##potism
mre
payenge
nek
chapl
humy
##rifi
pu
soh
prh
supportive
##dc
bigaar
naman
islye
bnaye
murkh
##ø
##rea
ein
khelon
patriot
sf
##strike
chlta
strauss
hates
##dh
##fak
##apar
rd
##ob
alle
killings
imk
jimmedari
isaai
coincidncia
embarrassing
setup
aimi
kripya
dand
hb
ihata
oun
parhai
abid
##uts
khatra
utt
ayat
kheli
##tern
safhay
##ttt
shumal
allah
zouq
bhago
moun
pursu
beshar
icc
##tabas
##hbdmaheshbabu
lota
batt
bachana
thakur
farigh
chandra
karra
##ikum
##roon
bheed
mangne
dev
dafan
caption
selalu
dhaka
cho
proves
##ukia
gund
پرو
##wm
anni
manhoos
masuk
irti
yaksaa
kheltaa
bazi
usky
hamesa
harne
nihaad
tohfa
ghari
bnana
install
bnane
andhbhakt
bhadwe
aankho
uboor
##oor
coincidence
aunti
##ahum
dip
charh
numain
insafi
nikaalte
##eno
mejor
muki
kamai
matan
pocha
salad
farhan
##gr
jurrat
toni
##wc
کے
##nama
prati
kaatnay
kaghaz
lindo
##aita
neha
##khna
shok
titan
lifaf
khench
poucheen
##ايل
junoob
hussein
naazuk
jp
nati
dramas
nahen
dars
##print
aadam
phn
yahaan
lana
##rak
maante
ispr
##bl
sameer
vhi
zrifi
kaheen
##hoori
takkar
shur
##kara
##cine
maseeh
uthayen
##rel
coma
estou
tashreeh
arvindkejriwal
##crisy
yup
yaq
bojh
##delhi
qib
اور
behave
sabir
##hit
##ony
siap
sahil
baseer
nishani
junaid
hooda
coward
nossa
##aging
##gupta
sci
taliban
aqa
propose
jak
##fon
jahi
daastaa
cobra
##stwt
fakenaaz
sspns
##ٹس
ghas
##ores
##roz
taba
##amp
quotes
resol
compani
##clear
comprar
mehakma
brilli
##akshi
karsto
##ahre
##tib
##otes
##sofe
##eless
aasan
netao
##basoya
ashokbasoya
khutoot
tafteesh
nun
karstofer
convey
##midesai
##itne
haft
oman
jaib
badalna
##sti
joking
heroen
judgement
aqu
ips
##cts
##game
jwab
##شی
##arid
meus
une
mehan
parab
tornay
imdaad
nan
vive
officeof
liking
gostoso
##cca
##asharma
##orry
humay
chye
gaadi
##unt
pav
ladne
deepak
##kokaraaraaya
dilbechara
guar
aww
warriorsssr
##bahut
istilaah
lupa
mne
takhayy
sunkar
maj
naina
blush
##wear
ess
padhany
charch
khele
boyle
##lana
narendra
takhayyul
##dud
##رڈ
##ense
bhikh
huma
bez
hararat
gande
jamhoor
##hasir
##chakde
mole
##gab
saccha
##karnb
mutr
satrah
##fm
fridge
hats
honesty
padho
raul
##govt
pursukoon
##karnbhan
##bhal
##aper
safi
badhe
maarne
zen
chalegi
hc
linon
hardik
##bhoo
ihti
maturity
##rana
##seel
##zal
anjaam
##nay
darpok
jija
iqtabas
pb
##amit
ghoray
##cre
wahe
shool
tabqa
dastan
jawano
fica
recommend
ht
##wata
##با
##usan
##aziz
##ctor
jeetne
krun
takat
hogay
ramadaan
##undinon
ille
choke
kunal
phatt
myogiadityanath
aaqa
گری
lagati
wee
##istani
dins
shamoliat
nope
sorakh
##asa
estar
elawa
##mula
baaes
coca
itihas
cheating
##ption
fing
karm
kray
##enty
satan
tabqay
semifinal
malom
daina
traf
confusing
wicketon
##istration
hashtag
ڈا
ravi
asd
moor
##uppor
tarika
##yana
litre
marz
##unk
rajasthan
##rek
ajati
syd
tereko
achchi
##یٹس
taajjub
appoint
kesay
sayaray
shakti
jayga
dasht
bhakton
abdal
festa
uddhav
hukmaran
murakkab
ہچک
migrants
thaka
munhasir
nos
laker
##kibaathai
niger
##ario
colon
farmatay
##sat
lunga
pagi
##sana
##qad
manh
pers
ayo
puche
benazir
daidh
او
riwaya
bndi
lamhoon
garh
##uqat
nafiz
katrina
eidi
##sociation
##leri
sachey
##pool
amuman
##jects
##vd
tengo
##vert
narazgi
karya
maje
ning
من
shocking
##singh
rafi
chant
chaah
aisey
##bhakti
helly
dushmanon
hail
ghatna
dareaye
priyank
qibla
karate
بری
mouj
takra
##xie
kabar
majeed
##rock
rhne
kasih
tya
فن
##kabhi
invi
brig
chasp
##lahi
sabh
##ners
mod
mb
ikees
kosis
nimatnay
##undinonkibaathai
گھ
pune
##thy
tosee
##apt
manipulation
##asty
darwa
shoaib
tanaz
rbi
##lem
uthata
decl
mohlik
##picchakde
bherne
siddiqui
zum
##راي
racist
##omy
cyber
hoor
##abr
darjan
amlah
museeb
##edar
wikipedia
uthane
zu
behtreen
##vate
jaaney
summa
##sofepicchakde
##aps
educate
arkaan
thrill
farahmi
dimaghi
db
##jee
regan
neech
lagegi
ronay
riwayaat
##media
lard
rts
kahenge
##eej
andhi
##idal
apocalypse
##hora
swt
chatne
elves
incindia
wesay
lam
##kook
tar
##zm
##ہم
nemat
##gna
tumlogo
pehele
kale
hass
pahli
yaaar
mudde
tadween
hich
abused
hasan
khawar
ling
dopeh
tarak
daw
convers
##ark
chalaya
##amily
ayenge
newze
hmm
perfume
smo
sami
##cch
ustad
pem
milit
shoro
greet
puppy
##ankan
naqsha
kardaita
gaddaro
vijay
inglistan
gk
lati
qasim
faa
licking
mohal
takut
hunri
fest
kharaaj
babi
##uz
ڈیل
tufaan
##sian
massa
chowk
edison
kharosh
##not
hahahahahaha
##numai
afsurdah
aby
humaray
mashq
todne
sleepy
gumrah
##group
rujoo
timeline
fata
##bid
##sos
jiyo
##bihar
##iaat
curi
asty
paham
gem
rog
halqa
subscribers
##یکا
dhanya
ang
aaf
saloon
auth
sagar
haipar
humlog
rom
##vision
adha
bilang
ayr
##zzam
##ksks
daita
padhne
aabad
##ٹز
##astra
arr
cual
ummeed
gaaliyan
vikash
uday
##dden
##urb
dews
krtey
##raaj
##mek
goonga
ajmal
creepy
##asih
soo
##sz
jungli
ansari
mutasirah
gumsh
mushtarqa
chate
##cer
ador
mathe
##walk
##chane
manifesto
sarif
includ
baseerat
wid
kapoor
##dam
##cn
kend
##eness
soya
sudhir
jain
shan
gini
##ood
anos
petrol
moto
condi
bilhaaz
taqub
##ganda
inten
bestie
##ر
rashtra
aus
sarfaraz
tor
najaaiz
creat
##beer
##hun
##yor
deleted
haijo
paso
##alees
bahat
honourable
takm
##jaa
tussi
##zin
cmo
tee
##wp
##urday
##esan
intro
##ono
apkay
stadi
aagya
fatt
rafale
bakhsh
balatar
dem
hypocrisy
gumraah
scroll
##miyon
cows
imam
##adi
##aniya
yaaro
braz
aqeed
dher
gunnah
##vak
##bers
##adas
neut
janch
compose
pathetic
gea
dynamo
##oot
az
calculation
qaidi
deserves
humour
nr
##jaye
tam
abay
##aje
aloom
hmy
daaley
chhote
tbh
zalil
insec
nashon
faqeer
karzzzz
yehrishteyhainpyaarke
akhaz
bastii
samjhane
##chin
brigadeiro
##inted
taab
nas
gharib
taswer
##nya
iqtis
pukht
chaheye
epis
dlhara
shagufata
##adil
sikh
hori
horr
##iyana
prr
##antra
##gies
##airaj
parhaiz
zubaan
lashkar
سلیش
##vid
مش
skate
##wq
dosry
bachat
cest
chhi
sac
##entine
gustak
##stud
##hyat
leak
dungi
firqa
khareeda
hogy
bakhair
dhu
dams
portray
mashg
wafat
ronaq
##dz
saww
yehundinonkibaathai
khayi
##ota
##iser
mustand
semana
qeh
##cg
batayi
##adian
girnay
waisy
garma
guria
##pd
bhosdike
athaara
laq
nepotism
filhal
ment
asa
kashish
##athy
apan
##sea
##was
manana
tek
pae
rahoo
sarzam
195
wasta
peeth
##www
##they
##iche
guinness
cb
##ager
scienci
muzah
traitor
darmiyani
##akshays
bera
vl
##alan
khya
banwa
##gaah
askari
eco
##ike
gawahi
amen
batate
flores
tipo
##core
hmne
invaders
sbki
kertay
##کٹ
indirectly
howi
sargar
liyay
nafsiat
musharaf
pill
sober
ul
dopehar
nashonuma
ive
lazmi
kernay
161
lgy
pukhta
lynching
##osh
niy
sd
##dol
irritation
haroon
##uddin
nizami
gao
hogyi
rizvi
adhikar
zanj
ڈین
##vee
bej
##aqqaf
##jas
##comm
##stn
##tee
kardeti
saadgi
bahn
tahaffuz
##aridgro
bait
cate
##bht
##fal
natasha
##kiyan
##anaa
astif
batatay
vaccine
faryaad
##mpin
kye
ہاي
hoto
jai
anch
intellectuals
##cky
booked
##aisha
chobees
##isi
obsession
sept
thokar
##sum
##unggu
rasai
zulum
##tinya
##shin
mulaqat
oven
shankar
ghaliban
tahun
##biggboss
darwaaza
##alho
toler
apologi
shaad
rahaish
tawaz
##ailed
arhay
kalay
jeetna
pakarney
badtameezi
##aridgroups
ukha
##shehnaaz
chadar
mongol
boly
##nae
##adaar
triste
##warna
pashto
##unce
mutmaen
##karnbhandari
yuk
##cream
##mey
prep
darp
mantaq
masala
kahu
ahadees
##fz
##haron
##iki
bhalu
##chakraborty
##ghter
gunjaish
prasad
akar
jga
##vale
ہال
lagna
bankrupt
pakai
asdas
##dsf
marega
tasalii
dal
bub
nut
pod
chewing
##رم
semel
mantay
namona
bhtt
punjabi
ikut
badalny
cin
uu
abo
hui
shaoor
maen
satis
gina
padosi
##heem
etni
##risunil
muashra
aami
nath
##dha
linen
##urana
takay
bua
dairay
ehti
bounce
daripada
anokha
nawaza
aii
pla
##shab
##یسٹ
bp
abbas
##alam
##chhabra
khaan
dib
rakhein
sundar
bologuruji
sob
ontem
cancel
misraa
##sary
siempre
vul
prediction
کول
##tami
vhs
##jya
##arita
torr
garbar
ayaan
bangla
##ashami
oq
sasti
##yah
pawar
bravo
jhund
jhuka
yahudi
madarsa
asaan
ler
dii
doh
##eyon
farakh
btstwt
wase
wdj
ایڈ
##vq
##aras
##never
baaten
muskil
impro
##akhlat
kasoor
##pate
muntaqili
ishtial
draoni
##ews
chahoon
badiya
rotay
airtel
##اکاو
lan
chairag
behnoon
jhanda
receita
##kashish
cwc
ghis
##gre
isnt
##esid
haami
impose
jaunga
choot
diplomacy
kayak
complain
192
##luar
gehray
munazzam
karwane
soonahre
##dus
bing
pessoa
marhalay
##hits
paresha
##rite
expectation
purkashish
##jection
andhere
koshishen
dnt
haius
karungi
banake
kamar
yok
translate
fao
##erial
knw
uae
##pubg
##gra
##zzle
##oodi
sarkon
vishnu
satais
ayaat
##oom
kanun
samjhti
headline
yam
##beeh
##ooti
aaplog
unatees
manna
ghaib
##dham
poder
vitamin
salute
##erita
hind
happiest
rozgaar
udasi
sdf
lazim
vle
rafa
rahaa
##wanay
balak
wander
prop
bagair
kutty
##tani
##ونس
##eye
hadaf
jindgi
##bdmaheshbabusarkaruvaaripaataurstrulymahesh
astifn
spice
##anj
##naz
dege
kholo
alhum
pele
##cap
kasmir
kiyun
stoptargetingsid
cada
nil
##gis
##chhe
khalaa
kinda
martay
##bir
faris
manipulate
jhagra
ke
gurbat
ak
##tad
cro
ved
moose
##feel
##یتھ
##engi
##harsh
beizz
kaunsa
commer
sherni
museebat
asdasd
imp
##rita
##enda
tham
hamwar
indias
rishwat
frnds
کیم
filters
##vpak
reno
##kaha
ayee
phul
budha
masterpiece
dhanda
shiksha
##selves
semelhana
aga
mati
rik
##mobile
heck
haip
bawa
thha
rakhey
boycott
khtam
mahadev
khujli
qut
seva
##asth
sok
manaya
kartik
wardi
rag
aany
daikhna
##gussa
گار
##sud
sewa
sawar
baked
sache
lele
exabff
uthai
borrow
civ
lkin
mpa
ما
##dyo
##vh
##vm
##von
##anja
##irf
hobby
bots
urf
transl
zalimana
wabsta
hungama
astyort
illegally
dolphin
##lag
kisaan
##assar
begh
temen
pakistanis
namoon
##fact
nana
ifrit
sway
gehrai
turant
soobay
taswerain
sdfdsf
hanged
howay
haaye
aloy
##por
nak
umoor
fankar
bigad
dushmano
dakhal
hahahha
subscribe
sect
cereja
phain
ral
##gk
hongay
##aao
basa
gradu
jazbay
interpret
accountability
sunao
chhodo
##babu
##airajdeep
qaf
##max
shru
hr
gimana
ping
mehng
##uss
ayub
diver
halak
eagerly
aabadi
garibo
##rajput
mudakhlat
imtiaz
مہاکاو
takmeel
aqeedat
aada
bdi
ile
katy
fue
##eekh
chronology
umr
lav
ento
mughal
tasad
profiles
khaufnaak
hazam
anyways
##fare
damad
bnao
digest
zeyaa
polling
msh
wht
سپ
##best
##چھ
impress
ngo
sehri
##ume
bhalai
boltaa
mubarik
weed
palest
##heeb
vedio
chunn
##sofepicchakdeindia
drohi
##oetry
##akhon
shaq
chr
asto
##thak
lahrisunil
##hya
salamti
sv
beeno
andhera
anjana
analys
##iu
imkanaat
zur
aaty
beet
##dik
api
baca
shaukat
samja
##uper
##ares
behri
beau
shaytani
faisle
parwaaz
nons
zyaada
##bakht
requesting
agha
##ested
hamko
manane
paaji
pahele
complaining
beautifully
utne
##awaz
nl
tmko
##cake
bhagwa
gumshuda
##wayi
roya
##lim
thandhi
clit
##panwi
africi
##eeeeeeee
waqia
fraib
##ciones
faal
muqaddar
rujhan
hya
kou
recipe
reliance
##oomi
inayat
tumhi
surr
##shaw
##mmm
langra
kashif
##rsn
jelas
riyan
##kkh
##agh
pedi
baadal
zindabaad
haspanwi
aatish
qatilon
pish
urine
##ikya
aff
abki
humen
agai
giray
##hang
anpadh
salle
sincere
aha
rait
jaado
barhta
assi
advise
thoray
seminar
junk
##peare
choup
aagay
galati
##ايز
##یٹی
partaal
villiam
##jz
haij
##iniz
nel
kisine
marenge
kinara
##bhak
##ورن
dans
streng
dafaq
alehda
##xy
khabrain
fala
oon
ات
سینڈ
acor
barkat
hassas
bheer
sperm
chhu
fatwa
sharmindagi
pujari
ajayeen
wusool
naar
chaht
tukron
assaar
marg
iphone
bhagat
isa
mira
rabb
dikhte
pohanchanay
unemp
proudly
hukmran
ell
yum
##atu
bhatt
achche
anjam
##psy
fli
iy
##bk
gov
##affar
waqfay
naamon
##ull
utk
bachchan
keren
hakoom
meethi
##fortun
lapait
bahaduri
courier
demais
unky
huq
peene
aaap
##pr
khusbhoo
pasandeedgi
karao
##huum
sansad
saqafati
maraslay
lakerain
jasa
##mish
##heli
takhat
niche
bakery
mafhuum
energetic
##thought
sidharthshukia
##ards
beizzati
nadi
centro
antes
hareef
tarik
ikhlaqiaat
zuba
را
##hant
khna
##team
haen
khatay
usmaan
cp
bhaieyon
doray
##pis
sanskar
piss
shehnazgill
correction
##cked
fot
gz
countdown
ukh
psychiatrist
کن
kejri
kadi
##get
saas
faut
##oz
randomly
##pol
ghamand
brahmin
zanjeer
villiams
vk
##using
wazi
##ums
chabis
krdiya
lagwa
##thon
om
phoot
##یون
rajdeep
##iyoun
ignorance
##quier
##aine
haqiqat
categ
che
eman
ima
سیل
##screen
paz
##usta
##eesh
ghlt
maane
batati
shariat
hovered
daira
##wes
opport
dhokha
##gc
iqd
obc
##dupoetry
nigrani
##why
gag
##leed
##aland
##isas
nein
pluie
hasad
yin
tambm
zahiri
khailtay
ajao
mithai
ansu
ٹاي
rawan
anth
sabne
##tary
nokri
hindus
##anga
aaega
psycho
probab
buen
karege
tayyaray
guzaarne
sly
pulwama
##oya
dant
##aktay
hee
jaani
khait
reci
saktey
zibah
##winning
sj
dar
نو
ہول
afsa
jaayenge
##idar
##tain
hamy
##aliya
taari
arhaan
wahein
##ریک
jayda
mooh
arahi
##gb
aho
gnd
zey
moul
sota
sita
nikly
behter
fac
kasrat
joly
nangay
jamhooria
pueblo
jaadoyi
trait
emaan
##dhan
hailekin
##icult
unhain
ghumao
##baal
wewant
charah
mashwaray
playboy
##congress
bacchi
trolling
meharban
tanazur
tyar
##zah
filthy
badma
slash
sahiwal
kitno
basi
##youn
isis
ikhtitami
chillate
aatankwadi
quarant
munsifana
ril
zaid
##لڈ
##osid
##andhan
##hadry
wasting
galiyo
vc
qarz
##jak
mont
ngga
pohanchi
chahiya
chhorna
gst
tdk
bahas
bhab
jaad
khami
gii
qaaf
##oooooo
pdta
shehnazkeaslifans
kuj
zaw
melay
nep
sakal
shoba
mazaak
cebong
gulukar
مہاکاوی
paj
کون
##ende
ahl
chati
##elo
haaa
##word
##edes
gin
boliye
sigl
chohadry
jasy
qassar
positivity
kisay
manus
firse
qabliyat
tawazun
fani
mirza
sila
vha
##atiya
hamri
yen
##gee
##veen
allha
imandar
##doz
hayat
charcha
aand
##follow
tease
##case
##hena
##bot
##iski
##ird
pechay
marathi
##dies
liey
esp
##eeshat
##lik
cris
jamanat
buster
aazadi
maizban
rust
##ital
qiyaas
priorities
hashmi
pseudo
##guard
##لنگ
##akah
suha
rammandir
mardana
bt
##lift
##xt
ju
truce
ghatya
##dah
##wy
younis
gungay
##hk
##ایک
##abha
relie
ajar
##unda
kalma
##hari
richest
kharja
mamas
hansa
rashmidesai
bewakuf
##uur
##cious
muse
khd
sabzi
ternyata
zarori
##name
##feq
paling
avr
##likat
##int
rut
##leel
##kiya
ladte
jaroorat
guts
shu
bhakts
intizamia
execu
angraiz
sardesairajdeep
bch
yhan
yadi
zat
##arrest
drone
bhaisa
mooli
##roor
##oori
##versary
##hop
jayege
estoy
pichh
waktu
penal
##bis
gardish
hydro
westand
cuz
##gado
##gling
cans
kase
##ikat
khra
haam
afzal
bany
mainy
##tley
batay
##kumar
##amaad
chandni
tasweeron
##usti
por
bekaar
itti
hadsa
chiye
lais
##bandi
##joo
unfortun
asay
daly
harj
##ان
##hammed
muthi
##ftari
##iq
##ولا
soinsdes
ور
وا
hillary
aapna
prag
ghadar
teko
lim
copi
faraz
jong
mohan
taluq
bahami
##tem
##ught
aditya
unhy
kalank
##ending
utr
hojayega
irfan
bapu
gangs
gumshudaa
ias
میگ
##lg
maeeshat
sohail
harr
sig
contri
malala
jalte
dye
matlooba
papad
##itation
info
strai
##writing
chhootay
haadsa
shahrukh
ubhar
##vz
keeray
intr
khabi
##kur
petr
khudko
karogi
choda
##iyaan
drame
brh
kung
bnany
safdar
kregi
aos
zillat
mahat
kerty
mumlikat
bndy
choden
shakspeare
##oop
faaslay
parcham
ww
waalo
hogae
##eni
181
ulama
##chal
##llah
bechne
haramkhor
##dasht
##pra
##akhi
agaye
musi
##adif
##viet
como
bhumi
awan
##vaan
corr
##icion
cade
kheriyat
##erson
occ
mla
##pper
نیو
##ili
aapni
##laab
aawazian
jase
hearted
lehar
sarzamen
##fx
segu
##ady
manay
pastel
vous
atma
nafees
yrkkh
karwao
rais
swal
##wate
kej
kopi
##akhir
manq
##big
bhg
gharri
jinhen
desde
teeno
athais
harkatein
##aged
fools
##رک
##abat
qaeda
##laas
khaane
ghaas
##hwa
naame
bikau
youtub
bs
berozgar
lori
hijaab
کرو
rot
##ades
aurtain
banayi
apradhi
akshaykumar
inclusive
##itude
jootay
til
saudia
wehshat
##xa
yonani
ita
ullah
##ider
veri
##arr
##asya
lov
jaany
tweetrhea
khuloos
##indian
wakai
##ushantsingrajput
nh
namodaar
##gressive
##eres
mamaslat
dire
umed
##inst
bilash
inspire
zindagion
dhoom
parivaar
ky
##hutto
kkkkkk
##tok
stokes
##color
avec
kain
pg
##ometer
فری
##hry
##ڈس
##nao
apps
alood
##shdd
bujh
jago
nikale
##yog
laila
pessoas
pighal
##khwa
barab
wahab
nikaltay
dice
verga
clin
##ight
chupkay
gulshan
lul
vari
##yav
lac
khasa
huway
honton
##maari
likhy
swings
urdupoetry
surbhi
jamin
seekhna
pehluo
ily
posh
yor
jaari
dai
confess
diam
##nnnn
ahthyat
bje
tabi
##harif
ashaat
##rish
##hahahah
##ungan
hanuman
daikha
likhti
##put
vase
##bandhan
fabulous
pohanchaya
tarde
parabns
unemployed
##sood
shay
##uar
##شن
troll
lemb
squash
superstar
matam
##llll
len
basti
talkh
pahly
fazal
##jana
meta
lao
bhejna
selamat
taiyar
tadad
jajaja
chasham
istaq
##udu
kisam
trs
qi
minta
lado
tad
hara
dhara
##ونی
rhti
##kind
shirf
bakhud
ghoomnay
ijtimai
haiin
haiwo
abir
lama
bhati
vent
khaak
thankful
doz
barra
muslam
jinah
mutwaj
##oran
sadma
peetay
##ulo
daaltay
mono
jadugar
bilashuba
beem
##loo
tetap
##mited
##hayak
finan
cl
hifz
sukhan
wkwkwk
##iab
##olin
##pho
##xic
hijar
frango
##watch
lagaata
heiek
heroine
bethnay
rajiv
mutwajjah
wro
##dosh
antar
huwi
darw
##jah
phirtay
skr
epi
vag
sunni
##از
karoo
##tri
anand
##sht
pechy
##htr
tarh
##awi
khushiya
jamea
##xp
hokr
##akya
muda
bhaad
##mat
samaat
##jit
tarfa
amir
inspe
sar
ayse
##act
##ories
puta
rabta
##bow
hafte
##pehle
پل
##anan
bullying
kood
appr
##ithik
fore
poe
itsssr
bartao
conven
##ators
##dp
rehnay
nika
bandhan
btaye
muhafiz
tofeq
chachi
##coming
yaani
vot
##mot
##db
padhi
##vant
jahaan
arsaal
dictatorship
katega
soinsdesupport
ehal
##uras
nakhush
marta
##asing
sai
##grhe
##cles
bahaali
taraqi
vapas
pakhtun
dislike
fos
wn
##pah
nok
##lion
pakde
ens
choty
bjpindia
mubark
bethi
khayen
cigare
aver
sree
punt
##this
##xs
atari
naqaad
jankari
##rop
scarf
rhaa
urane
resp
idher
puchh
inspiring
binaa
gub
phaar
kahiye
parega
khadim
taur
nap
masalah
reddy
esai
##leader
faad
samjhoo
jamaaton
##heers
##adari
outrage
khare
##kawe
manj
breakup
dawai
chalata
##ciary
pehley
##انی
besharm
ghotala
##thoughts
awar
##ilar
bas
##sb
loh
prta
##devi
hype
ara
larky
bugh
daalna
kris
qasbay
wich
cel
taim
بار
##fq
##hada
cinemas
deo
dehi
##uman
boa
chul
kindly
patwar
mushtaq
##gery
captaincy
certo
deepika
badmaash
tbsron
##lh
##amb
ravan
awaj
##ald
hashar
patri
mashkook
##qa
seekho
noman
tableegh
mutradif
tx
aatay
ola
##inin
segunda
kaj
hani
hiss
##usla
parney
nasal
dias
prak
hamal
amaiz
denay
tassad
drik
irada
##یسی
philips
radhe
dogla
layein
islaah
##any
##phones
kanhaiya
gord
##oti
##ید
##uo
##osha
feal
fankaran
samsung
qoul
mutasireen
nigahon
mukhatib
khoofzada
fankaranah
auqat
equi
naaa
aurang
liaqat
##dhi
baher
waadi
mig
bnai
##irect
yaden
rupees
devol
garibi
niklee
##udhry
bkwas
masnoi
aj
aek
camel
fla
muaqqaf
thali
bhay
##haty
barkha
##oso
jite
##antu
wasy
ladko
nange
hakoomati
ڈیو
thaam
barhay
gibi
realise
uthatay
dikhawa
uthao
udhaar
pandey
daraona
##posed
sheeshay
ghee
lada
##lari
##مم
bhait
contr
jale
ilz
swamy
recei
nadeem
oi
uber
##azm
kamran
##num
gua
zarb
mins
tmhri
resta
dhaal
deix
khadsha
wen
##bey
monsoon
cah
##alman
kaand
##lied
arshi
adda
##ih
mehman
sensi
nj
jaraha
doran
##tivate
##winner
pyaari
jare
rumours
spr
bhaj
bhashan
token
##wao
dekhy
##alize
masum
perman
madhar
murti
rokna
##leaf
ismail
prostitute
aanso
##lace
dfa
sud
diri
kora
rawi
achar
falsa
##gned
giro
honeymoon
##black
ہچکاک
emb
##aon
##wel
##pdi
##osition
##abki
islie
sucks
rawa
stal
individ
gandgi
tolerate
jarjya
##ولف
jm
##geh
keval
##saaz
##angat
##ckle
rahnumai
akram
taqleed
larna
dekhieye
bja
ایم
##erah
##amma
kaz
seerat
khty
soi
daano
coisas
akmal
tsunami
khuwab
subhanallah
faasla
kny
bolny
##trailer
dalla
harkato
jgh
kana
lum
##bt
lub
tj
ves
##agandhi
sampe
exten
lila
katne
mrzi
##paksh
##kashyap
##won
amigo
gamzan
therapist
jehti
fon
samandari
gaar
khani
guil
bachaye
falan
##ads
samjhaya
farmae
ashya
##sible
seena
sop
##ß
amad
##ubarak
likin
##mohan
cru
murghi
nangi
joker
katay
کور
##att
##mom
##سک
parhy
bhij
saahi
dae
munna
luta
ol
##یلی
nico
##ndon
salamt
sambit
waisi
bel
khrb
##child
revol
##lica
##flix
infor
maino
khandaan
magaz
aamdani
busr
peechy
lathi
paste
aarha
jajajajaj
vin
##cional
vande
##cera
##gap
##vraj
aapa
kahn
##par
voy
##eraan
aqeedah
khilafat
##fiqar
gajab
iqdamaat
edie
ہے
barking
lagty
kamu
jameen
##party
headlines
airk
rum
shehbaz
gardon
neelam
ite
sush
wesa
نیک
rt
separ
khwa
unme
chean
twt
colom
compliment
bhejnay
bahaal
munaqq
nagrik
hafton
newzea
khte
parliment
chauki
hien
laatay
ishkarnbhandari
videshi
ruswa
pena
screenshot
munaqqid
nye
ea
##hoo
keti
respectable
##nifer
mujri
asl
enjo
aji
##dl
paraschhabra
disgusting
mutazaad
lngrhe
dikhega
muslimo
cod
promo
fsd
sino
##ة
rind
karai
ishehnaazgill
dese
dij
barhatay
rahn
talwe
##beat
##ايک
badalne
##bana
187
guzarte
priya
jumma
tehqeeq
##ghest
سینما
homework
##sol
mashgool
civili
pindi
pcb
##heikh
##ardar
quiz
barbra
##chain
pakistanzindabad
enquiry
##hil
imad
madham
sbhi
aagy
fida
bethay
dekhega
##aharashtra
dishaandssrcaselinked
##mumbaipolice
chashma
##olar
bv
##cist
soal
##mach
cheharon
hassi
eles
ishwar
dyn
juta
prachar
guzr
phair
jaadoo
encore
swi
##dmin
##uni
baja
naagin
mucho
bety
bleed
beneran
dedic
cz
لار
##omo
keluar
##heet
##chall
##vet
lib
muskan
wahn
justo
gumaan
##maniae
badhaane
dhakka
juzwi
cuk
kem
dani
tof
##endra
bolen
tet
umda
sadd
##quad
berarti
##hala
##ورو
tbm
plata
smuggling
istamal
yuhin
himanshikh
eesa
kund
zer
##cab
haimai
##iyar
mocking
khawaja
niya
tanzia
dooba
afsanwi
jahilo
tally
کاس
aux
tourn
##nav
aba
##apak
anjaan
maani
pakv
batayega
gusa
khany
##iso
##راف
sulah
dorm
انٹ
##sic
tarkeeb
coinciden
afsaanay
##ored
discount
parhe
parho
##lihat
hmko
quase
puchhte
falar
##knay
##hatt
##urt
##araan
asman
nie
rahim
pakistaniyo
naib
awara
esteem
##ینا
mubarakbad
zil
##khay
##vai
##وا
isil
parchi
keel
##sher
sahara
awaited
##iyal
bolon
kalik
tmhary
hem
aqsam
##یوس
ehsan
##respect
iamsrk
muatali
kse
##jt
kasar
##active
hau
sochiye
baatain
craze
##uje
dhandha
##protest
pik
##hass
##iran
mua
hinduism
taaz
masom
##mantri
mutala
pts
nazare
makhi
betiyan
sadiiyon
ladkiyan
sinatra
چھ
##vx
##tl
##abo
##kon
##hatar
##west
bois
##waat
shoiab
patni
khushiyon
warana
garo
##kk
identi
suspen
tashaddud
##bachchan
##yuki
gent
aplog
##ln
##hob
##chap
ghata
mamle
##ullu
##banon
kahun
amaar
waday
zati
##ayy
rakhty
mutta
##aseer
fauji
lgte
mustafa
udhr
chahey
istifa
maghfirat
bnay
eres
heroin
heh
wastay
بھ
##vsp
shaista
##gua
mauj
hasb
##fr
becharay
null
muskurati
guzaraa
raga
sachay
stor
##pas
aaas
##fiha
viet
amethi
ibrat
ohda
mansikta
jaayegi
##vr
##winninghearts
gid
yt
tumhri
sabak
##vu
reg
prblm
dilaya
jaison
bagga
irony
##sun
mashwara
ehsaan
israar
chipkali
mei
wraps
##aba
mong
##lea
gu
syed
mosi
muqa
bray
khota
tootay
##sanjay
boorhi
tandr
jashnn
ghulaab
tassadum
falo
mone
snd
termin
onc
##waraj
spir
qadir
katil
##uba
shikwa
##see
churail
phisal
moattal
astodyo
mza
kau
andi
##lai
amra
ghaat
##zarat
buts
chalate
justification
sheher
##now
haqq
##wabit
nasr
khelta
memang
anjuman
hypocri
edi
puk
##wers
kiani
##gill
##jun
kaseer
baani
rem
##deo
##cd
arshad
aajate
geer
behria
sep
##vaaj
apr
barrister
aasmaa
fia
mina
##bechar
badalta
##pressed
khailay
allaha
pusht
##xz
##ehri
tr
huna
##idnaaz
barr
##meer
jabar
smaj
maqsood
bhout
nasib
##bedkar
zari
unlock
vida
##airat
nax
##nat
karanay
khwahi
helic
admire
rig
##ink
mouti
masal
mv
salana
thous
##wei
elan
##odes
##rar
fattu
memon
##talees
holid
yrrr
nhy
bhage
##lein
flu
khaka
khawahish
logu
pasnd
##vos
wil
##endar
thnk
##asimanshi
roznama
howy
##cke
pret
191
##برٹ
organi
puede
ml
dall
##alagi
##asingh
##cula
bevk
ush
bonding
maai
##rahi
peeri
tua
gaaya
##ukam
raksh
faraiz
historia
##br
frma
##post
##ask
rasa
naslon
applic
rozay
yearsof
##uter
karma
##yya
##choice
mmbron
nirng
influ
##mbre
muskurate
actresses
aankhe
##shabandhan
##maniaevery
cari
srif
##jaz
##ushman
alia
kamjor
taknik
pera
rozi
laranja
kali
esc
leny
##while
sadme
##jos
gaa
patah
menjadi
mukesh
compan
abd
ganday
jamhoori
falando
forecast
##firullah
ahmaq
##withsidshukla
sawanah
zani
برو
##mall
##xposed
swap
##aming
loe
ghn
moha
amm
wasail
194
tanya
mulher
dolly
##uju
med
hakkaam
syn
langsung
amigos
##ername
##ust
quarantine
##ml
##ision
shama
falta
aazma
akkians
okk
197
fuse
##oofi
inhon
hajar
abang
jou
tau
##safar
193
mujse
doum
tav
kitn
madni
sadko
##hong
ching
##wife
bless
makanya
admion
kkkkkkk
arrestrhea
##sharif
##kana
##pil
##lol
198
##cido
kaata
kahein
karnam
nz
##jer
det
paat
frn
##zzz
int
zaar
warzi
outro
raton
majboori
aare
shal
viva
asleha
##angana
advert
##rim
esliye
chim
##ffff
reser
##wari
##asily
chalaak
##gls
196
swadeshi
ganja
besar
lanti
wehshi
pahucha
aham
dudh
zali
##نو
infe
safa
adnan
##osi
feminism
##lat
trus
tweeting
##alekin
dhona
phatti
snaps
btay
لیم
##akes
##kol
saaye
##ubah
daala
neighbour
sap
gangster
disse
mangtay
stalking
khabardaar
beej
pyaas
ihtimaam
audi
##بو
haibut
##eram
panchayat
toa
apakah
abhe
thehr
thii
targ
##hetic
swami
sark
##urus
pukaar
##ولی
vict
hussain
sagheer
vay
##zeeb
##tiwari
vie
curt
##station
mute
raag
shauk
wallah
doori
koii
peeron
assh
niti
##press
pasa
##ورا
juwaz
khola
cutie
cs
izafay
ao
verified
shehzadi
bhenchod
sidnaz
khyaal
wla
لاين
##noo
shait
shami
##raak
sunaya
jine
##icient
cleaner
meher
rasmi
##mur
puncture
broker
swara
swasth
naqid
##gil
rokne
evict
aqalmand
##rajaat
zayda
wy
karish
##jahan
baht
##warriorsssr
lakhon
desse
ruke
zulfiqar
ngopi
##اسی
joota
doo
almiya
astagh
ayndrsn
helicop
unavailable
dhab
fuk
otaar
sooo
##gak
kawish
isb
##nawaz
bantu
nive
saram
thanday
tmne
##bate
danoton
phli
maqboliat
giraftari
سینماگ
##yun
hok
engr
achchha
##itch
daaron
phati
##hea
banegi
serum
enjoyment
parrin
auk
bny
cis
phad
magna
yy
##vati
ڈیم
##baj
##almankhan
nawa
##entar
chow
marak
mazrat
welove
maarta
dise
learnt
tao
##udy
watni
waaah
bhy
بیک
bali
##jq
##kari
kahy
depan
hamra
pl
asate
rahee
paati
karobari
medicines
atya
cheezain
##ینز
##لیس
qanon
badnami
##sei
samarthan
aaza
hty
sse
ھلن
haikya
khora
geo
baas
mullah
##itra
bela
loos
mushta
##gor
batau
uthate
pgl
vm
##uske
hush
##ikl
##did
merko
sakt
##hindi
rivaaj
ghareebon
tashheer
critici
chahate
trib
programmer
##یاں
obri
##iyorum
gee
bewkoof
vamp
musibat
suth
##کار
sett
sindh
loon
bhali
hm
##aquat
bey
##mandi
mutlaq
esque
bnde
pagla
gadhay
gems
##poetry
oro
dhongi
##ووین
chamchagiri
anal
nitishkumar
mohtaat
گیل
##here
##wag
janata
##عم
##arsh
##ench
##itam
username
choom
dd
takle
forma
jivan
rehm
carne
##ونگ
##aarmy
eats
sharaabii
donkey
weraan
##orati
kron
hamay
amg
daam
atas
jayaz
mansab
klov
ikhtilafat
ronaqe
wasim
tumhre
##republic
##chaan
lame
adalah
sans
bikini
header
abhishe
##xx
suc
##ulator
sharif
namanya
bachcho
jahangir
naughty
brt
gaddi
aarai
milo
##akaar
zehn
runuma
##atin
sekali
##muslim
hukmarani
##ester
hume
aadaab
##rates
ھلنایک
wic
##fh
elector
##xm
##union
bis
lokt
dilane
kirn
sanatan
ulj
iraday
predi
misalein
jt
فار
##dawards
##tom
dilwa
##ulu
##dekh
advo
enko
zindag
jaanti
jaltay
supre
safal
bhejta
balouch
buzurag
waziristan
##stery
muslmano
rply
raabtey
coincidencia
##raz
verify
##ako
##bz
thapad
bemar
mahaan
yer
boi
likn
basorat
sbka
pokemon
##olog
paragraph
maravil
##dulilah
creo
ssrkilledonjune
usoolon
hathyaaron
vadra
pensando
entertain
aaasaaan
##lles
kori
bawar
saali
aftaab
banadiya
##aston
##niya
manof
biasa
kuki
dhoke
guzarti
izafa
ikhtiyarat
jeso
##fight
dakhla
khwahisaat
dut
ewaan
patel
jute
##xn
##aira
##hak
motay
##adaari
nazeer
parcel
##cl
madadgaar
manao
angrez
uthta
qureshi
##lab
munafqat
tadbeer
neigh
shia
nusrat
paneer
azmaish
dake
pdh
rcb
mart
##ikal
##isto
##osron
merey
##aran
##andu
chotay
tooti
kholnay
nirdosh
##mt
deedar
rishton
hypocrite
bsp
kite
ghir
##loob
189
kaanon
sotay
liza
tarbi
greedy
adop
siva
lae
ikat
tujhko
afghani
gupta
bichare
##000
buzdar
divor
lughat
##ej
pankaj
iqtisadi
joot
swa
vento
##ٹا
kafan
##apur
##orum
##stra
anup
raham
marji
##tarah
esko
khit
##hini
##bies
dalna
##یلا
falsaf
espero
sebelum
jika
kele
yaan
asani
gawara
sidheart
jita
##eday
ladna
guzarna
##hui
##kee
##nl
ijlaas
dhong
muzaffar
shaandaar
wesupport
itihaas
adhuri
##dition
quota
swagat
mommy
salaries
fasaad
saneha
knyu
khoraak
##dli
unpe
chk
bharta
bale
hojana
##illy
hack
shakl
budhi
bulb
waalon
prabowo
aari
pde
kemb
caller
mea
nau
koye
##arts
ded
##howa
alp
kilometer
banakar
activ
rehma
frans
puray
##agem
lgaya
kutti
prim
benar
autral
##khilaf
muyassar
waheguru
yahudion
autraliyai
ghe
oor
##ject
##gd
##xq
##dio
pard
##irat
abr
peche
darti
taran
const
hopeless
atomi
duwa
cheezo
wahhh
spam
##paras
##lution
mansookh
rumah
badhaya
##رپ
##شا
anok
hue
milho
ahsas
##wajah
yahoo
##lane
daalo
quiero
hainap
tamaam
bhabhee
سینماگرافی
bni
##call
banin
##andal
sog
##oting
pang
paan
admir
##karna
flirting
karnaama
samajhta
##ngy
yahn
pichwade
ooper
##ush
dharma
kaahe
jaizon
shubhkam
aalim
dgls
qadi
abusive
##soon
##ڈن
##haye
##amin
##adti
##tified
##chari
##yen
##zak
logg
atanki
##pose
##tur
##allu
dormir
dastoor
ghotale
darpaish
targheeb
ہن
##gat
##مپ
kiyon
##eny
krt
entr
hayeee
av
mimi
padahal
shumari
dapat
##bara
ras
##dagi
sekha
199
mogam
mujas
bully
adliya
##kaya
mazaa
liken
byan
##zam
katnay
fico
imandaar
hul
##mul
##omen
khaala
akbar
migrant
shaikh
##loves
mobil
agu
jabardasti
sarpar
padne
realheroarnab
cualquier
pareshaan
grafk
muttahid
##thing
##wet
kapr
##ajay
##rahe
##deli
mazhar
tehsil
kiyaa
##fel
mamnon
baithta
gracias
kharidi
khabron
ciudad
##chu
##morning
tarakki
chhuut
falsafah
philipp
##aly
liri
piyo
##mkb
##rano
##tious
##fn
isey
baqa
theak
lagan
dob
##oman
ely
##shuk
##pire
ghadd
aajao
##aq
##hinde
password
goad
encom
deshbhakt
##ینج
asimkeaslifans
spons
fiquei
dhool
kholi
##emic
##show
##cbiforssr
##mani
tibbi
##creamsc
ehtijaj
##لیٹ
##hackeray
##aiman
##eli
dewan
##cao
khta
yaara
souch
barometer
refr
pahira
##یناس
##hriram
poocho
hrithik
aazad
##یشن
##yed
zeenews
bayaan
##under
##zul
leves
logoon
##waah
waqi
sidhe
girta
kharay
mazaar
prepar
shameful
daraamad
mry
اٹ
bram
##adha
madhya
raasta
ghun
##lena
bolein
##phon
matri
sarm
prody
##lb
scr
dalne
gaddari
##kten
oopri
tomato
dipika
recheio
مونٹ
##wasi
##kanay
scarlett
fern
##aiy
##onk
nabu
apalagi
ir
lagake
manate
##roh
menang
thankhowa
##iiiiiiii
##astic
mehngi
prom
buzurgon
porkistan
yhe
##squad
haikoi
joor
krwaya
khaaliq
perlu
umpire
munir
##baik
udh
##aaaaaa
failane
##bissr
vyakti
qiyaasi
ssr
##lett
##choiceasim
prodyosron
rit
##tement
##tery
inme
ud
##dip
bhaap
netflix
noori
dekhkr
condom
##demand
ik
jaisey
sarbara
##bet
aysi
##aryin
pregn
jelly
semangat
masihi
officeofut
laqab
##mian
##tial
rye
mushtael
sint
wjh
##maz
haid
bhim
shakh
bu
samet
##omi
ghaar
arn
##sas
##matters
frk
logoun
jalne
roe
##imrankhan
junoo
pashtun
babu
onion
bashm
vcs
##df
##himanshi
sarcasm
haiii
tota
dehani
##irbhar
##ayein
##astha
##ffa
shram
quwat
qualif
fig
hamarey
swee
berojgari
daj
qaryin
ucha
##لس
algu
##lr
banani
nah
dekhle
manne
chun
waqf
doshi
imf
shiah
mangni
cosuon
naqideen
aain
fasal
jyo
##qai
hotum
##aban
##eev
deput
tumi
ro
bohra
chalty
sharait
zarf
upsc
outsider
dhaaray
maharastra
horhi
mahirasharma
muzahmat
dora
lh
##sham
pdega
##aiya
kapt
##iyun
##dible
jauh
##kaa
##kaur
dois
barkhilaf
mma
##mata
##gey
hamse
gi
ambedkar
shushant
tej
chik
##hee
fiq
katwa
##یور
oleh
hamaare
##maniaeverywhere
fud
lora
##کے
haisa
##udi
##alty
defe
demag
odi
##achi
leken
khak
filmsaaz
##ental
amanat
tarap
sial
nikali
syasat
chok
namas
ono
burj
##mpo
qabzay
mandana
elaj
hosakay
##ugal
kurang
olsun
talib
sambhalo
mathura
hostel
qabrustan
kabul
##فورڈ
##enen
yd
##ismo
abuses
mukar
reti
niaz
sensible
mareekh
shes
##antee
rihayi
survi
maanna
##nnn
disagree
libre
vodka
tabdeelian
pranam
##yal
qawaid
saahib
##creamscbissr
yom
##bagh
##raiz
kaag
kaaba
##tawa
accep
mutnab
patak
sikhata
sooch
lai
prima
##ples
nawway
##bina
besharmi
kail
kc
ninho
ragh
##vadi
##qab
bun
bastards
##endram
naii
sayasat
bueno
##kia
##ngtn
tareeka
pues
rahyn
brasil
chudail
karleta
balatkar
aastn
##kim
viewerschoiceasim
asateza
##lani
gori
nare
rb
oly
sha
paji
sry
dipl
sote
baradri
rehan
##jawab
enc
hmain
shifa
aagey
kuta
##aur
mtshdd
neelay
##cter
##tour
bolegi
zimmedari
##rain
rakshson
mutnabba
dw
فر
humiliation
##gada
haito
savar
abbe
jokowi
itta
kameen
mushabi
sallu
sura
##dsn
ut
avly
sazoon
##realasim
manofword
mushabihat
##eeza
##dry
##tico
parag
thackeray
yaaa
biz
aziz
##log
parasite
##dule
auf
##aanrc
hukomat
##braan
manav
##issa
##oyz
jeeny
govern
vibe
vp
ssw
piyari
tolong
uzma
ashiq
lazz
bhadk
bolos
kamina
gaay
jaanay
crores
##oration
meio
akely
molho
bazm
##pura
qalandar
maths
dahaiyo
kemaren
manofwordsid
qilah
##zinda
##have
dictator
haiek
debat
inqal
mazoor
sbke
comprei
##bhagya
drign
##tm
ishtiharaat
protesting
##budar
cheers
vivek
vg
کوری
waqti
chalen
queta
bachho
##fthe
pahchan
sikandar
##ication
musalmanon
kamzoree
contro
balakot
ath
smp
##uals
banany
##gold
chew
##saab
asma
imple
##aby
impos
buut
quali
regal
##ined
balky
khich
jnb
khatarnak
##uld
khamion
teek
quran
تر
hose
hari
##hpa
##dadi
##jata
##pand
kie
##lom
raft
bose
##hartha
muhal
sajj
##ulan
mael
barat
takraar
ib
janan
aajata
shayri
##vaad
sadhu
sanu
flori
dhek
kiyu
ghaltion
ui
observ
tinggal
injustice
##prabowosandi
##withasim
distan
ڈار
##meh
isk
##undar
apane
baw
abtak
yehe
moula
agey
adeeb
rhain
##bron
##sr
prob
mecca
quom
porra
##salman
begairat
uploaded
chahiay
niklega
lal
weekendka
bayern
##dai
mutabqat
bashmole
aayen
bosa
okat
donate
af
penting
lau
##jud
khwaab
##ayegi
honga
ashir
taan
##antum
tal
##asi
drd
utho
rampal
##سٹین
americion
pichy
madhuri
baaghi
##goldawards
wazifa
mogambo
dolat
hri
mny
گل
##سکی
hooo
##ajaja
bei
chly
tute
##giz
pee
maror
##eedar
poco
sul
##mail
##working
padhta
dostana
wizarat
adakaraon
khareedain
پول
tumhra
##athn
##loon
mobay
##shton
barhi
npr
kisano
amb
badbudar
sochty
wasay
gandh
dent
sarey
chahata
zeenat
##stream
riloyz
gordn
wani
##tya
##riyat
##ajat
theka
##years
dok
terha
jammu
taak
enak
##uber
coc
rhein
padhna
gadho
vuelta
mer
##guei
chhupi
pouch
mukhtaar
reyaston
aashna
ghaddari
bohraan
bala
ih
##bast
napak
##lection
bolunga
daraja
##bard
andhay
##tionary
ff
choud
##ahu
qabail
murd
askati
primeiro
mimbraan
dl
##loyment
yateem
aquele
fid
jnab
##jut
##چر
hom
chae
mohajir
sabores
barqi
manda
##ubha
marboot
uthi
sadqa
##gou
##veng
nakara
khilona
##itswaraj
shahrah
##tral
zumra
##install
##abkibaar
oe
oli
zaki
gel
اپ
kaala
inbox
##astumho
taqw
balik
##hram
talaafi
begitu
sulaiman
##oof
kharaab
dramay
wusat
##stand
sohbat
##challenge
cj
##qan
##esty
shaakh
dekna
condu
zavia
zamany
beron
jasoosi
tasawuf
shehzad
bhadka
##rup
arnabofficial
pitaji
nasiyaat
parindon
jing
لیون
insecure
begunah
nivedan
ist
mobayyana
ahi
با
رو
ہیل
##wai
##apko
infact
##siz
##gaan
##meon
credibility
fir
##dein
arman
hadh
rasal
##sam
hater
##ifat
intol
puchne
##eem
##made
jajajaja
vndoz
saarhay
suraksha
moulana
##heersheikh
##pro
dst
لیس
##baki
##wand
kidr
##rani
##hod
diz
acabe
daru
matric
dosaron
zaroriat
larns
chitral
berani
ghamgeen
tasaworati
ignorant
gazab
shehrion
dict
tentang
##vation
##rng
##qur
##ameet
##gp
mull
laude
poking
##than
hav
milny
takh
masle
maharaja
##walon
laken
irm
intizami
peacefully
guzari
aaiye
rani
phans
ujagar
consegu
##rance
ncp
وار
##bye
selaab
##isht
loks
tab
##gaa
##seter
paka
attra
eska
##anto
mulazim
maho
appo
##kr
##ریڈ
grup
narmi
speci
dune
scrip
sadaa
##iter
gufa
baqiya
fro
jul
gath
jyaada
##jna
thana
##chaar
sunay
hyd
madam
descri
pandemic
chutya
gareebo
##vir
kangan
crore
hiran
vitnam
poss
hobe
baahar
##laal
noite
##eral
toilets
manind
ekdam
kb
ghazab
impor
jaogi
hazf
tempor
##bhaiche
dharkan
##یکن
biggbos
kkkkkkkk
superb
arijit
فنت
tasadum
##bhaicheabkibaar
##gm
nne
pse
vada
##vit
krunga
banaa
soz
phirta
faraq
excl
##few
roze
dyne
##ilities
goswami
##rot
sebag
dikhayenge
ہالووین
fen
##seterifat
bahadur
##rom
bry
jakr
اچھ
باي
##bum
vip
##xd
##wd
booking
kilo
karpor
anya
insi
inlogo
hump
bebi
kamaya
tarp
cok
farid
bachna
##zzat
katanya
salawon
qasba
zalzal
khuleaam
khinch
gehraion
fucked
##qk
woi
bhaee
anday
entertainer
##icide
##hnaz
qabee
respe
kurta
bichara
hainaur
##org
beech
##wana
earzi
sacrif
sidnazz
isupportasim
ru
bkl
ptv
##osop
het
inkar
maham
sabkuch
peta
gaur
jabse
adday
sanji
dalail
ikutan
galian
pouchye
aimim
##mber
sarbarahi
kph
ٹران
کیری
##vance
bai
##swara
rf
##faa
##aiq
haiagar
nadan
##apat
bhatee
##gets
shuro
mashr
bhola
fitnah
rupee
dadu
zahuur
##یبل
phenk
lidz
aqaed
lazzat
cath
cek
dhay
##kor
oxy
##psi
##qh
##پس
lewat
##ones
anu
##uti
##idbi
##waha
##thr
waqfa
khalid
ghayr
baty
rahon
tmam
viento
##khain
puchte
perch
##ishing
##zadgi
masruf
kharij
mehngai
dere
lhr
##chers
sufi
کوي
##xit
inferno
##زا
##phi
tumhay
##araat
dilkashi
cale
coment
hmen
hike
mukt
cliche
lund
pagli
ala
hen
qui
serf
haarne
oldu
rafta
##cade
##pashinde
sas
utthay
appren
odisha
ماي
hoyi
pe
##abut
##ahy
shaandar
massage
shen
hamsha
amarat
##riz
conte
corona
nikam
mulzim
pahoron
ruim
betul
msla
majbur
##dilkomainedikasamtomorrow
zahar
##یين
bhang
prabow
kehlata
hichk
vers
##qn
tyre
##ٹو
##cp
haiya
##lod
chy
cheat
kamal
ghumna
millat
##comes
chorna
dikhati
excuses
zamanay
qatl
kaunsi
samaaj
risalat
shehwat
##timate
wta
bashindon
##vah
mja
hoc
##aisi
bharak
mehram
deco
sim
hmesa
gadda
bhulaye
ranbir
gaaliya
hawale
nalayak
jolia
companiyon
olymp
##ended
##hampton
gilah
rati
hajam
##ukt
##dei
shararti
talaf
fermaye
zehniat
##withsameet
rootti
petrick
hw
pees
##گو
sene
##akal
thim
pasandon
uraya
misali
hojate
dhula
golion
jaaane
ghani
##waif
begair
##toria
padhte
aarahi
aankhein
zeyada
pda
wed
rin
##کر
lartay
bsd
##ونڈ
cub
ussey
olha
bukhaar
makhlo
dhundh
tadap
vans
jeetega
justojoo
nase
bhaai
miltay
combin
kazan
sabre
kalah
aaka
muqeem
khulla
decir
rony
burrows
maheshbabu
نوعم
کیپ
##fik
##ctions
##kut
##aili
boo
naare
anp
sopa
kabool
endia
##china
rigg
##ffice
##minister
##mbol
smjho
thakre
mayawati
rautsanjay
suthra
ding
نوعمروں
quo
dais
nali
xx
rhenge
greed
vash
##erna
##ange
khoo
baan
muu
##memes
##give
harnay
davn
musaw
asshole
bigar
duh
maday
jalva
bachha
dhoon
##zalzal
shikwah
mughe
##karann
ineqad
nw
haamla
aanay
laj
##apa
vindu
romano
##pio
putin
tags
##note
kargil
dickson
##isingh
sahee
levar
rashid
tuu
immedi
##bas
kaly
thandi
##ply
##udes
alif
hosakta
shams
aw
daalti
ingrid
mutazalzal
dalaal
theres
weekendkavaar
nokia
qabeeley
hz
haijab
##ensive
ussay
##words
possessive
nota
taky
pehchana
##verdict
rc
nazuk
##minati
lahori
##logon
azadana
sapno
##dm
pakhtunkhwa
iin
jld
mds
natey
##yt
ssc
##sub
##dain
haiun
avatar
hamas
ghos
itney
##chad
pakvs
chalain
liv
khusoos
rokta
pixel
##یرس
bukannya
dukhati
ghafoor
ilzamaat
fajar
juth
vos
##eho
baaqi
difer
##eshwar
bajai
soniya
mahina
laina
uthna
##emos
mazbooti
hasiat
badmash
graf
badmashi
ehalkaron
dilkashii
gane
nga
##usko
##navis
bau
##azay
jaoo
alas
##dim
nou
sunti
rana
constru
imm
sanp
bdl
aesay
caneca
aro
resh
##mnt
rea
pahale
##ulla
arsh
esfiha
pak
chid
##م
jolly
momento
paw
##dro
##quel
hojae
##test
siddhartshukla
fries
apnaya
mishti
##goswami
##xr
##نر
mehen
nagh
##navi
khain
mohon
badli
bachcha
sg
sanbha
murshid
##khair
##ghan
jui
##mbl
deserving
maroon
khelaf
objection
bughz
drow
sayeda
ugal
##zish
##esta
##sho
parkr
prakash
johri
##rible
##bahi
ajkl
larkay
jalaya
hasna
##agement
aakr
mazahab
waps
bechary
naraj
##temu
naqad
kryn
nuevo
giveaway
gosta
pqp
##ind
muawza
mareezon
extrem
churraya
jaffer
ax
hf
voot
##qz
##ups
midi
##مب
meena
sherry
##hp
##isti
##tayn
##mimpin
ummed
##baca
##shine
saty
foe
padte
hasa
geni
ngom
##اتی
chhutkara
tumhaare
elizeb
yatra
##km
perfeito
##baaaz
sacchai
transplant
elizebath
jcd
mort
nahein
##eeeee
tae
parvar
hijab
leker
##uday
jiju
hayn
tanpa
izr
##sidesid
retro
dyie
##mukh
ukhaad
##who
hairat
metr
chaiy
khab
thhe
pados
mismo
spok
tis
teamon
todas
bahao
larkana
kingasim
geeta
##pet
bigaarnay
aen
cy
chatting
##kus
مان
mousam
milaya
##mant
gyaa
paigham
falki
##ishaandssrcaselinked
retweets
##hend
marasla
grat
##mart
ninda
vns
##taj
toor
istan
yae
##khus
dogl
##stin
kehla
pyr
sprim
pheri
lipstick
##ilo
outsiders
devta
tarjuman
najayaz
gg
اف
ایو
##jati
##gosh
##amani
aps
baet
hidup
soti
##heart
##angle
sunana
sunehri
##wanat
konay
sadh
aadhe
nawazish
mangna
samjhne
jhagr
jeeney
authackeray
jue
pukar
##cue
kaang
lia
##naat
yei
shagir
##aring
shafqat
follower
deshbhakti
mutra
taloot
kiran
majmaa
tmhre
karaam
murr
jamia
ulfat
govt
aarop
dino
##kriti
ponch
hukmra
technicalguruji
lali
pussy
بیو
##poli
bewajah
kamm
toxicity
taees
##arth
ghaarat
diyaa
angot
clos
gaib
qadmon
kucch
paltu
sms
##adowaisi
##aton
sunaein
vahan
glamour
islahat
parinday
madharchod
daketi
##ghon
karre
uninstall
##esa
usl
chhy
junta
baatil
pemb
kamine
tuo
chao
masro
poh
smriti
chupke
bulan
posso
##kti
##prof
pkmkb
##justicefors
bari
vapis
pist
urat
##zain
##qs
##tack
sarcastic
belon
chhin
attach
kishan
jaish
chalan
mehs
hmri
ramlal
qarza
dabey
dheet
fridi
phelanay
bandobast
karbalaa
khusoosan
nro
sndr
##will
##rou
hian
abro
alay
shahab
bachega
##xon
chhap
imtezaaj
iba
vat
گر
##hao
##ever
##ikn
apo
##khar
banayenge
pleas
##tet
accus
sabah
hamaisha
##wide
fearless
kamrah
samasya
dekhu
##rotest
pert
donde
chalon
bharnay
wajh
facil
nasb
##assum
##یکل
gadar
kaptaan
elahi
defame
mafadaat
irrelevant
qalb
zaib
##fp
istandby
ahangi
jse
##tng
##xk
karor
##athore
itana
##dow
khizaa
sadaqat
corpor
katal
marahil
porn
naukari
jaroori
khenchnay
##thakkar
mujrimon
##hassan
##کین
hk
ich
##hawa
semes
toti
paane
sidseterifat
##ppers
##yp
daik
##ايیڈ
kanpur
rkhi
dhire
bersama
##js
acabei
dialogues
kute
lv
##skar
##dade
baam
##khya
##ingo
##ulad
machin
kidnap
##amo
enqu
duain
jaihind
##bhaq
mns
jashan
araam
panchwin
saqib
##ctric
nabuwat
فنتاسی
dud
poon
ایپ
##fli
##zet
##alli
khn
jach
alhm
aaoge
batin
tril
verification
durr
deramo
nuqs
mushtaba
jumle
mindset
insaniat
##onsn
khalil
##aker
gamb
##baku
masrufiyat
bung
flix
lungi
nish
rw
barbie
رین
##azan
hiz
shajar
mata
dilkomainedikasam
sidhu
kons
dikhavay
##says
##assus
dhakel
##masti
jurwan
hating
##وسی
mahaaz
kharidari
##binod
##bha
rubika
continu
effe
deikhein
##endramodi
ire
wt
##fv
##anway
kijye
nadaan
##issr
##apun
usny
usloob
shabih
barpaa
kabse
pehchaan
mazi
sochye
hmre
mayk
##faad
aashir
mardo
ethi
krege
aansoo
mujahid
##upports
##uja
##fd
kep
##iler
wou
yahee
rout
##forms
karobar
chothi
atra
charger
tajassus
mandir
tailor
khelti
hansaney
sahar
salebi
dikhne
##reeram
goodnight
celebri
ismein
##byyour
ghoomta
##crimin
##cessary
gunaaho
harkate
tardeed
##prabowo
bewkuf
zalzalay
fub
jta
##tica
ٹر
naki
sabut
mujra
pasar
pataa
chic
halqay
patti
lamhe
##aja
chahne
laip
serra
##ganj
sidnaazforever
##sari
alwaysbyyour
photograp
##church
copter
rata
##madi
##sf
##chenge
##fia
##ncia
naali
startup
kohi
thehra
kism
batai
arhi
kerny
bard
garaj
seema
thikana
bachayen
smjhe
boca
sukun
hiln
mazmoom
akhbarat
jae
jhatkay
##ggy
##uxe
bazaar
dhrm
errado
khwaish
مشیل
##lite
##pubgkh
alwaysbyyoursidesid
lkh
oooo
گیگ
##fun
##alia
haia
mummy
hait
##ahon
##chup
haali
khaber
tha
##ainte
machal
movee
asti
##pta
sii
forno
trk
farmaan
duur
namaste
hisse
##paastumho
khushii
bybi
viu
berat
indv
mosoof
duba
phansay
thnx
khudkush
marhala
##gehlot
bori
dkha
mor
sukla
##bish
maas
##mez
kan
kamra
pov
chomu
taley
tamas
blm
io
jitny
kuty
sens
tabdee
cmnt
ashfaq
devgn
shirk
faaltu
##ogo
vicky
hukmraanon
##mony
bora
git
##gum
pd
##real
kuk
yun
kkr
sane
##dost
hoten
dewaron
kamane
bb
hotaa
jabeen
##gam
haris
rober
rallies
typing
impa
farosh
##hasan
sweetie
gulab
raeesbhaicheabkibaar
kamaai
werna
ningum
fah
##vat
oar
uri
##سو
turk
sete
saadi
##utosh
humra
sobon
sl
##uge
pakki
scripted
##hta
wah
##jn
badlo
sunah
dikhi
awami
riayat
mamnoo
bruh
vipaksh
idraak
##bhaya
##asaheb
yunhi
stevin
##uve
zalz
##mac
##dono
mehndi
##video
naray
##ays
veena
##jx
neces
##azo
shana
walaikum
##laya
pech
##chaya
pakr
dao
bivi
akash
##mit
dekhain
tambin
##spira
##trz
tayt
postpon
jahilon
##maine
dia
kalian
sacchi
##friendship
##roid
refund
cinta
aki
ov
pory
rus
sya
##nye
bebas
bro
acr
dilkomainedikasamtomorrow
passo
##ours
salgirah
duran
migr
qadyani
gundo
samjhao
payegi
platon
jimmedar
##gues
bewafai
bhoomi
beshumar
ahista
oont
swit
##agi
tc
ول
##pana
##usse
jaein
darbaar
thoo
saymn
puraka
##mx
jina
taqaza
##cis
bayanaat
vaastaa
##tapaj
akshays
haisab
mori
##azeo
disturb
tandrusti
##mallik
engrazeo
mng
wik
krey
khaami
shumar
donu
tabassum
reallyswara
##nsn
khusihyan
quien
taied
empowerment
##proud
jrur
criticize
humpct
drowna
##krishna
sini
مل
مین
##rul
##ayeh
muhas
##azam
mic
anc
alvida
chub
kisike
bholi
kalsoom
firdo
##erein
suara
tasn
ayya
pidi
claro
mrfi
khulle
##mun
addicted
aaiine
tidur
sidnaazians
tiempo
contribu
kaptan
##uj
ezat
lant
nend
##iland
unlogo
mane
##hats
##lei
##space
samvidhan
ox
##aris
##vern
manmohan
hua
##mento
ched
##alo
uv
permi
##shak
tambaku
umeeden
typ
khilaya
akhrat
##kyu
evic
chakka
mansoobon
ravay
##osidharthshukla
znd
روم
کھ
##erto
kareen
##apoor
muhajir
dimak
huve
umid
ops
##aman
chalaki
gharo
malai
forcefully
khargosh
kerja
bheje
halaf
##ujan
qadr
deewany
sonakshi
initi
kasy
##hism
sambitswaraj
bhavish
##inn
mubali
cukup
fahmi
##leg
iaf
lud
کرن
##amai
dwell
kaudi
bapak
jawa
mawra
##tek
harga
waqiya
pocho
khopdi
malu
namor
rakhni
maartay
disrespect
##ونز
kaarkun
##istan
akhrajaat
jhoothe
taluk
ankhe
shehzada
ditta
winningsid
gare
برا
##yes
بوگ
##لے
##amera
fran
khole
partic
musa
muasar
congratulations
argent
##hour
abla
losers
kamanay
manush
shol
baho
##aahi
progr
fahad
jaanwar
##eran
asimsquad
ahle
samajhne
janaab
estn
ishqbaaaz
buff
##cking
valter
##ینڈی
##inging
##vresign
bundon
qur
choutha
##crat
benef
mustard
culprits
barre
dozakh
لاينر
yab
جول
##dit
aurto
bezz
huti
##kahi
##arachi
daulat
fay
rehy
waap
amar
nik
##pedia
satar
qabaili
##asirf
##ونک
indvs
chamakti
comida
junooni
malomati
abhishek
kapron
haime
haikuch
deac
##zoo
##aph
chaya
lodu
##khy
khushy
sabot
##erem
talah
##nown
terima
mier
nad
tariff
chutiyon
tata
##youasim
desper
surakshit
sayed
##gaj
##gando
##giri
##xl
kaay
##usnya
alka
bhaio
##hamare
scor
mulakat
jageer
brut
khet
##krit
schoolon
qaazi
rainin
##janta
jazeera
haryana
culprit
bya
boon
dande
##ales
ووڈ
dow
##گن
##pit
kahty
parah
paraya
ghoron
barket
##udar
wr
##aha
sirplease
nikkah
kone
##erin
talabb
misri
pahla
ruko
guzaray
ehkaam
seedhe
tahu
qitaar
fx
jarehana
piye
##فیل
##gl
kaant
##paper
apman
bhaw
##free
bhaid
bolwala
pree
hamaqat
amwaat
hacker
rahunga
sharabi
lev
shareer
imrealasim
##motiv
utre
tmhra
##cob
patha
##prt
##enger
blokir
avhay
coronavirus
vidhayak
fayrng
hash
lakhs
mbak
khatima
deikhna
minggu
chaplin
chokidar
ڈایناس
himanshikhurana
##withsameetthakkar
##مان
##tiyan
limo
##oood
hao
jana
##kot
huu
##mple
acab
samajhna
munharif
makam
##wait
##virus
neecha
alaat
piyush
irritate
chlega
##mind
ghaseet
careless
flipper
kembali
##uet
loksabha
consult
ڈایناسور
aart
yhn
##aani
##zardari
##hap
##atbar
##asay
##unan
##khla
maah
kisika
aje
provid
haqe
tasurat
chipak
thanx
daitay
bhagnay
ness
chupane
greeb
samjhdar
nominate
##piff
bahaq
mooatbar
alamnaak
##hom
zrur
gilgit
jamiat
namoonay
chaukidar
نا
hoey
krsk
##cie
bepan
lark
raheel
sidhartshukla
itnaa
ev
saree
##kkan
##inet
misra
tori
caralho
delcia
pany
fehm
nepali
##mite
daarhi
youthi
##ango
varun
cheema
##fortrp
krwao
tiranga
muqaam
inqalabi
mubaligha
avhayyo
bint
mbah
emir
##anth
##amento
noha
rash
tabdeli
urdan
minhas
##khana
rukni
childh
bsss
tamancha
aalo
پیٹ
گول
##jeet
##lak
##gant
##alar
##amul
kapan
naka
mutter
trillion
chhaa
moamma
asbaab
arhan
sall
zarort
yaadein
tujhay
##block
bajrangi
guzeer
boycot
##polic
chairr
kardoon
sridevi
wkw
neroo
tila
##xc
##alvi
##ishy
reigns
dita
##raam
shre
jaishriram
propo
##matlab
naamkarann
##kkr
##cycle
##isse
kerni
majaal
sonam
yusuf
##inge
bulbul
realidad
mangnay
bunyadon
farmaaish
kahega
atheist
sanskriti
cheej
karien
najane
balatkari
sasural
##yearsof
aamiin
atyachar
sahib
tabdeelion
##vresignor
dando
iasi
##olic
میٹ
کین
##adin
##ices
##endi
raaste
becoz
usah
##aqon
andolan
##atel
jib
kahawat
weloves
zamin
delici
ibu
buddhe
saib
housefull
اسٹیو
mazakraat
sentiments
zakir
##rians
##rette
baichnay
justiceforsushantsinghrajput
jhagda
sebagai
eb
fy
vdeo
مون
پا
chadh
krli
nehru
alli
mujahi
hamesh
amish
template
addi
hogaa
za
chouti
vegetarian
##tell
bhagna
inteqal
achei
lucknow
naukar
##hani
##cbissr
##fg
##zk
##تو
##hame
naeem
##heera
##akha
nehin
khaana
uncha
shahar
trhan
ajib
farji
weap
bharam
safari
aamin
makin
barron
daity
chhur
##dak
sahul
zimad
##lerin
dakhil
tahreer
##کنز
sosan
oncologi
karishma
loktantra
aabaad
ntar
##xb
##نے
paros
lek
gobi
##kit
ck
bhukla
issay
composure
##waqt
poray
##atherine
wafadaari
mani
aatanki
cunning
shehwani
taqaton
maravilh
##kir
ngomong
icin
jil
nape
zror
تع
جیک
flutter
##fandom
##yers
karz
##ahkan
##lel
##hh
lagayi
##wazi
alta
lade
khushiyaan
sanki
##bru
pagl
unbelievable
##train
cima
##essed
dubey
hahahahahah
gilani
otro
priyankagandhi
qaafley
##aintezaar
tasneef
##film
zir
ایس
##spe
##ٹک
medam
kaabil
isha
##ل
parna
liter
khaate
adorable
khabara
sod
mcc
nobat
dekhein
arbo
##body
roko
kaye
goonj
chaliye
mil
freez
basta
##ago
sochon
mulana
broks
zarea
mitra
chatuk
wifi
vezes
wai
intahaa
destro
fsdf
shenshah
##bh
ration
uy
##oun
##mubarak
yao
##high
amp
##atir
kecil
kacha
##isco
lago
shafi
chli
##chas
tuhan
catfish
barclay
daa
mazy
zee
##ashti
bilaw
hmra
padma
##ality
patang
mahf
behnain
##bri
bhadwa
abaca
riwayat
##student
dentro
sajjad
ato
aein
hny
tt
ose
saye
بیل
neki
##daal
moak
milli
kisiki
dat
dilkokaraaraaya
batam
salgad
samajhdar
hyper
##vote
nisha
starplus
telangana
vinci
tagar
##ursday
varan
jang
nirbhaya
tanqeedi
##uresna
##ign
##films
##final
pow
axha
nesse
fascism
jahazoo
mulaika
##ading
suraagh
distancing
ghin
nhai
nome
##iley
usted
toro
dilatey
##stal
##anshi
newsp
##qita
patla
chaley
keemat
##انو
negeri
اسٹار
famlia
estava
ghaznavi
##gai
##git
sidseterifatikya
bno
##stor
vats
naah
istarah
##tih
##aret
rahien
urg
kashmak
kahti
rukna
smjhte
uthte
yousaf
piddi
میلوڈ
talafuz
ravayye
ludo
teng
##urant
##hede
chadha
maw
filhaal
godfather
##door
##sell
kambakht
kabza
phirse
bharose
##tras
grp
realme
##انہ
hanstaa
uchhal
angelina
mag
nashta
namaskar
kaarkunon
fanaa
ls
rapp
##wey
kota
##mk
##lz
##lj
##unu
##undo
baaat
infr
unwani
digo
reve
stro
##anew
matal
talat
girne
aqli
suspense
pappa
histor
nuest
##wala
messi
meteor
janamdin
cigrette
kurkuresna
bhaiyya
##oge
pbuh
manqola
gest
oss
tud
##break
اڈ
فرین
karar
##islam
khabees
livin
umri
##edad
stalk
##gardi
sanwar
blag
sktay
chupaye
ganhei
tasweerai
caso
##vrt
abacaxi
bicha
assign
sme
##roo
everest
##fj
##feh
##atv
nazaad
koee
apro
telegram
##tep
bk
inget
behal
beje
##rez
lagaa
dogi
aggr
pegar
gawa
sharafat
taso
yaaron
vibes
detey
##inda
aasmani
##zee
aasakta
bhagtay
fansi
narr
maano
##rahul
##pack
presente
##passt
qaidyoun
flex
nisbatan
bgt
bord
lq
kiaa
ape
sekh
##isliye
##oswitch
nt
chato
aapi
##gae
samaz
privatization
hareem
domino
ek
shyad
aaeni
haqdaar
##orao
bile
coll
tehzeeb
bhopal
##ysm
insulting
##انک
baithna
romani
zaidi
taskheer
aankhen
لیوک
astag
staystrongsidharth
irtiqa
wickten
bebida
kmy
nira
otra
rj
yii
hoaur
sever
##ikes
muhtar
haak
##ining
lom
homo
almaari
##kita
shaant
barq
kaml
noch
esay
majaz
##priyan
##nish
##یلر
doosro
##kyun
everytime
sering
seria
##tainment
bika
borng
besok
asslam
bachey
hifaz
restric
bjaye
philosop
aukad
##isha
intoler
##pubgkholo
bism
eak
jasi
sev
seene
ode
##ilii
##tize
muaziz
abis
##nee
pronto
kamini
##istas
samaa
taunt
daaway
badami
ska
siz
passar
naira
raining
poti
chuda
adaa
bnate
##joko
jams
bhagta
##ape
tempf
jazbat
hansti
olan
bacchon
celebs
cahiye
afsaraan
nidhi
##رلینڈ
##anu
taqwiyat
vashngtn
##amy
kashmakash
kurkuresnacks
gosh
brutality
jst
kiyo
sui
##onfire
##akte
isma
##hank
paresan
bhid
anim
bek
zoom
doa
asadowaisi
mn
kaboo
roke
myn
buka
kayar
##trend
aadhar
thugs
clari
aazm
##office
istehkaam
saddam
banda
kobe
blaming
pohnch
istandbyasim
aoor
kuda
mto
jaya
rhiye
##vasi
##وش
##urd
##asaan
amiga
kodi
apnab
##leen
baalo
##daat
jamal
anwanat
manty
raheem
##angkan
##azian
jaaoge
##pls
##eras
##gol
##bok
loki
mardum
kholne
##good
bichari
##killedonjun
handwriting
masnoaat
کوریوگ
dms
mgar
nue
ون
##arkar
##aihi
##his
bawj
##tej
unblock
merda
chhar
##alle
hamle
maslak
chel
shel
azeez
##grade
jalane
aamaiz
paich
ahli
dalito
btata
##انگ
rupiya
##یڈی
##hay
hawaon
mein
sanamade
pashtoon
wo
berozgaar
bhugat
cher
apologizet
##uslaugh
ooh
##dull
jem
##fw
nadie
doang
darind
##ubi
sarr
eski
bachchen
munqita
hojay
fiel
##ugust
##bah
safeer
bhand
qu
najaiz
carryminati
##zindagi
taimoor
bong
fero
misunderstanding
jaza
vsk
##joshi
##fty
##cado
##qin
##وین
##aikan
hoshi
##aber
totay
##ahul
##khul
##ingat
badhane
azma
malang
bash
firqay
hmry
##ump
##main
drtay
khiyal
##ndtv
offline
bharatiya
durusta
yakki
##engay
leftist
yahood
hanste
slee
lasani
klasra
cosas
psp
##jeel
##لین
##تے
##chhi
##unuz
dona
rawai
saand
sochi
ia
##ceu
rakshabandhan
bangladeshi
##aster
vivo
mashal
##ential
antonia
instig
bachne
bnne
suron
laytng
##riyaz
chattaan
khasiyat
##wat
##ichalo
tavi
fayaz
##eeeeee
jnta
tareqi
mishbir
pabandiyan
##bola
durustagi
vakr
zard
##میٹ
##only
##abir
##uski
##iyt
alikum
##iny
nokar
tawaif
##oshi
bhart
##qaar
polici
ahsen
sandi
nasheen
##cot
qissay
khuw
kasur
chamk
samjhaye
##fk
##itas
##ajajajaj
bonito
geograp
##dministry
##say
##aintezaarkarna
##passtumho
##aroo
palo
karak
rawabit
siraj
##pic
narayan
kamtar
##fast
youll
##ym
##enne
dustin
sheri
solos
masawi
ghark
##warrior
##wano
ayd
munta
khushian
##gggg
brabar
visi
mahaul
hainafsos
zakheera
eee
msi
sko
##beni
##gye
kahon
isna
##chka
bhasan
diper
shamat
thika
saku
ambul
shee
azlaa
dummy
giraya
majal
pattay
mandal
rassi
##from
##mare
milne
##ltn
fasana
hatao
adhik
gatar
meteo
##withamaal
dentist
##friendshipday
hwe
##rang
yash
zina
##pilih
##atra
toheen
##ahmed
asb
gohar
gharane
urdus
ramadan
rajat
jed
khayalon
tres
maha
wig
hahahahahahahahaha
chhaati
cancelcomp
ghalba
istimal
nichale
mutabik
mahatma
madniyaat
##with
arrogance
deem
##noor
##mq
seja
khona
##ception
bolkar
hamisha
kisy
dawood
sharad
kahain
chour
##dout
bagus
amin
qism
chalao
panjab
nawaze
##hanaat
idols
airstrike
sudhr
kholna
deeni
nanhi
kakak
khubsoorat
maatam
dapet
krska
##rage
talemaat
sialkot
sayasatdan
lis
##ener
##jected
nata
##bill
مال
hugs
##ngi
##lq
##وسٹ
##dek
seor
##eneet
anush
dios
boh
pemer
lihat
ur
pehne
duplicate
daykhna
##tf
jeety
brtn
ikatees
maarte
##voice
bangsa
pichwada
senkron
tarjamani
karwaye
##lsn
##hhhhh
##corona
freind
meese
##urya
##hek
alf
chop
seer
##nap
khonay
##kat
##teaser
##olah
res
##itum
jaungi
acti
terl
##sem
takk
harass
pois
upa
chorh
##akarta
ghusal
khasta
zimbab
##vara
parecido
dangal
armaanmalik
sanamadeuslaugh
aabi
gatiya
##guj
nes
##ehar
haare
beche
contra
ts
agye
pron
mach
pedir
##mele
tarikh
sarak
karin
##honi
##walap
##ghty
hasne
majnu
asalam
tareeke
intzar
nibhaya
wal
rasty
esperando
launde
zalzala
nger
yall
وین
##jw
##clo
deko
##unal
afzaa
theh
##chon
beber
uspar
##atif
dardi
tarzan
##vedi
janji
##hyon
propos
charsi
##hur
nazir
sper
bigada
novo
bitayen
congratulation
vrna
numainda
##pilot
ic
aafat
##sushant
##jen
##vya
##api
muhaj
haai
havent
sidmaniaeverywhere
convo
theyre
uppar
asha
girtay
##bek
mulq
##hadgi
santi
##dez
rakhny
dasti
sendo
sadaarti
sayaq
bulao
istiq
kesari
dkka
biasanya
boob
eg
jna
upbringing
lind
mf
blessings
nda
tjhe
##اڈ
##inar
##erta
pia
haaan
kriye
niilii
taraki
hmlog
uryaan
##airforce
maka
dessa
gadhi
politik
tener
embar
zeaf
scient
##acting
soochey
muqadmay
kulsoom
manzoori
ghaflat
stu
enquanto
cau
##ardo
dps
فیل
sehan
sabb
dun
pasmand
butuh
changa
thane
ilti
feito
##puri
##agardi
dhundlaa
fei
gr
paaltoo
##poo
##aaaaaaaaaaaaaaaa
vskonsn
dagh
ksh
uang
wager
anchors
##nalo
tolak
##eso
thaak
ittif
##saeed
##wafa
##vao
##kout
hamm
##sthan
##eeds
##karta
khob
caf
mehmood
chatter
jalanay
tanaze
bliyr
charan
btas
##یوڈ
guerra
##aimana
##bn
##masjid
intikhabi
##jm
chouthay
napasandeedah
cloudy
conde
advertise
hartaal
setelah
bhavishya
edu
jra
rist
tain
tbi
##cere
##inaa
##tira
##iyoo
inky
preet
siraf
##upi
muskr
sunil
batti
vu
chenn
pase
roty
khanjar
behosh
jagh
pite
sonch
ehsasat
##rahman
awazon
iamwithsidshukla
##teacher
istaqbaal
roarlikes
shagird
##vresignorcbissr
##ege
##beniwal
haste
cag
otak
##wain
##mrankhan
##من
##isn
##olas
bhaik
##iyet
##ulle
##pl
ghora
sis
mohab
tame
kamo
badboo
baddua
gopal
##osed
qabeela
jeki
rhyn
credi
fasad
degiye
rhea
buttermasti
bgh
berita
اول
فرا
meen
champ
melo
raakh
muharrak
yeha
mois
##chaudhary
dilao
clg
charo
mango
##joy
shakeel
kutch
##kariban
nawazsharif
##mg
tuna
hongey
##human
comemor
payearidgroups
sikhate
##mana
lgega
pujan
##targetingsid
dalehede
shaitano
hamid
tarbiat
chhuranay
payearidgroupskariban
jihad
dalehedepression
##ctors
fasi
llu
ostan
rhn
ڈیان
intellect
##کل
ketemu
##tou
##apad
saff
sb
##ی
bhaar
##riel
ghreeb
walden
mahab
##astr
noti
manish
nia
janne
##alaat
rakhon
paheli
##dev
##viol
vohi
##arte
##gul
attemp
madhu
suco
burha
chicha
dusman
kutiya
lyf
pasta
matchon
munafe
automat
juloos
pouco
yoon
##gara
congresafsos
madrassa
khittay
firdous
bn
mujahideen
bair
##vity
gaf
مص
##bp
##keh
kotha
##ahmad
agend
ekon
marham
##dem
##demo
perha
jayeg
sheesha
suchi
kv
galiyon
bulana
iqra
roomi
churra
##cum
natija
dhayan
ctemp
forte
nwaz
qilay
taid
vendo
dew
##khat
bran
##qd
##erno
##home
lege
##utra
##standing
##idente
doaridgroups
soute
ando
##boys
aahe
##vious
##habar
bhj
##noy
bhagvan
##danon
##akib
##chai
udr
udhav
achey
jasaktay
##gang
susah
##ater
pandito
nonton
lapar
patwario
nazrain
yazeed
##vspak
dhai
taseer
##aian
##onment
##iyas
ankhain
##arious
gaee
mazz
tru
mehroom
mana
##pati
tamatar
bjp
issliye
mayarat
sadgi
##covid
zahid
sanati
surang
jamali
irmo
rei
ranga
yuhi
labon
##vish
alexa
excel
phili
##labh
trouxe
mangetar
ikathay
franss
avlyor
ns
##dur
mierda
roarlikesana
tant
مت
##sati
##antes
##fee
##erjee
##akbar
tout
##udin
majhab
aadh
tehseel
kudi
farmit
##ament
##uen
khulti
zehnon
poochne
##ghazi
karwnay
##وکس
navlon
dheelay
karporasion
bezzati
pdi
ria
مس
##ھا
keu
##kians
mahen
arul
arro
mazedar
ahwaal
mens
mending
ramayan
ci
##lang
fofo
combo
##اير
lakar
avg
sudh
alava
##province
##rh
coco
##haraman
jindabad
ruswai
clarify
andheron
peg
comprom
tumhaari
mughfirat
roast
blackmail
lionsgoldawards
fayeda
kue
لوگ
ٹايٹ
komal
tos
kroo
maheen
##tero
##chahe
##alive
##mming
maskh
##pec
##bala
sharts
jinse
taliyan
girty
ayashi
pinto
ayushman
majid
rasookh
hataya
aqliat
fait
msgs
garmion
thandak
pakdae
bashinday
rara
wsy
ریو
##وت
##مٹ
##aif
##hina
haijis
kimat
##uslim
deka
rac
##lega
##uten
krre
bool
agly
jabab
##angka
ayk
raju
cros
asimriyaz
##tip
##wizaat
dalte
sachy
btane
kashmiris
##iam
##sidy
soni
chamchi
chutia
smjhta
sushil
quresh
kardya
dastawizaat
kalie
hinsa
comedians
julm
##anger
nazriati
universi
disappoint
garohoon
aega
jurat
wir
##gand
##erh
##adlaal
tola
##hanway
saakht
unsafe
##idents
##urity
##ateam
aahat
lawan
prope
shekhar
sharf
hmaray
rhey
speechless
##doh
yaro
veg
msm
kapra
##yad
##bang
comeu
istadlaal
jhak
ankit
horas
##maheshbabu
haei
orton
nabwi
bane
doobnay
classe
##though
saghar
kavita
pengen
hzar
jz
qazi
روز
haitu
moi
soy
khaal
khushbu
##sach
kamp
sakit
masawa
farman
jaano
chini
majdoor
##quotes
bulate
yearsofepicchakdeindia
##jjati
wagera
##election
alguien
masawaat
hase
yn
##ghat
##vw
naha
aftab
##nified
alum
logn
intern
##adia
maakh
peena
darbar
laraka
lash
lugar
ee
jhuti
nazer
hove
gairat
##ايے
hena
##march
angrezo
khamiyan
cas
roi
bahasa
##ualaikum
simples
hijaz
ishtira
mbbs
##lick
pahunchti
awwww
iraadi
bowlers
dici
ikk
pilih
tysm
##sani
##jaise
hola
afia
aawara
perc
##vijay
tabse
potty
dikhaoge
foda
preach
baju
budd
faiday
##iseof
rashk
asaab
iamwiths
rizq
##medical
laashon
taazgee
##zindahai
hriday
atraaf
apologizetosidharthshukla
moat
iit
luk
rr
sye
واٹ
##rees
shaded
##jir
##hihi
##oldout
bunk
himal
belo
koie
hamar
gaad
tran
liaquat
sunataa
##daro
dayan
exaarmy
chitrol
##zai
thod
vis
##hae
mammy
tmse
murta
jehadi
bachata
pappi
##mini
jumaraat
zameeni
##وٹو
dhoondh
baqaid
andazay
bam
pyaare
rud
saste
##nh
fra
ٹرا
کلی
##qp
##ayun
muaf
chaw
tuze
asee
astayn
##chester
manaye
biga
chela
##ctv
bhole
##otum
##dara
sadarat
ilaqai
garmiyon
maksud
daikho
dusry
guneh
guzre
hahahahahahaha
oppos
isla
japaani
alehadgi
sepertinya
bushra
savarkar
##ior
sanjivani
taytlz
dhik
nagin
##ashe
biased
sy
deera
apare
inhy
chaaray
##athers
agak
sourat
ters
aajaye
##aaah
vocs
escol
tasbeeh
##course
##cek
lgty
##mps
gariyon
dainy
lakiron
kanwari
bankers
emak
felic
##ports
bjy
apologies
karname
tanzeemon
##deh
jashn
aust
nuzool
pisha
لوک
##nad
کرا
##wsi
##پن
##atti
##gli
##ayna
kith
hod
##ooki
lode
aliiiii
unne
janb
##death
duas
mehsos
girna
charas
latak
smjhty
golian
bazoo
muskuratay
varanasi
swat
aiy
ref
deri
pmo
##nesday
##xj
haiaaj
kranti
ua
yel
##alla
##som
ghon
zabani
arri
sw
adhar
perf
bakre
##national
tmhain
mathew
febru
##umb
mukhtas
##agne
polio
pudim
chodne
maharasht
##اسک
##یاز
darjaat
tasha
##وسکی
##residen
##itan
##hahahahah
boycottbollywood
hahha
##newsong
mehnga
##athi
darakhton
##hab
##kong
karim
panda
gabbar
##nail
##vc
colocar
najayaj
muslaman
piro
vang
##nit
pisa
##تیب
apar
##apki
bhains
##ajak
##ardom
barhana
kyamain
##mission
kabhe
perh
shobay
##tort
popat
##mod
##motion
khary
jaiga
##artmente
raseed
charbi
berm
##adeira
##ushanth
ghanti
etne
qaom
##vio
billions
falah
maraah
sukhi
bajae
dlm
##exam
bti
##kt
ld
buch
bayi
hira
mada
بون
##jum
##poll
##aky
##ehra
als
muhh
haur
##ference
shaheersheikh
##idt
##bm
##raval
shoo
musheer
sunega
##story
sbr
suport
hashim
bhttt
ahh
liyee
saveidbi
dramy
eng
shreef
shubhat
moujza
begherat
decor
propoganda
qran
tair
##unn
##iyabi
krwana
shaf
docin
andal
sakain
taron
thore
##matma
behla
pury
awaien
namard
urself
chanel
##uruh
tanda
paytm
fiqa
tempat
faisly
sono
##cta
##ا
pedawari
gadbad
indraaj
guluk
kaaran
bunyad
istri
##uses
zakhm
joote
kosish
mehbooba
##akhand
##commend
introdu
farishtay
lnd
vend
wse
##zeer
haiki
##erte
sesu
##isat
baaji
##next
chaak
chaudhary
login
hamrah
sift
sidhart
frink
faani
uthay
chich
wb
##shah
baitho
husan
insaa
naqadon
sangh
uthnay
sinha
##hg
maulvi
##sunami
theriseof
mzak
##lagta
gustaakhi
##artmentexam
clot
sania
yung
mx
yoni
##dhar
##tki
##bhutto
##ير
pens
##لان
##ayee
##ajd
billing
perdi
laago
ajit
basheer
faw
ayn
gyani
filmfare
smajh
islamia
qatra
berapa
saber
rajeev
msl
problema
ranveer
zimn
##buat
peshkash
سنیم
##playing
nnja
phainknay
shubhkamnaye
##mad
##rao
choudhri
haqeqat
lluvia
aandhi
undo
##yeh
boni
gom
kudh
##btw
##raza
##meet
##estic
paro
bhir
sahir
##khte
khaj
shaay
##mah
##yd
pram
pehel
##itarian
paagal
kehtey
enti
behti
chode
writ
##gui
alla
##ekarachi
larko
asimfandom
amman
##ppp
duroood
dekhnaa
##bhav
##gf
##ونا
morepower
jobless
nanya
afrata
chakra
bakhsha
##vnz
کارن
bimarion
condet
noida
bhokne
qutub
jyoti
ترتیب
cla
swab
بور
نول
kich
##onya
senat
##isho
##unko
blindly
ingat
chakraborty
ussy
siri
dekhtay
paadri
khattak
khatraat
##jie
aydm
##paar
ladd
##pration
##pradesh
halla
naseem
lamhon
bataa
hojane
suray
wwii
##jokowi
hrdministry
hakikat
tayyarah
dakhli
pradhanmantri
amaalmallik
abpnews
nakhushgawaar
##motivation
tahreeron
slay
##lv
##look
paragr
bhauk
ung
beaker
##ardad
asmaan
##ukhi
evicted
##col
daerah
concent
mehwish
##wazan
vig
##chodo
beete
mahagov
##jal
rojgaar
##anna
zoya
hmmmm
psych
gustakhi
##arrestrhea
morepowerto
dhin
fale
gull
ous
وان
##lara
kije
kaab
##aprotest
thein
hont
recharge
hardi
hargiz
nifaz
raky
namzadgi
badalti
naqali
shabir
##rashamidesai
##padh
bae
hahahahha
ghaleez
krsti
##kahaantum
marne
mosiqaar
##ukammal
doglapan
##profile
deactivate
afratafri
پیر
##anand
##also
nache
##unka
##apke
aapk
lagwayi
##kaal
mainu
biw
karengy
padenge
riasat
##forsh
nasl
jhum
##یوپ
husain
##wser
sham
##یمر
naqab
possi
vaar
khazanay
##tp
chaahe
chaahiye
laagat
alhmd
kaanton
##oton
##urance
apnabharat
cil
ley
fs
##ayan
char
hma
jia
kdr
nand
vyav
wth
yese
جن
سر
##arat
کیل
##emat
keera
##ismat
krdy
hamry
yojna
batayenge
##dern
bahur
##lete
conhe
##shivraj
halwa
sann
luar
##vered
bajaj
qadmi
palak
dhokay
bhoolna
bacch
vaale
انج
jalao
tashweesh
prabowosandi
##idodo
pohanchana
##khand
##vard
motivate
##iterate
fikri
##bhakto
itaat
##asimanshimet
##oper
مول
##cx
##cche
toi
##chee
##ikaat
##dih
##omaharashtra
porte
##kaab
##vies
nk
stil
dohra
ama
daon
pakistaniyon
madoo
chuva
faha
urs
halchal
aagye
jamana
dheron
##یکو
bao
##ronic
mangay
pensar
aarak
oops
mantra
babypen
daraonay
neher
hahhaha
chaatne
gan
championsidshukla
balighon
badtameez
##rapati
naseeruddin
سلیشر
acordei
esaion
pemerin
theriseofsidharth
##ekarachianew
##fect
##tten
faj
##moon
##qb
##uw
seeng
goth
ism
##ikay
bahe
parso
raaij
chatu
sahal
hami
arent
rohing
goon
##ashmi
mundo
##bari
##ashwi
dikhna
purany
larr
namukammal
riha
jahanbhaq
tmlog
mengal
maaon
##yadav
discrimin
intekhab
keem
##ece
iqraar
nawazi
rake
##ooooooo
##edo
hussaini
dhanchay
zehr
ankhein
##namh
##wad
andheri
khalq
lannat
mustafi
hichkicha
fhir
laty
arjun
nud
pkr
vais
yug
##pon
aryan
##must
##anian
gall
pea
##phr
##hei
##creat
haiyeh
naks
##isko
lect
aconte
##ligi
kant
agama
cot
discus
hana
noj
milen
pehar
aajiz
trag
##itha
sarj
mader
banae
##channel
baksh
##quat
##vera
##یکر
intesha
estamos
dabang
sahafion
kahaanhum
##bai
curfew
qafas
atey
cak
jwb
basha
##when
haiapna
boil
mena
##tiyon
tumpe
jok
shaheer
tumharey
rahege
ghayab
##kla
picha
siang
volta
envir
hadsati
bnti
##brar
matloob
##dee
jhuta
##ousid
aqeday
jamati
kintu
ayaz
pula
sheron
angrezon
romil
dhandli
khandano
ohhhh
comigo
republicforsushant
ouncha
phulka
sanbhala
umm
##haya
##jokow
heroicasim
##gx
pointe
jahat
##ingin
##udgi
pakro
jabasimanshimet
aache
pohon
##eshameon
##amaan
urfan
samjo
rif
##vez
jhoom
ptaa
##bser
pun
doosray
ulajh
##yat
arya
prc
##kyuki
capac
khoobiyon
cuenta
dina
dilae
rakshak
ravani
manipul
duper
pishr
##hussain
masrofiyat
gani
gatay
goray
lw
kade
nini
الی
تیم
##aii
##akhtar
##eehat
##oshan
##itharaman
unpar
behes
##kaun
qb
tui
gaoun
amat
harkaat
teve
##dex
adhy
situ
pertan
laad
##allat
awleen
bheem
comprou
makhan
katna
gaddaron
pv
saraha
srbachchan
##hisab
mafooq
chatukar
khtati
somos
shivaji
maholiyati
##estra
dulha
bhens
poke
speedy
jimme
##express
##uhanshivraj
shadab
fai
kala
##sur
robb
##alized
pragya
luz
inteshaar
gasht
raiz
tf
jd
ric
scanner
taya
میڈ
ڈور
##mj
cv
##hair
##pang
##qx
##uy
kod
##eeha
##eesi
alam
baasi
hs
parist
chahanay
abvp
humme
divy
##safi
##cit
ordin
takhta
shola
confe
rahye
##hamara
atti
##lll
##ekum
rhegi
kirain
mend
sahiban
danon
hatane
peete
nafar
ste
deewani
lahor
iq
siton
##class
pille
belajar
muntazmeen
chipka
tamacha
aud
kd
vatan
سب
##eraj
kahay
nahy
holo
maru
khaani
##bio
harta
bedaar
##kiat
ghumta
paksh
allam
##cola
##thu
##wk
shararat
chuute
bhtr
piinaa
##prise
halqon
dyna
keechar
yahya
mutawazan
##tua
sulag
nailed
pheli
##×
majburi
moodi
##وبی
jonathn
##boycott
kaagaz
vnsnt
##violence
baqaidagi
hilarious
andaleeb
aaise
stats
qam
لوس
##jel
reza
##گی
##abadi
ishi
yaari
anur
jaaa
kridt
mujko
agg
darne
astr
##adan
##afil
##fb
##afri
gayaa
janazay
mashoor
matha
##baaki
##matar
bhla
bhule
dekhana
##tick
##erec
hmse
wasnt
bum
kerain
iss
ourpri
##onga
##vou
sera
insaano
typo
yahoodi
lafafa
##cons
rakhega
##baby
bdalty
artisingh
rayazi
hahahhaha
##khan
berojgaar
jhalkiyan
therap
dhondhna
phupho
hawiley
muharikaat
##hri
tonguetw
blokirjokow
smartphone
blokirjokowidodo
fvrt
kf
vlog
##err
##ases
seti
semp
##yaft
saadat
bhasa
##games
##terror
chol
kamaan
##ueen
rhai
angoor
wats
##beau
##یوٹ
##hazrat
shivin
dilaati
khurshid
utaarnay
yogdan
##walapappu
hsi
zaa
برن
کیو
گلی
##گر
##nai
##لک
prank
tb
naag
##esai
jawaan
beiz
begar
huee
lagg
gherat
gujarati
##sahi
ghumz
gawaar
##mei
bathain
gelo
tienen
saran
##shil
##ustad
akhand
kerwa
##hope
bakal
tmy
garm
ami
duaen
parhne
##urrah
canteen
aatey
muqablon
bhejne
rakhenge
juban
##iner
tentees
taxpayers
rastra
justiceforsushantsingrajput
devoleena
fawaid
danay
nari
نور
##jara
##zara
##ador
##camp
haichalo
kawa
kaafir
hore
peng
##enas
aleem
lagany
mujre
cong
##ukung
marrah
paana
challan
immi
behta
suba
bheji
bnna
bndo
dod
phod
stopusing
##desid
##vb
##zd
nazriye
##hein
surpresa
radha
tadipar
##friday
flipkar
muharram
ukhda
wiktoria
maravilhoso
ourpridesid
beedar
wd
yud
##wass
lear
##uska
muka
##azer
incom
bhalo
##gami
divid
lagakar
mahas
stardom
##upun
paun
##ships
achai
##aar
firr
doha
burhena
superi
chars
##bela
dusray
##eron
jayengi
jug
sareaam
jasay
naga
##girls
tazaad
alhumdulillah
nawab
shakhsi
##newsongtomorrow
dpiff
kina
##vill
niyam
ہم
##nain
##cers
haif
karwan
muheet
##kaad
agh
jabariya
##uble
##hear
janda
biya
prem
##zaan
utara
tameer
durlabh
terri
##pani
bombari
##lipop
poly
dastaweez
##million
##نٹو
sainik
##worldwide
hpah
##kson
kkkkkkkkkk
danday
permier
##ekarachianewprovince
ghumzdaa
wuq
پین
ڈری
##hj
##jais
##laji
##vf
##لینڈ
homz
sehna
afwah
hamasha
##vei
dilbechar
thug
##ubali
##rob
bater
jaanun
bandook
badalte
betho
##first
hukoomaton
chodh
tagged
aitdaal
horahe
muzahi
karwate
muzamat
couldnt
unglio
tulu
viz
##akoi
hichkichahat
juj
mshi
tyo
روڈ
فال
ٹرو
317
ہنس
##swithamaal
##cj
##مول
##onee
##asam
##agree
incharge
hie
thap
lekan
##ajid
boho
mote
dogli
asap
joshi
##alij
enten
bharne
##chill
malkiat
mamata
udaasi
##veni
##christ
dhagon
narak
galib
##uso
lolz
aaropi
mab
است
kamzori
jeson
ukhar
dhruv
zakhamo
almighty
##fitrat
afsurdagi
bhgwan
##fehmi
haakim
buttermastichallenge
damaad
zm
##wt
grupo
kei
سام
##ql
##blood
##qg
##qid
##aghan
##hairi
##alt
##heiro
##naah
bhaav
ghtiya
waloon
##kohli
barni
darane
asghar
sikhs
sunane
umas
sarg
merritt
##tage
poten
##jida
drin
piog
aagahi
comput
dea
bachaaye
pancha
udher
netaon
issey
##gical
pande
blackout
dt
billiyon
aatankwad
kartoot
ulatnay
pahuncha
musawir
cun
xp
jaja
pz
##pink
##vol
##qati
##فر
##erc
ketu
rachi
chaudhry
thalag
##dians
letey
##khli
bhaijan
tuta
##entena
shura
ekk
tema
aaaa
##roach
bia
torna
umra
##ufeeq
zindage
hund
bnata
lgai
matlabi
jaae
dhakkan
##kyunki
veio
lgao
rapists
rkhta
hawalon
matawazi
rizaq
eewsi
sima
ksm
accountable
##kapoor
favoritos
nibbi
##cr
astodyoz
tanazeaat
##profilepic
pishrft
pioggia
pup
hram
pvt
qaza
nec
##می
alfitrat
diba
walikum
doonga
##upar
achii
khudara
apt
##ryon
sharjeel
##dou
weld
scq
##fff
mafad
##anta
nabina
adhikari
fadnavis
zamaane
fosse
##ftheday
لیسلی
df
latay
miks
این
ڈرا
##balo
dess
##apr
krwane
hujan
barom
mora
sho
yoo
kamraan
darin
kissa
mantan
notification
fora
##ths
sayang
bhs
waqtan
##yarakat
subko
zaeef
raseedah
immature
jhute
aasmaan
haty
bechna
talaab
sweets
jhoote
tahre
pinj
alhamdulilah
##bhaijaan
pei
jangoo
adhura
surgicalstrike
kirolayna
addict
alleg
##hitsm
gathbandhan
iamwithsana
aqi
pesy
##bta
##bazi
kachi
kartar
##iska
##isme
##ingy
##cute
chont
zabar
protes
fareeq
bhram
athe
##md
billa
##utter
sbb
asiayi
samje
indiaagainst
nikalay
cler
shuker
jugad
mandela
tknalo
larkion
lollipop
rkhne
bea
gerek
jornay
khareedna
##lun
dangai
explan
mulazmeen
shaheenbagh
peetne
javab
gust
burhenapa
islamabad
tknaloji
##kala
aangan
eolo
htt
ika
پیرا
##tistan
orr
##open
##hii
haiso
##iyad
inhpa
analy
dizer
ushe
usaat
itra
kambal
siasi
pri
##ishq
onde
khanda
sahid
##mato
##entes
naamwar
purvaj
warq
verdade
foq
larkian
betiyon
##یٹا
senin
parascha
mansik
sulooki
shehnaazgil
lei
evnow
asimriazforthewin
totmm
##enting
##pg
bandargaah
tehqeeqi
wsw
mohalla
deng
snapchat
amraaz
asshk
kamlesh
stopusingsid
tme
##zol
##مون
##going
gora
nostalgia
##ہیں
##yafsos
##ulah
acar
barang
mainay
ado
khudh
kyunke
salwar
burqa
scat
sade
mandou
jayn
bestfriend
papaji
bhoolay
bangali
kasheed
mithaas
shayarana
churaya
zubanain
assalamualaikum
practic
##thank
سلیشیر
##homicide
vktr
barabari
selector
bhajpa
کیس
گو
depos
kia
tak
inhain
chaiya
##daf
##mania
mri
krva
thei
##sek
lite
stra
nigh
badho
aaaj
aaey
tabqaat
##apped
hmsha
jalsay
followback
swed
##dding
oski
worldcup
bhulana
sardiyoon
kidhr
easthampton
majaboori
criticise
##buddhi
kishore
irtikaab
skrg
ensole
bawarchi
ismael
ittifaqi
usaatzaa
stopusingsidfortrp
thru
diyo
gata
hva
kpa
llam
##kam
soom
wl
wooo
##vikas
##پٹ
##tea
##arn
##ooor
antr
dign
kamino
aso
##het
jiom
purcha
dayanat
jalay
patrak
teaser
katu
##gaon
tempoc
sikhe
hoskta
##یکٹ
tafheem
tung
gumnaam
ashutosh
sanju
fayada
soc
usmein
chhupanay
samjhoge
notifications
lnda
workout
mutanasib
photoshop
ghuroor
sazishon
##illement
##harthashukla
cvent
lath
qus
ure
vdo
yesa
بال
clapping
ویرو
##aameen
##rha
##cor
##cf
holl
##yaha
tun
##icio
bahaar
mukk
##hota
afaq
ina
bhatta
humsafar
boldo
##dates
barbar
pemai
gav
shona
saro
bilkhus
jalana
danista
##aia
panchay
adi
dhari
mnhum
##pluie
mmdern
amrit
bikao
solaire
overacting
illiterate
alamgir
##students
hpahpluie
ensoleillement
##mum
mmdernire
fome
ghoor
hasty
madaar
olaad
rola
sz
vom
yk
ویل
##sorry
mechan
##abhai
##ahh
parlim
##lind
saap
cn
anso
##ayaat
##reunion
shahna
prest
##vibes
mamad
##arton
##sarkar
votefor
iftar
ot
toofan
shukook
vei
##yie
ijaz
daaru
manzir
qurani
aoa
gunahon
kahoge
gareebi
gazleen
##lakin
bhooka
yazid
##weets
میلوڈرا
cena
hdsn
yal
zel
لا
##nana
##tna
##bile
##yai
##فری
##hela
hoay
rawish
abusing
dime
##kher
humdard
maus
oder
bolun
rehay
atm
gaata
masyarakat
bhukh
frmane
firke
wasa
##uh
lenay
##ranj
misunder
##tual
maksad
##tiyaan
kanj
pep
##outtomorrow
dushwari
##them
pepsi
rooth
harkaton
slamat
##asse
##buah
##poso
sandeep
##amen
happybirthdaysana
cbseindia
mohalle
ahmedabad
kazmi
##ayyub
kahaanhumkahaantum
miksikn
cctv
ora
islamist
ovo
بین
##vaiz
unicode
##amu
naaray
pic
##enar
deil
##lad
##apakistan
##hoda
anxie
terko
kamse
asf
concl
pado
##music
##neil
##ranwala
ataaq
corrupted
ilam
pyary
ibad
##adoe
calcul
goverment
kyoun
sethi
mitr
khairaat
anaari
##adatar
##arm
##karachi
oui
samjhota
##heartsid
maizbani
sedang
werzish
zawiyon
acharya
zalimo
shivaay
sahuliyaat
kabootar
ahok
jahar
xy
سار
##sya
##jf
medio
##vana
valor
##ikit
muita
thae
##aldo
thag
jaatay
khaty
mujeeb
prith
barda
jispe
manen
lax
tac
ghadi
##anghi
aahang
trai
lass
tipu
sco
samjhana
samjhty
mulu
tia
rahogi
muncul
safah
pagar
bayaniya
divert
faislon
keede
jummah
advani
fasla
##tify
lanjut
##chennai
validation
patwarion
kari
chuttiyan
istandwithsameetthakkar
anokhi
##eros
gara
##rath
kz
phee
siso
ریڈ
##چی
##azad
##diq
windy
aneh
##ulay
##marks
##kifli
bolde
recom
badd
##manirbhar
sayid
##appa
maghl
sathe
khitab
hnn
halan
nowplaying
kahunga
##khabri
dilaane
##gur
##bersam
atankwad
baithay
##centage
ninsi
fotos
gobierno
wagerna
cg
cach
nfak
pns
tika
##fah
##ety
##hone
##zid
##aroon
haimera
##alp
kehe
ekla
ziyarat
##grat
##appan
##orio
##umen
bobo
walau
smiley
##cb
leng
pmik
fis
murshad
##ايس
ind
sunaate
tyari
putih
bikne
##indias
tapak
phaily
##tttttttt
pachta
baised
branco
beemar
marakaz
kalyug
mkr
niye
pharma
sushants
ٹیر
##last
hotha
##ehman
hima
affe
lewa
shauq
chd
kameez
sakey
raheen
launda
##abiz
jalli
kaisey
misrey
patrio
##ankhan
qadamat
##sions
candi
jamane
##ople
fankaron
##nkj
aima
overse
##miss
mcd
muawnat
chowkidaar
halakaton
ralf
deixar
##wetasingh
##oneexo
zin
ویر
##ksh
##gri
##cm
##inhos
##asna
salim
##ikt
bawan
buena
himan
##itn
kato
unnao
##safe
asri
sunlo
adarsh
timatar
saly
verna
mtlab
viswas
pureheartsid
muqadar
##rested
jena
##hid
saveustad
gaandu
anjum
choohay
##boyasim
ugc
manusia
##zulkifli
##forshushant
aarakshan
foqtan
saveustadzulkifli
##cen
cosa
rolo
rhty
##raf
biscuits
tsh
میر
کس
##wf
##جی
##ampe
kaate
##abas
koti
##hando
##agiri
apenas
bhajan
krw
nara
shave
shawa
bhaiii
ghume
##erian
##afaat
takla
##rows
passa
##zaab
sidhi
dekhao
newprofilepic
tehwar
##ired
ayaa
##versy
##zaib
##aaaaaaa
khreed
kachray
برینڈ
##attack
dugna
muhallay
daonlod
goo
##sil
##akh
maghloob
liyo
##person
wari
##ہٹ
memp
sebuah
##ishain
##utha
krungi
##dun
maujood
##rahat
##loyed
daraz
hog
shra
tarseel
chegar
ow
spoil
##urer
fatima
trisi
farah
akr
##opresiden
##wants
hisi
wasal
minut
##ارک
garb
ikan
hojai
pahlay
bayar
dyta
jarurt
tention
calda
##charya
begana
nur
##uram
whos
tlba
causa
seenah
manif
jimi
vinay
pakhtoon
ltife
ellos
tofeeq
switzer
muntazim
##wetasinghkir
bardast
rv
cet
kup
مک
پاپ
##sharma
##dgi
##jl
##jain
##حی
##alapak
khpal
khake
alvi
##ulhassan
ghol
amu
lig
aau
comun
roh
##hayin
matar
##ufi
insul
##ppy
eske
##ranay
majm
zaalim
rasan
kheti
safaya
##being
demi
integr
phol
fazol
shamsi
bcci
estaba
osko
gariyaan
##اکس
##nio
dhoondtay
shehnazkaur
australvi
vahm
jgah
کامیڈ
##jian
gundagardi
##spiracy
morepowertoyouasim
aer
ziya
##vart
kaghazi
nadim
##spar
tode
##texposed
##iyn
##nb
gia
inam
krra
boltey
##uria
reerh
andazi
kyayeh
kyasirf
taare
azal
asimraiz
##mous
hanji
aasra
nazyon
qadeer
qarardad
kuat
hows
##waty
##conf
nakal
##ilihan
sahaf
dakha
khaleej
madaris
##enay
sekhen
wkwk
hadion
dhulai
ablaagh
terlalu
csk
hga
hra
vuel
فران
barak
##zb
debe
##encia
parmatma
##teza
muhab
indus
saver
##ingay
bans
huj
##anib
jann
##fat
daale
ghaafil
muskar
syast
suvar
##mpa
##vani
satwen
minum
bagher
ahliat
smugg
##hli
##wg
blkl
bradoe
##اری
outra
maange
msnoy
besti
looted
uno
rooz
partai
masjid
##scam
gorakh
gujranwala
##realheroarnab
mukhalfin
churras
ancest
##scanner
rein
duld
zoor
##dri
##foon
tho
##qah
##ammat
##ispr
##tians
##hiti
##unke
thakan
modo
##astar
sooni
rezim
mutnahi
larta
bandha
##hadh
##joining
kuttey
kashmirion
##vidha
doctoron
zalmi
##atal
##اتا
datang
##sirf
##uno
dhuwan
seguir
niyazi
ristoran
duldul
dpt
klay
soot
ڈو
kam
vr
cree
گوڈ
haitumhara
##inko
karata
##yaz
##tio
ze
parwan
##khuj
##idos
samer
##fra
tezi
maryada
##jaans
salook
##eebi
duit
khoyi
haqeer
paishgi
alim
phla
##یول
trave
mariam
blockbuster
eta
taiyaar
nsitharaman
hijde
##cbse
pochna
##zzzzzzzz
thukra
gustaakh
bhaisaab
youtuber
##iste
##may
thikaane
##cloud
eti
##jad
jura
vjh
سوف
##dont
##cuj
##zor
kidar
seng
thaab
ob
barsa
teman
maroge
##layam
imla
awamil
kono
##idad
hadith
provoke
##ols
baityon
##sarkaruvaaripaata
bajate
##very
aqval
jeo
hazoor
##khauf
##pless
yakam
hraya
msori
msajd
betiyo
ehl
tagline
mahal
todna
susu
larkon
holnaak
khidki
bazyaft
classi
##istaan
##zh
##rok
insidaad
khalifa
chatukarita
##boot
##erecording
shehnaazgilll
bilkhushoos
##texposedin
dutt
ہیم
##wv
##heek
##uns
np
banya
##idan
machar
teu
insya
sadhna
pooray
mureed
dekhoge
hazem
sikhi
talawat
indore
laitay
falsf
cmomaharashtra
mitha
meng
olarak
##ofsid
manndi
qeematon
taiyari
kangna
bhadve
danishwar
chamakta
prosper
##cz
afsanoon
aurangzeb
nic
falsafay
##aina
##dullilah
biyan
cus
dyo
jdi
jsy
flirt
rerecording
trolls
umar
wjah
##tyle
blah
##know
##lng
##xol
##arrat
degil
apaan
##tedar
haay
allo
sabor
##waop
sakata
dekr
pergun
chaloon
salay
chotu
bagal
bagaimana
sachhai
##khala
##hane
porki
##iy
jonno
giraftar
moakhar
لوکاس
eent
hth
nutt
sbi
mojo
wey
ڈریک
chama
kabr
kabeer
paay
arbon
kaleedi
##anthi
##olf
ilha
##reen
jeito
tajawaz
##sit
##kalyan
##mesid
##oyn
zimmedar
emojis
raahon
##aday
##onte
korte
apnai
pyaara
difai
##gfamily
loco
pahannay
kasmiri
zawiye
sucide
anushka
falsfiyana
cjp
easi
gc
jayi
##twitter
##done
##jag
##ayur
kars
isky
yawr
##dig
annu
##ulta
##idas
##kek
##tertainment
##araa
nous
stupidity
shkl
##harat
##week
dekhay
##eries
artalees
comme
imdadi
bhuj
atak
firdos
##pee
balu
jitnay
mie
lakn
jayo
dharne
##bohat
##سٹری
stat
##anyon
expos
munawar
zaireen
ummah
bndron
##sssssss
brit
sasur
gunaah
darwaish
jooton
mahoday
maakhuz
ahy
##sng
##lil
iqbal
##yabi
##xv
##بری
kij
haintum
tay
##ados
chaina
##mut
hizab
sahay
##omkashyap
jog
mafaad
agayi
tars
marni
areee
bahera
kaladam
escap
scen
rq
##cow
kaunse
indra
karsakte
##pre
phali
dakho
semakin
krig
dh
adiza
##issue
dupatta
##singhrajput
thakawat
curios
spokes
urdushairi
aiye
mnd
nb
ome
ugh
کم
##yee
##zt
toheed
khori
krin
humre
humdardi
och
dipik
##cuit
hek
terse
dile
serials
##giii
haji
##angga
##ashmir
gs
##ryoz
##honest
sharai
guleen
malak
sanaonfire
ramazan
blan
##ورک
americ
ruki
aie
yunan
wafadari
##ccin
majbor
wat
rishty
qurbat
failate
##ently
##makhan
reyasti
pahunchte
javaahi
ayndryoz
kemarin
##amitshah
##bdmaheshbabusarkaruvaaripaataurstrulymaheshmaheshbabu
javaahiir
lgg
##ikh
rjd
tane
پھ
##xus
##qc
##anh
##amir
arun
kosh
kook
##ilon
chab
abaid
aloo
logi
##mara
aghaz
prerna
##rti
kabja
paala
tive
indira
##pective
##inga
imdb
khoti
zarrar
##ereal
##ately
jalo
giroge
kashyap
monstr
chupay
khelny
windn
##ains
hahaa
personas
justiceforsushant
kholta
bossbht
pear
phely
hormat
homem
chhapa
biasedbb
patrkar
keknya
##payee
##pride
mehrbani
nessa
smpsn
کوریوگرافی
murtaza
chontis
sray
سیم
favourites
گڈ
##keep
##ٹل
##anha
##amaz
memar
##apo
bhair
jaayen
##pps
alamaat
deter
bareek
darbari
tn
andesha
diljit
laundering
##ubar
roposo
##stood
waada
khans
##baron
malkaan
plss
##chayz
yaadon
rame
##sidd
cambi
priva
mrk
hansta
mitron
zimni
sifarat
dako
hifzo
##hhhhhh
challeng
irres
ہايپ
pip
نیکول
frnchayz
lillah
qaida
rdo
##aren
##ayodhya
karda
suspend
tole
##ensi
##ilat
##ishe
##istir
##oson
##esse
bew
waldain
##uku
masool
salud
khouf
keral
tmhry
smja
##latoon
bajrang
##johar
veget
gully
kasheeda
angrejo
rupaye
karwati
sava
##duk
bal
cad
shehbaaz
jaipur
hmein
##chorhai
amaada
lux
shelly
کارل
##hre
intazar
iftitah
##bhagwan
usmaniya
اتلی
beemari
##arians
btaskte
wuqoo
anwar
nerv
##qf
##alai
destru
chamar
haus
boond
wadi
jabir
##uption
musallat
batees
shetty
kahate
frmay
##baran
##tsalmankhan
myoz
scoo
quin
##urse
##wee
baita
##rrpnishank
##mies
ohde
realmente
##pw
mardan
##roll
##vita
##banyak
phaila
rishi
devdas
##results
dehshatgard
jalan
sthon
##zainab
pertama
##khulwaop
falei
khyber
tahreerein
##texposedinssrcase
myozikl
gte
jik
qari
tallah
گرو
##hega
##uls
##taari
##isar
paran
woe
unta
ungl
dimana
huga
huwy
petta
kamin
##matter
fruta
faay
baghi
rasham
qadiyani
##dddd
##khane
cepat
meethay
gosha
habis
shilpashinde
imagin
boseedah
mubash
kasauti
brownie
adored
ڈریکلا
rath
sne
ue
ایگ
##hbi
##mary
##cmo
##سپ
##ٹینو
mutay
alq
alkht
##shya
##geon
mananay
waqas
perta
enna
##hamesha
bain
##maid
chokhe
kalyan
esleha
##movie
kayo
ladakh
lambe
gandy
peela
##ually
katai
pagalpan
prev
mirz
##cont
bareme
explo
rista
bahaut
talkhi
chamakdar
eras
##idades
twitt
deixa
bhijwa
eslehaath
aint
dhone
fase
gant
##rada
iks
jey
jamil
kmp
##til
bot
este
##abi
##xg
hoax
medon
##bla
##aders
##icon
baaj
saheed
jaaz
alstar
##kijaans
##ardan
moueen
##hirt
##rest
kisise
jabardast
daag
badhi
suniye
rahmat
khudka
##bacha
salman
shitty
khangress
##kian
dikit
mehv
jalna
rm
waisey
dhaat
sensa
##enes
fuss
##tao
##wash
hakim
rkhte
chakki
uthti
seekhta
hawaas
faizan
chirya
##wellsoon
chappan
tinggi
trabalho
wroth
supremesid
ashirwad
gambhir
kmyon
##ando
comemorar
joo
patrakarita
##rem
mni
qn
ubal
vz
flop
##chool
baand
inpe
afkaar
jogo
alz
vidhan
##imum
mille
sakhi
badast
arsal
##jaar
##baazi
shenaaz
amara
##hum
##ufa
urusan
padna
tmhen
rohan
sanaworldwide
verma
mohabbaton
indiast
jeafri
dhuk
padre
desc
##enial
vides
mis
##larn
clap
pali
rook
##cana
peso
zaher
saanson
jhoti
intahai
dhram
momineen
malaal
kns
laz
pud
sra
پیل
کاو
##pb
##gree
##yay
##gayi
##چو
kav
ting
##abaat
jahir
ghlti
ganga
prn
##thn
##ukone
waqae
##jaane
##habad
taskeen
thop
munici
menina
kheer
mujhpe
dhood
fazeel
digger
dynam
singap
juye
tajir
budhe
rec
veere
indya
raftar
asaram
lootne
sajish
primeira
mastermind
shameonmumbaipolice
consigo
feder
confuse
##protests
tod
falou
##chennaiexpress
simi
iyi
kurrah
vji
haiap
##para
kif
##association
komp
##abta
##ilm
deye
muts
loda
jaaan
banon
maaa
prais
barsaat
##chaap
asr
assa
tumharamain
maidam
adhe
robo
##biz
bhum
xl
kahaa
##darshan
bachchi
daiti
peelay
##cau
hacked
rajnath
bulaye
estos
maracuj
momo
bikul
dhancha
##cam
janwaro
patharon
tweeted
##wkidar
assalamu
justiceforasim
jajajajaja
haimujhe
pohncha
tankeed
jawabi
sudhirchaudhary
##romance
mujremana
bchy
cort
cid
##sg
durga
fle
##cina
fet
foll
lue
انگ
##zzy
سد
مزا
##cara
##adores
chakr
krye
krate
beton
##rein
##kid
maash
doun
batado
adity
subsidy
hyy
laam
lauda
sarma
inshan
ter
##ici
esa
peshawar
dayrik
loren
##akhti
idiots
tasrat
chorne
aysy
mame
##orium
qattan
fela
berhate
jarsi
##plano
visale
pichly
mirch
##lionheart
dabbay
fayde
lehr
fatia
tumahra
raastoon
kudu
telecast
vinod
aussi
paintees
bithaya
##murder
preciso
looser
soomro
aoo
pangg
yus
ڈاي
tq
##bbat
##dg
##ound
##jg
##xw
##پی
kaki
##yahi
##ithi
chopra
afgan
abdi
unban
lagenge
pemimpin
dariyo
dekhunga
badkaari
guss
adho
##waris
sataish
utun
##odhy
tmc
babur
##thackeray
##ورس
mors
##getum
mandiro
mrna
gulzar
bikhare
bardash
##ayo
bahaya
lashain
shaheedon
انڈر
hurmat
techni
jooth
seharusnya
despus
##illahi
##bukalapak
sargaram
pichhle
mehmanon
quwatoon
feroz
##ajan
kiara
asimfandomhitsm
pemerintah
aney
tans
wle
##rooz
##jhi
##great
keli
##chti
hainhum
murderers
##miento
##hou
##riat
bhaia
condemn
chhari
##wae
aller
##ghi
jabhi
maior
paseen
cou
produk
shehad
buhot
hunda
hayati
ilaz
bunda
dhoya
sharechat
edhi
sazae
psand
rhoo
distri
waarsat
##یریس
piyaar
parindy
gulaabii
mohtaaj
ashok
mehanga
cheekhain
kun
maweshi
bacchus
bohoth
##wetasinghkirt
medonna
aaisa
dny
mhar
##heeh
karb
##enya
khosh
khared
hainn
anjan
mala
humey
##kafeel
samz
bf
##qu
ampe
wahiyat
##vere
fareed
bhra
faar
drs
##jali
##weather
bujha
canad
nazay
bajana
##iii
galli
dykh
kanwal
indianairforce
ruh
puchho
sudhre
kurbani
kurtapaj
chahati
ashram
tahleel
mufad
gujjar
berozgari
adalti
chasma
##roshan
washroom
sebelah
toseefi
##tejashwi
##utenant
##ushanthsinghrajput
sarjnt
ہنسیوں
uta
esos
qomi
visto
##dub
##rir
##nami
biker
##فٹ
##جن
nano
##haari
komen
##pres
bhao
baney
mouka
prha
pakri
astit
mantar
taayun
kabeena
maira
laaj
merepasstumho
madre
burkha
pior
paiter
tanveer
bailay
lgana
jhola
##waji
yarrr
jj
inteiro
jayee
estado
bhulane
bukti
temps
azaan
pau
##blos
##lok
hawaly
maangne
ryt
cabea
essen
haber
rubik
##kkkkkkkkkkkkkkkk
dehk
aimly
twinkle
##abia
stoptargetingasim
chonka
##harshbeniwal
kanganateam
pishaab
##dav
pemaiesh
shahnawaz
gashti
jado
kle
nub
جیو
روب
کان
کیمپ
##rashami
##لوک
keta
kaks
##chd
baati
parli
vikram
chabi
ansh
boll
itn
##tiv
##chale
sambil
pakd
pakode
##gim
raka
tetep
##gni
pahen
##uffer
mehmaan
cai
##otr
satguru
##dok
aysh
kery
samba
warga
sachme
complic
colek
##assy
##wani
dyty
sont
dali
sonra
bangun
##app
wahaan
##year
##یسا
powerofsid
bardari
farmaey
sumit
cantt
##ega
sehatmand
##cel
##enter
##oles
braay
tumahre
fesla
islaam
##dryclear
lifafay
gustakhana
ilyas
daty
elim
##hem
##kata
فین
پیک
ہو
##beh
##pari
##gato
##ashamidesai
karton
rubbish
##arus
##aghat
khosa
tumy
ante
##ingan
merah
barood
amn
aachi
paseena
sidharthashukla
trin
gein
##oj
##eesanth
payal
iktalees
makkar
##belie
beryani
secara
tajrib
tukang
grapher
janglaat
##andra
ارک
nirav
##broken
seerhi
##melec
##ror
rickshaw
mutayyan
tajribati
ehh
jos
jir
##mson
##fake
##kangana
jc
kartu
##ishas
param
madly
##iyak
##rag
##lect
bhain
lagatar
chp
chz
bardaar
samney
jisey
jabtak
aawaj
musarrat
povo
taqleef
laraz
##isan
asifa
pry
chortay
##tanya
##dict
kanjo
indianarmy
superhit
##pakistani
tagayur
##frnd
##اسن
##chuka
vansh
almoo
bloging
sambhala
jangju
lc
partiyon
domin
dilip
nenhum
کیمیو
bhaisahab
ittihadi
khwahan
uljhan
ej
lma
wol
zong
##miyat
##ugi
keb
parth
humesa
daway
##mizi
sido
enfi
##ciendo
firaon
##eeling
##nots
tuba
##aks
ayl
ayman
##athan
##zle
kayam
nazmein
faisala
mnzr
mangty
phale
##tirathore
haramkh
dabba
belated
siwaay
pitne
##bhushan
##restrhea
khayenge
iamharshbeniwal
nishanaat
tilgo
mushtarik
dagha
##patel
sholay
shawahid
glat
luter
nooh
wesi
##thar
##پری
##adr
##for
##tivo
mulayam
diay
soaz
##mix
##folk
khudmu
sarshar
hogia
mukkay
byk
dallo
achhai
##bf
##imam
##kyon
msd
dhany
rupy
lashari
اسٹراي
rn
nirman
##ومب
##aexol
womens
chhorey
bhonkna
dgp
qasoorwar
##یانو
##bagga
mehsus
##miya
isilye
soooo
uchit
bien
بو
##thee
##jik
##qismat
##haf
haie
##ayn
leaks
kemana
meas
##esab
dung
leja
ankita
pandit
moder
##shon
prath
##uddha
##tat
##you
rehain
##nir
pakis
niat
chega
esses
##inho
balasaheb
##rise
ae
irritating
nay
ridi
##tros
bajane
gandum
kata
offend
puhn
airspace
bahawal
vikasgupta
trell
mohlat
muawiya
sevilla
vulgar
najam
muskurata
tilak
malaa
pendukung
mizaji
bugti
naarad
darwaza
fukrey
hifazati
ekonomi
zeng
##scan
foo
ریپ
##meez
shang
##cance
##anas
##ansi
koq
seke
muaser
aapane
##aqu
dokha
sibl
ars
rehmi
entah
bhkt
##opal
bipolar
##opakistan
magan
##olio
khatma
giran
mayar
bakht
bnati
sachchai
katta
chupe
desho
sahaafat
##ashah
nirala
meses
##titute
rehem
indonesiacall
hypocr
nidar
pahariyoon
kishwar
##mahagov
karrahe
pukhtoon
aiims
nikaali
##just
##blackday
meherbani
رینال
ry
##studentsp
paristaron
##roshanromance
کال
##jyo
##caanrc
haihar
sehnaaz
##umber
##upt
##enquiry
##rip
seeker
istif
parat
chachu
aliks
khushkhabri
##wahan
##gano
##anaam
##istkaro
dil
##sein
nifi
janas
mustaf
##stars
##people
tre
##puted
wekawe
ie
akad
dept
hahahaa
bayalees
sahabi
yaksar
ghanemat
intqal
dushwaar
mirip
dekhegi
sangharsh
##opa
##frt
turun
yogiji
##sir
berman
sukkur
sikoylz
##rikes
##cutta
سینڈرا
acabou
ترتیبات
jiomeet
aeh
qs
rung
##pable
kiri
##aplog
saay
##khr
bok
itani
jioswitch
laati
huey
chandio
btate
samajhti
ellahi
mauke
##ront
##ducted
rakhnaajay
chaheay
##pone
##talis
##ofindia
اسن
munafiqat
##dilkokaraaraaya
pyaaz
imrankhanpubgkholo
##lib
republicbharat
برون
jiobro
vet
badshahi
kagajscanner
##tizekhuj
instigate
boobs
elyments
jiobrowser
ata
glam
ks
vo
hte
hing
##raya
kujh
mme
agra
oqat
khbr
intaq
jawah
bedr
##ubat
nige
nipat
mainbhi
arrahman
saling
shokh
imdad
khotay
zarurt
suis
jalal
##ands
minaar
bandagi
lgne
jholi
patna
pahn
falaste
##twee
naseebi
tangan
akhirnya
qurbaan
khalistan
maangte
##hahahahaha
kalimat
##komt
##toy
##jamad
twiter
puedo
dukungbukalapak
weareoneexo
tbs
anjanaomkashyap
utaara
mujasma
khinchtaa
bkn
sanjay
disgrace
deek
juma
##thin
kiay
##ables
##tav
lodhi
##lek
humm
banaras
lagda
##lives
moht
bareng
terjadi
allahu
choari
chouhanshivraj
zarai
shipper
bandhi
ladayi
hatana
aql
sonho
dhaar
wrest
##یٹو
mumbaiwalapappu
pende
mitane
tangen
##ducated
paintalis
oppo
resto
cozinha
laathi
gustakh
yaqoob
utrney
ketika
ghnta
wanita
paighambar
kehlaanay
sndrila
allamti
indiastrikes
fazeelat
ksa
kvi
zbr
بیٹ
##£
##¤
ڈون
##bam
##frat
##¨
##kd
##hade
haikal
##aksh
##chop
##±
##´
khos
##apas
thal
##º
khayega
hutiye
##kib
##cet
stre
##ð
##oora
chalati
##vities
##asif
baltistan
##œ
##vahi
mumasil
jeeto
vishesh
bhejte
dunyawi
poochh
##bullying
nashriyat
##khtaari
dhadkan
khoshion
agae
astaghfirullah
kasheedgi
nighdasht
khudmukhtaari
ove
راک
##kamaat
##یسٹر
##vane
##qbal
##inte
##asad
##abus
##abul
tooo
khl
rahan
humri
difa
bolain
dohr
barsi
sakin
sakshi
shrif
nida
rakesh
rofl
condol
jitega
behne
haseena
chikna
##erim
pix
munjamad
blam
outros
##beta
##beda
deewan
ohoo
iqt
chhoda
bors
chodenge
bith
rhoge
balochi
##ticia
nsbta
khuram
muskurane
sekalian
pulang
tarfah
fazaiya
cricketers
dhundo
humayun
##bighit
vd
##faiz
##pz
##qey
kajal
##aseem
##oshon
khumar
##icin
alr
behi
banenge
usnay
heer
doct
marln
sunaye
frq
##izindagi
awein
padai
bakar
##cou
##aanat
tempc
##یلہ
yakja
morr
becharo
khilta
chodna
utarna
beeni
bazabta
hojaega
selama
korban
querendo
saahab
tumahri
dakhlay
tunay
##uuuuu
##ו
ashish
khaanoon
taarif
hanif
pasmandah
lk
udar
vh
##מ
##ן
##ntapostponejeeneet
##gori
korup
semb
khti
pars
chaud
chamat
##ר
thakey
jaab
unico
##ء
##ب
##ت
##ث
##ج
##ح
##خ
##ذ
##ز
##س
##ش
##ص
##ض
##ط
##ظ
##ع
##غ
##redi
##ف
##ق
##ك
##و
terey
##ٹ
##پ
##چ
##ک
##گ
##ں
##ھ
##ہ
##ے
pakanay
mannat
##उ
stak
##क
##ख
##ग
##च
##ज
##ट
##ड
##ण
##त
##थ
##द
nigal
##न
##प
##ब
##भ
##म
##य
##र
##ल
##व
##श
##ष
##स
##ह
##ा
##ि
##ी
##ो
##alities
##jaha
sarhadi
farinha
exerc
samajwadi
nikalen
sanwi
kintki
##jewala
##jhoot
sunaon
biki
kasm
chune
##نگر
chatna
bazari
karyakarta
##rafia
sajeela
##ويل
##ন
mohd
##upportasim
##ভ
musafiron
##য
##র
nagri
nagpur
##prime
##aliyaquat
nigehain
##া
##ি
dkho
بول
وق
##bhut
##muj
##gest
##vaise
seht
isly
apmaan
##simo
##icks
bhaji
jawo
diab
banny
merci
##ulis
mous
soyd
req
samar
harny
janak
archi
chek
##sthe
goy
bhht
kahana
essas
##sofat
cheezian
chila
jaichand
angazi
smbhal
khee
appi
aasabi
bajanay
##assam
nisaab
kaif
ganj
justic
gulen
talliyan
اسٹری
tattu
querer
uneducated
gauahar
zikria
tazaeen
staystrongshehnaaz
rafique
darjanon
pajama
naxal
sintalis
ویروولف
##kijaanshehnaaz
##sofatg
jstn
nxt
##mgr
##lye
##vest
kimbl
##iles
dehl
chakk
##ajj
##rios
redu
kamil
manenge
##cei
adwaar
launder
shobo
basath
existe
chorar
sancha
brak
aagayi
dusare
btaa
starboyasim
mardangi
puchha
laiken
kasus
##lished
sikhao
##jjjj
##اکی
karwata
tanhaji
tootne
dhoondata
seenon
victi
tirar
yanha
nmbr
sidharthshuk
sachinpilot
shatranj
imaarton
khraab
equipo
jalebi
sarparast
##فیلڈ
srayiki
kli
rz
جھ
##kak
##cop
##زم
##atr
##esar
##teach
##ires
inkay
thaanay
usee
hecho
##andhonest
sojao
darood
samagh
##gii
ofcourse
sidh
##toun
##tarfare
konri
girgit
chitra
tanah
chuppi
##mado
fazul
sorte
intizar
larkiya
criana
olur
dabanay
muzak
churee
nikleen
guyz
ghoont
portr
beshaq
swarg
jarrain
batien
tubelight
companian
wnw
neighbo
naujawan
جولیٹ
bawjood
parlimani
mkrmh
luego
soydsh
jila
موری
##jv
##lapan
##xf
##eren
kaasht
##hanallah
bawal
bhichar
leli
##€
abub
##khn
walit
chron
##anahi
##™
hamey
jisam
taaq
taoon
dauran
ghadeer
bib
chele
chalods
##baani
bhk
bhud
##tarfa
basharat
jinn
shikan
##mph
nayazi
aylit
chize
##ینر
sadqay
happynew
bsnl
coron
musalmah
rajsthan
jeetenge
faire
vehi
estas
bikta
##tumhare
##akahan
pitai
wiladat
ginat
bhosda
##★
rabia
jrurt
obser
ashaab
sargarmi
kayaknya
bevkoof
رینالڈس
aama
bly
hwin
sult
سا
ویمپ
ٹور
پن
##hb
##neet
##maj
##esweather
##raani
heere
rahamere
walun
mujey
soja
terlihat
takar
mazza
cono
##cipl
firshton
tasalli
fauran
buresweather
utra
##tram
##goyal
monas
jbhi
palne
##guine
auraton
memer
naqshay
fuera
##jjat
gunaho
pakarmy
sudharne
pathano
chhatees
ijtima
qadiani
##bumps
makhloqaat
agenday
setiap
flipkart
##sofatgchennaiexpress
diyan
gati
rant
reni
فلر
##jaji
##paya
kaur
kaale
##eeeen
##tido
apani
##irin
mudeer
ino
##hoz
banjar
moong
sunan
##many
matram
bachchon
ladenge
cance
ilaaqon
jhul
btai
auz
berubah
sorakhon
##انے
qaari
saharay
presidente
thakrey
quiere
qayam
jhang
nitin
sacche
fairandhonest
jaakarke
gulaam
tjhy
asbaq
mdr
wud
ہر
##taba
##ruk
##پل
##haaa
##ayr
##erhe
hob
sehi
##abab
isol
##agle
saur
jaadu
krney
khaki
##gaari
ghuse
##lima
prad
pradar
kamre
aisee
##there
umair
faryad
aksr
awai
uppolice
ayam
lagaam
zaad
tanta
nazro
galoch
bhagaya
chupi
sikka
hathora
papi
intihai
##inthe
laity
chuney
chahea
risala
shivika
dilaade
putri
advis
madarse
##iiiiii
bajao
sharmaa
raajneeti
guzaarna
chawalees
##chandna
bebasi
##elections
mst3
tyagi
indiascreamscbissr
qadima
rohingya
anurodh
kartonon
ltif
mbar
sng
zol
سوپ
kichu
houlle
karway
##yahan
##chne
loga
abra
jaang
krst
meraintezaarkarna
hubby
soach
kyoon
manan
ekbar
chegou
tienes
thhi
bhd
webs
awakhr
pigh
hadse
##jodi
durbhagya
##venue
##eshani
jaygi
dharnay
mtt
##سٹرو
##ganti
##aghmakhan
saabat
kapda
kapre
gehlot
majboot
painsath
aayyo
##haqqat
doobe
nuskhay
karnama
waduh
##shameon
nichli
blagrz
mazzaq
لوگوسی
ltifon
ble
lallu
zakat
##mayi
##qv
##arendramodi
kepada
naas
napun
hous
##eema
muham
hacen
##kiyaat
maaz
hewan
chos
chhed
bolly
##inden
##veja
ammen
tarre
tejas
provin
madeen
zarayi
quam
balad
mukka
mahool
mio
mojod
fim
kathin
toote
##imran
dyan
ganhar
##waseem
kasmain
begini
rukhi
aitqaad
shabnam
dharmik
##poneneet
##thik
sukriya
hataane
biscuit
kadang
adhikaar
کارٹ
astinle
especial
bmc
trabal
kafeel
dhabba
rimnd
aeinak
##izindagiikay
aali
cerita
iraad
nunggu
yos
##qj
meli
naakh
##heh
holn
dehan
##esath
pares
##irah
raje
thaek
humsha
##araha
##cham
youm
pakeeza
bado
aach
sib
##essr
shobha
bhuri
magfirat
##ongo
chizo
fanoon
jayiye
shuklaji
jugar
realhimanshi
khilonay
ajae
wafad
shikni
##برک
rishtedar
##rrrrrrrr
lagataar
kushal
##mmmmmmmm
wabastagi
yogdaan
nagrikta
ahoker
##republicforsushant
tonguetwistkaro
mutsadam
akht
fto
qy
ucc
##undi
apsy
bawah
##ooth
unstop
lagbhag
logh
boley
hamsa
##indh
darham
noke
laen
dinheiro
##ends
bharte
tasheeh
ayga
##trl
vimp
mura
spee
hato
raaton
chupaney
##یوان
fazlu
secron
tafweez
maanga
lykin
##yyyyy
amrik
dastay
shikayaat
##ینڈر
faysal
catup
tharoor
ایلیس
jhota
bgair
nnw
chalayein
earthqu
owais
ltima
shuroo
dhanyawad
##dolillah
lkhno
chourasi
aina
dore
elia
izaat
sli
tsk
yag
ڈول
ہیو
##whi
##wese
##kitna
##گز
##ھی
toak
##unte
hizo
abyari
khushboo
maans
chons
soum
##mem
hamd
milad
milana
tarr
kabur
badtar
##rour
tradi
khudai
salgado
sarsari
ajzaa
##peace
atna
sochke
##wanya
nayab
taraha
keray
withdra
bnke
charhne
luq
##govern
pankh
larkio
mrta
mirin
dukhad
khawand
haathon
utarne
bankon
hojayegi
chahia
hotstar
##awaaz
ranaayyub
makhloot
rujhanaat
dgispr
imtehan
kanton
informa
cubby
kartarpur
baluchistan
iksath
bzy
sda
sle
sdd
wkt
میں
پال
ہا
##acha
##jani
##مس
##erra
koro
##ensa
##isyon
debo
paratha
chada
krl
betiya
terrist
kamate
darurat
milain
milenial
##dec
artinya
sifaat
tiap
mutwast
nyari
tamana
bakhabar
sadqy
amei
mimin
idara
peechhe
diss
ganwaa
veces
stopbullying
akhlaq
setuju
##یسن
poochta
##ikian
sikhati
siwae
##dilkomainedikasam
mesma
fakir
mutalay
ashokgehlot
jiddat
cachor
gulenaghmakhan
fairandhonestsid
chonsath
dase
lho
pind
riks
اگ
روچ
وہ
##kare
##lees
hohum
rauf
##haran
yaas
pemana
##meye
aaur
sunat
sarv
duga
maliyati
kirnay
tamiz
kerke
##orial
ramji
vib
appko
samajhdaar
compra
wazah
galay
izin
chupaya
##khawar
tafr
becho
osy
##wasa
sahare
ijlas
begerat
ruknay
##anoe
shabaz
poochti
##jju
kaatne
faken
muzafati
zahree
badhte
privile
waseela
kenal
oonchai
aloodgi
murdabad
ghazabnak
ٹايٹینک
##colorstv
badastoor
aub
bdy
lbh
اب
سول
گور
ﷺکے
##imp
##pray
##poot
##qw
meem
kagh
ispar
##iyu
bhaiye
bhaichara
rahata
##astan
##shp
marney
##versi
##hentic
khudki
##baap
enki
ende
salami
faroo
qabul
##hrain
hojaty
uthake
##assador
pichla
jurey
rupe
##یڈو
##qareeb
##وپی
aditi
athawan
kandhay
tilr
geladeira
##grover
antara
kkkkkkkkkkk
##huttozardari
lembro
ayyaam
goosebumps
canaddy
parliman
elo
jiri
qand
zaka
##oosh
##jits
##goo
haibas
medo
kaas
##asp
koyn
##adya
##adrish
karraha
baah
yaw
##ayaa
##limited
kamna
samundar
dilse
badhta
aajkl
##hamari
kahaani
behs
gharwale
wajid
esme
qabl
chorando
paiker
bakray
munkir
menye
resour
blky
ilaka
##icious
chhura
rajesh
dasar
mrne
ladkio
captan
rabba
chatni
smjhti
cabe
metoo
sambhalay
zrurt
beij
anuragkashyap
infiradiat
##yearsofsrk
meteobridge
مزاحی
bw
ena
eins
flim
oni
rend
##jori
##pna
##aiti
##ayl
keht
kast
naveen
##usic
chatt
hiten
thaaur
afwaah
dipak
banwaya
shaba
chole
##kao
pric
pedo
recon
##upe
sunty
##dekho
arbab
trj
chalak
##shish
kitta
basar
jinna
insti
sule
jaanat
cheezen
pairr
ladh
##qiq
dalalo
foz
pyaray
kano
jayaj
fatati
tabdili
welldone
listrik
phek
rathee
gambar
jhand
stavan
ghalazat
bhukhe
muzammil
##thanks
matehat
bolentertainment
janasheen
aee
jyega
vender
##jate
##ince
##akhilesh
isliya
baut
##olak
sahan
humili
usama
chheen
asmano
associ
jabray
##upat
##dew
bahkan
ajaz
chuhe
awwwww
talve
##noa
shayron
patlon
mushri
dikhayega
##bras
berbeda
tayyi
deewane
umeedwar
jarhiyat
palan
shadid
pagalon
oska
mabzol
rato
incr
qasm
ashray
dariya
lawde
selmon
##kamra
aseer
albm
##uvaaripaat
centi
ktna
tinka
sanathe
##happybirthday
jhagde
##kaweka
bevkuf
obrigada
sarparasti
demagh
##democracy
nacheez
immigr
untaalees
falasteeni
mst3k
eaanat
fn
kly
nce
##father
##athe
medan
nacha
karib
##naagin
##unci
khlal
inhein
bekas
dije
shaqq
sokal
takr
aaegi
batayen
##edh
btaiye
murt
iden
[...]
