[PAD]
`
´
˜
؈
؎
؏
ؠ
ػ
ٮ
ټ
ډ
ڪ
ګ
۞
ۺ
۽
۾
–
—
‘
’
“
”
…
⁉
⏳
☕
☘
♻
♾
⚘
⚠
⚡
✊
✋
✨
❓
❗
❤
⬅
⬇
⭐
⭕
ﭐ
ﭙ
ﭨ
ﭩ
ﭼ
ﭽ
ﮈ
ﮉ
ﮎ
ﮔ
ﮕ
ﮞ
ﮦ
ﮩ
ﮫ
ﮬ
ﯼ
ﱠ
ﱡ
﷜
﷞
﷠
﷢
﷤
﷫
ﷻ
ﺀ
ﺁ
ﺅ
ﺋ
ﺌ
ﺐ
ﺒ
ﺕ
ﺛ
ﺠ
ﺧ
ﺩ
ﺪ
ﺯ
ﺰ
ﺲ
ﺴ
ﺷ
ﺸ
ﺿ
ﻋ
ﻌ
ﻒ
ﻓ
ﻔ
ﻛ
ﻞ
ﻟ
ﻠ
ﻤ
[UNK]
[CLS]
[SEP]
[MASK]
ﻨ
ﻳ
!
"
#
$
%
&
'
(
)
*
+
,
-
.
/
0
1
2
3
4
5
6
7
8
9
:
;
<
=
>
?
@
[
\
]
^
_
a
b
c
d
e
f
g
h
i
j
k
l
m
n
o
p
q
r
s
t
u
v
w
x
y
z
{
|
}
~
¡
¢
£
¤
ﻼ
¦
§
¨
©
￿
«
🆔
®
🇮
°
±
🇰
🇳
🇵
🌈
·
🌚
º
»
🌟
½
🌠
¿
×
ß
æ
ð
🌱
ø
🌴
🌷
🌸
🌹
🌺
🌻
🌼
🌾
œ
🌿
🍀
🍁
🍂
🍃
🍷
🎀
🎂
🎈
🎉
🎊
🎓
🎗
🎤
🎶
🏏
🏘
🏵
🏻
🏾
🐅
🐆
🐖
👀
👁
👂
👅
👆
👇
👈
👉
👊
👌
👍
👎
👑
👣
👨
👩
👪
👶
💄
💅
💍
💎
💏
💐
💓
💔
💕
💖
💗
💘
💚
💛
💜
💝
💞
💟
💠
💡
💢
💥
💦
💧
💪
💫
💮
💯
💰
💻
💽
💾
💿
📌
📍
📒
📖
📝
📢
📣
📱
📲
📼
🔊
🔔
🔥
🔦
🔫
🔴
🔵
🔶
🔷
🔸
🔹
🔺
🕋
🕓
🕯
🖋
🖐
🖤
🖥
🗨
😀
😁
😂
😃
😄
😅
😆
😇
😉
😊
😋
😌
😍
😎
😏
😐
😑
😒
😓
😔
😕
😘
😙
😛
😜
😝
😞
😟
😠
😡
😢
😥
😨
😫
😬
😭
😮
😯
😱
😳
😴
😹
🙁
🙂
🙄
🙇
🙈
🙉
🙊
🙏
🚙
🚩
🛁
🛑
🤐
🤓
🤔
🤕
🤗
🤘
🤣
🤧
🤭
🤲
🥀
🥛
🥰
🥺
🦁
🧕
##ﺷ
##ﺪ
##ﮦ
##ۺ
##؈
##🌷
##🕓
##ﺅ
##😢
##💞
##😍
##😊
##ﺀ
##🏻
##🍁
##🌿
##😥
##😭
##💧
##🙈
##😂
##😜
##😁
##💔
##🙄
##ﺩ
##ﮬ
##ﯼ
##👈
##😆
##💕
##👉
ו
##😛
##😹
##😮
##😃
##🐆
כ
##😳
##🤣
מ
ן
##👎
##🥰
##👇
##✋
##😇
##🚩
##🌱
##ﺛ
ר
##ﺕ
##🌸
##🔵
##ﺋ
،
؍
؛
##ﻤ
ء
ا
ب
ة
ت
ث
ج
ح
خ
د
ذ
ر
ز
س
ش
ص
ض
ط
ظ
ع
غ
##💪
ف
ق
ك
ل
م
ن
ه
و
##❓
ي
##ﻠ
##ﻨ
##ﮉ
##ﺰ
##ﺯ
##🍂
##😨
##😉
##💐
##💏
٪
##´
##ﺒ
٭
ٴ
ٹ
پ
چ
ڈ
ڑ
ژ
##🌴
##😓
ک
##🙏
گ
ں
ھ
ہ
##💯
##😅
##۞
##🔥
ی
##👌
ے
##😘
##🇵
##🇰
۱
##😝
##ﺲ
##ڪ
##🤔
##😀
##🥺
##ﱡ
##ﭐ
##😔
##🔶
##🙉
आ
##🙊
##🇮
उ
##🇳
##👅
##👂
##🙂
ए
##ﮕ
##ﮞ
##🐖
##💓
##😞
क
ख
ग
##ﮩ
##ﻼ
च
##🖤
ज
##⭐
##˜
ट
##ػ
ड
##🔸
ण
त
थ
द
##🌟
न
प
फ
ब
भ
म
य
र
ल
##💦
व
श
ष
स
ह
##🌚
ा
ि
ी
ॉ
##🥀
ो
ौ
##🔊
##🌺
##🍃
##✨
०
१
२
##👍
##🔴
##ﻓ
##🤓
##ؠ
##💗
##ﺌ
##🔹
##⚡
##🌹
##💘
অ
##👩
##💻
##📢
##🛁
##😄
##😟
##☕
##🤕
##📲
##📱
##💾
##💿
##💽
##📼
##😏
##؎
##💅
##😡
##💖
##⬇
ট
##ﺴ
##🍀
##👊
##🏾
##ﺸ
##🖐
##😠
##￿
ন
##📣
##🤘
##⏳
ভ
##💢
য
র
##ﭽ
##ﮫ
##ﭩ
##💝
##💜
া
ি
##😴
##💠
##ﻌ
##⬅
##🤗
##ګ
##ٮ
##😐
##ﻞ
##🌾
##ﭨ
##❗
##ټ
##🤲
##💡
##🆔
##ﮔ
##😋
##🎤
##😬
ਇ
##🙁
##💮
##ﻟ
##ﭙ
##☘
##🤭
##😯
ਕ
ਖ
##🎈
##🎉
##🎊
##ﻔ
##ﻒ
##🌠
##🤐
##ډ
##💍
##🌼
##ﺠ
##💫
ਥ
##ﺐ
##ﭼ
##ﮎ
ਪ
##😒
##😱
ਭ
##✊
##😎
ਰ
##🗨
ਵ
ਸ
##💚
ਾ
##💎
ੀ
##🔷
##📖
##💰
##👑
##💟
##😕
##♾
##🔫
##😌
##👆
##😑
##🍷
##۽
##ﻳ
##👀
##🌻
##🎂
##ﺿ
##۾
aap
bha
yeh
kya
afsos
khush
liye
bhai
ક
sab
ગ
kuch
woh
muj
ghum
baat
mujhe
ટ
lekin
ડ
dekh
sath
zab
થ
bohat
ધ
ન
kahan
ફ
hota
apna
મ
ય
ર
##ardast
jab
વ
શ
tumhar
સ
zabardast
ા
rahe
apne
lagta
ો
waq
kab
peh
gha
toh
##ayi
##witter
achi
pakist
tumhara
diya
gussa
sirf
phir
rahi
aaj
pict
bah
apni
##wittercom
pictwittercom
chalo
baad
reh
kiski
jais
keh
kabhi
rah
terhan
khud
rha
jaye
kiya
ziy
kyun
chal
ziyada
itna
jata
##eeb
hoga
##kay
usay
karna
sahi
hoti
shar
pata
nik
abhi
##hiye
bh
kaha
beh
zind
##haha
bhar
tw
waqt
sakta
acha
aisa
baar
gaye
yahan
saal
chahiye
##esha
##daar
logon
taq
haq
desh
soch
##eeq
##app
nazar
waj
meh
rahay
##akh
##iyat
pehlay
dekha
gayi
khus
hwa
zindagi
pasand
rhe
qab
khat
kir
tweet
##amil
bahut
jal
cheez
khar
isl
liya
##alat
samj
##chay
itni
yaad
##wab
##aray
jee
##aiz
kais
aam
honay
wor
wajah
baray
##anay
mul
kyu
gya
samaj
adak
karti
bht
khauf
happ
hona
kirdaar
raho
##ayen
bhe
koshi
hamesha
kamiy
shay
asim
apko
paas
bilkul
nikal
wale
dost
kash
##waz
lad
taraf
kamiyabi
jahan
##kht
##ollow
haqeeq
koshish
mum
gy
zaroor
##eef
tere
kahani
jati
##areen
khushi
yaar
aata
duniya
hn
aisi
mush
deta
aise
tuj
teri
aaya
jaise
rakh
shayad
shuru
hogi
yahi
jaisay
##habbat
theek
##qeen
aad
muk
congr
waqai
py
##lease
##oob
dikha
kro
jit
hote
bjp
wais
##hh
##naak
dete
zam
jao
qabil
haan
dekhnay
##afi
matl
kahin
##ukla
hahaha
khatam
rhi
baap
ghair
bahar
tamam
herat
yaqeen
samajh
##orat
nahin
paish
aas
mohabbat
pehle
hoj
unhon
aag
naz
khaya
##atay
##kaar
pta
bagha
saath
hone
aak
aaye
saf
kitna
uda
baj
agr
maq
##enge
kyunkay
matlab
##hiy
hoon
waz
##oof
maza
##harth
haqeeqat
mujh
dukh
behtar
##tiya
pyar
jagah
pee
shak
haal
ameen
khof
raat
qat
imran
wap
aapko
##reen
huk
kaafi
sarkar
udaas
qad
kharab
dekho
kut
pah
aayi
filmon
qis
sakti
aati
beht
khofnaak
likh
##asil
##waj
##khs
khayaal
bacha
mulk
usko
##iyon
bhag
wahan
##riend
tarah
muq
mojood
yar
##thday
aye
tumhe
musal
dosray
##htay
howa
istemaal
chup
qar
kaise
krna
khaas
naf
shakhs
chh
likha
behtareen
sakte
hotay
bho
hamein
kiye
khila
hamari
bharat
##soos
haasil
utha
tumhari
dain
mukht
sahab
apki
mushkil
uske
##eshan
aisay
aakhir
##kr
roz
##hnaaz
##tey
poori
fais
##mag
chala
mubar
bta
pehli
bura
shaamil
umeed
##asir
mukam
angaiz
uski
dekhna
khuda
doos
##jh
jayen
manzar
##bha
tumhare
##kkkk
##jiye
chale
##waq
chahta
zaroorat
jeet
bul
##iyo
galat
khaiz
hath
aadmi
##diya
adakari
madad
yaha
##bhi
hein
dilcha
rakha
shadi
##ushan
pareshan
dilchasp
satke
shuk
walon
kahi
peop
adakar
kehna
hes
##eez
diye
insaan
jaz
dho
tujhe
kehte
daur
mubarak
krne
sham
mukammal
kee
peda
krte
maloom
wohi
taf
hamare
mash
daal
##oomat
poo
jaisa
bhut
##reat
aurat
sidharth
badal
hamaray
janta
bech
unko
phr
##allah
qatal
famil
boht
kitaab
jaane
umdah
krta
ajeeb
taree
##icket
baqi
mehf
musalman
##yaar
suna
ghalat
dimag
##ayat
##taf
kaun
##ublic
sch
nawaz
larki
dekhte
##ikar
rehta
leha
inhen
khel
jitna
plz
##azaar
sawal
parh
##haka
andaaz
guzar
bohot
amal
##awat
itne
kitni
hesiyat
##hee
##haar
hazaar
jyada
ilawa
hissa
##shukla
jaldi
ahe
walo
govt
apny
##naaz
‚
##qaat
„
afraad
†
mazhaka
•
dard
waisay
##khan
rahy
zare
gye
rahen
ghan
jatay
pti
mard
hamara
socha
haha
abb
khobs
mazeed
paisa
gro
wapas
mandir
jayega
puch
zyada
mehsoos
shair
##asht
zareya
##alif
dekhi
##taq
kaisay
beti
khobsorat
achay
baghaawat
yah
isliye
##lywood
balkay
##asim
##jab
banaya
kah
bigg
anay
##zaar
kere
chand
inko
##hammad
shehar
buri
€
kardiya
##jid
mahi
bhool
manaz
blo
rhy
##urn
qa
milta
™
barray
samjh
karke
daf
comm
unki
manazair
jate
ishq
##hri
chho
mukhtalif
aapke
unke
##taar
dush
saaray
janab
tasweer
zahir
ghabra
##hesh
dekhen
thora
##daron
##یٹ
masha
##ww
pich
kuchh
wahi
mout
sharam
naya
dehli
ney
bajaye
yad
##agh
wazeh
qareeb
lol
amr
agarchay
##abiq
##aim
doosri
lehaza
bachon
tareen
tabd
nafrat
ehs
##ushant
aakh
parta
mutabiq
waise
baghair
bahot
dainay
bananay
sare
laf
apke
baki
guz
kitne
faisla
reply
whi
aakhri
rahul
bik
siy
isko
##barah
honge
tweets
jaha
bna
ikh
ghabrahat
kaar
mili
choti
khail
muh
tayyar
rehne
##boss
duk
khul
jani
nae
##ooq
aawaz
hogaya
majmo
chuka
ghabr
khoon
ladki
agay
atay
kayi
nuq
thik
shakal
aapki
jad
acco
★
sher
samnay
sidnaaz
khoob
ehsas
naay
apka
rab
izz
ahem
jald
ghareeb
dikh
##azat
pyaar
rakhe
waqe
tuk
aankh
kre
##akar
usse
proble
##oshi
puri
angre
aksar
masla
chore
muje
qo
gover
##reeb
talaash
thoda
khana
sabko
haf
chalta
shukla
baith
theen
##oooo
bachay
ghabrana
waqay
##reer
yakeen
khabar
##ahi
yehi
raq
krty
intehai
karsak
spe
douran
iska
sabse
rehna
halat
lutaf
##urr
haqeeqi
muta
taham
khil
##ubs
krdaron
paise
izzat
hindust
dobarah
##bd
hosla
rakhna
##aaaa
leke
bhot
##shad
sabhi
##wahi
##hehnaaz
aapne
amrici
samjha
alag
##ateen
saktay
##umar
bolte
mehfhil
gyi
chahtay
zul
##raat
taqreeb
exam
saaf
madam
##ayega
lagti
loo
tareef
roo
hpa
tash
qisam
daikh
##fans
##aish
galti
##htar
wh
##andar
mamool
aks
perfor
jud
gham
bawaj
aar
aeye
aage
akh
##jawan
kyo
hukoomat
aal
karsaktha
##oosi
abadi
##anch
kyon
##mahesh
feh
##kn
dushman
##tahi
jese
subah
krti
naq
chod
##eeda
khol
##baat
chahe
##hoor
tareekh
##alik
insha
##ather
##leef
majmoi
##akay
waha
hosp
mujhy
##khuda
cri
behan
jisay
jhoot
chuke
jaisi
##hayi
##nab
huwa
rash
khilaf
mamu
bawajood
##heed
unhe
khaw
peechay
hazrat
denge
hussain
chutiya
sakht
bandi
taqreeban
##dul
khilaaf
rish
sils
lafz
chaar
bhul
chuti
jaanta
aate
shehnaaz
pahle
kehta
pehla
##hty
yout
lga
unka
taiz
skta
batao
geh
##ream
thori
##raha
nojawan
hame
aapka
##trol
akela
##uly
##gaar
ache
prom
kbhi
accha
chaha
haath
musht
jabkay
neta
takleef
biwi
apnay
poora
karni
paida
angrezi
jum
zameen
hoo
yakeeni
waf
kkhuda
rehti
aane
karenge
khair
ilm
bolne
mazahiy
##aqat
bataya
dahai
maf
mauqa
musk
naye
usi
##hoon
rho
performan
bhiya
dekhe
shaam
bolna
samne
##main
badi
mutasir
scri
biggboss
zikar
satah
bre
ruk
itnay
muqab
ghus
naseeb
hada
dhan
aao
nehi
utar
qan
##aliq
kamy
buk
buny
##waqqa
zeh
sahe
zabaan
produ
##cause
azam
bhagwan
bhej
usne
ekht
##hiyat
##ataam
fav
haa
afzai
himmat
ekhtataam
kese
tasaw
mushtamil
pappu
chuki
dah
hoty
dew
saza
baaz
khawateen
sushant
idhar
vaq
karkard
aat
ہار
##afsos
paye
##haan
harkat
corrup
sharm
natee
karkardagi
ghatiya
oop
##esy
deegar
##deed
zada
aab
lgta
qas
##kaam
awa
tujh
rup
vaqata
##khab
shab
##ooz
tumko
gae
batain
waly
ziada
##haat
sindh
##enay
dosra
##shah
upar
pooch
##unty
andaza
lekar
inki
smj
isse
cre
aza
rkh
ghr
azeem
karwa
mehnat
qoum
##eeqi
bhakt
mazah
maqsad
hojata
sidharthshukla
kch
##veer
##hira
manz
lainay
##gill
krny
hadaayat
ghazal
maaf
chak
qaim
hei
kafi
waal
farma
##یڈ
farq
exp
jha
dast
safar
bunyadi
misaal
mashhoor
qanoon
rakhnay
shik
chhoo
##act
kak
chahte
chori
mazhab
salahiyat
humare
smjh
akele
dham
##agar
##ooo
tehreer
baal
yaqeenan
parre
majb
mahar
##akti
sanj
##hib
rakhta
baare
neechay
achha
tumne
ibti
##aab
hahahaha
uth
zinda
##astay
karega
faida
neg
kijiye
chali
bhaiya
mtlb
waja
tareeq
dharm
barh
shamshad
jahil
kher
chocol
larke
##chalo
rakhi
mamooli
rashmi
chalay
kamya
zindah
kry
##dk
##wahish
iske
dusre
posi
hindustan
aai
ہارر
tabhi
mustaq
uch
isme
lark
##alim
padh
##asha
bolta
congrat
##jaam
talluq
##joy
iski
jaate
##ayenge
sipa
##jri
kht
khubs
inka
dikhayi
sikha
raye
lene
ghalti
rakhtay
rakho
zim
ghul
maqam
jaaye
##icha
##estion
bhak
##eee
wak
ank
karoon
ensaan
sard
hissay
aaghaz
namaz
##likes
kil
ignore
balo
darja
dosti
milega
shandaar
durust
khusi
tabdeel
##gha
ijazat
##ikh
hogayi
honi
lambi
dekhne
kamyaab
rakhay
sipahi
aleh
##riaz
hiday
shukar
aankhon
inke
aqal
aayega
kaisa
bachi
##yaad
rel
pand
##reeh
intikhab
bewaq
tawaqqa
paanch
kmh
##qay
bless
halaank
mery
##oray
##baad
izhaar
awaz
##kash
aqw
mutaliq
shikaar
sifar
kaa
khid
sahih
jaga
##ینڈ
kamz
chaiye
huye
taraq
jinsi
qaum
bache
darya
seekh
zor
hidayat
shareef
cheezon
afg
##thing
buhat
jantay
banai
shayar
gari
kamyabi
##come
taleem
hmesha
dewp
gaali
intzaar
insani
iqbal
cheh
##ajaj
##liya
soorat
banaye
##liye
muna
##aik
ikhti
zaya
اسٹ
karam
oopar
rona
neend
thak
rosh
baaray
tees
##manshi
dak
##yam
kyuki
##wk
chil
hojaye
journ
doston
siwa
dega
##jj
bardasht
khawab
khayal
baz
reli
tarj
##maheshbab
##usam
##abar
##eeli
nig
kashi
rahega
halaat
makh
karde
##qaab
asraat
##laylikes
mukhtasir
mehez
zulm
parha
waalid
shiv
##adat
khwahish
##icial
piche
aana
wese
##laylikeshehnaaz
ppp
roshni
##ardari
maghri
paaya
janib
sadi
arey
unhein
khara
hogaye
rehte
karty
narend
kaat
emo
zub
sys
rakhy
chahye
aala
aor
jeen
plzz
allag
educ
binod
bhala
nikla
zariye
janwar
shukriya
conf
dhon
chaye
##gham
milti
andh
shuda
##ork
##asal
bachpan
cbi
karkay
zakh
##wur
gos
hawal
tarteeb
beech
bri
chl
kary
fikar
injaam
wahid
leh
taakay
jawan
karain
asar
lakh
##adesh
muza
didi
khandan
adakaron
nikaal
waza
qub
jitni
bich
zaroori
kamzor
##ident
##hista
jaati
chutiye
shaheed
##bdmaheshbab
chhootey
marzi
insaaf
barish
tasawwur
thodi
tafreeh
sabi
kutte
dri
fouj
jannat
bator
neh
samandar
qader
qismati
muqablay
ghali
jhoo
admi
samb
shir
taw
liy
izaf
aameen
khal
chee
qabal
bewaqoof
##asib
tah
chahti
aasaan
qubool
##urse
nakaam
gunah
##oobi
jayenge
sarkari
lanat
diff
tareeqa
aul
moseeqi
wagh
##ullah
##pk
cute
vou
shairi
haye
yaa
chill
##ilay
gyan
doub
kyunki
mausam
jayegi
letay
larka
skte
bap
islami
lagey
religi
waghera
##eeee
kalo
mazak
rishta
karw
behen
vikas
guf
waqea
hahahahaha
karein
naan
ameer
hawa
##tiful
dein
##dayi
humari
taraqqi
cheeze
barah
dijiye
chut
zardari
hosakti
jaata
kkkkk
mohtar
taaqat
khamosh
aasani
##akht
raah
##ungi
btw
jahaaz
jisko
dilchaspi
##self
##aaa
mjhe
##ustr
muqad
kag
wapis
mazb
nasal
majboor
qarar
laa
ammi
janu
miya
aunty
aay
bhee
tanha
sidd
qee
assar
kehnay
toot
adv
madar
shehna
jism
##voot
gayab
##jriwal
##qt
ikhtiyar
maang
yhi
aara
khule
watan
fic
mabain
actu
pmln
maam
kaho
##iliye
sheh
aahista
chacha
tafs
larai
suppor
muzahira
pasandeeda
waah
hojati
lagaya
nab
ajj
wazeer
aqwami
yh
##iiii
chahay
kutta
saaz
nir
sakay
masoom
jor
cer
araha
maienay
##atein
andoz
bss
usme
mansoob
siyasat
taa
msg
congratul
##itr
tarha
mahol
##haq
gareeb
zay
hamla
bartan
##hyan
hif
chhota
padta
qeemat
naak
insaf
bunyaad
tanq
ksi
##ailer
wazahat
aslifans
##versity
##aap
bachan
##fore
goo
asimriaz
reham
khatoon
samaeen
darr
lond
tabdeeli
tareek
nikl
##kkk
humara
sifarish
pehchan
talu
jaty
##onvoot
auqaat
sehat
pab
bbonvoot
ibtidayi
tumse
mumalik
mayoos
dimagh
khanay
##isode
requ
bhaag
nuqta
ghanta
banane
rasool
saamna
ohh
haalat
aulad
##jabi
bakwas
qismat
lala
maut
walid
haina
nateeja
zakhmi
pakar
##ashtra
gandi
ayen
jat
behn
inhe
tajur
whats
bijli
jinhon
baatein
tabah
##cept
chalne
zaati
##asli
humesha
yogi
phle
doob
abbu
saddar
rakhen
maloomat
##waye
rooh
krke
##aiye
pohan
dusro
narendram
##arah
modiji
dey
tashad
##illah
kaisi
saabit
##alth
pehly
mutahid
taluqaat
dhund
intahi
pade
mujy
hogya
##ccha
##ameen
fiz
dekhaya
dhoka
amaz
##andom
zamane
humne
farmaya
tawaj
karay
bhad
crore
achan
takhl
khay
unwan
rahiye
rastay
pegham
likhi
pesha
kartay
qay
baaki
bhara
deser
shoq
cons
chunkay
munasib
fb
jamaat
saboot
ghalib
arrey
muqaab
hansi
betay
mashallah
jadeed
ghhor
muqaabla
jub
##nif
##eeen
khali
rehtay
chehra
inv
ikhla
tadaad
adakara
##taz
hadd
##وٹ
##aikum
##hash
ahal
kren
kbi
garam
masi
chalega
kard
chahi
hony
janam
mutahidda
zamana
writ
badla
tajurbah
dist
piy
ghulam
jitne
dinon
daikhta
padega
##تھ
theat
fehmi
bekar
karoge
##aslifans
chuk
mutad
phool
taweel
darasal
aukat
bulandi
hokar
##abhi
##abba
fak
##tweet
baithe
pyari
raftaar
##tific
##hey
isiliye
congratulations
jazb
fehrist
aaz
waqeat
dhoond
##essed
muf
silsilay
banay
nuqsaan
barabar
mabni
shadeed
masr
respon
thats
samjhta
##unch
bakh
##hearts
roj
murabba
##liam
##faaz
##ashta
gayeen
baq
##maar
khane
yrr
##conom
##lip
ghoom
kum
mazboot
##etry
shree
nizaam
mahira
btao
yay
##keaslifans
fati
khubsurt
##یگ
insta
arnab
mug
hisab
ayega
puranay
mutadid
taar
saheb
degr
jala
naaq
zak
lkn
muam
jhan
jaissa
##bdmaheshbabu
tareeqay
socho
khareed
chhod
hawalay
bolti
zindabad
naaqis
##haad
hidayatkaar
##henge
husn
gaddar
tanqeed
jesa
lijiye
ahm
karwai
jisne
roshan
safha
pareshani
dasta
##ikr
mauzo
bhae
##waal
pazeer
alfaaz
##thers
batana
econom
gaand
izafah
kisne
dehs
kri
##you
jy
achanak
clas
qaumi
banta
maryam
jes
hahah
loot
shehnaazgill
##reek
darm
ghantay
molana
##tap
dill
khusoosi
jante
azadi
riy
tashw
nazreen
##ayed
lamba
qaat
krwa
tasaveer
rahain
qaatil
##ready
jarurat
khur
muash
andaz
miyaar
badha
silsila
gird
thapp
elaan
salamat
aadat
pq
##azir
shohar
dhyan
ameeen
bharti
imaan
zain
madah
jazbaat
raqba
paya
nrc
##urti
poun
##qar
##tention
kamaal
daak
##ority
bharosa
##qm
meray
musan
nikle
anj
chaand
muntaq
##وڈ
tig
musannif
heran
daan
mjhy
dehshat
tawajah
humko
reha
##afat
darmain
##ational
sochta
tashadud
bail
##ased
behas
##hare
rahein
maazi
bhari
dafaa
sth
##hadi
pehlu
zah
##maad
zindgi
pray
milna
buz
bangl
mehfooz
choro
chehray
jada
kardah
hme
barbaad
zail
shahid
simp
troll
chhup
##vaj
parwah
darj
buland
##hahahaha
##police
##ushants
khatir
##fay
ase
raqam
hmare
rahenge
caa
zurori
gufta
farz
chuna
ataa
arsa
##ddat
kejriwal
samay
fark
achy
##eshi
##uty
alham
boring
maro
marna
halaak
ghat
arsay
skti
nyay
shum
shareek
karnay
muhabbat
purani
##ething
##bhar
ishara
shaadi
chalti
##orrow
karlo
jaiza
hathon
kasam
unf
agaya
##hind
##یي
hmari
muamlay
aet
hoye
mourr
##ingh
uthaya
serv
##harthshukla
jany
himanshi
billi
##mbly
mashaallah
uff
pathar
langu
riz
##یپ
bhos
##pression
liay
likhnay
usy
shai
retweet
hisaab
saathi
milnay
bibi
##andhi
bhen
aisy
##urity
##eshnak
apk
dukhi
laya
belie
shr
aesa
##baz
##amer
tumah
##adah
##eedgi
unse
rakhti
masroof
shaan
chakkar
suno
##chistan
kilom
isra
##bhai
lambay
utna
aitra
tehreek
jazbati
##pir
##eech
##ggak
bhula
tashweshnak
dafa
marey
##weez
entertain
emp
##eeh
mujhay
charac
khidmat
bhan
maghribi
kilomitr
jurm
rukh
##adar
shit
akshay
guftagu
saloon
anivers
hais
nigah
dya
alm
konsa
kiraya
##waad
prab
raaz
bartanwi
muskura
corrupt
okay
kharid
fouji
aetmaad
mazaaq
betha
jins
garmi
guj
shakhsiyat
mazm
##wadi
paal
mujhse
zimma
bahir
arz
qud
##jey
##read
bangal
azaadi
##yab
##zahir
khr
raast
bacho
kalaam
inshallah
##seem
jiska
jaiz
mustaqbil
sust
##rhe
seh
kise
jise
kii
ulta
##ichael
manzil
rahey
##dood
##kya
dece
muqami
aglay
aalam
leti
##ooda
favo
shikast
nggak
subha
bzahir
daakhil
zai
aapse
sambha
buht
inkaar
afsoos
##hiya
curr
celebr
wada
janti
muaw
##laad
##allam
thaa
##aind
khula
zila
##iyaat
##faz
taqseem
##haram
maalik
tarb
##ump
##kri
babu
grap
hawala
abey
dimaag
haii
##anki
hamza
riyasat
zair
zuban
sty
##umaar
barbad
narendramodi
dialo
khaali
jind
aath
burai
##essi
##guru
##cb
chota
gak
mukh
waale
sochte
chha
sukoon
kesi
khela
##zaaj
nishana
humein
ilaqay
unt
sabka
aalmi
zalim
shamil
##upport
apn
##یوں
kismat
faltu
muskur
bsdk
nazam
bartari
dharam
mjy
ayi
purana
wasallam
izat
naraaz
ilaaj
##zr
badh
iblis
aamir
shehnaz
##cra
thar
keya
sabr
safaid
ankhen
rub
##akr
##gawar
naw
afs
taaza
parhnay
karny
bday
austr
muntak
tabs
sahafi
##piku
##tiz
hmm
bula
##botpiku
bano
bechara
##harrak
kitney
iblisbotpiku
kashmiri
##waya
sbko
peeche
gujar
unhi
ganda
mahs
faiz
bary
kafir
qadam
dosto
murda
krni
appe
##apna
arre
khari
likhna
##with
pya
##artment
##ushantsing
##zab
masail
mian
yai
bandh
shaya
hehe
##dulillah
##aqi
reme
dety
aniversrio
qaid
##enoura
intizam
whatsapp
##pti
##habat
jhut
moo
mayoosi
maamla
alaikum
boycott
cenoura
bohut
sabki
chalein
banti
khanah
hindustani
##cr
rul
harami
beshtar
afrad
jesy
khushgawar
boor
udhar
hafiz
ilaqa
dikhao
sambhal
##struly
bahad
walidain
##least
dekhta
tarjuma
aese
jarur
##very
slaylikeshehnaaz
oye
mazaq
muntakhib
beroj
##strulymahesh
##kuch
##arch
karu
bhr
rhea
mukha
takhleeq
##lekin
shumaar
kahaan
ungli
baais
khamoshi
saazish
##jha
##buster
huz
##pn
##erv
##geting
martaba
bewa
shil
jiske
suni
sochna
tukre
naraz
tafseel
mulki
ishti
priv
dakh
randi
tasl
mustaqil
soor
dikhta
ladk
##ushi
wazir
dilkash
puras
ishh
fandom
ikht
banata
mustahi
opposi
##uvaari
sukh
fatah
sanam
hifazat
bahi
ey
pichlle
saz
millti
khoubs
imrankhan
##uvaaripa
xd
zameer
poooray
moz
buat
bhutto
##wor
taamer
mashri
delete
janay
khata
##wh
kisko
##blo
tabsaray
aank
nikala
##ارڈ
ishhq
khoubsurti
imag
nami
##ahar
muntaqil
kharch
milegi
bnd
##wast
dunga
mazmoon
payi
##hayat
mulaqaat
##friend
skty
sorat
rabi
mustahiq
mardon
saeed
frnd
purastaar
bhon
techn
##istry
nishan
opin
sanjeeda
jaoge
nafsi
zaat
sahb
##eray
covid
badnaam
jangan
jn
bnda
sabar
##yaa
saq
dukha
hoke
dalit
##tm
inse
nateejay
alg
chhor
tarz
awaam
pallay
tajweez
##وگ
sabab
unhone
hinduo
##hhhh
kahoon
cart
jaag
beha
kehne
itny
##hraj
pyare
darmiyan
succ
hadees
taz
patwari
unfollow
janoobi
atleast
sakty
bhoot
zehni
mumkina
cheekh
diy
kehty
srk
feesad
##modi
baithy
##ujood
sonay
ppl
##qon
##cked
tasleem
qatil
pabandi
kareem
saamne
raaj
##eena
magr
##qarar
##heel
jaat
banne
jinko
acche
##qdaar
guzaar
##bih
##ubg
##hok
##omat
barha
milte
trah
ilzaam
##birthday
larkiyon
babar
gho
shikay
pait
##esome
##udh
##itay
mummy
##idesai
shaks
##forthe
kra
manta
aaccha
akal
hahahah
lamha
tajar
kanoon
jiski
##hiyon
crimin
adalat
taaruf
pakka
laakh
expect
roza
##salam
raksha
tabahi
mutharrak
cy
nazd
sanjeedgi
thek
hosh
dawat
sidhearts
wafa
##gawaar
wha
eht
barqarar
vaj
saad
haazir
buray
offic
mojooda
musalmano
suf
##ujhe
chhut
##dardi
saans
paani
ahmiyat
##aij
rehn
phail
tarbiyat
gaari
sih
##sho
sudhar
bheja
sidharthkeaslifans
jali
hatmi
##feen
ankh
hochu
##azmi
pesh
satta
##وپ
khtm
laye
##seer
tavaj
aamdeed
##uvaaripaata
muft
rupay
aans
##ession
chus
farmaye
aajkal
##hsin
tark
mamlaat
##kahan
##wale
jesi
kehti
sulooq
soob
muashray
wapsi
baa
leye
##rehi
##ardasti
aulaad
kiy
huzoor
laita
izhar
mubt
##ilah
##aam
faraham
shikayat
##khush
zehan
ryast
rakhne
ganay
priyan
##fsos
likhte
tafrehi
chall
##kumar
##amaat
tavajja
lif
indust
dastaw
sabaq
gf
meko
##moindia
##forthewin
##agay
chiz
inshaallah
kaamil
tare
rav
bewak
trp
poch
thappad
daari
bhabhi
mughal
fek
jeete
adab
dastawizi
shehri
achcha
##cri
mazhabi
guzashta
dhamki
macha
wicket
udah
##orts
##heink
zehen
mahswara
##saar
pheink
mlitay
baji
banayen
tukde
walida
aakar
##cracy
awesome
mqm
##nabi
polic
maqb
##ooj
##andari
##liyat
##khi
deserve
asad
##kkkkkkkk
##alous
##reci
sabiq
neez
mehar
sochnay
cancel
jarahi
##rohi
lets
##girah
##sab
tally
lehaaz
amli
##adio
sarkaar
wasee
##ینٹ
##tho
mizaaj
rehe
##amay
##mankhan
siwaye
asif
lagte
paap
##afir
##harma
maul
comi
banatay
mujrim
lagaye
brah
##grap
kiun
konsi
likhe
kissi
##haj
kaari
padha
##icide
faisal
##manay
hindus
##asthan
dusra
##uaat
apse
hamary
musl
taala
shetan
mily
thk
samjho
graphi
adhi
lamhay
zr
jealous
mohtaram
vish
simt
biased
lgti
gaa
iradah
##atey
marnay
hmara
karegi
chud
keliye
##ishan
##angg
pouncha
##inc
parda
jeeta
jaega
jeena
bhat
kursi
kush
##jeen
inves
badshah
##rior
fori
dalal
khyal
paiche
dulu
##aney
usool
zarurat
lockdown
tarm
pics
kaan
chamak
jhar
dhaagay
khayalat
klasiki
thro
mubtala
besha
experi
hogai
maahir
kuttay
vaise
tuh
mohsin
samjhe
kalau
##baas
##oorat
taali
alhamdulillah
baab
taizi
##azrat
##hrajput
##hatay
lut
uskay
pasandana
aukaat
manzoor
humse
##action
dusri
haiaur
maarny
##ostan
haad
kardo
sachi
##hami
mje
issi
اسپ
##rooni
mante
choo
hbdmaheshbabu
khatm
sitam
maidan
worry
gandagi
kach
##adav
qabza
tarmeem
hah
laja
pyara
nasha
sardi
ajnabi
nazdeek
jisse
fitrat
sardar
waqat
tuje
machi
pemanay
biar
fayda
insaniyat
flop
##umat
baari
scan
jehad
loog
assalam
bechare
bartania
mazay
pori
##alama
gila
twit
jaoon
lagana
rakhte
bhik
gehri
tery
aake
patr
bemaar
beng
اسک
##sn
libaas
bachy
##mood
toar
srf
layak
wujood
##itna
aah
chaat
acchi
nihayat
cheeni
sabke
khususiyaat
kesy
expl
karle
inspir
makhl
##dp
chupa
##waas
bhook
bheek
lamhaat
typing
jazak
jaana
deni
sunen
appreci
##jeeneet
uper
biryani
happybirthday
geor
mukalama
nakli
thr
garib
bachanay
parhi
yafta
kamray
aesi
zombi
waris
gup
nagawaar
thanda
likhay
rishte
shub
mahine
sadak
lajawab
kaash
seb
dekhiye
sansani
pake
himayat
pakad
bhol
##coz
doosron
inhi
##sssr
deewar
hta
##alah
nazr
idar
virodh
mohtarma
kasi
sanjay
banao
##aib
##waab
aitbaar
poin
##minda
chinta
celeb
##azz
seedha
asy
qadeem
tareekhi
pairwi
mawaad
coun
artic
##urite
qadar
gust
rajni
rajp
##poor
##raar
wesy
##ايٹ
jhal
butt
##zzzz
raees
##deer
##abil
degi
faraar
memb
##iyam
kiska
klo
darkh
miyan
krn
musalsal
zy
##pakistan
kahte
mansoobah
paicheeda
##gandhi
dif
dobara
##aday
##ared
farak
numaya
alfaz
giroh
yadgar
##taab
tamasha
##ledge
moazrat
disha
dic
wab
pasandi
rehmat
saki
marri
shanti
phansi
inform
vishal
muhim
##cially
koo
baazi
tayari
markaz
peshawar
##tember
qom
bhaij
malum
bj
dawa
bacche
dikhane
glt
investig
dekhkar
poanch
mandar
khiladi
boojh
koun
tukda
##deep
khatar
pasht
##akhr
larkiyan
nus
##ober
nibha
dhaga
bilawal
baras
karn
##ooh
sooraj
larkoon
contin
##onj
gusse
##cess
##ridi
batata
daryaft
hamdardi
inno
##dev
##نٹ
rahte
paon
dep
utaar
umer
##aisa
trha
molvi
nigaar
citiz
sanaf
##ursat
khub
banke
aashi
##ukh
hamlay
waqoof
gobar
hina
tumlog
voh
##ostpone
mish
cir
kapil
iti
##rhea
quero
asimforthewin
##kho
sawala
chote
hakoomat
fraham
jeh
jaake
nazriya
khwaja
baitha
salahiyaton
akhbar
setaaray
alawa
aray
mahan
doodh
sawalaat
bhonk
horaha
unn
##onesia
jore
chalte
ladka
khurram
mehb
pmoindia
mushar
razi
ehtram
parr
omg
wrna
lateef
cheet
awaaz
##ssss
##astic
bolnay
gey
seedhay
##shar
hazaron
junoon
hunar
nataij
darkhwast
phly
##yap
qabar
constitu
makl
mahesh
##ukar
##izza
lout
##forsushant
hindostan
shor
ustaad
lge
##ently
khatrah
fursat
##uff
chowki
lagtay
##bhakt
##afa
##amosh
##ission
##asub
huay
shehr
##ushantsinghrajput
bahadur
wast
##khe
ladai
deh
filmo
##yega
ghal
shaiqeen
hik
qais
behad
pucho
majab
pathan
maghrib
beshak
##killed
dedo
peecha
##oyl
bakhash
##hhh
qayamat
tarf
hyder
irr
saalgirah
phas
sharminda
dkh
chaltay
tumahray
jhat
mra
saazi
achhe
bhaari
munh
kud
propag
##qq
##abh
##usood
musha
phele
##chanay
##hazab
colum
bnaya
rohit
daq
hazar
zaleel
confir
waaq
##loy
ladke
chartbuster
khate
lagega
mahe
laal
##kisha
##dition
baraye
tijar
suru
mehdood
muntaz
ruj
janwaron
##hary
##mein
muslman
##umkin
mutal
##ikasam
yadav
##tf
apky
laganay
jadu
sapna
##iry
gadhe
##اٹ
atank
mukhalif
jakar
jaali
##oshiyar
kyaa
##ssrc
saray
hooshiyar
kerna
haftay
sayad
sayarah
tent
repor
faat
ibtida
tey
haqooq
semu
ther
didnt
nehru
mareez
riway
##ults
goar
dikhaya
aayegi
hisson
jho
##akta
zabardasti
suar
##agr
bolega
majaboor
rashami
nakami
azhar
khtama
sabiqa
waaqif
chir
shikar
maqamat
kiu
fawad
##tumhara
ikhlaq
mohazab
##hata
chahat
rokkk
qist
##gress
saalo
##komained
numaish
gn
mna
##yaat
dahi
nishaan
khidmaat
mojoodgi
isne
anasir
##komainedikasam
balat
adhay
jismani
ibadat
chartbustersid
baate
sbse
muawin
##وو
##liz
##wazna
complain
##ishna
niklay
aamad
profess
jnu
pucha
secularism
zarur
##where
##ural
##meber
albata
##hg
khabr
uspe
##deen
zaheen
barson
bahana
mawazna
boqt
niche
decemeber
fard
milay
allama
bataye
pakistanio
akki
matlb
bilal
ikhlaqi
kesa
##urag
bcz
##odhya
##ories
##amar
mauka
jodi
aasman
taqat
aapas
darwaz
youn
apney
##yae
krega
gosht
commit
saala
##qal
manshi
kuf
##yeh
seekha
sehra
moti
andher
waseem
rehnuma
##usar
##chha
inkisha
tanhai
mla
bhav
shilpa
##tomorrow
nafsiati
dikhana
rkha
chla
faam
tmhari
##neeti
##hanat
incre
prote
insanon
sonusood
apno
fallak
berojgar
maqbool
gyaan
nisbat
##tafaq
phen
justicefor
padhe
sidna
notific
bhakto
##salmankhan
##iyor
naqal
##zind
ansar
##chak
badter
##dress
latefay
##justice
kamon
jahannum
kijiyej
vah
rajniti
vontade
daramay
##aaj
daant
bhakti
farokht
taang
behna
##uuuu
raazi
maklmay
baara
##hele
jaao
kitabon
madarchod
niazi
qadri
afsoosnaak
itte
mehn
haters
chhutti
##ativ
scot
hongi
chamcha
kashti
faateh
aatank
##ghar
khade
حص
##medari
mola
makhlooq
misbet
halka
surkh
sharaab
makhsoos
ladi
faramosh
fakhr
jajaj
##keel
##usiyat
doge
mulaz
##zadah
chawal
anees
numay
dhak
jumla
chukay
conne
lari
vac
##peh
muddat
trending
barey
hmmm
talab
nanga
##anaat
augst
hamain
taalib
paisay
samajhney
##zaa
rahta
chalu
dhoop
discus
sapne
jisme
farmaiye
##chara
hasti
lagao
banati
rkhy
honest
ittafaq
##chey
chahy
achh
aurton
khasusiyat
maulana
##hamidesai
bemari
lagay
guess
rahoge
baarey
girift
cul
apun
inta
wazan
noiyat
##medi
bechari
saltan
roop
baloch
##harti
taap
kharray
bakwaas
tashkeel
taqreer
siddharth
dn
badnam
nazri
sikoyl
musalmanoon
musafir
jihad
jaien
kpk
hypo
##sarah
saltanat
faila
aty
##gya
yous
daawa
achhi
ree
##indah
urooj
sindhi
wajo
nikalta
mumtaz
daalnay
##aaaaaaaa
suneney
manshiat
karaye
aadhi
##wwww
jaiso
##mz
##arnab
##shit
kyonki
mz
kisiko
tabsarah
dg
paiso
payega
##mpre
qadray
udd
lein
##moga
safai
baje
mulahiza
mutfiq
pedawar
batein
##erai
jinke
khaufzadah
jaiye
pohancha
sakhti
maroof
awwal
pehn
##waisi
##yyy
kamyab
##official
trf
bigboss
##ayet
shanakht
tauba
layte
##new
hukm
rg
seper
agla
taras
overs
sani
koyi
sunna
yahin
bulaya
##fali
##temp
namak
misal
muqaddas
bitanay
##ssrcase
pora
##pay
banate
wajohaat
##badi
tasveer
bure
tameez
##ostponejeeneet
raqs
tareeqon
saood
mantri
##baab
clo
deshd
##azians
zayad
afridi
jaakar
shaheen
upload
qudrati
squ
kiske
rahegi
##upid
compr
fari
khandani
tahir
##rrrr
qalam
phot
janna
gaal
dalali
faislay
akhtar
javed
##baaz
##hik
houn
##daad
jahal
##eedah
mufti
##ution
khy
krr
gujrat
##istar
ashaar
rajput
##dm
pehan
puj
waali
qasoor
daad
dukaan
godi
##jy
##pected
sachhi
videsh
badle
aitraaz
vahi
chlo
##یکس
zid
nahee
ehad
topi
deya
##andan
hukumat
bachane
##hrat
##asid
raa
jazeer
##jaj
kahna
ilaj
##khta
kena
barf
coinc
ahel
awaami
mujhko
doesnt
naaz
##gether
taaj
qaboo
jhooth
##araar
hmary
kaaro
tanzeem
krenge
##eeshan
kariye
altaf
congressi
hukam
soobah
pichli
##aho
numayesh
##afar
teer
jio
talaq
hukmar
nayaab
تھ
ilaqon
namumkin
halal
khuf
theke
jaisy
paidai
##amaal
qurbani
rehaishi
chaal
jaanch
meng
guna
ped
rehman
khanaay
baaton
bhartiya
miqdaar
dukan
ln
ext
laanat
jaruri
zainab
bait
shahkaar
playlist
parivar
##mind
lgi
##ency
pras
joh
panah
shumali
mashriqi
lash
krtay
sary
qaail
kehtay
kadam
karunga
kahaniyan
raak
mazameen
karli
gehra
##daa
ussi
khaye
maafi
obs
krain
huwe
##arey
mehboob
##fiyat
##door
huyi
andhe
laazmi
samajte
##bjp
cheen
krlo
quar
thode
ahliya
amitshah
##adri
##umbai
##qaal
tweeter
##waron
azaab
inkishaaf
vala
banna
plzzzz
baala
yea
dastyab
hea
##sof
mandarja
chamche
aitraaf
jami
mehak
azm
tatti
niyat
##phir
bahr
bolenge
buil
dhair
sahet
rone
##tttt
hama
kinare
cli
bagh
##ajar
follower
##alea
rapist
chahie
tumhain
bantaa
##hahaha
sanghi
##atha
##layi
ehm
quied
vajah
paidaiesh
##waa
##targeting
priyanka
kaarobar
talash
ansoo
pesso
ganti
bher
dekhke
morad
dhr
chot
geherai
semoga
aajtak
muntazir
zaror
haseen
dramayi
momin
##wish
raam
lakeer
khaz
dilon
stupid
##abaad
aankhh
bewafa
##ativity
##meen
foji
nisf
nikalo
khalis
gaaye
sunne
subhan
teesri
chhat
tmhe
zeher
neel
ashok
khelna
parheen
##oriat
sehar
liked
rahne
mutalea
karey
surpr
tauheen
lehjey
zakham
sasta
karliya
rahulgandhi
##desh
shiddat
muqar
sitara
kidhar
mutawaqqa
muqabla
musalmaan
##gardo
##dj
ifti
akhri
##eq
kyoki
aaraha
khada
darakht
dikhata
hazraat
jaayega
jaizay
etna
hansnay
marr
gardi
pooja
ginti
shyd
tabiyat
##azim
pue
aayat
pubg
##harm
orat
khushiyan
bharpoor
viol
piya
aisha
hotey
tasals
fauj
tasalsul
confus
exci
faas
##quiry
##zay
khuli
khrab
thn
idaray
dochar
kutto
sche
##gical
begum
taaqatwar
kalam
padtee
dushmani
bhoo
##adhan
mafi
majmoa
ghot
hamen
esy
confirm
khir
yahodi
marsha
dikkat
tabeer
guzra
adh
admin
##sss
hathyaar
##haarat
smjha
zeeshan
saara
kitny
seekhnay
kru
tava
pher
chaman
vap
##utanki
gri
qeem
rabita
wao
##ervation
jihadi
youre
mahaarat
cheif
desp
dilana
maari
agy
dastak
##killedonj
uthana
jasoos
banega
##jaat
congrats
fazl
kunba
kehl
jaj
bhaga
shb
ilzam
jinhein
mubarakbaad
dukhaay
absol
darta
shukr
certific
##kb
chahty
asaraar
ekdum
saleem
bda
palat
aram
##kiski
##laf
khudk
khayaali
qaisrani
crdt
irrit
masti
haliya
##wx
shirkat
jawani
saanp
equ
nabeel
##apne
flmaya
tanao
pawan
##ometer
hayaat
jiss
mukhal
pct
##ckeray
kharabi
mahmood
##سٹر
##ording
hakumat
bistar
yap
sunta
chapp
riv
qanooni
hochuka
ayodhya
##ffic
punya
bethe
nikah
dikhai
kerta
beroz
##sidharth
##ishta
##hoom
concer
rajneeti
##qam
shahad
thuk
jameel
khoobs
chehre
piyar
aiz
parind
trh
bener
chhupa
khasi
harf
nikalna
haider
unkay
askr
chalanay
dusron
ghaz
zahanat
tumhein
phel
##umhara
kapray
shabash
abh
riwayati
##haray
pach
##again
maana
##vious
##pping
wad
mudda
aani
farooq
mehfil
actr
leni
offici
##qy
parhay
aae
##zabardast
lagne
pey
talwar
ahelkaar
shahzad
khuwa
pandrah
samny
pahunch
naach
karaya
dest
parwa
aagaya
favori
hojao
##guruji
ریم
##urstrulymahesh
##athy
dilli
##stv
chanda
waisa
khufia
##iyati
candi
lekr
asha
dup
phal
kea
diwali
##oliat
rasht
babri
rhay
sakoon
##haqeeq
chowkidar
ple
asliyat
##روں
##akhan
ashi
gost
waley
chalna
fazai
varna
sikhaya
##liament
notification
laash
jaroor
chahiy
dikhe
uthany
muha
##khabaat
naram
korray
khaa
shahr
imandari
exams
##ahmi
musani
thand
beghair
usey
amlay
haitum
jinhe
kohli
imkaan
choos
patli
bott
tahaqeeq
chunav
dabao
لیو
##ument
manfi
deny
##fiqat
balki
jeene
compe
##riorsssr
fahim
sitaron
shart
mutan
isteh
##srk
evm
sawaal
lagai
doulat
nzar
pant
pazeeri
inaam
jigar
baqaida
shohrat
naukri
kartey
prem
aadi
hday
##alian
arvind
##ilanka
eik
nautanki
sahiba
ishtihar
larioon
imarat
khilari
##kashi
likhta
acho
intezar
radd
##lish
##hanay
lagane
geya
intqaal
jom
numaind
katora
krde
yuva
hehehe
fikr
guzara
maze
markooz
puhan
aed
rakhiye
pichle
qasam
girftar
halki
ilmi
peet
wqt
roos
incl
##inon
dekhti
panch
iqrar
foj
daqyan
nizam
appreciate
tumha
thapar
##omin
ummat
aqsat
aayenge
sunai
rabt
##tkari
weh
deke
khwab
chhal
ndtv
jod
ajay
tasd
pariwar
hamne
##kron
jah
krnay
krdo
##toh
mutali
bne
insaaniyat
chaa
adal
sugg
jaante
netw
sooti
daqyanoosi
##orty
daleel
pandit
ghad
daman
parhna
symp
bujey
##tapostponejeeneet
yee
muhabat
##karon
paray
##year
apkee
tadi
zaruri
saqafat
ajaye
intikhabaat
tugger
##ینگ
pairo
makaan
aadha
aksariyat
##oooooooo
rivayet
##dict
##forssr
##ayenaat
roknay
khatarnaak
zra
krein
cricke
paiir
mozuaat
taha
jaahil
zikr
mumbar
darwazay
iya
kion
sour
handsome
jahalat
##cep
##sidnaaz
dzni
superb
thrill
##jb
chaly
patt
charon
jldi
tasdeeq
##aser
nokari
##iyani
enco
urstrulymahesh
tujhy
kaayenaat
moqa
shayari
khitaab
gandu
fehash
ruka
haae
zayada
nitish
nge
poocha
bhaal
marha
akka
hila
izafi
srilanka
shahadat
saky
deshdrohi
kardi
masharti
ajata
frustr
bcoz
cra
nayi
mub
astin
eff
invol
hbd
boltay
fiza
rkhe
qai
wag
rahna
##ishn
payar
gulam
phy
##uon
pehen
esper
aagai
jazba
sathi
aashiq
mulazmat
psy
##eelaat
jindagi
##aigi
chout
espe
tafseelaat
bewakoof
haim
zarorat
ayy
##ینو
pakra
maare
niklo
kerne
laikin
yat
##ugg
jungi
##karuvaaripaata
malbos
majak
kufar
namal
##ately
arak
bandooq
sadar
##woh
ghazi
##ilaaf
aayiyae
rozgardo
##urav
khowab
##akho
haamil
intezaar
uthaye
bea
mazl
muskurahat
istemal
feham
tumhen
kabir
shameon
saahil
hdaytkari
baali
johar
rajya
ehmaq
daali
##adity
muhib
numaindagi
jaun
sunn
khuch
khulasa
##ashion
nojawanon
haj
andha
lalach
karun
##ilet
bahen
farzi
dedi
##harat
tumhary
interact
tajz
atif
bante
pohn
tujhse
kagak
sunte
pedao
hanstay
wus
ramzan
##onay
chas
darjay
jeetnay
##ورڈ
karwaya
##please
##khand
##vk
puchta
vamp
inq
huaa
hark
shuba
shefali
wakeel
tawaq
kitaaben
jel
daud
panay
##bn
ajkal
##hiyo
##angi
cheezein
janm
bihari
taqdeer
maffi
dabangg
##want
khati
negativity
nalla
##hoos
bimari
aindah
fre
sastay
ull
wafaat
assur
##salik
swag
emang
##yyyy
##dard
jinki
kath
awww
teesra
jhalak
##waise
dekar
sarhad
gharelo
mehal
soche
##chodi
roosi
munsalik
gayarah
selfi
##ariya
ener
jinda
luv
guzray
meharbani
baaligh
chle
##dup
##rizi
rese
hrs
ehmaqana
paidaish
aizaz
sone
badtam
bhuk
galiyan
qiyam
jinhone
riaz
dhun
dhi
wajood
pid
bakri
ikhtilaaf
deewana
aajay
##habib
choor
gitu
jd
##cell
sidha
btaya
qayadat
tajarbay
besh
lya
kabil
secre
##heeda
chhoti
peenay
ful
asan
nib
mansoor
pend
uf
##pasand
huroof
adaigi
padhai
ird
shandar
bukhari
beingsalmankhan
ipl
siapa
dharti
dhamakay
##vaat
oho
##astaa
##sidshukla
dhoni
##just
raghib
maheman
##amal
##chand
dekhenge
##strong
gutter
maaray
manoj
##withs
kapde
bazaar
gawar
bant
nikalne
imti
atalwi
##atab
inhg
amjad
tawan
mulla
compar
besharam
paison
##khar
paste
wtf
zayed
##inay
##tition
waqar
mitti
##mandir
##rahim
qabool
surah
calm
میک
haat
hug
##chai
univer
reco
mansoobay
almi
waala
kitnay
dekhata
duaon
##hehnaazgill
kardey
##hiri
##alka
##nahi
comendo
jhuk
namaloom
qk
##chat
khut
##saa
agle
##bharat
nani
repe
##comp
thos
##ustom
jawabaat
mirchi
suspend
jye
chora
hathi
bhagwaan
khubsurat
nzarah
##qr
haiye
kabhar
badlay
kero
laiq
dubara
choron
sunanay
##firat
siddharthshukla
##yaada
shuruvaat
nafs
##pnishan
##اپ
##اگ
hajj
consi
phela
rkhna
##vp
##eemi
shahbaz
zia
bhale
bhaiyon
usman
sakun
ayegi
##haaz
kaali
samjhi
likhne
karkun
buraiee
##ilag
rehty
samjhna
dap
tbhi
##istr
##یمپ
##pyaar
kio
##akak
chum
darte
##kisi
saqi
chodo
nomin
puhanche
tow
conver
pouch
khech
kanha
askrpt
bash
bhayan
##ict
##uzool
sarbarah
##bechara
##presiden
qiya
tume
milein
smil
kardete
emoji
badolat
aaja
gaj
tumari
koshisho
kamiyab
hadayat
geet
##ikta
insult
mushkilaat
##ونٹ
##habibrizi
toilet
kutton
lakri
guzarish
muqam
##reef
kae
samgha
paak
musallah
idhr
##zeb
gue
##scri
abaad
muzam
ghairat
jamat
aqwam
urr
mulle
misar
##unter
chura
coo
##anath
wakt
khowaboon
ahbaab
##یلو
gilaay
zayega
##public
pacha
##kashmir
nigari
pesey
wont
rasheed
##aign
meny
sawaar
muja
aish
hafeez
jarahay
lrki
##وہ
rawana
##saas
parhte
##amad
##hayen
haste
##wb
##ینس
sehraa
##habibrizieq
vln
lagy
nigar
wed
dhond
terrorists
afsar
arth
bachney
takhleeqi
cbse
noshi
##akin
##khor
gole
leya
##daam
soins
##wkwk
jhooti
mutalba
swar
##یرا
##saf
##indagi
batane
barhti
lambaalka
##eedi
##ooba
moat
gaana
nikli
dikhate
announce
anpad
guzarnay
aarti
ittehaad
quetta
dhang
tarif
pakht
targeting
maras
danda
shukria
barg
##odhi
muqarrar
musanifeen
hash
ispe
##ايڈ
jazeeray
qeemti
##eela
doosre
gayee
##krab
iftitahi
gawah
suntay
##dey
kerte
kahaaniyon
tusi
##sidharthshukla
##uuu
kindly
festiv
jomblo
mujay
rela
virat
##mmmm
farmaen
afsur
raut
maray
mahroom
dhamaka
ahad
rawal
sune
tabad
madina
kahen
raji
##dahi
acade
munafiq
##jadi
andr
quaid
subscri
##maye
##bees
jaon
ast
khoj
sathiyon
aaina
##ehum
tiktok
fakhar
postpone
##iron
muwa
##gup
bhaiyo
becha
gharon
##برگ
##mumbai
nawab
##ences
dikhaye
femal
invest
ukhad
rpt
فل
parwar
irshad
##badami
ulat
naal
kisan
tmhara
qatee
##posed
##prab
nisar
boorhay
najar
mandi
taknee
maslay
ghulami
idiot
takneeki
##wam
bolu
maqool
chutti
##forever
gah
uthe
lafzi
##daari
laate
tehre
irani
ghante
##pya
hova
ravish
##adon
khalayi
plzzz
qudrat
##appo
##walo
karney
ignor
baag
marhoom
##karo
aagaye
gaind
igh
bahhar
likho
fui
khen
##army
##ality
muashi
fitri
aansu
ical
##osed
jawaab
##lix
##ndr
lagatay
aslam
paaye
sarmaya
larnay
nazriaat
##onch
jaey
mahir
kewal
##hatta
bhaijaan
bolke
arha
##hilesh
tmhare
jamh
androoni
khoya
utni
##ghters
nzr
##koor
waa
##ested
baant
daagh
wja
baccha
behavi
##pnishank
##mr
lelo
maali
ighwa
مور
inhone
nhii
achaa
iqti
khin
##bolo
naheen
mahila
shivsena
badn
##ryani
pml
japani
##eezi
##izz
nuksan
mutaliqa
dhee
baato
behno
yaado
stoptargeting
feku
rojgar
pounchanay
cere
fad
rahat
bhais
##utam
muwafiqat
glo
qki
leay
daro
hatya
khiladion
##shat
##wami
hindut
tenho
lun
khad
sirji
##chana
asm
bahu
basri
cig
پری
resign
##hiyan
maharaj
musharraf
napasand
karr
asraar
nishandahi
##heroarnab
##bhag
udas
##jub
mujhey
sharah
safhaat
hakomat
tawanai
##ancha
bewk
mushtar
kkkkkkkkk
jhot
سلی
haik
##azia
tumhy
joi
bhu
maarna
sidharthsh
##وچ
shabd
nijaat
subh
shubh
makr
wabasta
ija
##asar
milke
shia
hinduon
dumb
bhosdi
wif
##یچ
inho
bhasha
##andssrcase
qowat
mentality
##andssrcaselin
bts
habi
jut
owaisi
scam
aash
dgn
##riyo
sawari
shaksi
lmao
chalaye
damn
##bby
mashriq
jhel
zad
##atees
##ilab
bnta
disappo
judai
lafzon
zyda
faqat
bolty
neeche
employ
sdr
lug
natak
aaram
jasakay
burnol
ekta
satya
absolutely
kish
himat
amain
tumharay
sarkaruvaaripaata
naqaab
abhin
unk
ahsaan
qissa
yousuf
##too
bolay
##ilih
kachra
gadi
##iyc
bataiye
paband
uryani
kaaf
fazool
aht
terah
azan
kroge
jarr
##qo
holi
bologe
farhat
bairooni
##akshay
whe
chash
##ajh
##رافی
##killedonjune
tand
##soci
rashamidesai
mayaari
bers
coisa
sachin
bhaut
khulay
nakam
parhta
trab
comple
daraaz
##cbi
karva
##iyai
marny
dosri
shakir
nst
raddi
##kaari
darshan
coba
dayilag
jharkhand
##kraborty
pok
balke
zamanat
sambhaal
zeen
##andne
achie
magh
istand
khafa
daikhon
ajab
independ
haiis
misbah
rozana
tehreeri
mjh
مہ
mohabat
dhoandne
nashi
shayed
gantipresiden
definitely
rhta
##faq
pache
dalta
khelo
difaa
mereko
##illat
tasawurat
tharki
##komainedikasamtomorrow
excited
##agini
loug
banday
##karang
mahireen
jummay
shaksiaat
saud
zaban
sarrak
duayen
puchna
vishwas
adbi
akkaasi
سک
chaap
khabri
##fri
##mail
bhatak
##zaad
nikalti
ijjat
zafar
naat
hikmat
##minan
kagaz
janty
bandmaid
cupp
intellig
phar
##yari
##adeshi
sajid
agya
ulti
##unts
darkaar
paki
rangeen
jori
laun
dhol
genu
aatma
susti
asmat
jii
sarcas
khatre
hogal
narendramod
krd
##aqa
badl
awail
newbie
qareebi
##against
react
tujy
baithi
hye
##inah
khoof
armaan
##ateeni
lateeni
aacha
khatmay
chara
chutiyo
samna
akai
specially
aast
bann
shehron
zama
haddi
bril
fuq
barbadi
yog
kisse
azmat
jesay
bhayanak
farsh
bitha
baen
donon
ghanton
chunancha
کری
##jhe
ohhh
sood
unho
shaed
##ayiq
kinng
idaron
zik
##tever
##ither
milni
kyn
rohani
pahu
bachao
mutanazia
##adhi
tumare
sakhta
drr
baind
ankhon
##fqat
imte
galiya
##tery
siddi
madr
zawaal
akeli
mangte
juraim
gd
jabki
gusta
##ailable
budh
intibah
tashreef
imrankhanpti
itminan
pakda
roye
dalain
farmay
sameit
##andssrcaselinked
##god
chata
lagayen
kharcha
muratab
jyda
shad
##saat
haqayiq
giraf
estab
mukhalfat
##itni
banget
bads
rukhs
khelne
mangal
wishing
khone
dekhlo
laaye
afwaj
aziat
mabham
##akragini
tamanna
dude
##xh
parcha
mou
tarjeeh
apas
##wj
maula
baazu
##gf
##hati
repres
paate
##ozgaar
zzz
##haas
##akistan
humary
musli
##medar
haryana
hogye
hawas
farmai
pichhe
ladkiyo
amaan
zaraye
nuqsan
zeeshaniyc
isy
chukla
gosto
madahon
سم
baagh
ghumte
sachai
ahan
jgn
dou
gharz
guzri
mulawis
bornfi
##uie
mahin
dikhti
##vl
tarhan
siasat
akun
appro
gumra
bethy
##chiye
anho
ghuma
milenge
bharay
gire
ummid
kaf
shahi
bhaii
##adiya
olad
nalle
##jye
##caa
##aldin
##iram
upr
##ffee
sangeen
lakho
mahinay
alehe
arakeen
aagah
yarr
sadiq
##adityanath
khod
##rankhan
fuqdaan
khuj
hainlogo
mujha
sochen
giya
bandy
naukriyo
kno
kushi
bahane
parday
##khud
##ups
masno
patta
##tify
yrs
hakeem
kiijiye
##dorozgaar
ishaq
janaza
cobert
dange
azaad
nyaydorozgaar
hogalakho
mutabad
mager
nazron
beeet
##bollywood
mutabadil
hudood
gher
vaha
sachaai
ullu
##inayakragini
narendramodinayakragini
pros
dekhni
cous
chorney
zahmat
##qaf
kaira
thankyou
horha
bhatti
##pindi
##pois
##fai
pahan
psnd
bais
haiab
moka
nimat
judi
ghusa
responsi
haraam
farogh
milkar
janat
taaw
dayen
jhoota
##یير
mushahida
hti
jash
kahta
##asab
jhuth
mangta
rukan
dede
shaid
taklif
masood
##asimriaz
rakshas
ijaad
genuine
fasa
jid
##athi
anmol
itwaar
tehqi
##ooooo
##owos
boorha
ittila
taza
##mujhe
shaitan
ow
##یرو
kasa
adad
baccho
tahaz
sattar
surak
horahee
##bersama
nicha
alot
install
nagr
bulaa
##tahkam
##shn
paoge
saalon
konse
vich
wafadar
jazakallah
dhal
nakaat
sunnat
adit
aeen
aldeen
churr
dosro
tehq
soldi
shehnaazians
tazkara
haadsay
bornfighters
taawun
##udhary
chalana
khushk
jisy
btana
puja
colorstv
payen
##gaya
shaz
teray
##afati
kehny
provo
maanta
rukawat
deik
lakhoon
gadha
andheray
sympathy
##josh
##kejriwal
koshis
meetha
##adam
beb
samait
dainee
err
jheel
isharay
##kibaat
##adaat
sarfar
inteha
ldki
machhli
inhisaar
##full
padti
pahonch
bikin
akhirat
bhii
ghur
mazdoor
tasali
bhok
##plz
سل
haib
mangi
mazkoor
mulak
hansna
guruji
tijarti
iqtidaar
tahazeeb
##chr
dilanay
sharamnaak
mozoon
bornfightersana
glti
##xam
##unity
torta
lambai
dukung
solah
dheere
distric
kharidne
ooo
riya
haara
logun
##adaan
##faan
nanti
##naye
mete
kareeb
##habi
##happy
kangana
bahanay
##gz
badhai
##ddy
gardan
fojion
madat
pahuch
##ahida
pachees
igu
mustahkam
jeeti
munsif
##یٹر
phoolon
##agal
partici
samaji
ahsan
##ریس
femin
inqilab
waqeye
chilla
noo
##mam
taleemi
##fficial
horahi
##erature
afsana
hochuki
##owosandi
layi
ساي
parvez
jaw
krdi
mohta
dosron
exper
mustard
tajarbaat
bhikhari
##zindabad
##liat
uljha
shant
karbala
buhut
##aching
hud
bhn
jagha
shat
pradhan
##zaat
##farid
##bersamahabibrizieq
gung
khw
saakh
niji
cheer
madinah
buj
tajzia
chakar
sunke
gunda
hahahahah
breakup
tawaquaat
qamar
tokri
##naa
##kokara
qabr
umatbersamahabibrizieq
badhiya
ulma
mazloom
aib
childr
mufeed
lekn
tanaza
buddhi
##bdmaheshbabusar
##shay
##ataa
ballay
rhna
kaal
paidal
niklny
##ayak
sidra
idr
swat
raway
jaal
badm
jalti
halakat
crying
dhad
kub
usk
lagate
farishta
##shame
mullo
husool
thanku
fateh
mumbaipolice
nstaliq
baarish
kanjar
gulami
##dike
##onto
##iyoon
hayee
ghaddar
##kokaraara
##indu
##orities
khailnay
knbe
moahida
jinho
mukamal
guzarta
eqdaar
soye
dekhny
rehny
gif
khelte
staystrong
posheeda
gazabb
flo
haiafsos
zamee
kahne
sdraldin
haihum
##ookh
##hajir
kili
kefiyat
hazaro
jiye
##چک
##apni
anurag
##habra
mutab
baich
samajhte
bajwa
##ریٹ
ghussa
patrakar
nuskha
chit
dhyaan
physi
zabt
exe
jaghon
yakin
shameless
##ughter
mantaqi
karana
gaey
sarfeen
pulw
pachaas
bde
##aien
paigha
suraj
jayada
avpira
krk
##witha
##oolat
bakchodi
##gov
rizwan
abhinandan
naja
najay
kardia
janata
adaad
gunde
loota
khudkushi
pank
samman
badsha
conse
##hayya
naamzad
godse
rkho
mst
bhikari
laug
bachhe
##ujh
##rishtey
hna
jinnah
ganoon
##hile
maqasid
likhain
##hainpyaar
##vince
##ارٹ
bachaya
tariq
patthar
##fiz
karv
##terday
dalo
danga
aesy
chandi
poochna
dulhan
gaurav
jehaad
iqdaam
asmth
bum
lic
yess
hia
munfarid
tanasub
gunj
khaam
purane
##hartshukla
neet
##wada
mex
jokes
##liment
dosh
poke
qurban
aaraam
mukhlis
##agin
lagnay
kaisy
sorvete
nakh
sabun
doon
rahin
perfe
zaida
brahman
ٹری
sobai
##hahah
chodan
supp
ghalatiyan
kurk
lehja
paighamaat
dogle
khatray
thappar
afsan
bhau
jahaz
tib
bhare
huien
toota
##fraz
romanvi
dwara
bhabi
waseembadami
rgbi
rawalpindi
walii
talba
guraiz
lifafa
##tiye
hongy
shud
imthe
kirdar
shoqia
ریمیک
tabadlah
##what
janba
dekhatii
excell
qawan
emer
justicefors
naveed
##hainpyaarke
zabanon
rhega
papu
##zadi
##amain
jaam
krdia
##vered
swe
##bdmaheshbabusarkaruvaaripaata
imthehaan
ingl
liat
##shid
naahi
##engy
ske
raas
angr
nashay
aabb
ashraf
behtr
jinka
prabhu
aey
##khera
##gressi
myogi
halkay
vijay
nashe
garv
##rrr
samjhte
hashta
##gaye
##pate
isay
mugh
muhayya
virodhi
buzur
pran
rahti
phup
khudi
taasub
talak
taftee
risht
tijarat
yara
haiaap
##nyata
aynd
##quei
##vidhan
rahai
##baa
##aaan
##chit
##iiiii
##amy
khala
thok
mamta
##vj
##jaaz
teesray
mele
pear
bahoot
jeevan
intiqam
ijti
amitabh
amanh
princi
karane
##hindu
awr
nasli
##magar
##aaaaa
dilaata
pehnay
jiya
ohday
nites
parosi
tarike
kerti
vichar
dharna
salmankhan
zubair
chaho
haw
ambani
jano
rahu
##ickets
##rishteyhainpyaarke
khun
pawankhera
selfie
umomi
##views
##سٹن
shrm
rukhsat
kel
jaff
##witch
uffff
khoobsurat
nashist
qawaneen
naseer
suroor
hazir
sahoolat
chhalang
qata
khadi
preshan
shayd
charha
abbasi
##backsana
وال
bashin
hasrat
senti
chamcho
jumlay
chuky
ladkiyon
makrooh
vak
devo
shaa
kripa
##cur
##esday
##aliz
bichar
tablee
sochti
betaye
sochne
zulam
jhag
khazana
muzammat
idaara
jiy
krle
shag
haqi
pahun
loag
sako
##malik
kagaj
sazish
mq
##aishi
ghut
chone
dekhty
gautam
rula
##umho
##khon
ghalt
shira
##fsd
chappal
ntapostponejeeneet
yasir
gaane
##bigg
##qaad
wasti
sahafat
padegi
paraston
malbosaat
seenay
mohar
remind
akhatta
fightbacksana
muhar
tmhy
rasam
##ورٹ
chutiyapa
sardes
akailey
##hehe
##unil
##ayeda
rehi
chipk
##tikhar
maslan
tafseer
janbahaq
hamre
aawar
wajib
pareshaniyon
ghusse
dheyaan
coincid
sawab
huya
##maha
##abii
mutma
nashar
morango
khooni
ikhtil
##uments
pehna
##ustan
bachche
##change
saif
bic
krs
multan
panj
##wz
taaki
akhilesh
arzoo
atankwadi
bankar
mawaq
nazil
tehseen
evid
qaw
tht
ghaf
strugg
lateefa
dastakhat
shiraakat
##heb
bhed
ehsaas
daku
##asion
patra
kutub
sdfsd
fd
gair
mik
##chh
khon
##hayy
azab
samjhain
aque
ladkiya
califor
bcha
سین
khoshi
muahi
jaay
tromin
bhejo
idk
dhul
rozgar
##enaaz
parwarish
nahii
wahin
dosre
frazz
strate
rhte
jamhoriat
##sath
##tk
##vg
##wade
##ڈو
darri
mamla
tayar
daini
muahiday
inj
##tyon
##miz
choki
aysa
dikhaane
ufff
winnersid
kkk
sdh
doosra
judda
sahaba
trailor
ade
karwana
jaaiz
tiwari
##jhoom
sajda
rawayya
ptm
sawan
loys
unhen
sarfraz
jalta
linen
##llect
criminals
chuslet
pouche
phon
##leha
kirol
nigaron
chhe
marwa
latka
naqsh
##than
##alay
##andh
asimanshi
nikalte
##aidh
##usive
ejaaz
khoobi
raab
muat
yahe
heera
exc
hisa
wahh
idio
jhon
bhug
weare
duaa
ayesha
peeta
bikhar
aour
mecca
farmat
malka
chij
bakol
fuzool
baath
ghor
##kowi
paisy
pens
raahat
pup
huta
##oton
pork
nind
naara
hajhoom
usmani
onche
todays
##blm
chaddi
queijo
##soom
publicity
pohanch
kenapa
mazkoorah
##noon
infir
tumara
sabz
gaah
bimar
likhon
jeetay
murak
pahari
mri
khoye
##ghum
insano
istila
hijrat
sebel
tehqiqaat
qoom
tch
vese
shikari
mulkon
kattar
lahoo
khirki
suwar
iftikhar
sikho
tarek
lti
chahain
chorr
chorra
maaro
jhatka
wasi
##atives
nigr
##waray
prec
nuksaan
mishra
beghairat
shees
mehdi
##rangi
buss
hatho
drrpnishank
jayein
muqadma
culpr
bast
sushantsinghrajput
##keen
talented
disgust
qoam
mawaqay
kkkk
##weet
isupport
##iyr
thum
bajay
salaam
amaal
jora
##slaylikeshehnaaz
karlen
anil
reche
chalane
zamray
panga
aamaal
pore
uchal
desai
ankho
kardiye
hindutva
badsoorat
karnat
bhaiy
hamlon
badar
thook
shara
##your
bhuto
mosam
jaenge
manti
samjhay
bakra
##charge
bheekh
mahino
kemar
hamdard
dikhay
intellect
kuchal
##gency
ws
ghula
ghumne
chalees
##ینک
kkkkkkkkkkkkk
milty
uljan
infiradi
sane
haior
##maam
ghatia
wajha
behtari
tahaff
##appu
kiran
##esign
wifaqi
##crat
paata
jalsa
osama
recor
jaegi
moot
dour
sharab
rangon
jatey
buzdil
shaguf
##wra
abp
huva
##faat
samart
janey
frm
rakhain
naqvi
bakhoobi
rhen
##abff
##ayaan
bantay
institu
ranj
seedhi
prjosh
darna
##potism
mre
payenge
chapl
humy
##rifi
soh
prh
bigaar
naman
islye
bnaye
murkh
khelon
##strike
chlta
complaint
##fak
##apar
imk
jimmedari
isaai
coincidncia
aimi
kripya
dand
ihata
oun
parhai
abid
khatra
utt
kheli
safhay
##ttt
shumal
zouq
bhago
cheat
pursu
##dding
beshar
##tabas
##hbdmaheshbabu
lota
batt
##tical
bachana
thakur
farigh
karra
##ikum
##roon
bheed
mangne
dafan
caption
##ukia
gund
پرو
##max
manhoos
irti
yaksaa
kheltaa
usky
hamesa
harne
nihaad
tohfa
ghari
bnana
bnane
andhbhakt
bhadwe
aankho
uboor
aunti
##ahum
charh
numain
insafi
nikaalte
muki
kamai
matan
pocha
farhan
jurrat
prati
kaatnay
kaghaz
bran
lindo
##aita
neha
##khna
shok
lifaf
pleas
khench
poucheen
junoob
fucking
naazuk
nati
nahen
dars
aadam
phn
yahaan
maante
ispr
sameer
vhi
zrifi
kaheen
##hoori
takkar
shur
maseeh
uthayen
estou
tashreeh
arvindkejriwal
##crisy
yup
yaq
bojh
##delhi
qib
##ays
sabir
siap
sahil
baseer
nishani
junaid
hooda
##gupta
aqa
jahi
daastaa
##stwt
bitch
fakenaaz
bowler
sspns
##good
##ٹس
ghas
resol
compani
##clear
mehakma
brilli
##akshi
karsto
##ahre
##sofe
##eless
aasan
netao
##basoya
ashokbasoya
khutoot
tafteesh
karstofer
##midesai
##itne
jaib
badalna
heroen
aqu
ips
jwab
##arid
meus
mehan
parab
tornay
imdaad
officeof
gostoso
##asharma
##orry
humay
chye
gaadi
pav
ladne
deepak
##kokaraaraaya
dilbechara
guar
aww
warriorsssr
##bahut
prayers
istilaah
lupa
mne
takhayy
sunkar
naina
ess
padhany
charch
khele
narendra
takhayyul
##رڈ
bhikh
hararat
gande
jamhoor
##hasir
##chakde
saccha
##karnb
mutr
satrah
padho
##govt
pursukoon
##karnbhan
##bhal
##aper
safi
badhe
maarne
chalegi
linon
hardik
##bhoo
ihti
##seel
anjaam
darpok
jija
iqtabas
##amit
ghoray
wahe
shool
tabqa
dastan
jawano
##dates
##wata
##aziz
jeetne
krun
takat
hogay
ramadaan
##undinon
kunal
phatt
myogiadityanath
aaqa
گری
lagati
##istani
shamoliat
sorakh
elawa
baaes
itihas
fing
karm
tabqay
malom
wicketon
##istration
hashtag
ڈا
##fb
asd
##uppor
tarika
ajati
tereko
achchi
##یٹس
taajjub
kesay
sayaray
shakti
jayga
dasht
bhakton
abdal
uddhav
hukmaran
murakkab
ہچک
thaka
munhasir
laker
##kibaathai
farmatay
##qad
ayo
puche
benazir
daidh
riwaya
bndi
lamhoon
garh
##uqat
nafiz
eidi
##sociation
sachey
amuman
##jects
tengo
narazgi
##lr
maje
disgusting
##singh
rafi
chaah
aisey
##bhakti
helly
dushmanon
ghatna
dareaye
priyank
khyber
qibla
بری
mouj
takra
kabar
majeed
rhne
kasih
tya
##kabhi
invi
chasp
##lahi
sabh
ikees
kosis
nimatnay
##undinonkibaathai
fen
گھ
tosee
##apt
##asty
darwa
shoaib
tanaz
uthata
decl
mohlik
##picchakde
bherne
siddiqui
jase
##راي
hoor
##abr
darjan
amlah
museeb
##edar
uthane
behtreen
jaaney
##sofepicchakde
arkaan
farahmi
dimaghi
neech
lagegi
ronay
riwayaat
lard
kahenge
##eej
andhi
swt
chatne
incindia
wesay
##ually
##kook
nemat
tumlogo
pehele
hass
pahli
yaaar
mudde
tadween
hich
khawar
dopeh
tarak
daw
convers
chalaya
##amily
ayenge
newze
##cch
ustad
pem
milit
shoro
##ankan
naqsha
kardaita
gaddaro
inglistan
gk
qasim
mohal
takut
hunri
kharaaj
babi
ڈیل
tufaan
chowk
kharosh
hahahahahaha
##numai
afsurdah
humaray
mashq
todne
gumrah
rujoo
jiyo
##bihar
##iaat
curi
asty
paham
rog
halqa
##یکا
dhanya
aaf
auth
sagar
haipar
humlog
adha
ayr
##zzam
##ksks
daita
padhne
aabad
##ٹز
##astra
arr
ummeed
gaaliyan
vikash
uday
##urb
dews
krtey
##raaj
goonga
ajmal
jungli
ansari
mutasirah
gumsh
mushtarqa
chate
ador
mathe
##chane
sarif
includ
baseerat
wid
##cn
kend
##eness
soya
sudhir
gini
condi
bilhaaz
taqub
##ganda
inten
bestie
rashtra
sarfaraz
najaaiz
##beer
haijo
##alees
bahat
takm
anyway
tussi
cmo
##urday
apkay
stadi
aagya
rafale
bakhsh
balatar
hypocrisy
gumraah
##miyon
yaaro
braz
aqeed
dher
gunnah
neut
janch
gea
qaidi
##jaye
abay
aloom
hmy
daaley
chhote
tbh
zalil
insec
nashon
irritating
faqeer
##bag
karzzzz
yehrishteyhainpyaarke
akhaz
bastii
samjhane
brigadeiro
taab
gharib
taswer
iqtis
pukht
chaheye
epis
dlhara
shagufata
##adil
horr
##iyana
leak
prr
##antra
##airaj
parhaiz
zubaan
lashkar
سلیش
مش
##wq
dosry
bachat
blockbuster
chhi
##entine
gustak
##stud
##hyat
dungi
firqa
khareeda
bakhair
dhu
mashg
wafat
ronaq
saww
yehundinonkibaathai
khayi
mustand
qeh
##cg
reject
batayi
##adian
girnay
waisy
garma
guria
bhosdike
athaara
laq
nepotism
filhal
kashish
pae
rahoo
sarzam
wasta
peeth
##www
##they
scienci
muzah
darmiyani
##akshays
khya
banwa
##gaah
askari
gawahi
batate
hmne
sbki
kertay
howi
sargar
liyay
nafsiat
musharaf
dopehar
nashonuma
ive
lazmi
kernay
lgy
pukhta
lynching
niy
haroon
nizami
drone
hogyi
rizvi
adhikar
zanj
ڈین
bej
##aqqaf
##comm
##stn
kardeti
saadgi
tahaffuz
##aridgro
##bht
##kiyan
##anaa
astif
batatay
faryaad
##mpin
kye
ہاي
hoto
##aisha
chobees
thokar
##unggu
rasai
zulum
##tinya
mulaqat
ghaliban
##biggboss
darwaaza
##alho
toler
apologi
shaad
rahaish
tawaz
arhay
kalay
jeetna
pakarney
badtameezi
##aridgroups
ukha
##shehnaaz
chadar
boly
##adaar
##warna
pashto
mutmaen
##karnbhandari
yuk
##cream
##mey
darp
mantaq
masala
kahu
deserves
ahadees
##fz
##haron
bhalu
##chakraborty
gunjaish
jga
ہال
lagna
pakai
asdas
##dsf
marega
lucknow
frustration
tasalii
bub
semel
mantay
namona
bhtt
badalny
shaoor
maen
shout
satis
padosi
##heem
etni
screens
flush
##risunil
muashra
aami
nath
##urana
tub
takay
laugh
dairay
ehti
anokha
nawaza
smiling
aii
##shab
##یسٹ
##alam
##chhabra
khaan
dib
rakhein
sundar
bologuruji
ontem
misraa
##sary
snap
iconic
vul
کول
##jya
##arita
arjun
torr
garbar
ayaan
bangla
##ashami
oq
sasti
##nr
pawar
jhund
jhuka
madarsa
relax
asaan
dii
doh
##eyon
farakh
washing
btstwt
wase
wdj
ایڈ
##vq
##aras
##never
baaten
muskil
impro
##akhlat
kasoor
muntaqili
ishtial
draoni
chahoon
badiya
rotay
airtel
##اکاو
chairag
behnoon
jhanda
receita
##kashish
cwc
ghis
isnt
##esid
haami
jaunga
choot
kayak
gehray
munazzam
karwane
soonahre
marhalay
##hits
paresha
purkashish
##jection
andhere
koshishen
dnt
haius
karungi
banake
##erial
knw
##pubg
##oodi
sarkon
satais
ayaat
kanun
samjhti
yam
##beeh
##ooti
aaplog
unatees
manna
ghaib
happiest
rozgaar
udasi
sdf
lazim
vle
rafa
rahaa
##wanay
balak
bagair
kutty
##ونس
hadaf
jindgi
behave
##bdmaheshbabusarkaruvaaripaataurstrulymahesh
astifn
##anj
##naz
dege
kholo
alhum
kasmir
kiyun
stoptargetingsid
##chhe
khalaa
martay
faris
jhagra
gurbat
cro
##feel
##یتھ
##engi
##harsh
beizz
kaunsa
commer
sherni
museebat
asdasd
huey
hamwar
rishwat
frnds
کیم
##vpak
##kaha
ayee
phul
budha
dhanda
shiksha
##selves
semelhana
haip
bawa
thha
rakhey
khtam
mahadev
khujli
qut
##asth
manaya
kartik
wardi
aany
daikhna
##gussa
گار
sewa
sawar
sache
lele
exabff
uthai
civ
lkin
mpa
##dyo
##vh
##vm
##irf
bots
urf
transl
zalimana
wabsta
hungama
astyort
kisaan
##assar
begh
temen
admit
pakistanis
namoon
##fact
ifrit
gehrai
turant
soobay
taswerain
sdfdsf
howay
haaye
aloy
umoor
fankar
bigad
dushmano
dakhal
hahahha
subscribe
cereja
phain
ral
##gk
hongay
##aao
jazbay
sunao
veil
chhodo
##babu
##airajdeep
qaf
shru
gimana
mehng
ayub
halak
aabadi
garibo
##rajput
mudakhlat
imtiaz
مہاکاو
takmeel
aqeedat
aada
bdi
##eekh
umr
ento
tasad
khaufnaak
hazam
anyways
damad
bnao
zeyaa
msh
wht
سپ
##best
##چھ
bhalai
boltaa
mubarik
palest
##heeb
vedio
chunn
laughing
##sofepicchakdeindia
drohi
##oetry
##akhon
shaq
asto
##thak
lahrisunil
salamti
caller
beeno
andhera
anjana
analys
imkanaat
aaty
beet
baca
shaukat
samja
##uper
behri
shaytani
faisle
##standing
parwaaz
nons
zyaada
##bakht
agha
hamko
manane
paaji
pahele
utne
##awaz
tmko
bhagwa
porn
gumshuda
##wayi
roya
thandhi
##panwi
africi
##eeeeeeee
waqia
fraib
faal
muqaddar
rujhan
hya
kou
##oomi
inayat
tumhi
surr
##mmm
langra
kashif
##rsn
riyan
##kkh
pedi
baadal
zindabaad
haspanwi
aatish
qatilon
pish
##ikya
aff
abki
humen
agai
giray
anpadh
aha
rait
jaado
barhta
assi
thoray
##peare
choup
aagay
galati
##یٹی
partaal
villiam
##jz
haij
##iniz
kisine
marenge
kinara
##bhak
##ورن
dafaq
alehda
khabrain
oon
ات
سینڈ
acor
barkat
hassas
bheer
chhu
fatwa
sharmindagi
pujari
ajayeen
wusool
chaht
tukron
assaar
marg
cheek
bhagat
rabb
dikhte
pohanchanay
unemp
hukmran
yum
bhatt
achche
anjam
fli
iy
##bk
##affar
waqfay
naamon
scared
utk
bachchan
hakoom
meethi
##fortun
lapait
bahaduri
unky
huq
peene
##enting
aaap
khusbhoo
pasandeedgi
karao
##huum
sansad
saqafati
maraslay
lakerain
##mish
##heli
takhat
mafhuum
##thought
sidharthshukia
beizzati
hareef
tarik
ikhlaqiaat
zuba
khna
haen
khatay
usmaan
bhaieyon
doray
sanskar
shehnazgill
gz
ukh
کن
kejri
kadi
saas
ghamand
brahmin
zanjeer
villiams
vk
wazi
chabis
krdiya
lagwa
##thon
phoot
rajdeep
##iyoun
haqiqat
categ
سیل
##eesh
ghlt
maane
batati
shariat
daira
opport
dhokha
iqd
obc
happening
##dupoetry
nigrani
##leed
##why
##aland
##isas
nein
pluie
hasad
tambm
zahiri
khailtay
ajao
mithai
ansu
ٹاي
rawan
anth
sabne
nokri
aaega
probab
karege
tayyaray
guzaarne
pulwama
dant
##aktay
jaani
khait
saktey
posting
zibah
##winning
header
obviously
ہول
afsa
jaayenge
hamy
##aliya
taari
arhaan
wahein
jayda
mooh
arahi
aho
zey
moul
nikly
behter
kasrat
joly
nangay
jamhooria
jaadoyi
emaan
hailekin
##icult
unhain
ghumao
##baal
wewant
charah
mashwaray
##congress
bacchi
trolling
selfish
meharban
tanazur
tyar
badma
sahiwal
kitno
##youn
ikhtitami
chillate
aatankwadi
quarant
munsifana
ril
zaid
##لڈ
##osid
##andhan
##hadry
galiyo
qarz
justify
ngga
pohanchi
chahiya
chhorna
gst
tdk
bahas
bhab
jaad
khami
gii
qaaf
##oooooo
pdta
shehnazkeaslifans
kuj
zaw
melay
sakal
shoba
mazaak
cebong
gulukar
مہاکاوی
کون
chati
haaa
boliye
sigl
chohadry
jasy
qassar
positivity
kisay
firse
qabliyat
tawazun
fani
vha
##atiya
hamri
allha
imandar
##doz
charcha
aand
##follow
##hena
##ird
pechay
liey
##eeshat
cris
hatred
jamanat
aazadi
maizban
qiyaas
hashmi
##لنگ
##akah
##olf
suha
rammandir
punish
mardana
ghatya
younis
gungay
##hk
##ایک
##abha
ajar
kalma
kharja
mamas
rashmidesai
bewakuf
khd
sabzi
ternyata
zarori
##feq
avr
##likat
##leel
##kiya
ladte
##pped
hats
jaroorat
bhakts
intizamia
execu
angraiz
sardesairajdeep
bch
yhan
yadi
##arrest
bhaisa
mooli
##roor
##oori
##versary
jayege
estoy
pichh
gardish
westand
cuz
kase
khra
haam
afzal
bany
mainy
batay
forgot
##amaad
chandni
tasweeron
bekaar
itti
hadsa
chiye
lais
##joo
##bandi
unfortun
asay
harj
##hammed
muthi
##ftari
soinsdes
وا
ور
aapna
ghadar
teko
copi
faraz
taluq
bahami
aditya
unhy
kalank
utr
hojayega
irfan
bapu
anchors
gumshudaa
ias
میگ
maeeshat
sohail
contri
malala
jalte
matlooba
papad
strai
chhootay
haadsa
shahrukh
batsman
ubhar
##vz
keeray
khabi
khudko
karogi
choda
##iyaan
brh
bnany
safdar
kregi
zillat
mahat
kerty
mumlikat
bndy
choden
shakspeare
faaslay
parcham
ww
waalo
hogae
minorities
bechne
haramkhor
##dasht
##akhi
agaye
##adif
##viet
bhumi
awan
corr
kheriyat
occ
aapni
##laab
aawazian
lehar
sarzamen
##fx
segu
manay
pastel
atma
nafees
yrkkh
karwao
rais
swal
##wate
kej
##akhir
manq
bhg
gharri
jinhen
teeno
athais
harkatein
##laas
khaane
ghaas
naame
bikau
youtub
berozgar
hijaab
کرو
aurtain
banayi
apradhi
akshaykumar
jootay
saudia
wehshat
yonani
ullah
##arr
##asya
jaany
tweetrhea
khuloos
##indian
wakai
##ushantsingrajput
namodaar
##gressive
mamaslat
ox
umed
##inst
bilash
zindagion
dhoom
parivaar
##hutto
kkkkkk
فری
##ڈس
##nao
alood
##shdd
bujh
jago
nikale
##yog
laila
pighal
##khwa
barab
wahab
nikaltay
verga
chupkay
gulshan
lul
##yav
khasa
huway
honton
##maari
likhy
urdupoetry
surbhi
jamin
seekhna
pehluo
ily
posh
yor
jaari
diam
##nnnn
ahthyat
bje
##harif
inning
ashaat
##hahahah
hanuman
daikha
likhti
##bandhan
pohanchaya
parabns
##sood
lemb
matam
##llll
basti
talkh
pahly
fazal
bhejna
selamat
taiyar
tadad
jajaja
chasham
istaq
kisam
trs
minta
dhara
rhti
shirf
bakhud
ghoomnay
ijtimai
haiin
haiwo
abir
bhati
khaak
doz
muslam
jinah
mutwaj
sadma
peetay
daaltay
jadugar
bilashuba
beem
##mited
##hayak
finan
hifz
sukhan
wkwkwk
spoil
##iab
##xic
##pho
hijar
frango
lagaata
heiek
bethnay
rajiv
mutwajjah
wro
##dosh
huwi
darw
phirtay
skr
karoo
pechy
##htr
tarh
##awi
khushiya
jamea
##xp
hokr
##akya
bhaad
samaat
tarfa
inspe
ayse
rabta
hafte
##pehle
kood
appr
##ithik
itsssr
bartao
##roid
conven
rehnay
nika
bandhan
btaye
muhafiz
suggestion
tofeq
chachi
yaani
padhi
jahaan
arsaal
katega
soinsdesupport
ehal
##vish
nakhush
##asing
##grhe
bahaali
taraqi
vapas
pakhtun
wn
pakde
choty
bjpindia
mubark
bethi
khayen
cigare
idiots
sree
##this
##gm
naqaad
##akes
##ape
jankari
rhaa
urane
idher
puchh
binaa
gub
phaar
kahiye
parega
khadim
taur
esai
faad
samjhoo
jamaaton
##heers
##adari
khare
huh
##kawe
dawai
chalata
##ciary
pehley
besharm
ghotala
##thoughts
awar
##ilar
loh
prta
limo
##devi
hype
larky
bugh
daalna
qasbay
wich
taim
##fq
dehi
chul
patwar
mushtaq
##gery
captaincy
deepika
badmaash
tbsron
##lh
##amb
ravan
awaj
hashar
mashkook
seekho
noman
tableegh
mutradif
aatay
nonsense
hani
##usla
parney
prak
hamal
amaiz
denay
tassad
drik
irada
radhe
dogla
layein
islaah
kanhaiya
gord
##osha
feal
fankaran
qoul
mutasireen
nigahon
mukhatib
khoofzada
fankaranah
auqat
equi
naaa
aurang
liaqat
baher
waadi
bnai
##irect
yaden
rupees
devol
garibi
niklee
##udhry
bkwas
masnoi
aek
fla
muaqqaf
thali
bhay
##haty
barkha
jite
##antu
wasy
ladko
nange
hakoomati
ڈیو
thaam
barhay
uthatay
dikhawa
uthao
udhaar
pandey
daraona
sheeshay
ghee
bhait
contr
jale
ilz
swamy
highlight
recei
nadeem
##azm
kamran
zarb
mins
tmhri
blah
dhaal
deix
khadsha
cah
##alman
kaand
arshi
adda
mehman
sensi
jaraha
doran
##tivate
##winner
pyaari
spr
bhaj
bhashan
##wao
dekhy
##alize
masum
perman
madhar
murti
rokna
aanso
dfa
rawi
achar
##black
ہچکاک
emb
##aon
##pdi
##abki
islie
rawa
individ
gandgi
jarjya
##geh
keval
##saaz
##angat
rahnumai
akram
taqleed
larna
dekhieye
bja
ایم
##erah
##amma
kaz
##ading
seerat
khty
daano
akmal
khuwab
subhanallah
faasla
kny
bolny
##trailer
harkato
jgh
lum
##agandhi
sampe
exten
katne
mrzi
##paksh
##kashyap
gamzan
jehti
sarcasm
humble
samandari
gaar
khani
guil
bachaye
falan
samjhaya
farmae
ashya
seena
sop
amad
##ubarak
likin
##mohan
murghi
nangi
katay
کور
##سک
parhy
bhij
saahi
munna
salamt
sambit
waisi
khrb
honestly
revol
##flix
maino
khandaan
magaz
aamdani
busr
peechy
lathi
aarha
jajajajaj
##cional
vande
##vraj
hovered
aapa
voy
##eraan
hinduism
aqeedah
khilafat
##fiqar
gajab
iqdamaat
edie
lagty
jameen
##party
airk
shehbaz
gardon
neelam
ite
sush
wesa
نیک
separ
khwa
unme
chean
twt
colom
bhejnay
bahaal
munaqq
nagrik
hafton
newzea
khte
parliment
mute
chauki
laatay
ishkarnbhandari
videshi
ruswa
screenshot
munaqqid
##hoo
keti
##nifer
mujri
enjo
aji
paraschhabra
mutazaad
lngrhe
dikhega
muslimo
fsd
rind
karai
ishehnaazgill
barhatay
rahn
talwe
##ايک
badalne
guzarte
priya
jumma
confuse
tehqeeq
##ghest
mashgool
pindi
pcb
##heikh
##ardar
barbra
##chain
pakistanzindabad
enquiry
imad
madham
sbhi
aagy
fida
bethay
dekhega
##aharashtra
dishaandssrcaselinked
##mumbaipolice
disappointed
chashma
soal
cheharon
hassi
cares
ishwar
dyn
prachar
guzr
phair
##music
jaadoo
swi
##dmin
naagin
bety
beneran
dedic
لار
##heet
##chall
muskan
wahn
gumaan
##maniae
disturb
badhaane
dhakka
juzwi
cuk
tof
bolen
umda
sadd
##quad
replies
tbm
istamal
blessings
yuhin
himanshikh
eesa
kund
zer
##cab
haimai
##atory
##iyar
khawaja
tanzia
tailor
dooba
afsanwi
jahilo
کاس
tourn
##nav
##apak
anjaan
maani
pakv
batayega
gusa
khany
sulah
انٹ
tarkeeb
coinciden
afsaanay
parhe
parho
##lihat
hmko
puchhte
##knay
##hatt
asman
rahim
pakistaniyo
naib
awara
##ینا
mubarakbad
comfortable
##khay
parchi
##iyal
bolon
kalik
tmhary
aqsam
##یوس
anymore
ehsan
##respect
iamsrk
muatali
kse
kasar
sochiye
baatain
craze
dhandha
##protest
pik
##hass
taaz
masom
##mantri
mutala
nazare
makhi
betiyan
sadiiyon
ladkiyan
judiciary
چھ
##vx
##abo
##hatar
##waat
shoiab
patni
khushiyon
tanya
warana
garo
identi
suspen
tashaddud
ﭘ
##bachchan
ﮐ
ﮟ
ﮧ
aplog
ﮭ
ﮯ
ﯽ
ﯾ
ﯿ
﴾
﴿
ﷲ
ﷺ
##hob
ghata
mamle
##ullu
##banon
kahun
amaar
waday
##ayy
rakhty
##aseer
ﺍ
ﺎ
ﺑ
ﺗ
ﺟ
ﺭ
ﺮ
fauji
ﺳ
ﻣ
ﻦ
ﻧ
ﻭ
ﻮ
lgte
udhr
chahey
istifa
maghfirat
bnay
eres
heh
wastay
بھ
##vsp
shaista
mauj
hasb
becharay
muskurati
##block
guzaraa
raga
##vc
sachay
aaas
##fiha
amethi
ibrat
ohda
prep
mansikta
jaayegi
regret
##winninghearts
gid
yt
tumhri
sabak
prblm
dilaya
jaison
bagga
mashwara
ehsaan
israar
chipkali
mosi
##ancy
muqa
khota
tootay
##imum
##sanjay
boorhi
tandr
jashnn
ghulaab
tassadum
falo
mone
snd
onc
##waraj
spir
qadir
katil
shikwa
churail
phisal
moattal
astodyo
￼
mza
kau
andi
amra
ghaat
##zarat
chalate
sheher
haqq
##wabit
de
the
in
sa
la
##s
of
en
and
##e
##a
ang
to
##n
##i
el
der
un
di
die
nga
##t
nasr
on
que
is
se
den
le
##r
##o
ar
del
na
##u
et
und
for
was
da
##en
des
an
il
as
van
10
je
##m
by
les
es
do
una
nasa
2011
##y
##l
at
al
er
##d
og
##es
km
##k
von
du
11
with
2000
con
per
los
khelta
##er
memang
av
med
no
est
2010
het
patience
och
2012
dem
12
por
he
su
si
som
from
2014
it
2015
2007
20
species
pa
that
earth
im
##na
een
##an
ja
han
##ta
2016
anjuman
dan
2009
das
15
##te
ni
##ne
ug
va
hypocri
2008
30
puk
24
world
2013
om
2006
18
als
mit
his
kiani
ka
te
para
ha
com
kaseer
##h
baani
como
new
##re
data
une
##da
##g
em
os
arshad
14
16
au
##us
21
aajate
##c
##in
par
13
las
در
geer
behria
##vaaj
aasmaa
sie
dans
##on
det
##ni
2005
##ch
##ia
##bechar
25
##ra
##de
che
19
##ing
badalta
life
17
son
yang
khailay
000
az
2017
##ja
2004
so
allaha
ein
pusht
##le
2001
til
22
op
##xz
od
nel
2002
##is
##z
ve
war
##ی
##ehri
um
ne
huna
26
are
mas
della
over
28
fur
database
##os
##idnaaz
##no
##ti
zu
من
september
var
##la
23
##et
jabar
ist
2003
updated
were
pour
sur
am
be
har
co
smaj
auf
##do
##se
maqsood
za
org
bhout
nasib
##ka
which
##bedkar
eine
or
1999
##airat
ii
##to
all
##nt
nax
##ar
bulan
this
##p
mga
##va
karanay
27
##je
qui
##ma
mot
khwahi
##ا
helic
mouti
masal
lo
film
mm
##ed
ou
salana
thous
1998
fattu
memon
29
also
one
##ة
##talees
##ca
first
post
entre
finns
had
##li
sich
ny
##ه
06
bahin
holid
po
##as
##b
san
uk
era
##ce
##ng
nam
ed
##ri
dos
از
##j
ur
eta
may
yrrr
nhy
##v
university
bhage
1996
has
nach
khaka
history
khawahish
dari
logu
100
1997
ulan
pasnd
##endar
thnk
##asimanshi
red
##ie
01
31
met
##ko
roznama
##si
runt
voor
##sa
howy
foi
album
non
cc
##برٹ
john
aus
mexico
system
cloudy
1990
##alagi
##al
uma
bei
download
##asingh
##f
annual
her
bevk
ush
set
their
who
maai
1995
its
##rahi
1994
este
fra
bug
not
dei
##ke
peeri
gaaya
but
##ment
reading
1991
##ukam
ma
anaa
population
raksh
bis
kirk
af
ze
after
avec
##it
1992
auch
2018
##ي
1993
##ki
faraiz
me
yn
frma
naslon
applic
rozay
50
##ci
under
index
yearsof
two
##em
##choice
dat
mmbron
##ו
ser
pada
ir
familia
ta
##ga
alla
nirng
influ
national
##at
##um
muskurate
##mi
aankhe
mais
##ت
sua
york
www
men
##ly
man
fue
##shabandhan
door
##maniaevery
cari
srif
##jaz
she
time
have
city
##ushman
kamjor
they
##ba
taknik
rozi
laranja
esc
leny
##ur
land
doi
sadme
patah
mukesh
meter
##ge
ya
compan
1989
ganday
mai
##ve
jamhoori
american
##za
esta
fran
dia
falando
40
##st
plus
##firullah
bir
uit
ahmaq
ان
1980
##ات
ho
parte
press
general
ao
din
##withsidshukla
zijn
##el
##io
sawanah
amb
zani
##man
ce
zum
1988
برو
##xposed
http
april
##mall
november
##ro
loe
els
saint
ini
mao
است
02
serie
ghn
part
##w
moha
state
amm
wasail
hakkaam
hij
dell
##ny
##ername
quarantine
##x
been
county
1986
shama
school
1987
international
1985
metros
aazma
akkians
okk
seu
other
##oofi
inhon
ca
qu
1984
united
club
##den
05
hajar
##ul
##lo
##me
tu
abang
##mente
jou
dalam
ett
come
1970
##ن
##ju
##safar
up
mujse
##ten
ngan
when
werden
mer
cu
mission
##ya
07
doum
tot
model
estado
oli
tav
04
paris
kitn
##م
michael
dengan
august
sciences
elle
madni
##د
##ung
iii
sadko
این
##ze
1982
1983
sont
makanya
1981
admion
##ji
kkkkkkk
arrestrhea
sin
can
##sharif
##ek
jako
##ku
##lol
1975
month
sobre
kaata
##nya
kahein
500
1945
france
karnam
juli
zur
dal
1979
us
digital
into
1972
paat
there
##ر
during
ben
more
frn
##or
till
##zzz
##di
shower
william
60
pag
1978
1968
zaar
##om
کے
##ak
cac
1960
aan
pero
1976
area
map
pas
maria
warzi
raton
##ban
##ow
nicht
majboori
ble
nay
##co
december
aare
south
##kan
monitoring
1977
useless
1974
200
1973
ad
year
##go
##ho
team
states
ng
nord
##ी
shal
park
tv
usa
##lar
asleha
1971
##angana
advert
esliye
##2
st
mo
music
iz
aux
climate
##ffff
oder
later
reser
##asily
chalaak
##gls
nan
anos
durante
untuk
swadeshi
ganja
you
را
region
sind
uber
tres
lanti
08
bi
wehshi
pahucha
aham
jean
years
dudh
##ts
out
##ان
north
##1
due
ei
sus
paul
suba
zali
##path
infe
1969
safa
att
adnan
trus
wird
most
32
uska
##ler
tweeting
adalah
##alekin
35
dhona
phatti
cover
ki
art
only
laptop
david
btay
peel
1967
لیم
saaye
quan
##ha
london
lake
09
##ubah
three
80
robert
03
bu
lui
##ren
fan
daala
mangtay
khabardaar
beej
pyaas
1950
ihtimaam
45
west
##ns
vi
about
haibut
65
##eram
agosto
voi
1962
1944
apakah
abhe
band
thehr
version
than
##ा
1965
ete
##ir
ye
river
alle
thii
targ
sark
##3
final
fu
pukaar
vict
sagheer
oktober
1966
##zeeb
juni
1964
some
##tiwari
ban
##cio
ہے
##ل
##sen
raag
##sta
shauk
jest
second
where
kada
wallah
##cion
between
doori
song
inga
##jo
koii
##lla
nu
tai
##0
1961
peeron
##tu
##nu
assh
kan
league
series
juwaz
wie
khola
cutie
would
ke
ses
izafay
1941
washington
shehzadi
bhenchod
grand
##ik
sidnaz
mes
khyaal
1940
wla
300
لاين
##noo
1939
shait
##des
90
1963
grande
##ria
james
70
shami
400
##raak
##wa
sono
kay
sunaya
meher
comme
##be
با
puncture
peter
##ter
charles
made
hans
rio
high
ved
##ou
swara
swasth
میں
##न
him
pro
company
tahun
##am
flirt
naqid
anche
##ine
group
division
eller
rokne
evict
##ky
##tes
aqalmand
##rajaat
zayda
wy
karish
deux
##rs
density
baht
##warriorsssr
lakhon
george
ab
ruke
zulfiqar
district
##ben
او
ngopi
joota
ano
almiya
forma
1958
33
##tion
##ski
estados
astagh
ayndrsn
vom
helicop
dhab
fuk
otaar
day
sooo
modis
##gak
##cao
kawish
bo
isb
nie
then
gran
##ers
##ov
##4
place
1956
##nawaz
##un
##ina
ook
nive
sao
tour
long
saram
thanday
1959
tmne
34
air
danoton
phli
maqboliat
cette
giraftari
best
america
سینماگ
1943
##yun
hok
engr
my
36
sebagai
##ssa
love
gli
sud
##ry
born
li
achchha
daaron
such
india
phati
union
##gi
banegi
parrin
1948
used
solo
bny
##ste
house
pe
##ب
##zi
1942
phad
##ic
##que
1957
yy
##ska
central
ڈیم
hoc
radio
##baj
hat
##rt
##puri
1930
known
1920
##il
ci
ten
rock
##almankhan
1954
dhe
##س
nawa
##entar
##land
##ion
marak
unidos
mazrat
family
berlin
##ן
museum
##ot
00
dass
name
while
##nte
welove
guerra
bat
people
maarta
will
dise
##ो
society
watni
tra
martin
ko
average
##و
vor
base
##dos
1946
##ok
waaah
naam
##mo
bhy
##ig
college
president
##ista
1955
##nia
بیک
##ita
iv
santa
care
##vo
many
##jq
1938
kahy
کی
thomas
pod
lan
cho
these
1953
zen
##ton
dit
##ut
nacional
##র
bij
##ii
ai
##res
july
1949
1918
through
information
season
1952
egy
british
kao
point
hamra
merupakan
hoa
##ר
##id
asate
##zione
rahee
##les
##5
paati
karobari
single
ile
richard
oxford
44
canada
via
atya
we
##das
oleh
یک
1947
##nie
any
##ica
cheezain
##ینز
1936
age
march
##6
##لیس
well
desde
##che
38
qanon
june
badnami
samarthan
go
game
mar
bien
aaza
metro
prima
cm
live
east
##ken
hty
public
ning
sse
ھلن
##nen
being
##ea
##त
##iu
sau
apres
records
them
noch
haikya
mars
khora
before
became
1937
37
soort
baas
pp
including
mullah
nao
loos
mushta
batau
uthate
##ol
video
village
##gen
tambien
original
pgl
##uske
sein
##ين
##berg
##ikl
1951
show
merko
indonesia
europa
number
koji
top
sakt
vol
jose
##cia
home
fa
social
##hindi
##ty
dr
##nd
island
total
october
jahr
ut
##vi
rivaaj
service
ghareebon
black
tashheer
football
end
both
against
star
chahate
trib
obri
##ner
##iyorum
award
hadton
bewkoof
station
##th
ali
musibat
42
list
cigarette
suth
won
##olar
four
##7
loon
uno
1933
##he
re
nur
bhali
##aquat
january
##nes
##lle
media
census
roman
##ning
ex
##mandi
sebuah
hi
64
mutlaq
##ada
local
##ल
##ون
48
times
italia
center
esque
1935
bnde
pagla
##ہ
king
gadhay
open
39
##poetry
dhongi
modern
1934
##ووین
chamchagiri
nitishkumar
mohtaat
festival
سال
گیل
##arsh
1919
andre
work
pay
nos
since
##ench
##itam
username
choom
takle
jivan
rehm
##ونگ
kilometer
suo
##ado
nombre
##so
##aarmy
1914
century
dalla
##9
sharaabii
sous
##au
##ble
what
amin
##nde
if
weraan
##orati
kron
don
like
##tt
fait
centre
louis
premier
hamay
ale
##ant
41
##vat
nom
amg
##8
1932
1929
daam
##ida
jayaz
nem
##र
##ll
lac
hasta
tre
mansab
43
55
1928
##zo
##q
major
klov
hogy
real
##lt
##lu
casa
ikhtilafat
primer
ronaqe
wasim
until
however
##cu
joseph
hun
##der
historia
tumhre
chi
اور
##republic
##chaan
line
cui
wa
1917
47
royal
600
gia
ont
government
abhishe
##pa
bachcho
1931
##pe
##tas
75
cup
##ز
##ent
##mento
abril
early
contra
jahangir
association
gaddi
ay
##len
vao
pri
naar
deze
aarai
##ite
##akaar
runuma
take
##are
##muslim
gilay
hukmarani
aadaab
now
1924
town
ھلنایک
tq
##ist
wic
##xm
news
##fh
cong
nape
ing
##य
##union
lokt
dilane
kirn
sanatan
ulj
iraday
predi
1927
misalein
##du
california
فار
##ad
##dawards
white
dilwa
main
program
science
vid
##dekh
sem
advo
enko
gada
zindag
jaanti
hill
niya
hall
jaltay
1922
1925
supre
back
safal
1921
ia
power
1926
bhejta
sul
##ai
52
balouch
hatte
buzurag
##by
##ش
site
anni
sistema
##hi
##ger
meg
anno
waziristan
##stery
primera
muslmano
46
51
rply
last
china
raabtey
coincidencia
##bz
released
aber
thapad
same
1912
juga
wala
bemar
##men
based
kingdom
mahaan
called
likn
##lich
sig
party
basorat
##mu
sbka
کا
##ck
dar
seus
fc
partir
old
bagian
hostel
february
##nik
ra
maravil
karon
##dulilah
following
ga
ssrkilledonjune
usoolon
ville
hathyaaron
vadra
natural
##ien
cd
meme
played
australia
journal
##zen
pensando
aaasaaan
##ies
bawar
49
nun
##ian
book
saali
italian
aftaab
banadiya
principal
##aston
manof
kuki
dhoke
thu
guzarti
izafa
##ert
several
ikhtiyarat
jeso
law
dakhla
etre
nominate
henry
1900
khwahisaat
##ere
mi
800
ewaan
##son
ic
quando
##ন
jute
##ana
cap
young
lang
56
##xn
english
##aira
church
motay
see
##ach
antonio
1913
##adaari
arrange
hon
##ire
nome
tri
vo
cada
##ron
nazeer
madadgaar
manao
angrez
culture
54
uthta
premiere
kini
qureshi
munafqat
italy
bay
smith
great
khi
tadbeer
neigh
jan
nusrat
اس
efter
##ura
women
juan
paneer
azmaish
vez
net
niet
dake
numero
off
form
pdh
##ru
rcb
##osron
merey
cheating
##adia
research
director
chotay
use
tooti
opera
small
##ع
kholnay
nirdosh
deedar
former
rishton
##ک
##ف
##bi
hypocrite
bsp
ghir
##loob
each
kaanon
madrid
nei
television
sotay
punto
role
pais
##ted
roma
bbc
cambridge
tarbi
adop
siva
death
street
web
lae
##ini
vat
fin
150
##ud
nova
##ata
ans
country
##sk
england
marie
water
سے
ikat
tujhko
afghani
bichare
play
member
road
leur
europe
buzdar
maar
dont
##val
##rio
divor
wat
record
lughat
japan
hai
pankaj
واقع
53
joot
swa
depuis
##jm
kafan
##im
nog
##rd
##apur
anup
raham
##upt
norte
marine
tom
84
marji
##tarah
polling
production
##cht
esko
##dor
christian
vida
daniel
##ene
khit
order
dalna
##یلا
found
mei
little
##bo
pela
##nin
finale
atau
olan
mark
700
zona
pdf
debut
falsaf
##ley
1916
espero
58
kele
##tte
yaan
centro
asani
francisco
gawara
special
57
edition
ele
olarak
seva
sidheart
jita
##eday
kg
##ks
ladna
donde
utc
jo
tambem
guzarna
ijlaas
tidak
بن
dhong
capital
pre
tan
muzaffar
##ling
##ے
shaandaar
office
popular
side
##क
1905
present
xa
ciudad
wesupport
itihaas
مع
cuando
adhuri
##lik
musica
##ار
swagat
internet
fasaad
saneha
third
59
five
good
frank
games
fr
##sti
knyu
##ran
khoraak
unpe
thi
chk
bharta
big
hojana
karl
shakl
budhi
##য
itu
waalon
prabowo
studio
fut
##chen
night
aari
pde
development
project
plants
##era
##dae
kemb
ded
near
##ier
nr
online
##howa
banakar
down
activ
province
rehma
##ej
##nda
around
phan
grupo
institute
ong
ky
puray
##ice
force
lgaya
##gan
berg
pelo
kutti
european
manga
french
autral
##स
uz
##khilaf
##ق
western
muyassar
located
waheguru
yahudion
##ven
six
just
autraliyai
##tor
##xq
pard
abr
##ided
noi
onder
##han
darti
german
taran
const
ces
way
atomi
120
##lan
duwa
nad
cheezo
patna
alors
held
wahhh
championship
mat
spam
##paras
##lution
professor
##cycle
mansookh
story
badhaya
ili
another
adolah
##gu
dye
large
began
##ee
##رپ
anok
children
##zy
jr
left
because
army
milho
ahsas
asi
arts
ac
##wajah
daalo
telah
mae
havia
families
edward
hainap
tamaam
bhabhee
awards
autres
سینماگرافی
primo
bni
##call
##া
aussi
95
banin
lee
##andal
##ux
paan
unha
##cy
admir
lors
##karna
karnaama
control
##cie
named
samajhta
##ngy
##bu
far
yahn
##ui
bang
indirect
africa
85
bio
match
menjadi
sy
pichwade
ooper
mayo
prix
##ei
kaahe
dam
jaizon
xx
services
##lor
liga
##ano
global
onde
sen
mu
shubhkam
aalim
desa
id
kom
alexander
62
dgls
qadi
##dan
ils
presidente
angeles
##soon
##ڈن
##haye
building
mayor
##amin
##adti
did
lugar
tim
##ker
field
##nak
##tified
banda
##ue
##chari
names
moi
super
reference
88
carlos
##tan
ez
tam
seg
logg
bureau
atanki
plan
word
sto
simon
episode
72
lai
could
tempo
mort
##allu
dormir
anna
dastoor
ghotale
dla
##ting
darpaish
targheeb
col
mountain
vu
##ato
##ua
##مپ
ba
education
kiyon
court
krt
fire
entr
built
hayeee
##ego
##ques
within
padahal
shumari
sekha
##tar
mohan
mogam
mujas
250
adliya
segundo
iki
##ور
said
##ls
type
mazaa
despues
essere
liken
##tta
civil
byan
katnay
head
theatre
##we
fico
##dir
imandaar
position
khaala
ket
shaikh
##loves
##jos
agu
jabardasti
books
partie
sarpar
padne
ela
realheroarnab
brasil
lam
##mann
viene
ich
indira
barcelona
86
pareshaan
##ville
grafk
iran
sea
muttahid
kapr
took
82
leta
nature
##ajay
##rahe
##deli
mazhar
kiyaa
66
mamnon
carl
along
baithta
kharidi
khabron
##ido
##morning
tarakki
volume
chhuut
falsafah
department
liri
mary
##su
atlas
piyo
oslo
##mkb
published
isey
baqa
theak
lagan
99
zo
let
##shuk
ghadd
tren
business
aajao
million
bad
##hinde
63
goad
encom
mens
pado
deshbhakt
##jen
##ینج
asimkeaslifans
67
still
fiquei
blue
dhool
kholi
human
##emic
brown
##cbiforssr
پر
tibbi
apan
##creamsc
ehtijaj
##sche
##لیٹ
mal
council
##burg
##van
planet
1000
##hackeray
members
##aiman
یا
anh
khta
yaara
questo
souch
temps
barometer
refr
pahira
##یناس
##hriram
poocho
##rat
hrithik
96
##ane
aazad
guts
orang
car
plant
free
##یشن
player
##ang
zeenews
tem
bayaan
community
very
leves
##kin
61
logoon
##waah
federal
waqi
sidhe
##nim
puis
girta
dung
kharay
mereka
piano
##ros
mazaar
pel
pop
prepar
prefer
shameful
costa
##ico
jones
81
kuh
nha
segunda
##ret
jack
97
daraamad
##ð
own
##ris
otros
dai
tym
green
regional
gan
mry
اٹ
##adha
vers
اے
raasta
ghun
bolein
98
##ove
how
luis
obra
matri
received
pays
dort
ter
todos
68
sant
sarm
prody
83
loro
scr
zich
dalne
compartment
served
gaddari
bila
##ك
1890
oopri
dipika
##ao
etc
recheio
##ye
metal
مونٹ
mundo
##wasi
##pen
##kanay
##aiy
##ند
##onk
nhu
chicago
studies
again
indian
##use
nabu
satu
apalagi
lagake
manate
fou
##dy
mehr
##jas
texas
sam
fueron
##gt
76
##roh
hiss
thankhowa
airport
##ima
kann
kam
marco
lat
##iiiiiiii
design
hier
mehngi
buzurgon
nas
include
93
sonra
eu
qua
porkistan
meer
hien
yhe
##squad
haikoi
##ade
amerika
late
led
78
bank
joor
academy
krwaya
##ile
fort
##nas
##ara
khaaliq
munir
##baik
udh
##ise
##ح
important
##aaaaaa
failane
kelas
##ન
jealousy
bao
##bissr
vyakti
dall
92
qiyaasi
##ari
##choiceasim
tout
##nek
##rum
albert
##म
those
##ure
sang
tak
stand
prodyosron
died
inme
spring
##dip
ما
bhaap
noori
dekhkr
vart
##tti
tiene
##demand
roar
jaisey
##one
todo
sarbara
71
aysi
make
##ation
antes
website
case
##aryin
##ino
pregn
semangat
##ity
masihi
yr
provoke
dette
officeofut
73
laqab
mushtael
##nih
74
77
wjh
williams
haid
ایک
##uk
bhim
musical
route
shakh
samet
ghaar
class
##matters
port
contre
space
haar
asia
frk
although
##leri
sido
logoun
municipio
91
jalne
##imrankhan
junoo
pashtun
bashm
vcs
##ate
##lin
##himanshi
mis
hotel
haiii
lost
dehani
##irbhar
##ayein
walter
##astha
shram
argentina
vier
economic
quwat
magazine
qualif
hamarey
##sten
swee
##ء
berojgari
premio
mentally
minister
69
dvd
political
##mer
daj
ti
##ি
nueva
qaryin
##lis
ucha
avant
your
body
algu
##sky
arte
round
run
banani
dekhle
lain
manne
ako
waqf
doshi
shiah
87
mangni
##lig
ara
900
##issa
cosuon
naqideen
sir
ate
aain
cidade
fasal
##ah
jyo
##ver
even
points
##qai
hotum
##eev
language
deput
tumi
bohra
##ber
face
max
teaser
sai
##ele
father
wikipedia
peut
volta
kun
act
chalty
sharait
victoria
koja
zarf
89
icin
villa
israel
upsc
among
different
full
dhaaray
maharastra
mr
latin
according
horhi
jusqu
vaccine
mahirasharma
swear
muzahmat
##ena
beef
ende
windows
importante
lh
tanggal
##zu
##ج
tenia
right
chung
##ito
##ड
article
next
pdega
##aiya
kapt
jaar
##nom
##ksi
##ਾ
politica
caso
gold
days
##iyun
title
نے
review
##nti
chu
##dible
##nce
monde
##ive
##kaur
barkhilaf
##gey
##bol
hamse
##nis
ambedkar
taas
##og
shushant
groupe
chik
wo
store
fiq
twee
katwa
##یور
hamaare
##maniaeverywhere
fud
lora
fine
equipe
##sel
terra
##gp
##aan
dove
haisa
kayu
##alty
##ms
defe
demag
jak
leken
khak
election
filmsaaz
##ais
bill
amanat
##ys
tarap
sial
nikali
##ham
military
syasat
chok
namas
southern
forces
burj
ju
79
94
##mpo
qabzay
##per
causa
mandana
light
guerre
elaj
##mas
##ono
northern
hosakay
##ugal
australian
short
##ona
olsun
talib
bet
much
leon
min
sambhalo
##age
collection
once
mathura
mount
qabrustan
##vu
##فورڈ
internacional
network
mukar
tema
lu
دی
tal
included
##wy
niaz
tanto
mareekh
shes
luc
##antee
rihayi
survi
maanna
##ici
ari
html
periode
##sia
##nnn
radha
tabdeelian
dies
support
##pi
pranam
fel
suite
qawaid
##ore
copa
saahib
##creamscbissr
##ras
izan
yom
##raiz
##yn
##bagh
110
kaag
grandes
kaaba
##tawa
accep
##vel
course
style
mundial
mutnab
##ट
cultural
surname
sikhata
sooch
nawway
besharmi
germany
hy
kail
ninho
level
hay
ragh
##qab
##vadi
lokal
##ि
official
pedro
sans
scott
##endram
naii
##ds
register
sayasat
crap
##ngtn
##ین
fins
tareeka
portugal
films
rahyn
chudail
karleta
##net
balatkar
board
tras
aastn
viewerschoiceasim
asateza
ilk
nare
oly
kabupaten
paji
municipal
sry
often
temporada
dipl
sote
baradri
rehan
report
##lia
enc
dann
hmain
shifa
aagey
kuta
mtshdd
neelay
ray
vice
##ati
movie
date
partido
bolegi
zimmedari
rakshson
mutnabba
dw
code
فر
haito
adam
parti
bas
savar
jokowi
poder
itta
god
##kt
kameen
mushabi
cual
using
sallu
summer
puede
presente
##dsn
avly
alan
works
standard
sazoon
##realasim
sport
manofword
eran
mushabihat
##eeza
joe
construction
parag
thackeray
students
##let
career
vii
songs
sia
yaaa
marz
##dule
described
tersebut
get
##aanrc
period
minor
##ford
hukomat
##braan
front
manav
scene
action
##oyz
jeeny
##ide
viet
ssw
piyari
race
##tet
tolong
uzma
ashiq
vien
wilson
lazz
##ves
depressed
yo
##het
bhadk
##ira
zone
bolos
kamina
police
##mus
poi
deel
gaay
monte
without
##chi
tro
koje
jaanay
maj
areas
harry
##uri
##ges
battle
crores
material
pathetic
ham
akely
molho
bazm
qalandar
##od
##kom
maths
##ft
eo
dahaiyo
kemaren
manofwordsid
qilah
##zinda
tipo
sol
##have
##fa
sub
haiek
##ring
inqal
qe
ultimo
بر
alto
qual
mazoor
sbke
comprei
utan
##bhagya
drign
ishtiharaat
##budar
vivek
##ال
##rn
کوری
waqti
chalen
queta
bachho
##fthe
pahchan
sikandar
musalmanon
avril
kamzoree
balakot
ath
seka
نام
##وں
roi
##uals
##ام
##haya
miles
banany
##saab
##ani
asma
imple
impos
buut
columbia
balky
khich
sempre
trade
jnb
khatarnak
condemn
dien
khamion
library
joshi
guide
teek
##bar
campo
beste
##las
##hpa
##dadi
gant
##pand
kim
kie
##ong
##hartha
muhal
moved
sajj
mael
takraar
##tos
janan
rang
130
aajata
shayri
##vaad
sadhu
sanu
ihr
flori
dhek
kiyu
prince
ghaltion
observ
##prabowosandi
##withasim
##ens
distan
ڈار
alta
##ende
##meh
similar
isk
##undar
health
##ala
##اں
mare
تا
hoi
ag
apane
kot
##able
baw
abtak
empire
lord
master
never
##eg
yehe
hop
square
moula
##tic
jackson
selected
agey
tous
##uje
sports
##ese
adeeb
##ser
##ete
php
rei
fino
rhain
prob
bol
vita
##mple
chinese
fall
##ੀ
iko
quom
hot
porra
padre
##salman
arthur
management
begairat
nara
##ਰ
chahiay
niklega
weekendka
mutabqat
lange
allen
##urs
bashmole
bar
aayen
bosa
afrika
okat
##jud
established
khwaab
##ayegi
honga
file
ashir
taan
##aren
drd
utho
chile
##ula
rampal
##سٹین
americion
came
juin
daha
johnson
autor
pichy
madhuri
جو
baaghi
##goldawards
##rie
phat
##tis
ary
wazifa
mogambo
chris
integrated
dolat
common
hri
mny
##سکی
hooo
##ajaja
hand
status
##sh
jazz
professional
half
chly
ru
stone
tute
##giz
maror
punta
##eedar
motor
middle
padhta
dostana
nar
##yi
##ismo
wizarat
various
##ps
agua
##rea
adakaraon
khareedain
پول
tumhra
written
دا
dio
fois
##athn
mismo
jesus
##loon
mobay
##nan
##shton
barhi
questa
study
kisano
jakarta
mac
anti
badbudar
وی
sochty
marca
wasay
maja
##ht
##nta
gandh
performance
##ff
sarey
chahata
zeenat
##ern
##rna
structure
riloyz
##eri
gordn
##ali
page
##ym
wani
##riyat
theka
forme
##years
track
hospital
fi
terha
taak
trash
##tik
enak
padhna
gadho
##tra
##guei
medal
actor
chhupi
mukhtaar
reyaston
aashna
mutta
valley
ghaddari
primeiro
janeiro
##jan
bohraan
##bast
foram
napak
##lection
##ग
hang
oficial
ok
##bus
inc
making
bolunga
girl
papa
daraja
ana
andhay
##tionary
produced
choud
qabail
murd
mike
vil
canal
##ster
password
vie
##po
paulo
askati
##ket
judgement
sve
mimbraan
##loyment
##los
yateem
having
aquele
fid
کو
eastern
dag
##ika
drama
##ں
jnab
dins
##dd
##چر
chae
mohajir
sabores
barqi
##ix
##ubha
given
marboot
uthi
cross
married
sadqa
lebih
ultima
teams
seperti
living
##field
junto
philip
together
##cs
steve
sun
alt
##veng
nakara
khilona
##itswaraj
shahrah
zumra
bob
##install
##tat
##ac
virginia
taylor
jos
heart
##abkibaar
##sis
zaki
##eni
##ag
policy
varios
muy
kaala
##ez
memiliki
aj
##ey
inbox
morte
went
##hu
##astumho
primeira
cinema
taqw
every
programa
xi
started
yra
##hram
dapat
forst
queen
talaafi
sulaiman
160
enjoying
##rin
kharaab
dramay
bahasa
wusat
toi
militar
sohbat
mesmo
islam
vai
anne
##challenge
##esty
shaakh
dekna
google
condu
zavia
zamany
beron
loi
futbol
jasoosi
##nos
tasawuf
become
shehzad
weer
bhadka
arnabofficial
pitaji
nama
nasiyaat
parindon
لیون
excuse
insecure
begunah
nivedan
committee
mobayyana
##vy
ہیل
sky
##apko
russian
akan
infact
##meon
##dein
##line
victor
arman
ep
hadh
##ami
rasal
tao
russell
hater
sei
private
##ifat
intol
puchne
##gar
jajajaja
jim
color
vndoz
saarhay
champion
suraksha
florida
##ios
rose
extension
jane
moulana
##heersheikh
dst
##ط
camp
##द
ort
release
lub
hint
corps
لیس
billboard
##pire
kidr
acabe
bac
daru
180
matric
dosaron
change
dance
marc
oscar
zaroriat
nin
institut
avait
larns
chitral
railway
nen
##ા
berani
140
away
sera
##iste
##tia
kepada
technology
source
tran
ghamgeen
universidad
republic
tasaworati
gazab
shehrion
seven
avoir
##mis
dict
##rng
cultura
##qur
##ld
uso
roger
##ameet
ft
hav
fer
##ncia
milny
takh
masle
octobre
##nika
quien
cerca
##walon
laken
##cos
##gang
irm
sos
intizami
guzari
attach
complete
aaiye
modo
lap
dictionary
phans
entertainer
ujagar
consegu
gov
1st
ncp
##ale
bez
junior
##bye
selaab
suas
loks
##gaa
ima
##seter
paka
attra
salah
eska
ss
##tie
lead
historical
nouveau
##fe
chef
mulazim
kota
maho
appo
##ریڈ
narmi
speci
entertainment
scrip
sadaa
gufa
baqiya
fro
gath
jyaada
thana
##chaar
jawa
sunay
eric
euro
##ela
##urance
term
##ell
equipo
descri
lag
pandemic
chutya
gareebo
bil
section
kangan
mother
hiran
##osa
cast
##isme
##rne
pres
vitnam
##ciones
poss
##sg
tay
hobe
buenos
##mes
mine
baahar
julio
##tz
##laal
manind
ekdam
poco
samt
ghazab
commission
impor
##ss
lady
jaogi
hazf
tempor
##bhaiche
fifa
dharkan
peru
##یکن
biggbos
cas
systems
##nn
kkkkkkkk
##rar
arijit
فنت
tasadum
##bhaicheabkibaar
##اد
nne
##ard
vada
krunga
autre
ging
banaa
anu
cruz
phirta
double
malaysia
ass
dy
faraq
excl
unit
##few
roze
dyne
##ilities
nuevo
goswami
foundation
created
today
alfred
start
few
maart
sebag
chief
spreading
dikhayenge
ہالووین
##seterifat
ainda
bry
syn
dua
jakr
##hen
win
aires
aos
##mos
hong
regiment
اچھ
باي
##xd
boston
aven
our
##wash
karpor
franz
stage
##tel
insi
lewis
phu
ol
##ille
inlogo
software
kong
hump
ella
fast
mario
bebi
kamaya
african
##lta
farid
##ose
bachna
##zzat
sede
korea
1800
katanya
##jon
bajo
salawon
range
qasba
##ding
contro
دو
##cha
zalzal
here
eit
woman
conference
khuleaam
khinch
gehraion
pendant
##qk
tony
phap
text
woi
pho
tong
##व
pola
bhaee
anday
##hnaz
moment
qabee
transport
respe
kurta
bichara
hainaur
mange
klub
earzi
kwa
sacrif
nije
##ism
sidnazz
isupportasim
test
russia
##ties
independent
guitar
##ول
bkl
campeonato
ptv
##ella
##ging
##dt
##fp
biography
##osop
aunque
inkar
##illa
momento
##ados
maham
hit
vir
sabkuch
jabse
adday
sanji
dalail
##cus
ikutan
ua
##weather
ora
galian
##cke
pouchye
miguel
announced
ford
ada
aimim
sarbarahi
kph
sound
ٹران
##rer
negara
wife
seorang
کیری
##swara
##faa
dende
haiagar
nadan
##zie
boy
bhatee
return
##gets
shuro
channel
interior
kde
mashr
working
person
bhola
fitnah
founded
cau
rupee
upon
slap
dadu
zahuur
##ram
pere
##یبل
##nog
hau
austria
phenk
tang
aqaed
lazzat
duke
cath
##iro
val
cek
dhay
leader
gang
oxy
polo
skulle
manera
sama
cours
لا
##qh
##qn
##idbi
tako
##waha
##thr
waqfa
zealand
ghayr
further
tiempo
baty
rahon
tmam
amor
##ous
japanese
##khain
puchte
##zadgi
##elle
masruf
pertama
##rus
golden
ere
##iv
kharij
mans
##ett
mehngai
dere
worked
lhr
کوي
bere
tumhay
##araat
dilkashi
thai
event
universal
coment
vs
patrick
wrote
evolution
##llo
hmen
##lli
stephen
revolution
mukt
cliche
recorded
pagli
bola
gen
serf
haarne
rafta
125
lista
##pashinde
utthay
italiana
ann
oro
personal
joined
barat
##ज
appren
##cher
odi
wales
##zia
competition
ماي
aircraft
ji
hoyi
##abut
nations
##zer
seria
##idad
##ahy
yon
daerah
tarde
shaandar
hamsha
amarat
##tive
nikam
dead
mulzim
pahoron
actual
betul
msla
##nus
santo
majbur
##dilkomainedikasamtomorrow
canadian
zahar
##یين
bhang
prabow
kehlata
sendo
low
future
hichk
novel
##dia
waar
##ٹو
##aiq
wilayah
##ण
hem
haiya
chy
ghumna
possible
millat
##comes
chorna
garcia
units
lei
brian
dikhati
zamanay
qatl
pred
##est
though
##ili
kaunsi
samaaj
sent
petit
superior
1500
risalat
101
shehwat
medical
ant
machine
##kat
##rol
##timate
bashindon
##ਕ
miss
mja
##aisi
dias
bharak
homes
mehram
active
hmesa
gadda
bhulaye
ranbir
put
##ses
training
gaaliya
andrew
hawale
##وا
##دا
nalayak
classe
jolia
##ola
companiyon
olymp
operation
##nica
gilah
filme
rati
grad
returned
hajam
shararti
fernando
talaf
pot
mon
##ora
##een
current
fermaye
zehniat
xv
##ons
##withsameet
##nou
sv
rootti
angel
petrick
pode
hw
pees
others
sekolah
sene
سی
musik
##akal
thim
pasandon
uraya
misali
hojate
dc
dhula
##ih
##una
outros
lien
golion
jaaane
ghani
alguns
disco
porto
##waif
rights
begair
##ente
encore
padhte
ہیں
aarahi
creation
faire
tant
##yo
bangladeshi
##oi
aankhein
zeyada
pda
corporation
lartay
##ونڈ
format
empresa
ly
ussey
olha
male
rome
siendo
bukhaar
leurs
makhlo
dhundh
tadap
jeetega
justojoo
bhaai
inn
##lui
miltay
##ich
bridge
week
combin
besar
aaka
muqeem
##fer
khulla
rony
dark
depois
maheshbabu
ensemble
نوعم
inte
kad
eng
کیپ
##arth
##wood
##aili
naare
##ired
anp
estos
##via
medio
elected
sopa
ix
branch
kabool
endia
rigg
kas
peu
##ffice
##tre
##mbol
##ando
primary
##ori
smjho
elizabeth
apos
thakre
mayawati
rautsanjay
masa
suthra
eus
نوعمروں
dais
davis
institution
##lus
dentro
##ay
nali
##ير
##ો
نیز
gas
rhenge
oko
vash
khoo
growth
fox
##memes
##give
harnay
davn
##op
sinh
len
gab
musaw
https
bigar
coast
rat
duh
maday
jalva
##gh
stars
bachha
##ggy
gol
dhoon
considered
##zalzal
shikwah
mughe
genre
##karann
continued
frustrated
ineqad
haamla
jersey
ente
aanay
laj
vindu
secara
kargil
##isingh
sahee
ese
tuu
immedi
beach
kaly
example
hade
thandi
alif
mint
hosakta
shams
celui
daalti
grace
mutazalzal
dalaal
theres
weekendkavaar
qabeeley
temple
##tek
menos
haijab
tez
##ensive
ussay
taky
pehchana
##verdict
nazuk
colombia
##minati
##dad
lahori
ek
##logon
timur
azadana
entry
sapno
elements
pakhtunkhwa
kang
opened
iin
pan
jld
tokyo
##lio
mds
##isk
natey
ssc
disse
##jac
sad
##sub
haiun
ghos
##don
##ila
itney
##chad
##نا
bass
##bb
##set
pakvs
chalain
prime
ise
khusoos
posto
rokta
wild
##یرس
bukannya
must
dukhati
ghafoor
idea
ilzamaat
fajar
juth
baaqi
difer
##eshwar
beberapa
##asi
bajai
soniya
mahina
laina
too
ona
uthna
##emos
mazbooti
hasiat
##tica
badmash
tutti
badmashi
theory
artist
ehalkaron
dilkashii
gane
vista
##navis
##azay
jaoo
available
##iques
sunti
constru
##bach
winter
imm
phai
should
sanp
bdl
aesay
brother
note
publication
maior
##met
otras
caneca
kui
sehr
##ota
aro
105
issue
resh
##mnt
result
pahale
boi
arsh
##dur
esfiha
chid
miller
hojae
roy
##mia
##ما
siddhartshukla
apnaya
kecamatan
mil
senior
##lse
mishti
tuvo
##goswami
kod
playing
estan
tick
##xr
mehen
bot
gobierno
##hus
##kim
help
wide
nagh
##navi
moins
navy
khain
##ral
formula
mohon
badli
bachcha
sanbha
murshid
chart
key
blues
##khair
jui
ton
child
##mbl
deserving
khelaf
bughz
##uta
drow
rey
lick
tina
sale
sayeda
ugal
##zish
parkr
administration
johri
libro
##rible
##tal
تم
##rono
##bahi
ajkl
soit
negeri
cuenta
sat
dog
larkay
jalaya
cet
##kou
hacia
hasna
hockey
##agement
verdict
##her
##san
##tak
aakr
wenn
mazahab
##lige
##if
sydney
##fi
waps
bechary
naraj
##temu
naqad
varias
kryn
susan
giveaway
pqp
direction
estaba
hag
##pan
iku
muawza
mareezon
energy
churraya
jaffer
computer
stadium
sex
yw
##itat
voot
players
##qz
##vano
##مب
pol
schools
meena
##tayn
##mimpin
daughter
coach
ummed
##eren
##baca
##shine
originally
pr
saty
padte
##ness
ngom
chhutkara
nivel
##heim
tumhaare
mid
170
elizeb
##يل
yatra
perfeito
limited
girls
##च
mientras
##baaaz
sacchai
sons
elizebath
##یت
jcd
bilo
ch
alex
todas
nahein
##eeeee
parvar
himself
ku
bruce
##nts
appeared
##ero
hijab
##uday
does
justice
jiju
khan
pakistan
hayn
formed
izr
##sidesid
box
nang
dyie
bully
developed
##mukh
fe
rosa
cinco
mere
ukhaad
##who
hairat
kidding
chaiy
yari
ball
khab
thhe
##اب
pados
spok
currently
provinsi
teamon
bahao
larkana
auto
kingasim
geeta
bigaarnay
thay
aen
organization
process
places
مان
ireland
grup
104
##eta
theater
##uram
spanish
regions
mousam
milaya
gyaa
paigham
falki
##nar
##ishaandssrcaselinked
102
tard
novo
bell
forest
diego
donne
retweets
spider
marasla
manager
sm
mest
grat
ninda
chan
vns
toor
georgia
township
##erte
across
istan
yae
##khus
elles
boys
dois
rural
dogl
labon
##ean
kehla
pyr
sprim
character
stor
pheri
everywhere
##get
quelques
kako
devta
##ias
bade
tarjuman
addition
hollywood
##ae
orden
najayaz
sverige
gg
ایو
##hin
yer
joan
embargo
##oni
##gosh
##amani
##aged
aps
events
##ult
baet
aby
minutes
samuel
soti
##angle
ohne
kali
sunana
sunehri
##wanat
konay
sadh
aadhe
money
##ments
blir
nawazish
mangna
bai
industry
cuatro
normal
samjhne
##ય
jhagr
signed
jeeney
authackeray
cat
lon
tap
jue
pukar
sohn
sue
student
##cue
kaang
##naat
yei
nicolas
andra
shagir
shafqat
garden
simi
##oa
##sion
deshbhakti
ivan
mutra
nafar
taloot
mycket
majmaa
tmhre
karaam
##aja
murr
ger
notes
jamia
ulfat
schon
aarop
##kriti
ponch
banyak
samo
hukmra
castle
##ص
technicalguruji
lali
editor
less
albums
بیو
bewajah
orchestra
ante
##ces
kamm
taees
ghaarat
obras
##ct
##hl
fase
diverse
##cka
diyaa
formation
angot
appointed
anthony
clos
esa
gaib
qadmon
tale
kucch
paltu
##adowaisi
sunaein
doctor
cause
singles
mod
exemple
close
vahan
openly
plaza
##wan
##kel
islahat
historic
parinday
##kow
madharchod
daketi
##rak
silver
##ghon
lower
bija
##fast
karre
industrial
uninstall
tho
basis
chhy
baatil
pemb
kamine
rue
masro
poh
##sto
dom
dna
smriti
movement
laut
honor
chupke
posso
ibn
bahwa
##prof
governo
sta
pkmkb
cum
ancient
##justicefors
sense
vapis
pist
##ض
personas
urat
##qs
daily
##zain
##tack
belon
chhin
kishan
topon
jaish
chalan
mehs
esto
hmri
ramlal
ltd
qarza
market
##vas
dabey
dheet
fridi
phelanay
setelah
attack
anderson
bandobast
karbalaa
khusoosan
nro
sndr
##will
hian
abro
zm
alay
shahab
##bile
bachega
##erd
chhap
iso
food
##یر
taken
imtezaaj
federation
vise
unica
##kas
##لی
phones
گر
##ikn
##aria
foreign
self
banayenge
accus
hamaisha
kamrah
samasya
dekhu
##gas
antara
##ર
##rotest
pert
chalon
nba
majd
bharnay
wajh
champions
captain
disney
nasb
gun
##assum
gadar
kaptaan
pages
donc
elahi
defame
kawasan
220
##ß
mafadaat
qalb
zaib
roberto
istandby
ahangi
350
particular
jse
##tng
cara
hard
##xk
##pg
decide
karor
ani
##athore
sine
khu
##ث
object
itana
khizaa
sadaqat
corpor
features
municipality
seen
kinda
katal
marahil
murderer
naukari
jaroori
mix
khenchnay
decision
religion
##thakkar
mujrimon
##hassan
##کین
##hawa
operations
ground
semes
##nal
paane
peak
eight
sidseterifat
estas
اک
##ppers
daik
mann
ole
##ايیڈ
kanpur
memorial
rkhi
##zio
dhire
remix
acabei
kute
edo
##skar
baam
##khya
##ulad
machin
adjust
enqu
duain
proprio
jaihind
##bhaq
mns
jashan
araam
panchwin
saqib
nabuwat
فنتاسی
poon
##art
yd
ایپ
nich
##fli
##alli
parts
khn
##ott
paso
karena
walker
pueden
jach
##isi
tournament
alhm
stunt
geen
vocals
milan
aaoge
batin
organisation
otra
##din
tril
##sc
microsoft
##nden
durr
##vis
##min
deramo
##tur
prize
nuqs
mushtaba
jumle
mindset
##bel
##bia
insaniat
romana
leo
##onsn
khalil
ver
gar
gamb
duas
##baku
throughout
principalmente
massage
masrufiyat
toda
need
saat
aver
flix
lungi
nish
رین
240
##azan
tengah
hiz
barbara
shajar
dilkomainedikasam
tae
regular
tid
lima
##dal
sold
porte
sidhu
##way
kons
dikhavay
##led
##says
##assus
dhakel
dj
opp
##up
franco
##masti
jurwan
ins
mahaaz
madre
kharidari
moon
unico
tierra
anak
##binod
##lari
rubika
bathroom
effe
deikhein
##endramodi
blood
gag
ire
groups
bon
##less
cach
arab
fm
largest
dir
urban
carrera
wt
##fv
##anway
tag
surface
kijye
nadaan
##issr
##apun
performed
soviet
arena
usny
usloob
shabih
##iin
gave
barpaa
porta
kabse
oriental
pehchaan
mazi
sochye
hmre
shows
mayk
train
##faad
aashir
mardo
ethi
oa
simple
luego
krege
##ante
aansoo
directed
got
mujahid
##liga
##upports
bin
sistem
yahee
cargo
rout
deep
##hampton
venezuela
valle
karobar
chothi
atra
charger
tajassus
khelti
hansaney
kemudian
sahar
salebi
dikhne
includes
secret
##reeram
individual
tat
semi
ob
algunos
##sie
christopher
hal
presenta
celebri
ismein
papel
##byyour
ghoomta
##crimin
analysis
##cessary
gunaaho
dira
harkate
tardeed
female
##bas
##prabowo
nato
results
##º
tham
manchester
bewkuf
##maan
zalzalay
fub
jta
ٹر
103
fourth
naki
frente
sabut
view
mexican
##bles
vila
mujra
pataa
catherine
chic
survey
label
halqay
lame
lamhe
engineering
chahne
laip
norman
singer
##mar
sidnaazforever
alwaysbyyour
photograp
catholic
toronto
pat
copter
defense
rok
countries
estudio
apprentice
##madi
##chenge
naali
##aa
kohi
thehra
kism
batai
brothers
arhi
kerny
garaj
seema
thikana
greek
bachayen
##zas
lot
smjhe
##my
charge
security
sukun
##sson
##گ
problem
hiln
mazmoom
akhbarat
jhatkay
above
trouve
##ute
designed
##uxe
quindi
begin
##any
dhrm
errado
khwaish
apenas
مشیل
##pubgkh
alwaysbyyoursidesid
##وم
##jes
gabriel
lkh
nove
youtube
oooo
گیگ
##fun
haia
hait
teoria
kevin
##ਸ
##प
##یی
##ahon
##chup
haali
reserve
khaber
##ainte
##leg
quello
machal
cai
movee
ring
mau
sii
forno
sided
producer
trk
##kar
ran
donate
shocked
بیر
behind
farmaan
duur
115
namaste
hisse
##aire
##paastumho
basa
tol
khushii
bybi
indv
mosoof
##red
##jat
officer
elections
duba
phansay
baby
cia
prasad
publica
thnx
size
khudkush
کہ
marhala
##gehlot
اول
legal
bori
##ec
##tum
111
##taan
lane
dkha
despite
lankan
##car
chua
3000
sukla
##bish
verso
kamra
##mat
pov
chomu
##ٹ
dunia
taley
philippe
blm
jitny
kuty
tabdee
cmnt
ashfaq
##xa
devgn
shirk
##zh
faaltu
ever
hukmraanon
git
ap
kuk
kkr
pill
##dost
hoten
dewaron
kamane
sri
hotaa
jabeen
haris
rober
months
condom
impa
farosh
cele
##ری
##hasan
##nice
gulab
raeesbhaicheabkibaar
108
kamaai
werna
##tin
ningum
quanto
fah
complex
saadi
eventually
##utosh
##dar
##ides
marina
humra
sobon
pakki
badlo
sunah
call
##lag
dikhi
wall
istanbul
imperial
gora
awami
riayat
diferentes
mamnoo
bruh
vipaksh
idraak
##وب
##bhaya
##asaheb
valencia
nation
titan
yunhi
stevin
##ins
leading
drive
zalz
##ful
107
mehndi
clark
naray
lado
taun
veena
##jx
##oon
neces
killed
finland
mind
shana
sultan
##gia
##wi
walaikum
##ans
##chaya
pakr
trabajo
##and
bivi
190
quali
mise
akash
sala
##yan
panjang
dekhain
##nne
tambin
cel
##spira
##trz
##انی
##ود
selatan
gary
fram
##det
brow
tayt
postpon
animal
##isen
##marks
ditu
jahilon
kalian
sacchi
##friendship
campaign
tired
refund
بخش
sya
##nye
acr
dilkomainedikasamtomorrow
salgirah
migr
existe
kanton
##pt
past
uns
##aza
concert
qadyani
sites
termine
prin
gundo
raja
johnny
samjhao
payegi
##asa
room
jimmedar
bewafai
generation
wood
bhoomi
beshumar
irish
ice
ahista
oont
staff
##iya
sp
swit
##aking
jaein
darbaar
thoo
saymn
grant
cola
##stan
rest
introduction
rene
puraka
taqaza
bayanaat
vaastaa
##az
bagi
baru
forte
bus
##tapaj
bishop
finalmente
dalle
racing
heavy
akshays
haisab
upper
anterior
ak
command
##azeo
kr
chez
tandrusti
pak
##mallik
engrazeo
trat
mng
wik
krey
usually
khaami
##yon
shumar
donu
cock
##rade
isla
tabassum
nelson
ned
anton
electric
##vos
reallyswara
yeni
digunakan
##zar
paper
##king
##nsn
##lon
##cki
khusihyan
taied
##proud
jrur
criticize
humpct
drowna
مین
##ayeh
muhas
direct
##azam
alvida
chub
gay
johan
hitler
##zes
congress
kisike
bull
bholi
thus
##uma
kalsoom
firdo
##erein
tasn
higher
ayya
featured
pidi
followed
native
junio
moscow
hann
utara
studios
related
cox
##vin
mrfi
immer
##bre
kanal
khulle
aaiine
tidur
sidnaazians
contribu
kaptan
##bes
completed
##ping
ezat
##gio
lant
nend
kent
##iland
hamilton
express
unlogo
firma
##hats
energia
samvidhan
manmohan
ched
permi
directory
##shak
ul
tambaku
unos
##oma
##endo
unesco
umeeden
abu
##ह
abc
khilaya
##taa
graf
akhrat
##kent
evic
chakka
mansoobon
beliau
ravay
colorado
ashamed
clubs
##osidharthshukla
##var
znd
کھ
kareen
##rit
highway
desember
reste
stal
bod
##apoor
muhajir
dimak
huve
goal
##uti
harsh
##ires
zou
nou
##vet
image
give
friends
vietnam
dream
umid
210
##خ
chalaki
gharo
malai
khargosh
bheje
halaf
##ujan
##gel
qadr
deewany
sonakshi
initi
##lat
contract
kasy
permet
106
sambitswaraj
bhavish
mubali
fahmi
iaf
lud
##amai
kaudi
persona
bapak
hos
guy
##fen
writing
mawra
360
##hr
fiction
waqiya
pocho
maison
khopdi
##tico
##sin
importantes
namor
otro
rakhni
gunung
asli
maartay
##iga
assembly
speed
gallery
##ades
caring
author
##eli
disrespect
niveau
##ونز
##usi
kaarkun
akhrajaat
##sus
ellos
gene
##وی
naval
jhoothe
cok
##enia
112
ankhe
better
shehzada
ditta
winningsid
برا
chau
##ette
##ats
بوگ
##amera
tac
khole
instead
tej
soon
109
partic
billy
##ait
hugo
sungai
128
inicio
##uar
muasar
true
##hour
afford
abla
pare
ship
iron
commercial
rus
kamanay
voice
manush
##iz
profesor
shol
baho
##aahi
kadar
progr
fahad
jaanwar
largo
asimsquad
ahle
daripada
combat
finished
samajhne
ain
reported
janaab
estn
##ست
ami
oil
##miento
ishqbaaaz
valter
dave
indiana
##ینڈی
academia
##vresign
bundon
choutha
benef
culprits
politik
corpo
dozakh
degree
لاينر
yab
جول
aurto
experience
bezz
huti
##kahi
##ama
##arachi
daulat
rehy
molt
waap
rol
satar
saw
##lly
qabaili
stop
کر
##asirf
##ونک
certain
hills
indvs
chamakti
junooni
malomati
##ture
nobel
abhishek
ian
kapron
stat
celebrities
ata
haime
gian
haikuch
deac
executive
amt
bau
##aph
chaya
lodu
##khy
khushy
135
alice
awarded
sabot
porque
talah
##nown
terima
mier
least
know
atas
folk
muito
replied
chutiyon
##youasim
succes
##mon
desper
either
surakshit
riots
tika
sayed
britain
terre
##well
associated
##gaj
##xl
remained
mode
inter
kaay
##usnya
alka
strong
pl
bhaio
##ries
##hamare
daar
scor
mulakat
jageer
able
khet
##krit
ala
##esi
schoolon
qaazi
rainin
kimi
##janta
##mit
cases
jazeera
culprit
unemployment
##ev
bya
dande
ووڈ
tau
discovery
kahty
parah
interno
paraya
ghoron
barket
##udar
sirplease
##adas
almost
ocean
nikkah
orde
gore
mont
bili
jordan
talabb
misri
pc
diciembre
##sed
pahla
ruko
##ania
##xe
guzaray
##bau
##cas
##tions
hab
winning
ehkaam
muerte
##mony
seedhe
libre
fred
sc
qitaar
jarehana
editors
piye
##فیل
youth
spain
kaant
apman
felix
bhaw
bhaid
mejor
scientific
bolwala
monument
gom
pree
stories
sebastian
##bert
beginning
##mal
nine
hamaqat
amwaat
rahunga
sharabi
statistics
##ues
estava
shareer
esas
profile
imrealasim
nick
bit
##iche
##motiv
utre
goi
documents
##eu
sr
##wie
hold
tmhra
##cob
patha
tracks
##prt
##enger
blokir
avhay
coronavirus
vidhayak
running
baron
fayrng
lakhs
access
packing
mbak
khatima
deikhna
chokidar
sina
jorge
قد
say
ڈایناس
##mt
oma
threatened
himanshikhurana
flora
hari
##withsameetthakkar
ea
##tiyan
##bra
pont
casi
##نی
medicine
##oood
acab
liberal
traditional
etapa
##rad
adolf
samajhna
##غ
munharif
entonces
##ab
escola
added
##wait
##amento
neecha
alaat
piyush
irritate
literature
peace
chlega
republik
ghaseet
flipper
loksabha
kind
##oli
ڈایناسور
aart
yhn
##aani
##zardari
##hap
##atbar
##usa
##asay
##ish
##khla
maah
kisika
mois
bois
livre
117
aje
governor
provid
##iden
jour
tennis
distribution
yu
haqe
involved
buyuk
tasurat
rather
chipak
thanx
daitay
influence
congo
bhagnay
chupane
archive
mang
greeb
turn
sino
samjhdar
##piff
##uz
soul
romano
artists
bahaq
mooatbar
alamnaak
یہ
zrur
find
gilgit
jamiat
namoonay
##fall
chaukidar
نا
jimmy
hoey
krsk
##eo
cancer
bepan
raheel
sidhartshukla
itnaa
##atu
want
atlantic
saree
misra
caralho
delcia
pany
fehm
daarhi
youthi
varun
cha
cheema
##fortrp
krwao
tiranga
sarcastic
##idade
bruno
muqaam
engine
inqalabi
mubaligha
avhayyo
##dio
wel
bint
sit
mbah
##anth
agent
noha
element
hui
tabdeli
grupos
urdan
minhas
meta
quiz
campus
roll
##vad
##khana
rukni
tower
childh
compte
bsss
tamancha
aalo
پیٹ
گول
anime
##jeet
##sy
##amul
kapan
naka
proti
chhaa
wadi
charlie
bland
moamma
##gs
asbaab
arhan
##iske
sall
zarort
wang
bach
yaadein
##دی
tujhay
bajrangi
##tiva
guzeer
boycot
baker
##polic
chairr
kardoon
sridevi
cine
wkw
##sio
neroo
tila
##xc
dana
##alvi
interview
toss
##ishy
##raam
seis
practice
chaque
shre
jaishriram
propo
##matlab
verde
naamkarann
##kkr
ito
kerni
majaal
basketball
success
fame
sonam
writer
bulbul
tempat
logo
mangnay
##وس
tin
bunyadon
##stand
wing
farmaaish
benjamin
kahega
280
sanskriti
cheej
##ule
karien
najane
figure
balatkari
sasural
eli
seat
napoleon
outside
##yearsof
aamiin
cuba
parish
atyachar
jon
donald
tabdeelion
##vresignor
##اس
میٹ
کین
gibi
##adin
raaste
becoz
turk
recent
usah
##aqon
andolan
##atel
jib
kahawat
weloves
ms
zamin
delici
nes
buddhe
saib
tree
housefull
اسٹیو
mazakraat
zakir
baichnay
tod
##int
justiceforsushantsinghrajput
jhagda
fy
hohe
##hed
ross
vdeo
مون
chadh
brazil
krli
mujahi
hamesh
amish
addi
##und
nailed
hogaa
chouti
bhagna
##zel
inteqal
artista
programme
achei
260
brigade
naukar
##cbissr
##fg
previous
dame
presso
hele
vladimir
evidence
ryan
provided
prior
allo
##hame
naeem
##heera
##akha
casti
nehin
khaana
sector
uncha
passe
replaced
trhan
score
ajib
farji
weap
bharam
aamin
capita
vest
wrestling
wis
makin
daity
chhur
feet
##worth
santos
sahul
zimad
dakhil
tahreer
##کنز
jacob
sosan
oncologi
iar
karishma
financial
loktantra
recording
aabaad
ntar
123
pec
##xb
paros
harris
gobi
bhukla
orbit
architecture
protein
issay
##waqt
poray
##atherine
##mine
uj
wafadaari
aatanki
electronic
ویکیپیڈیا
situation
shehwani
taqaton
mobile
cree
maravilh
toute
pueblo
nous
ngomong
jil
113
tradition
zror
116
تع
##lah
جیک
##yers
stock
##تی
##fandom
rom
karz
##lel
secretary
lagayi
ministro
##wazi
##wo
khushiyaan
tok
sanki
eva
##dra
seme
pagl
cell
dubey
sometimes
below
hahahahahah
114
gray
politics
detta
gilani
hungry
priyankagandhi
qaafley
##aintezaar
tasneef
zir
##spe
##ٹک
medam
episodes
##cer
##gos
kaabil
estar
isha
parna
khaate
##tig
khabara
##تر
sod
nobat
sarah
dekhein
##zet
realise
pole
delta
arbo
roko
letter
goonj
##uan
chaliye
especial
freez
salvador
sochon
baseball
insane
mulana
broks
zarea
chatuk
wifi
##ines
intahaa
guarantee
fsdf
shenshah
ration
##mubarak
price
##high
estilo
ost
##kih
enn
pi
##atir
##yen
kacha
oh
##isco
shafi
apple
chli
arizona
cam
going
cancion
daa
sister
robin
matt
dok
mazy
##ashti
mig
bilaw
hmra
patang
harvard
mahf
behnain
parliament
femme
##ary
##ap
bhadwa
abaca
voce
riwayat
##dom
##student
tienen
sajjad
scripted
aein
cities
hny
keith
saye
بیل
classic
##ब
search
##daal
moak
kisiki
length
dilkokaraaraaya
ty
##kus
editorial
tetapi
namun
batam
##nio
whose
lax
kampung
previously
salgad
samajhdar
dues
flight
##vote
additional
nisha
pass
starplus
tagar
apollo
##ursday
cambio
alem
relations
interest
varan
nirbhaya
##ande
tanqeedi
oldu
scotland
##har
##uresna
##films
##final
adams
axha
jahazoo
mulaika
suraagh
lagu
distancing
##rik
ghin
##ony
##nut
nhai
##iley
usted
##see
dilatey
##anshi
newsp
academic
##श
jason
##qita
##ized
esse
patla
nuclear
chaley
presence
##zat
keemat
mtv
rapport
tutto
menor
اسٹار
aki
haus
famlia
ghaznavi
sidseterifatikya
bno
vats
##shi
cape
provide
graham
naah
istarah
rahien
urg
vera
mass
kashmak
##vic
temperatura
##essa
kahti
asian
rukna
smjhte
uthte
yousaf
victory
skal
piddi
میلوڈ
issues
talafuz
sw
ravayye
ludo
teng
##urant
parents
tog
##mm
chadha
maw
##pp
filhaal
kambakht
kabza
##like
plays
phirse
bharose
opening
grp
agli
realme
##pel
nye
##dade
hanstaa
uchhal
##zt
nashta
muhammad
andy
namaskar
kaarkunon
لم
fanaa
rapp
outras
solar
##mk
##wey
baaat
dod
introduced
infr
pictures
jeu
kw
unwani
##bin
digo
assistant
zero
stro
##anew
matal
talat
sara
girne
scale
aqli
pappa
##aux
histor
nuest
121
janamdin
cigrette
feat
kurkuresna
bhaiyya
estate
pbuh
manqola
gest
##از
اڈ
فرین
move
##islam
khabees
nombreux
livin
rad
umri
##edad
##gardi
##forms
sanwar
novi
blag
quest
tales
placed
sktay
##lles
chupaye
fatto
ganhei
tasweerai
capt
entertaining
owned
fight
##vrt
abacaxi
##ort
bicha
rbi
link
sme
lieutenant
##roo
##fj
##feh
ken
##atv
wolf
##its
nazaad
koee
##hn
produce
apro
##tep
inget
behal
beje
122
##port
lagaa
dogi
aggr
frederick
pegar
gawa
means
lines
sharafat
onun
protection
clan
impress
taso
taking
upp
##lem
yaaron
vibes
detey
afin
aasmani
plata
aasakta
bhagtay
fansi
morgan
narr
maano
conditions
##rahul
bulletin
qaidyoun
nisbatan
##pu
pie
bgt
phase
lq
kiaa
sekh
heritage
proces
##تا
##isliye
##oswitch
##ial
towards
chato
aapi
samaz
hareem
##jar
shyad
comun
biasanya
##يم
aaeni
haqdaar
##tro
##orao
religious
bisa
tehzeeb
##amente
bird
bhopal
##ysm
rata
3d
##انک
baithna
##lie
taskheer
ll
aasta
pt
##kem
##pus
##row
aankhen
لیوک
astag
taman
staystrongsidharth
irtiqa
stark
figura
portal
administrative
famous
blowing
wickten
155
joao
bebida
entao
##azione
##سی
kmy
nira
hoaur
##isa
##ikes
##tivo
118
drug
epi
muhtar
haak
delhi
almaari
127
effect
##kita
shaant
barq
realize
##بر
kaml
##gne
polls
successful
esay
gare
majaz
lea
morris
piece
##sos
hms
##priyan
orange
750
##more
##یلر
##ain
stated
doosro
osa
##hy
##kyun
everytime
buildings
##tainment
bika
borng
rise
besok
friend
asslam
font
tas
bachey
hifaz
restric
charlotte
bjaye
escuela
plans
philosop
aukad
intoler
##pubgkholo
##kia
bism
##borg
eak
jasi
pulau
sev
reached
seene
##ilii
##tize
muaziz
abis
kamini
samaa
prof
perez
mana
taunt
daaway
badami
siz
tinha
naira
pablo
chuda
adaa
bnate
goodnight
property
jewish
##joko
problema
listed
##isten
jams
bhagta
thought
tempf
inside
jazbat
certains
بھی
hansti
villages
bacchon
celebs
cahiye
corte
siguiente
afsaraan
nidhi
always
##رلینڈ
taqwiyat
vashngtn
kashmakash
kurkuresnacks
lp
##xo
brought
gosh
##cal
brand
jst
table
kiyo
##sal
paz
##onfire
isma
hung
##hank
paresan
126
mari
124
bhid
##film
meses
ellen
anim
##kte
asadowaisi
##istes
kaboo
roke
myn
eles
##uit
buka
##rata
kayar
##trend
aadhar
clari
aazm
##office
americana
##cida
istehkaam
pohnch
camera
##vik
mor
pending
##sing
gentle
##lijk
istandbyasim
##house
voz
maps
changed
bayern
dragon
aoor
rhiye
##asaan
rusia
kodi
toujours
jadi
apnab
baalo
continue
morning
##daat
anwanat
manty
soll
raheem
christmas
vision
str
ketika
##angkan
jeff
especially
##azian
jaaoge
##pls
rate
##ctors
mardum
kholne
##vio
scored
notre
hoax
mesa
bichari
##killedonjun
masnoaat
kin
کوریوگ
dms
mgar
##hip
##jak
decided
aa
nue
ون
##iska
##arkar
##لا
##aihi
bawj
unblock
merda
pilot
mile
host
chhar
##jem
##hon
hamle
massa
maslak
distance
chel
shel
kedua
azeez
turno
chat
jalane
##zan
aamaiz
filmen
paich
##bili
deja
dalito
btata
##انگ
decent
basic
rupiya
##یڈی
hawaon
sanamade
##ast
pashtoon
vacancy
berozgaar
bhugat
apologizet
##uslaugh
ooh
travel
##dig
featuring
##dull
regime
##fw
sing
doang
darind
sarr
119
toutes
bachchen
ro
crime
munqita
hojay
##ugust
blackmail
safeer
multi
bhand
falls
najaiz
carryminati
##esa
1200
##zindagi
taimoor
fero
jaza
vsk
airlines
##joshi
##fty
##وین
hoshi
totay
##pes
##ahul
##khul
##ingat
oz
badhane
parque
goals
extra
kur
azma
##yt
paolo
firqay
hmry
drtay
khiyal
##ndtv
quand
offline
durusta
aller
yakki
##lte
##engay
dato
yahood
soc
hanste
slee
required
lasani
klasra
kane
##gue
coma
excitement
##jeel
##chhi
##unuz
wind
articles
##nem
##nna
mostra
##out
feature
doit
variety
jours
ph
##del
pasa
##یل
rawai
saand
sochi
alter
rakshabandhan
mashal
kon
instig
bachne
bnne
itself
suron
laytng
##riyaz
##ep
chattaan
hanya
khasiyat
fact
##ichalo
fayaz
##eeeeee
laura
artikel
hizo
cela
jnta
اي
tareqi
mishbir
dressing
##ney
pabandiyan
kort
durustagi
vakr
zard
winner
##میٹ
demi
holland
##only
impact
shot
silva
##abir
magic
##uski
##iyt
ambos
phil
129
alikum
##zed
democratic
allan
companies
nokar
##nun
tawaif
rafael
##cho
bhart
##qaar
##chten
hijo
polici
lived
ahsen
sandi
nasheen
qissay
freedom
khuw
moun
meeting
kasur
##ccion
fishes
aid
chamk
samjhaye
##ajajajaj
parks
bonito
##vani
nho
geograp
##wany
##dministry
##aintezaarkarna
##passtumho
deu
marshall
##fu
uc
agency
##aroo
##maa
karak
rawabit
siraj
runs
kamtar
lives
valor
youll
sheri
doch
masawi
##cking
##sz
ghark
##warrior
ayd
144
munta
khushian
matches
##ets
wisconsin
comics
##teur
oldugu
generally
##gggg
brabar
mahaul
bong
hainafsos
duo
zakheera
basically
##ib
eee
##يی
virus
msi
sko
##gye
5000
kahon
isna
hits
##chka
sources
location
serta
bhasan
diper
miami
shamat
##સ
175
thika
saku
ambul
assim
shee
azlaa
ministry
giraya
majal
pattay
rassi
##ches
##sar
134
kai
##from
##ltn
wars
fasana
hatao
adhik
significa
##०
gatar
birds
##گی
meteo
##یا
##withamaal
##friendshipday
hwe
yash
zina
donna
##pilih
toheen
tuli
##ahmed
asb
batang
##town
unique
##ving
activities
gohar
steven
gharane
urdus
vel
forum
circuit
ramadan
rajat
khayalon
hahahahahahahahaha
highest
chhaati
cancelcomp
ih
ghalba
istimal
nichale
provincial
mutabik
mahatma
madniyaat
chemistry
##noor
##mq
khona
dutch
bolkar
hamisha
arnold
significant
##llen
kisy
vocal
dawood
##aban
aujourd
sharad
kurt
kahain
changes
pal
things
blanc
##jet
chour
veces
##dout
bagus
qism
chalao
panjab
nawaze
##hanaat
airstrike
sudhr
kholna
deeni
authority
nanhi
kakak
khubsoorat
surely
maatam
dapet
krska
talemaat
playstation
##onia
##tol
termino
assign
sialkot
sayasatdan
cub
مال
##lq
##eve
hours
##وسٹ
seor
lago
##eneet
ingen
##vanje
dean
anush
boh
131
##sher
pemer
deal
faq
pehne
##cat
fish
sheer
zaman
daykhna
jeety
brtn
ikatees
maarte
##voice
pieces
pichwada
senkron
tarjamani
سن
karwaye
bizi
##lsn
##hhhhh
##corona
freind
meese
carter
##urya
##hek
seer
khonay
##teaser
##olah
jaungi
acti
jerry
terl
takk
sola
nat
saka
##erde
harass
loss
attended
upa
chorh
takes
##akarta
ghusal
milli
khasta
zimbab
dangal
##och
fand
armaanmalik
commander
indirectly
dela
taiwan
imdb
sanamadeuslaugh
aabi
affairs
gatiya
mali
pana
ev
##guj
##ehar
haare
nahe
mag
income
beche
agye
pron
##ming
millions
storm
challenge
alliance
pedir
##mele
tarikh
ads
##itas
kina
sarak
##honi
##walap
lucas
##ghty
hasne
nee
majnu
asalam
کیا
tareeke
intzar
heroic
joue
nibhaya
rasty
132
esperando
nota
launde
##cen
zalzala
cost
nger
yall
وین
##etan
##jw
##bal
audio
##clo
retired
deko
##unal
##kos
afzaa
theh
beber
uspar
##atif
lies
advanced
dardi
concept
julia
droit
critica
##vedi
##rada
janji
##hyon
charsi
nazir
sper
bigada
bitayen
congratulation
vrna
sony
##wer
133
numainda
physical
kuin
golf
parties
pretend
##pilot
bandar
defeated
aafat
##sushant
##vya
##api
muhaj
haai
مارس
##hoz
poland
havent
##nge
bersama
sidmaniaeverywhere
java
convo
theyre
uppar
whom
warner
girtay
fir
mulq
tete
fo
##پ
vote
##hadgi
rakhny
dasti
sadaarti
jam
sayaq
cut
##num
engl
bulao
##lne
istiq
kesari
languages
dkka
boob
ung
thien
theme
tjhe
pelos
multiple
utama
152
brasileiro
##اڈ
haaan
lyon
kriye
stadion
niilii
taraki
hmlog
uryaan
closed
##airforce
muchos
resto
gadhi
embar
value
##pet
grade
olympic
zeaf
kien
scient
jana
##acting
conde
soochey
muqadmay
kulsoom
manzoori
words
ghaflat
dps
فیل
sehan
sabb
shy
pasmand
ramon
##miya
butuh
changa
thane
ilti
hingga
##agardi
dhundlaa
paaltoo
##ales
##aaaaaaaaaaaaaaaa
vskonsn
dagh
##ward
hq
ksh
##ulo
wager
##yu
lite
beyond
##nalo
##elo
tolak
isil
thaak
ittif
dau
##saeed
poste
##ase
kinder
stations
##ology
sota
palace
##wafa
##kout
fellow
muun
##sthan
##py
##vala
sexual
##eeds
##karta
##ust
puntos
tijd
margaret
khob
mehmood
jalanay
tanaze
bliyr
charan
##aca
ds
##ligi
btas
##یوڈ
##aimana
trai
mille
terminal
##larda
##masjid
prison
intikhabi
chouthay
napasandeedah
ranking
pham
advertise
hartaal
dona
bhavishya
jra
hu
phi
rist
intentions
tain
##مان
classes
##hez
tbi
##inaa
##tira
##iyoo
inky
preet
siraf
muskr
khoi
ilay
panama
##eda
jerusalem
split
sunil
batti
chenn
roty
khanjar
behosh
fosse
commerce
jagh
pite
datos
sonch
ehsasat
##rahman
awazon
iamwithsidshukla
bullshit
istaqbaal
comes
roarlikes
alternative
shagird
##vresignorcbissr
horse
##beniwal
cosa
essa
cag
lau
otak
dunya
##mrankhan
comedy
##wain
##isn
bhaik
##iyet
cafe
ghora
mohab
allowed
juz
pesar
kamo
fora
badboo
baddua
mg
gopal
turner
##મ
qabeela
jeki
rhyn
edad
sg
credi
fasad
واي
rica
colonel
nunca
degiye
##non
chemical
buttermasti
bgh
##vre
فرا
sita
##eron
ملی
hace
##dhar
sci
hindi
voir
meen
raakh
why
esti
minute
muharrak
yeha
julie
##chaudhary
136
beat
##nga
dilao
look
chopra
factor
greatest
clg
charo
##ndon
ime
shakeel
barry
##ped
content
##bury
kutch
dollar
##kariban
mano
nawazsharif
hongey
##human
comemor
payearidgroups
sikhate
##sat
ancak
lgega
effet
letters
pujan
##targetingsid
dalehede
##bt
initially
##uda
puppet
luna
shaitano
rolling
tarbiat
chhuranay
projet
payearidgroupskariban
dalehedepression
fet
vain
weekly
tij
##for
llu
application
rhn
ڈیان
fantasy
edge
ketemu
seul
uss
##apad
saff
bhaar
##riel
ghreeb
##iri
mahab
##astr
terms
agra
lidz
manish
##rz
##alaat
کار
wraz
rakhon
paheli
##viol
##jer
vohi
attemp
madhu
bee
suco
153
##rek
burha
chicha
dusman
kutiya
pusat
lyf
matchon
munafe
nez
automat
juloos
137
congresafsos
madrassa
khittay
card
firdous
meilleur
mujahideen
bair
mini
older
مص
149
evans
deeds
##bp
##keh
##rian
read
kotha
##ahmad
boon
dale
agend
ekon
marham
especialmente
##demo
atp
igual
139
perha
territory
jayeg
sheesha
steel
tel
block
suchi
galiyon
earlier
helmet
charts
##ef
bulana
haber
iqra
mart
roomi
churra
natija
dhayan
numbers
ctemp
nwaz
qilay
##थ
##shire
192
rules
taid
stil
vendo
##wana
##qd
crisis
##khat
##erno
##home
gift
mua
##utra
##nel
##idente
millones
doaridgroups
ended
soute
aahe
alba
##habar
bhj
##ical
bhagvan
##danon
##akib
productions
##bor
udr
udhav
achey
##را
jasaktay
luz
geographic
susah
##eno
pandito
constitution
create
##kie
nim
290
nonton
##tein
memoria
lapar
##gy
programs
patwario
nazrain
yazeed
##vspak
dhai
roberts
taseer
##onment
finally
dates
##iyas
ankhain
##seg
##gaon
##arious
gaee
mazz
mehroom
tamatar
##nz
philosophy
punk
issliye
mayarat
sadgi
chairman
br
sk
##une
##covid
zahid
sean
sanati
surang
jamali
##wski
liverpool
irmo
question
dina
ranga
yuhi
phili
##labh
trouxe
mangetar
parker
ikathay
franss
avlyor
mierda
roarlikesana
مت
##sati
##fee
##gus
##erjee
##akbar
##udin
majhab
aadh
tehseel
kudi
farmit
tome
##ites
khulti
characters
zehnon
poochne
##ric
relacion
##ghazi
karwnay
##ament
dire
##وکس
booking
problems
hope
navlon
dheelay
border
##کی
uni
karporasion
jay
##sm
bezzati
pdi
hip
vara
##ario
mesma
مس
sanchez
keu
##kians
mahen
ashe
arul
visual
arro
noted
mazedar
ahwaal
numerous
flores
mending
ramayan
fofo
lakar
jen
##isation
avg
sudh
alava
hurts
ward
##province
##haraman
##dus
types
jindabad
ruswai
andheron
teve
comprom
tumhaari
chr
utilise
thinks
mughfirat
lionsgoldawards
overall
fayeda
kue
ٹايٹ
komal
kroo
maheen
##chahe
nope
##alive
maskh
##anie
menggunakan
sharts
bd
saga
jinse
taliyan
girty
ayashi
launched
ayushman
majid
##یم
houston
165
lay
rasookh
##til
tuc
spent
hataya
aqliat
msgs
garmion
##tea
thandak
pakdae
bashinday
hush
wsy
ریو
greater
conocido
##مٹ
##aif
##zone
haijis
kimat
##idos
##uslim
320
deka
krre
bool
agly
already
vm
jabab
##angka
ayk
personnes
cros
##bil
asimriyaz
##wizaat
dalte
hin
sachy
btane
kashmiris
invasion
##sidy
serial
chapter
soni
chamchi
melhor
chutia
smjhta
sushil
quresh
lider
algunas
kardya
dastawizaat
kalie
draft
scenario
hinsa
julm
nazriati
universi
138
##cky
185
mel
disappoint
mountains
garohoon
aega
sung
##inin
jurat
##gand
##erh
##stu
##adlaal
mala
##hanway
rada
prend
saakht
##end
##idents
expedition
##ateam
##rii
##ths
aahat
num
lawan
lahir
prope
143
shekhar
sharf
hmaray
rhey
##doh
yaro
partidos
##aba
tendo
fifth
msm
##ub
kapra
grave
comeu
function
tener
##zik
##wania
estadio
istadlaal
jhak
conte
ankit
##hof
tek
##hes
fia
##maheshbabu
haei
remains
specific
nabwi
##ید
kidney
doobnay
break
##though
saghar
kavita
pengen
goes
appearance
gut
stuart
wwe
hzar
jz
qazi
haitu
khaal
deus
khushbu
mrs
##sach
masawa
lorenzo
dwa
farman
##istas
cooper
jaano
majdoor
##quotes
bulate
toe
origin
quelle
yearsofepicchakdeindia
##over
##jjati
bal
wagera
tuy
##election
masawaat
141
travail
afghanistan
rule
dek
hase
##ghat
initial
##zon
146
##vw
resources
##free
naha
aftab
##oto
alum
logn
finals
maakh
peena
darbar
laraka
jhuti
nazer
forms
##fel
gairat
kara
fans
hena
##march
angrezo
khamiyan
##ualaikum
hijaz
commence
casos
##yla
148
ishtira
bem
aire
np
mbbs
pahunchti
awwww
##head
##ટ
iraadi
bowlers
dici
##lerin
ikk
pilih
tysm
##jaise
tutte
metropolitan
wi
##ole
##sani
biti
hola
afia
aawara
##iros
perc
videos
##vijay
contact
##mir
##esta
tabse
coming
potty
dikhaoge
foda
broadway
##وي
baju
rico
budd
modelo
faiday
joint
##iseof
labor
147
rashk
asaab
iamwiths
rizq
##medical
laashon
taazgee
##zindahai
##kal
hriday
atraaf
apologizetosidharthshukla
rond
##ill
iit
done
sye
yellow
واٹ
##hihi
##oldout
himal
##cker
fund
koie
peg
gaad
##mp
liaquat
husband
sunataa
##pur
##daro
hour
dayan
##bio
exaarmy
alone
chitrol
thod
primeros
clara
htm
mammy
revision
tmse
cbs
negro
murta
arc
fly
neil
jehadi
bachata
technical
turkiye
extended
pappi
##bat
natur
jumaraat
zameeni
##aka
##وٹو
lisa
separate
dhoondh
##cing
choi
baqaid
andazay
##rta
pyaare
saste
ٹرا
temperature
##qp
##ayun
muaf
chaw
tuze
##ions
knowledge
asee
mori
misma
astayn
manaye
biga
majority
rod
chela
##ctv
agriculture
bhole
amo
##otum
sadarat
ilaqai
garmiyon
products
choice
##ento
maksud
ہو
daikho
petite
dusry
guneh
guzre
hahahahahahaha
##tem
marche
partes
oppos
japaani
##dit
kabul
sui
alehadgi
##inde
dich
conform
sepertinya
bushra
savarkar
alabama
animals
sanjivani
taytlz
versi
##kon
dhik
nagin
hidup
positive
##ashe
creative
deera
inhy
chaaray
##ors
##athers
sourat
##ڈ
ters
aajaye
##aaah
continua
serve
vocs
escol
tasbeeh
lgty
gariyon
dainy
lakiron
kanwari
favor
emak
##شی
felic
bjy
142
karname
guatemala
tanzeemon
actress
sou
##ists
trio
farm
##rem
jashn
hunter
##kai
nuzool
pisha
کرا
##wsi
##پن
marriage
##ayna
vivo
##af
emperor
kith
##ooki
woke
guardian
##tone
aliiiii
unne
janb
##death
mehsos
girna
charas
latak
smjhty
happy
##مر
golian
keep
knight
##اف
opposition
bazoo
##erna
muskuratay
feminism
varanasi
aiy
##aga
flu
viz
mam
pmo
##xj
bc
##kor
christ
##nesday
haiaaj
kranti
bhi
intelligence
##bank
yel
ud
idi
disease
ghon
fl
studi
##yer
zabani
arri
bawah
adhar
increased
perf
memory
enough
bakre
tmhain
febru
sweet
##jected
mukhtas
polio
pudim
chodne
springs
server
maharasht
##اسک
##یاز
darjaat
trust
mata
watson
##وسکی
##residen
sehingga
##hahahahah
boycottbollywood
esposa
intre
hahha
alaska
##newsong
sofia
mehnga
effects
darakhton
gabbar
mail
ps
najayaj
meno
augusta
muslaman
piro
sole
##ator
exchange
perang
hd
##تیب
yoktur
platform
##abas
entire
partner
promotion
##nk
apar
##apki
bhains
##ajak
##ardom
barhana
kyamain
kabhe
perh
genera
selection
shobay
domingo
popat
##motion
##rado
khary
mula
jaiga
##nat
##artmente
raseed
charbi
murder
mien
berm
##adeira
transfer
##ushanth
ghanti
serbia
spirit
etne
qaom
falah
maraah
sukhi
rich
cold
dong
masters
dublin
bajae
communication
dlm
olympics
entered
eyes
##exam
##can
bti
##lands
bayi
hira
chong
بون
##uer
##log
mora
##poll
##ehra
relationship
##rkan
quality
muhh
shaheersheikh
##ities
##idt
##raval
shoo
musheer
sunega
journalist
##story
sbr
eduardo
##iko
convention
nya
##pun
selama
hashim
bhttt
ahh
liyee
saveidbi
dramy
151
shreef
rai
deve
shubhat
moujza
begherat
propoganda
qran
something
lua
##ged
tair
##unn
beta
##iyabi
meet
krwana
shaf
docin
andal
subject
##vit
sakain
taron
thore
##matma
behla
pury
awaien
namard
##cido
leave
urself
##uruh
paytm
fiqa
faisly
pedawari
gadbad
indraaj
jumlah
guluk
uses
passa
kaaran
bunyad
##lage
##els
eye
zakhm
joote
##uh
kosish
sekitar
mehbooba
##akhand
##commend
introdu
farishtay
makes
##gal
nepali
lnd
wse
##zeer
haiki
sesu
##isat
baaji
##next
chaak
chaudhary
##ller
login
yet
hamrah
environment
bite
sift
isa
sidhart
frink
hell
faani
uthay
chich
baitho
husan
acordo
biology
insaa
##tua
naqadon
sangh
uthnay
bl
seasons
##cem
sinha
males
eden
job
##rato
maulvi
##sunami
theriseof
mzak
bond
##all
##lagta
gustaakhi
##artmentexam
badan
sint
crew
starting
clot
sania
yung
yoni
##bhutto
whole
##oz
##ayee
##ajd
perdi
rede
futebol
laago
flying
ajit
treatment
basheer
faw
gyani
angola
##wald
smajh
tento
islamia
qatra
distancia
##gung
berapa
sales
##eny
##zin
rajeev
becoming
msl
ranveer
##vou
159
zimn
fridge
peshkash
singapore
expansion
سنیم
##playing
napoli
nnja
phainknay
shubhkamnaye
choudhri
mill
haqeqat
##bos
lluvia
rain
aandhi
boni
##mie
maine
kudh
##meet
comic
##btw
##estic
paro
bhir
sahir
races
##iendo
##khte
khaj
shaay
pram
barn
pehel
paagal
kehtey
enti
behti
chode
##ekarachi
##ics
problemas
larko
guest
asimfandom
tinggi
touching
##ppp
fill
duroood
dekhnaa
##gon
##bhav
cal
morepower
wraps
truc
##pis
bli
blanco
##eria
jobless
nanya
afrata
chakra
bakhsha
dick
ri
##vnz
کارن
loc
figures
bimarion
##enie
condet
noida
altitude
bhokne
تھا
qutub
bobby
critics
jyoti
##ees
##ude
cla
swab
##ann
coa
caused
156
hecho
carta
browser
بور
##ndan
anggota
weeks
passage
نول
##onya
##unko
ron
ingat
focus
chakraborty
##yr
ussy
marta
altura
dekhtay
paadri
khattak
mostly
permanent
khatraat
serra
chord
اب
aydm
##mont
ladd
##pration
particularly
##pradesh
naseem
gap
lamhon
reviews
##aar
bataa
kata
##pia
##dat
hojane
suray
##ual
##jokowi
batu
hrdministry
latino
hakikat
tayyarah
kommer
cos
novela
dakhli
expecting
niz
##sas
hart
outro
pradhanmantri
##اری
##ned
amaalmallik
abpnews
nakhushgawaar
##motivation
tahreeron
pity
slay
##look
fuera
hove
sunday
paragr
##uga
bhauk
beaker
##als
##ardad
atlanta
asmaan
##osi
##ukhi
concent
broadcast
fem
mehwish
##wazan
vig
##chodo
sort
beete
mahagov
images
kenya
rojgaar
zoya
hmmmm
ceux
##ador
psych
gustakhi
bande
##arrestrhea
morepowerto
dhin
nl
banks
fale
ous
veya
kije
kaab
##aprotest
##seen
thein
hont
recharge
hardi
studied
jalan
response
walk
sejak
arms
hargiz
##tio
nifaz
toc
raky
namzadgi
badalti
maximum
##pin
naqali
shabir
##rashamidesai
##wane
##padh
##games
hahahahha
##dag
sociedad
154
meaning
ghaleez
krsti
##iku
##kahaantum
mosiqaar
##ukammal
##ike
doglapan
168
##profile
deactivate
afratafri
resistance
پیر
##lind
##anand
dus
##also
kishi
ecuador
nache
kings
##unka
##apke
aapk
lagwayi
labour
##kaal
mainu
biw
paling
muslim
karengy
dor
tung
fighting
padenge
itt
riasat
##has
##وز
zones
##forsh
nasl
jhum
##یوپ
##pas
husain
##wser
##یمر
naqab
possi
vaar
khazanay
entrada
chaahe
##vali
cand
method
termasuk
chaahiye
individuals
laagat
##۱
alhmd
enquanto
presented
abraham
##umi
learning
kaanton
apnabharat
cil
sund
forced
##vni
hma
kdr
nand
vyav
wth
larry
yese
کیل
longer
##emat
sik
keera
##ismat
krdy
hamry
yojna
batayenge
processo
bahur
conhe
nego
melalui
##shivraj
halwa
sann
bajaj
qadmi
palak
polish
physics
dhokay
bhoolna
salon
bacch
tours
vaale
sma
انج
hilarious
dock
jalao
tashweesh
prabowosandi
##idodo
##list
holy
pohanchana
dun
motivate
##iterate
fikri
##bhakto
dice
motion
itaat
hora
lama
##asimanshimet
مول
##cx
##cche
##ikaat
might
##dih
llego
##omaharashtra
##kaab
dohra
recommend
daon
pakistaniyon
##ering
chance
madoo
chuva
##cina
faha
urs
trans
halchal
wanted
rob
##rina
aagye
lalat
jamana
dheron
##یکو
##ronic
mangay
aarak
oops
babypen
daraonay
supported
product
neher
hahhaha
critical
chaatne
championsidshukla
balighon
badtameez
##rapati
trial
naseeruddin
mathew
models
soccer
سلیشر
houses
acordei
esaion
roland
fair
filho
core
pemerin
gano
kill
theriseofsidharth
##ekarachianew
##ones
##qb
nigeria
passed
interes
##moon
belle
seeng
ism
##rk
camara
supreme
##ikay
cook
terry
bahe
parso
raaij
chatu
##oso
leaving
sahal
hami
arent
##ost
versions
yil
equipos
rohing
goon
##ashmi
defensa
##ashwi
canto
referred
dikhna
purany
larr
##olo
namukammal
keer
riha
jahanbhaq
tmlog
mengal
maaon
##yadav
##bare
workers
discrimin
instrumental
intekhab
tiga
grey
##ores
iqraar
pet
diri
bp
nawazi
##vam
##ooooooo
foot
hussaini
dhanchay
ina
##vana
zehr
inggris
ankhein
##namh
pouvoir
andheri
khalq
bare
lannat
mustafi
hichkicha
muss
fhir
157
laty
baten
nud
pkr
##ikan
vais
yug
##must
##creat
##phr
haiyeh
naks
lect
aconte
fik
noj
serving
housing
signal
milen
biri
pehar
aajiz
trag
davon
sarj
raz
dallas
controle
shakespeare
mader
banae
baksh
alpha
##quat
##یکر
economy
facts
intesha
punt
estamos
thailand
dabang
reliance
shown
sahafion
kahaanhum
ot
curfew
qafas
##10
atey
jwb
##when
talk
elite
haiapna
tribunal
##tiyon
tumpe
railways
jok
shaheer
##mel
tumharey
rahege
ghayab
nouvelles
resmi
picha
siang
aga
envir
cualquier
hadsati
corona
sens
##یس
ejemplo
bnti
matloob
jhuta
representa
##ousid
aqeday
jamati
kintu
ayaz
sheron
angrezon
romil
dhandli
khandano
ohhhh
rail
korean
comigo
republicforsushant
201
ouncha
phulka
bush
sanbhala
##jokow
tall
heroicasim
##gx
lor
raft
jahat
##ingin
167
materials
##udgi
cricket
pakro
jabasimanshimet
aache
existence
##inger
##gun
visa
coward
##yd
judge
##eshameon
increase
translated
urfan
samjo
rif
rumah
##ded
wei
##tare
safety
ngu
jhoom
ptaa
##bser
larger
doosray
julian
mixed
ulajh
##kyuki
capac
khoobiyon
careful
vidhan
dilae
rakshak
resultado
themselves
troops
ravani
##eld
poor
manipul
166
duper
##tok
abd
kiss
weakness
pishr
##of
lanka
##hussain
##aro
reports
ezt
masrofiyat
gani
gatay
goray
lw
nini
couple
noe
##aii
comercial
##akhtar
##eehat
##oshan
yaitu
##itharaman
unpar
juego
behes
##kaun
gaoun
harkaat
##dex
provides
adhy
pertan
nancy
##lum
jer
161
watch
laad
raised
##allat
##gin
awleen
hindu
quotes
bheem
comprou
makhan
##zada
sergio
cuc
##eten
appears
katna
gaddaron
saraha
##vil
jogo
srbachchan
##hisab
mafooq
tommy
chatukar
اثر
khtati
shivaji
maholiyati
giro
dulha
vis
bhens
politician
jimme
##express
uruguay
##uhanshivraj
shadab
225
##alized
##inu
pragya
appoint
inteshaar
gasht
hoe
aparece
taya
میڈ
ڈور
description
##qx
##mj
##eeha
##eesi
stan
baasi
205
parist
chahanay
classical
abvp
humme
divy
##safi
leopold
ordin
takhta
shola
##taja
confe
##nic
rahye
##hamara
planeta
158
##lll
seda
##ekum
##wr
composed
armada
masih
##hat
rhegi
rick
kirain
mend
dessa
sahiban
danon
hatane
peete
deewani
nave
glass
##zado
legend
lahor
limite
siton
##kk
pille
##gut
sampai
salt
muntazmeen
chipka
tamacha
mk
aud
kd
aktiv
vatan
mely
formal
##eraj
rencontre
kahay
dorf
nahy
holo
intr
puesto
khaani
bedaar
##oda
##kiat
ghumta
paksh
singh
noir
##thu
travers
shararat
chuute
bhtr
piinaa
##prise
halqon
cars
dyna
keechar
mutawazan
sulag
sangat
##aje
##ved
medicina
pois
seguinte
pheli
majburi
relate
moodi
beautiful
jonathn
##ization
##boycott
##ode
abad
kaagaz
vnsnt
fields
##violence
baqaidagi
felipe
andaleeb
163
aaise
fez
##bs
##ologie
demu
qam
لوس
##abadi
##uja
##ction
ships
ishi
forward
yaari
anur
jaaa
kridt
mujko
agg
acid
##tien
pequena
darne
astr
##afil
##afri
gayaa
janazay
mashoor
kate
bolivia
matha
##baaki
##matar
failed
bhla
bhule
dekhana
##erec
tercer
hmse
wasnt
kerain
ourpri
insaano
typo
yahoodi
canon
lafafa
nothing
rakhega
egypt
##baby
pai
bdalty
##اج
mujeres
##teen
artisingh
##jana
therefore
fit
cadre
profesional
rayazi
hahahhaha
moral
sept
berojgaar
jhalkiyan
therap
dhondhna
phupho
##ote
hawiley
muharikaat
tonguetw
##وان
ley
boli
blokirjokow
principio
blokirjokowidodo
fvrt
kf
vlog
##err
##xi
danny
##ases
seti
nearly
semp
##yaft
##tii
saadat
bhasa
##terror
chol
barron
retour
illa
manual
feb
kamaan
##ueen
angoor
wats
##unu
picture
##یوٹ
mercedes
##hazrat
##eb
tanah
##gd
shivin
dilaati
##eres
2019
heat
gmt
khurshid
scanner
emma
utaarnay
##rate
jabal
yogdan
aggression
##walapappu
hsi
zaa
##kes
##cek
برن
clear
##luk
کیو
گلی
minas
residents
naag
##esai
jawaan
unite
##inging
pena
beiz
begar
huee
lagg
gherat
##sahi
ghumz
voyage
gawaar
bathain
newspaper
##shil
##ustad
akhand
alain
kerwa
bachelor
tmy
info
garm
duaen
parhne
##urrah
aatey
muqablon
bhejne
rakhenge
juban
tentees
incluso
rastra
justiceforsushantsingrajput
luke
devoleena
fawaid
danay
nari
haichalo
kawa
kaafir
attention
hore
chen
reed
breve
##oc
aleem
lagany
mujre
##ukung
marrah
paana
##gg
proceso
challan
immi
behta
bheji
##cta
bnna
ponte
بین
bndo
phod
stopusing
##desid
##gli
nazriye
bile
surpresa
tadipar
almighty
jogos
##friday
##uru
flipkar
muharram
ukhda
wiktoria
moving
maravilhoso
buch
ourpridesid
beedar
wd
yud
##wass
muka
##azer
incom
res
mapa
bhalo
divid
walay
##but
says
lagakar
mahas
stardom
rap
##upun
paun
##ships
achai
firr
burhena
##back
twenty
superi
jaipur
chars
dusray
dislike
jayengi
sareaam
cukup
jasay
##eto
##girls
fleet
brief
gujarati
tazaad
alhumdulillah
shakhsi
##newsongtomorrow
kung
dpiff
kembali
##mek
niyam
pink
##nain
##cers
haif
karwan
muheet
districts
##kaad
ferrari
agh
jabariya
176
janda
biya
##zaan
164
##isti
tameer
durlabh
hero
##lit
bombari
##lipop
dastaweez
##million
##نٹو
silla
sainik
##worldwide
ars
hpah
##late
technique
kkkkkkkkkk
##ij
danday
evento
eri
garde
##yk
permier
thap
iraq
##ekarachianewprovince
applied
believed
ghumzdaa
wuq
roles
پین
ڈری
##jais
##hj
##tera
##laji
birth
##vf
##لینڈ
homz
sehna
afwah
162
hamasha
dilbechar
##ubali
##rob
bater
beijing
mainly
jaanun
##dis
instrument
worried
bandook
raju
badalte
betho
crown
polos
##first
hukoomaton
chodh
turned
aitdaal
horahe
muzahi
karwate
soldiers
muzamat
couldnt
lid
unglio
peso
dobe
onu
tulu
##akoi
lenga
hichkichahat
told
juj
amore
diger
mshi
newton
##ont
tyo
روڈ
lagi
فال
ٹرو
ہنس
##swithamaal
hp
##cj
agit
fusion
##مول
##onee
##asam
##agree
incharge
lekan
nazi
##ajid
##ings
secondary
195
boho
claimed
mote
dogli
asap
policia
##alij
bharne
latter
##chill
tur
levels
malkiat
chang
mamata
colonial
aun
udaasi
##ston
179
dhagon
narak
galib
lolz
lance
aaropi
kamzori
jeson
ukhar
dhruv
zakhamo
##fitrat
##con
beaucoup
ambiente
afsurdagi
##juk
bhgwan
##fehmi
haakim
apa
buttermastichallenge
damaad
##rel
سام
##alt
tank
##qg
##qid
##hairi
asya
gate
##naah
arm
bhaav
conflict
saj
ghtiya
##می
floor
waloon
##kohli
barni
bato
gloria
darane
##uro
offered
asghar
sunane
umas
activity
##etta
independence
sarg
poten
##jida
##yang
drin
ronde
piog
aagahi
comput
helped
##ance
##oro
bachaaye
##oy
hugh
pancha
udher
netaon
issey
pande
billiyon
baza
aatankwad
kartoot
ulatnay
pahuncha
tolerate
musawir
jaja
pz
##qati
kes
##pink
rev
##erc
ketu
regina
approach
pessoas
rachi
##tad
andres
nepal
##zzo
chaudhry
raison
thalag
##dians
letey
##khli
bhaijan
tuta
habe
phoenix
##entena
shura
ekk
##cada
##kap
##dne
aaaa
##roach
umra
##ufeeq
zindage
bnata
lgai
matlabi
jaae
dhakkan
##kyunki
252
206
lgao
rapists
##من
##ated
rkhta
177
hawalon
matawazi
rizaq
eewsi
republican
##grafia
facebook
ksm
exemplo
##kapoor
169
favoritos
nibbi
astodyoz
sweden
tanazeaat
##profilepic
##rier
pishrft
pioggia
hram
pvt
qaza
alfitrat
diba
walikum
doonga
##upar
achii
khudara
##ryon
sharjeel
##icu
weld
scq
##fff
warn
mafad
casual
sebelum
trata
nabina
adhikari
surprised
fadnavis
ait
zamaane
##ftheday
لیسلی
latay
miks
hoy
ڈرا
##hold
##balo
##band
##ndi
##rra
account
##jn
##apr
krwane
barom
kamraan
utah
kissa
sayang
tell
bhs
indica
gara
bowl
waqtan
purse
##oting
##yarakat
subko
zaeef
raseedah
jhute
aasmaan
haty
cuales
bechna
talaab
##js
kar
jhoote
tahre
nada
projects
##atan
pinj
alhamdulilah
##bhaijaan
leftist
properties
importance
jangoo
pequeno
environmental
triple
##نے
rocking
adhura
vezes
boris
surgicalstrike
##ular
manner
kirolayna
alleg
guard
##hitsm
venus
gathbandhan
##idas
iamwithsana
aqi
guru
pesy
carried
##bta
##bazi
hen
kachi
##یان
lucky
engineer
kartar
##ingy
chont
zabar
213
protes
fareeq
bhram
argent
##ligt
athe
billa
asiayi
samje
campos
quel
futuro
indiaagainst
senator
nikalay
pasukan
risk
cler
##vie
shuker
jugad
tknalo
larkion
podem
onda
lollipop
rkhne
##nii
gerek
clima
techniques
jornay
khareedna
dangai
explan
mulazmeen
nina
pond
shaheenbagh
peetne
propia
javab
burhenapa
tknaloji
aangan
##eth
siempre
eolo
##hem
htt
پیرا
##tistan
##hii
##tv
haiso
marvel
##iyad
##nka
whether
tamil
inhpa
analy
ushe
natal
covered
182
usaat
itra
kambal
##bie
arun
siasi
##ishq
khanda
sahid
##mato
naamwar
purvaj
##lies
warq
links
organ
rare
foq
larkian
betiyon
spiel
##یٹا
teresa
senin
founder
tanzania
quatro
##win
##rir
parascha
mansik
disc
sulooki
shehnaazgil
tots
##00
208
##rios
resume
driver
evnow
asimriazforthewin
totmm
teen
save
bandargaah
jun
princess
tehqeeqi
wsw
mohalla
##kaan
snapchat
amraaz
asshk
##pie
kamlesh
stopusingsid
debe
##unda
tme
inferior
##bon
pote
trains
bear
##zol
##ord
##ہیں
##yafsos
##tif
##ulah
acar
mainay
cay
hawaii
khudh
kyunke
##ख
brook
salwar
##ડ
burqa
candidate
compose
athletic
scat
mandou
jayn
##aya
bestfriend
batman
##uto
papaji
bhoolay
##oti
bangali
isso
talent
kasheed
mithaas
shayarana
churaya
##sco
bilang
ministerio
zubanain
assalamualaikum
hacer
practic
medan
##thank
olla
سلیشیر
cameron
##homicide
promoted
vktr
semua
barabari
romance
215
winners
bhajpa
gorgeous
potter
کیس
گو
ideas
##yl
depos
181
inhain
##lege
chaiya
##daf
krva
thei
helen
stra
berada
##lom
nigh
proyecto
badho
torna
sis
aaaj
aaey
##att
heaven
tabqaat
tunnel
##cis
hmsha
jalsay
budget
followback
swed
oski
worldcup
raven
bhulana
sardiyoon
kidhr
gi
occasion
easthampton
majaboori
188
criticise
##hs
conta
##buddhi
kishore
membuat
irtikaab
skrg
ensole
##رد
bawarchi
ismael
ittifaqi
usaatzaa
stopusingsidfortrp
bonus
##aj
diyo
hombres
kpa
llam
soom
wl
wooo
disebut
##vikas
attempt
screen
##پٹ
earned
pernah
proto
##ooor
##wen
baja
ig
responsible
think
antr
leadership
proposed
##ond
dign
iba
butler
وہ
kamino
aso
sigh
##ake
turkey
jiom
cf
204
contest
purcha
##lang
202
dayanat
jalay
patrak
katu
agreement
tempoc
sikhe
##چ
hoskta
build
##یکٹ
##gem
tafheem
gumnaam
ashutosh
sanju
fayada
usmein
178
desert
chhupanay
samjhoge
notifications
discovered
isto
##ration
lnda
penduduk
frans
presencia
eram
mutanasib
aviation
wave
photoshop
ghuroor
fondo
remaining
212
sazishon
##com
##illement
prakash
potential
mercado
##harthashukla
reality
credibility
cvent
huu
lath
qus
##zem
183
buah
ure
vdo
yesa
بال
ویرو
##rha
##aameen
##cf
palais
##yaha
bahaar
##zing
mukk
afaq
bhatta
humsafar
aide
gav
boldo
##tle
##por
barbar
pemai
shona
saro
bilkhus
jalana
jepang
danista
panchay
dhari
mnhum
##pluie
mmdern
211
##ace
amrit
bikao
solaire
overacting
illiterate
alamgir
##anti
odisha
##students
hpahpluie
ensoleillement
mmdernire
nov
fome
ghoor
##ume
madaar
sevilla
misto
uy
stare
olaad
yk
ویل
##cken
##zak
ronald
##sorry
mechan
officers
##abhai
wu
##ahh
parlim
saap
##ako
leaks
anso
جی
##ayaat
193
mir
##reunion
factory
shahna
##zil
prest
nearby
draw
diaz
##vibes
mamad
##arton
##sarkar
votefor
iftar
ted
asked
toofan
shukook
vuelta
govern
##yie
ijaz
daaru
184
manzir
shaw
pressure
qurani
restaurant
cina
klaus
##tni
aoa
gunahon
kahoge
gareebi
kecil
gazleen
##lakin
##wn
baixo
dess
bhooka
yazid
terhadap
sezon
##weets
میلوڈرا
hdsn
yal
zel
222
##فری
##hela
muda
hoay
jennifer
380
rawish
abusing
##kher
humdard
##bro
extreme
senate
maus
paese
bolun
rehay
tradicional
gaata
bhukh
frmane
teacher
firke
wasa
lenay
neo
##ranj
misunder
##tual
197
maksad
##tiyaan
kanj
##outtomorrow
dushwari
##water
##them
rooth
harkaton
alma
flow
slamat
##buah
sweetheart
foto
allah
##poso
suatu
sandeep
happybirthdaysana
animation
174
rs
cbseindia
vegas
##tva
fabulous
mohalle
kazmi
##ayyub
hof
medico
kahaanhumkahaantum
miksikn
##rica
cctv
##vaiz
naaray
vong
deil
##apakistan
abusive
bern
anxie
liv
terko
smaller
kamse
fills
asf
##gues
chelsea
tor
concl
##ranwala
##کار
ataaq
ilam
##lara
denna
pyary
ibad
##adoe
ander
goverment
kyoun
sethi
hands
mitr
step
tip
luu
##cum
khairaat
anaari
##adatar
##karachi
oui
samjhota
##heartsid
maizbani
pendidikan
werzish
zawiyon
acharya
zalimo
shivaay
sahuliyaat
kabootar
ahok
##unt
jahar
elo
ram
kama
bases
horas
xy
سار
##lea
##jf
sach
##hear
sbs
##ikit
thag
##wing
thae
##nam
issued
jaatay
khaty
pari
##ures
mujeeb
prith
barda
jispe
manen
ghadi
##anghi
aahang
sco
samjhana
hoan
samjhty
mulu
rahogi
safah
temper
bayaniya
faislon
keede
##ory
prendre
jummah
advani
fasla
lanjut
vancouver
##chennai
patwarion
kbs
chuttiyan
servicio
istandwithsameetthakkar
tar
settlement
linda
anokhi
phee
ion
siso
ریڈ
adult
armas
##bill
##tne
##icos
##tick
##azad
islamic
aneh
##ulay
##ock
mujer
##kifli
bolde
340
recom
badd
##manirbhar
goth
sayid
##appa
maghl
nuk
sathe
khitab
hnn
reis
sendiri
halan
علی
nowplaying
##فر
kahunga
##lina
##khabri
ello
sob
dilaane
premi
##bersam
demo
##eer
atankwad
baithay
##vna
##centage
ninsi
wagerna
nfak
pns
sore
poetry
##zid
actions
##fah
derecho
yen
##aroon
haimera
##alp
semana
kehe
ekla
ziyarat
fell
##grat
prova
visto
##appan
leng
samma
pmik
noord
murshad
##ايس
sunaate
tyari
thing
bikne
scenes
##indias
tapak
desse
phaily
##tttttttt
##یک
pachta
baised
beemar
marakaz
kalyug
##itz
jed
mkr
niye
pharma
sushants
ٹیر
hotha
##ehman
hima
affe
ages
lewa
shauq
bor
gaan
chd
diana
holding
kameez
sakey
raheen
llamada
launda
##abiz
economics
horn
jalli
kaisey
##tou
misrey
patrio
##ø
##ankhan
jamais
##ants
##eme
lage
qadamat
jamane
fankaron
##nkj
aima
overse
##scan
##miss
faith
##gis
mcd
muawnat
##arna
chowkidaar
halakaton
186
##wetasingh
teh
fuerza
221
sitio
##fo
##oneexo
rong
ویر
##lot
##ksh
##asna
bawan
himan
##itn
unnao
##low
##safe
asri
packet
##rdi
sunlo
adarsh
timatar
##dale
efforts
saly
verna
ankara
mtlab
viswas
pureheartsid
muqadar
reach
composition
##rested
##hal
criminal
ama
igreja
saveustad
gaandu
nbc
bella
highly
anjum
choohay
##boyasim
##zulkifli
paragraph
##forshushant
universe
187
aarakshan
foqtan
saveustadzulkifli
jonas
rolo
rhty
tsh
میر
کس
##ampe
hod
kaate
koti
##ize
##agiri
waktu
##bang
bhajan
krw
shawa
bhaiii
vari
ghume
##cted
##afaat
takla
##rows
##zaab
sidhi
dekhao
marketing
newprofilepic
tehwar
ayaa
##versy
##zaib
loan
primero
4000
##aaaaaaa
199
satellite
unfair
females
khreed
kachray
appreciation
acting
believe
برینڈ
##attack
kus
dugna
muhallay
reina
cristo
dictator
electoral
daonlod
gr
maghloob
liyo
lazy
wari
##ہٹ
neste
hr
memp
##ishain
##utha
krungi
maujood
##rahat
##loyed
daraz
shra
tarseel
trisi
##२
##ious
allow
farah
eso
expression
akr
directly
##opresiden
hansen
leaders
##wants
hisi
wasal
پیش
performances
##ارک
garb
hojai
pahlay
##kla
bayar
mc
dyta
##adi
temas
mutter
wallace
justin
circle
jarurt
traffic
##ganj
herman
##lna
tention
##cies
pemain
calda
نہیں
##charya
begana
whos
tlba
bolo
seenah
marne
evil
details
تک
tuan
manif
##lim
vinay
##cna
pakhtoon
ltife
##hte
porter
214
muze
##دار
sand
tofeeq
switzer
muntazim
##wetasinghkir
applications
bardast
مک
پاپ
##jain
##sharma
api
##dgi
huy
slik
initiative
##alapak
khpal
maestro
khake
hombre
alvi
##ulhassan
ghol
mio
amu
aau
##hayin
##ufi
insul
eske
##ranay
majm
definition
zaalim
rasan
kheti
fun
safaya
##being
integr
revealed
phol
fazol
dur
shamsi
bcci
poet
##tit
osko
vf
gariyaan
xu
##اکس
dhoondtay
shehnazkaur
australvi
edu
vahm
jgah
کامیڈ
gundagardi
stalk
mee
jis
attachment
##spiracy
azul
vive
morepowertoyouasim
anxiety
czy
ziya
kaghazi
nadim
##texposed
formato
lion
##વ
##iyn
humanos
inam
krra
boltey
reerh
andazi
kyayeh
kyasirf
##baar
taare
azal
asimraiz
hanji
aasra
189
fighter
berasal
##وت
nazyon
qadeer
setiap
qarardad
trophy
hows
nasional
##waty
parallel
##mming
##conf
nakal
netherlands
##ilihan
##lir
sahaf
sincere
statue
bord
dakha
khaleej
madaris
sekhen
celebrating
##bet
wkwk
dl
festa
broadcasting
##dik
hadion
kein
lb
dhulai
violence
ablaagh
csk
trabalho
hga
vuel
tru
198
فران
parmatma
elu
##teza
muhab
saver
##ingay
medios
bans
huj
##anib
jann
snow
daale
ghaafil
tax
muskar
syast
suvar
percent
##ople
nomination
satwen
minum
191
managed
bagher
bring
collaboration
ahliat
capacity
smugg
blkl
bradoe
maange
crear
msnoy
##ossa
besti
translation
rooz
completamente
##scam
gorakh
firm
gujranwala
##realheroarnab
mukhalfin
churras
recently
ancest
diamond
mimo
##scanner
duld
zoor
likely
##qah
##foon
##mc
##ammat
typ
##ispr
##tians
##uo
battalion
##unke
thakan
hugs
##icke
##astar
raw
sooni
leaves
roast
mutnahi
larta
bandha
##hadh
##joining
kuttey
birlikte
kashmirion
##vidha
doctoron
zalmi
##ulus
kaum
komun
laws
##اتا
##sirf
alli
questions
kor
dhuwan
niyazi
cycle
ristoran
duldul
##fs
radar
dpt
propio
##ulu
cuerpo
teto
klay
soot
##tada
##cz
##enne
ڈو
گوڈ
graduated
haitumhara
equipment
##inko
pou
karata
##yaz
parwan
calle
##khuj
anglo
pepsi
samer
fare
butun
tezi
##ران
tj
##aron
maryada
sign
##jaans
salook
##eebi
duit
khoyi
##idea
haqeer
paishgi
stod
alim
phla
##یول
prominent
share
##ess
yard
##gn
##gie
trave
guns
lata
mariam
taiyaar
nsitharaman
hijde
##cbse
pochna
##zzzzzzzz
thukra
gustaakh
bhaisaab
copied
operating
youtuber
thikaane
##cloud
eti
vjh
##dont
dang
escape
##cuj
tada
kidar
thaab
barsa
maroge
opinion
##ug
pouco
##layam
stay
jabatan
imla
awamil
kono
hadith
baityon
##sarkaruvaaripaata
bajate
aqval
209
jeo
hazoor
##khauf
##pless
yakam
broken
hraya
pope
jugador
msori
int
msajd
betiyo
ehl
tagline
todna
susu
difference
commonwealth
ida
larkon
holnaak
khidki
bazyaft
classi
cells
commissioner
##istaan
insidaad
reunion
pradesh
chatukarita
##erecording
shehnaazgilll
bilkhushoos
##texposedin
dutt
ہیم
##wv
##heek
join
##uns
banya
machar
papers
kat
fim
##uka
##ery
##ega
insya
sadhna
koyun
angles
pooray
mureed
dekhoge
hazem
sikhi
trail
talawat
indore
laitay
falsf
cmomaharashtra
mitha
##ofsid
manndi
##ome
qeematon
taiyari
##jin
kangna
bhadve
##osta
danishwar
chamakta
planning
prosper
afsanoon
aurangzeb
personnel
falsafay
##dullilah
sets
joel
biyan
servir
cus
db
brasileira
dyo
jdi
jsy
rerecording
wjah
##lng
##xol
unknown
formas
##cter
##tele
##know
##arrat
shah
toa
apaan
##tedar
haay
##waop
sakata
norway
##kle
dekr
noble
sementara
pergun
chaloon
inne
salay
chotu
sante
bagal
spons
sachhai
##khala
porki
kalla
jonno
underground
giraftar
traitor
moakhar
لوکاس
eent
hth
nutt
sbi
tis
##ffe
wey
ven
demande
pete
ڈریک
kabr
kabeer
paay
arbon
kaleedi
##anthi
flash
jeito
tajawaz
##kalyan
checking
##mesid
##oyn
196
zimmedar
cemetery
emojis
raahon
##20
apnai
pyaara
difai
##gfamily
pahannay
kasmiri
zawiye
sucide
ibi
anushka
falsfiyana
barrio
doc
cjp
easi
jayi
##jag
##twitter
##done
##dem
##ayur
isky
##لم
yawr
##tertainment
##araa
shkl
dekhay
artalees
imdadi
bhuj
journey
appear
sociales
chow
firdos
balu
jitnay
contributions
tie
compliment
lakn
progress
jayo
dharne
kich
##bohat
##km
vay
##سٹری
##anyon
eux
expos
munawar
##inn
480
zaireen
ummah
soundtrack
bndron
##sssssss
autour
sasur
gunaah
241
darwaish
jooton
mama
flat
##mme
mahoday
##rich
maakhuz
ahy
##oj
identity
saying
vous
##lama
flag
##sng
##yabi
arrived
seo
##xv
##poo
malta
kij
haintum
##mark
chaina
##bility
hizab
siste
sahay
enemy
pista
##omkashyap
acuerdo
mafaad
portrait
agayi
divided
sec
tars
leonardo
marni
areee
bahera
kaladam
escap
scen
charging
kaunse
karsakte
phali
romans
dakho
agricultural
adiza
##issue
raya
dupatta
medium
malo
##singhrajput
thakawat
curios
document
spokes
urdushairi
headquarters
aiye
mnd
ome
ugh
rebecca
##yee
toheed
##ball
longo
institutions
##sao
masyarakat
khori
krin
humre
humdardi
##nit
dipik
hek
bother
terse
##giii
##angga
##ashmir
##ryoz
##usta
##honest
sharai
guleen
##وف
malak
sanaonfire
ramazan
blan
tbs
dedicated
##ورک
##tiv
americ
ruki
aie
nimi
wafadari
##ccin
majbor
rishty
minded
qurbat
##mak
failate
matter
##makhan
reyasti
except
bala
##uen
pahunchte
fallen
javaahi
ayndryoz
kemarin
##amitshah
standards
##१
##bdmaheshbabusarkaruvaaripaataurstrulymaheshmaheshbabu
brain
javaahiir
lgg
gio
rjd
tane
mia
پھ
musim
##qc
##anh
##amir
proses
kosh
kook
chab
abaid
count
aloo
logi
aghaz
prerna
kabja
minutos
paala
tive
##pective
khoti
zarrar
##ereal
##iter
documentary
padma
##ष
jalo
giroge
kashyap
monstr
chupay
khelny
windn
defence
hahaa
justiceforsushant
haver
kholta
bossbht
phely
hormat
chhapa
bela
biasedbb
probably
patrkar
keknya
##payee
##pride
mehrbani
##czy
combined
##ters
smpsn
کوریوگرافی
murtaza
chontis
dios
sray
سیم
rangers
گڈ
##keep
##ٹل
arkansas
##anha
##amaz
memar
truth
ajuda
rapid
dne
bhair
jaayen
handel
sh
hom
alamaat
posible
bareek
darbari
perfect
##شر
zehn
andesha
diljit
##ubar
roposo
##stood
waada
khans
##base
##baron
##aran
basha
malkaan
plss
raul
heroes
##chayz
officially
philipp
yaadon
##sidd
##boys
cambi
priva
deputy
positions
mrk
hansta
lack
mitron
algo
##ame
zimni
awal
sifarat
##iny
dako
##ilo
toho
immediately
duque
confident
reason
hifzo
##hhhhhh
challeng
muitos
irres
boat
ہايپ
abs
نیکول
sac
##our
educational
outra
birmingham
powers
frnchayz
lillah
banco
qaida
rdo
intel
##ayodhya
karda
communities
tole
##ilat
##ishe
cole
##oson
bew
canciones
##dou
##tai
divert
cour
##orn
waldain
coll
masool
khouf
ip
xbox
keral
tmhry
smja
hunt
##latoon
bajrang
ataque
##johar
mineral
##اند
gully
kasheeda
angrejo
rupaye
hopefully
karwati
shehbaaz
bands
hmein
##chorhai
carol
amaada
turkish
##صل
کارل
intazar
telefon
iftitah
lainnya
ove
oficina
mus
##bhagwan
alfa
usmaniya
اتلی
beemari
dis
sal
##enta
growing
btaskte
mate
fk
wuqoo
nerv
##qf
##alai
destru
virgin
background
marx
chamar
boond
jabir
##uption
musallat
companion
batees
##گان
shetty
kahate
frmay
noel
vale
##tsalmankhan
myoz
scoo
##sha
realizar
quin
##rrpnishank
ohde
diferencia
presents
mardan
##banyak
irak
phaila
tentang
rishi
devdas
##results
designated
dehshatgard
sthon
jung
##zainab
fest
buku
##khulwaop
falei
tahreerein
##texposedinssrcase
myozikl
gte
jik
qari
tallah
گرو
##hega
reform
swiss
##taari
paran
woe
unta
ungl
huga
huwy
##ence
petta
kamin
##matter
trainer
karo
bahia
everything
fruta
faay
negative
baghi
rasham
clit
qadiyani
matte
##dddd
##khane
meethay
gosha
habis
gitar
shilpashinde
imagin
wings
boseedah
snaps
obsessed
trad
vehicle
mubash
lie
kasauti
dni
275
brownie
ڈریکلا
rath
sne
foster
mercury
becomes
jury
ایگ
##hbi
mason
##mary
boleh
##cmo
##سپ
##ٹینو
mutay
alq
alkht
purpose
##shya
selain
##geon
mananay
waqas
perta
umum
neki
enna
##hamesha
chokhe
kalyan
esleha
##icio
nhi
##movie
residence
cena
kayo
nde
tik
jin
twin
ladakh
dado
lambe
suit
ks
gandy
peela
katai
pagalpan
prev
mirz
maire
##cont
bareme
explo
rista
bahaut
##gate
mental
talkhi
chamakdar
twitt
discount
ghost
bhijwa
##hme
scroll
deposit
194
eslehaath
aint
giving
dhone
ee
globe
mathematics
##ece
feel
iks
jey
squad
jamil
##vara
kmp
##xg
medon
##aders
baaj
saheed
jaaz
alstar
##kijaans
##ardan
moueen
relative
raf
223
##hirt
felt
kisise
jabardast
daag
baina
badhi
suniye
rahmat
transferred
verdi
khudka
##bacha
khangress
##ldi
dikit
mehv
surtout
jalna
waisey
spine
yemen
dhaat
rkhte
##ttes
chakki
uthti
seekhta
hawaas
relation
faizan
chirya
##wellsoon
chappan
wroth
supremesid
ashirwad
gambhir
kmyon
comemorar
patrakarita
ely
##است
cura
amy
gone
mni
qn
ubal
recursos
entro
vz
##chool
olup
baand
inpe
afkaar
alz
nash
sakhi
badast
arsal
##baazi
shenaaz
##ufa
urusan
padna
tmhen
sanaworldwide
verma
mohabbaton
corner
indiast
jeafri
dhuk
##zona
##park
jenis
desc
ideal
##enial
##inta
##larn
zaher
nuit
saanson
jhoti
intahai
dhram
momineen
malaal
##anu
kns
laz
fara
pud
پیل
کاو
rive
##gayi
##yay
##bit
asl
ons
##pb
painting
##cii
##چو
kav
##abaat
jahir
##gna
ghlti
prn
##thn
##ukone
waqae
##jaane
##uch
##habad
protected
taskeen
thop
munici
menina
##cow
kheer
mujhpe
dhood
fazeel
dynam
spin
singap
juye
oni
tajir
##zeko
budhe
anniversary
americans
veere
##kach
holmes
raftar
blessing
asaram
pool
lootne
sajish
pain
kapal
mastermind
mucho
shortly
shameonmumbaipolice
consigo
ability
feder
kendra
translate
##uses
##protests
programming
falou
##chennaiexpress
pos
kurrah
vji
haiap
kif
parking
##association
salle
komp
##rana
resta
##abta
deye
sest
pemerintahan
teaching
muts
loda
218
jaaan
banon
maaa
komen
tiger
prais
barsaat
##chaap
assa
tumharamain
maidam
adhe
relief
gh
##biz
##este
bhum
lich
kahaa
##darshan
bachchi
##ein
quickly
lt
kb
daiti
shanghai
peelay
facilities
##uli
##side
rajnath
bulaye
##ots
##nci
hie
maracuj
persian
bumi
rice
nm
##ised
io
momo
##ثر
bikul
dhancha
janwaro
pure
participar
patharon
twitter
fashion
ahmad
rubbish
tweeted
designer
##mina
titled
artistas
beck
##wkidar
assalamu
justiceforasim
jajajajaja
weight
annoying
haimujhe
pohncha
ore
kant
ordered
##hir
tankeed
jawabi
wake
baixa
sudhirchaudhary
needed
##romance
mujremana
bchy
##rom
fle
##lam
koch
foll
pris
lue
##dh
vele
انگ
bahn
سد
مزا
chakr
fecha
420
krye
objetivo
krate
##kid
maash
##رو
accion
doun
##off
batado
seule
adity
cheers
hyy
laam
grew
lauda
##die
sarma
inshan
dayrik
arsenal
faculty
##akhti
yale
tasrat
owner
chorne
aysy
subsidy
mame
eagle
qattan
accident
unde
fela
berhate
jarsi
visale
بار
pichly
sixth
mirch
##lionheart
dabbay
fayde
##tata
lehr
fatia
##دان
tumahra
hc
raastoon
quarter
kudu
camino
vinod
bangladesh
ceo
falta
deleted
paintees
##tir
bithaya
##murder
looser
soomro
aoo
pangg
yus
ڈاي
##jg
##xw
##tten
##dg
##time
##bbat
##yahi
##ithi
target
afgan
abdi
unban
lagenge
jih
dariyo
algumas
##cle
dekhunga
badkaari
guss
adho
sataish
utun
utter
##odhy
tmc
##ense
babur
session
sudan
asp
##thackeray
##ورس
mors
condition
##getum
mandiro
gulzar
##zor
gestion
bikhare
bardash
evitar
bahaya
lashain
shaheedon
##ndose
انڈر
hurmat
techni
jooth
seharusnya
despus
cor
##illahi
olur
##bukalapak
sargaram
eski
pichhle
mehmanon
quwatoon
feroz
twice
asimfandomhitsm
abdul
follows
aney
tans
wle
##rooz
##jhi
pasar
##great
keli
##chti
hainhum
##تے
bhaia
actually
chhari
udara
تو
sel
##wae
causes
jabhi
paseen
cou
shehad
buhot
nominated
hunda
hayati
kids
ilaz
##iki
##wear
dhoya
sharechat
edhi
sazae
psand
rhoo
kha
distri
waarsat
##یریس
credit
planned
chamber
piyaar
parindy
gulaabii
mohtaaj
mehanga
adorable
cheekhain
maweshi
dood
muchas
mulai
bacchus
offers
bohoth
##wetasinghkirt
medonna
aaisa
dny
##gard
##uji
mhar
##heeh
karya
quais
cent
rita
ehe
karb
organized
##enya
khosh
##rine
khared
arco
hainn
anjan
trend
conducted
humey
##kafeel
samz
ampe
wahiyat
fareed
bhra
faar
menurut
continuo
taluk
##ggi
bujha
defined
canad
nazay
bajana
offer
galli
##osti
dykh
kanwal
##uf
blog
indianairforce
ruh
##assa
puchho
sudhre
kurbani
existencia
kurtapaj
##vao
chahati
ashram
tahleel
mufad
gujjar
berozgari
adalti
chasma
##roshan
drew
jai
washroom
##uju
toseefi
##tejashwi
##oru
##utenant
constant
##یں
##ushanthsinghrajput
ahli
sarjnt
string
ہنسیوں
clase
bron
qomi
##dub
ik
##فٹ
##haari
##dna
bhao
baney
mouka
acts
##aal
prha
pakri
thomson
astit
mantar
madagascar
desta
cable
##nc
pha
taayun
militares
kabeena
maira
laaj
tomo
merepasstumho
burkha
pior
paiter
tanveer
bailay
lgana
monster
jhola
##waji
##fica
yarrr
inteiro
jayee
aqui
bhulane
##rati
partida
portuguesa
clinton
audience
azaan
##blos
hawaly
adventure
maangne
##ders
ryt
cabea
dee
rubik
tua
resource
##kkkkkkkkkkkkkkkk
dehk
aimly
stoptargetingasim
chonka
##harshbeniwal
kanganateam
pishaab
pemaiesh
shahnawaz
eager
gather
gashti
jado
kle
nub
جیو
روب
کان
##name
profit
کیمپ
##ars
##rashami
experimental
##لوک
writers
keta
enorme
##chd
devil
destroyed
baati
parli
chabi
ansh
itn
##بی
##chale
sambil
pakd
##uu
bros
pakode
##gim
tetep
pahen
pau
##uffer
mehmaan
follow
##otr
satguru
fear
aaron
midi
aysh
pointe
kery
sachme
stream
complic
colek
##assy
casas
dyty
bangun
##anas
wahaan
##یسا
removed
cabinet
damage
powerofsid
bardari
farmaey
sumit
cantt
sehatmand
braay
print
tumahre
trees
rival
fesla
mistakes
collected
islaam
##dryclear
lifafay
gustakhana
ilyas
daty
elim
فین
##urus
پیک
##ashamidesai
karton
comunidad
##aghat
khosa
rachel
روز
tumy
parast
##tna
barood
amn
aachi
ym
evi
dij
paseena
composer
sid
sidharthashukla
trin
gein
##eesanth
intended
blaming
payal
iktalees
yi
acres
##cin
زندگی
makkar
virtual
##belie
beryani
tajrib
tukang
grapher
janglaat
##tava
ارک
maioria
ensin
nirav
seerhi
humans
##melec
ruth
straight
angle
rickshaw
mutayyan
253
tajribati
ehh
jir
##fake
##mson
##cios
architect
##ગ
##kangana
##ishas
param
baik
reporter
##iyak
podia
##lect
bhain
lagatar
chz
##mata
coup
pittsburgh
##ilen
chp
##eng
bardaar
samney
jisey
jabtak
aawaj
musarrat
taqleef
laraz
asifa
##par
chortay
##tanya
lied
kanjo
indianarmy
superhit
##pakistani
kid
tagayur
accepted
resolution
##frnd
##اسن
##chuka
buffalo
##gua
palma
trolls
ال
laten
##jna
vansh
deportivo
cinta
almoo
bara
dawn
ec
industries
bloging
sambhala
jangju
patri
partiyon
gino
domin
dilip
reminds
کیمیو
bhaisahab
##vine
##nae
axe
ittihadi
wwii
khwahan
amount
uljhan
lma
toto
zong
##miyat
keb
parth
deste
##veni
humesa
##gado
mantra
daway
##mizi
enfi
firaon
defeat
##eeling
##maal
##nots
ayl
##oo
ayman
##form
kayam
nazmein
domain
faisala
mnzr
mangty
phale
##tirathore
acces
haramkh
dabba
belated
nice
siwaay
pitne
##bhushan
##restrhea
khayenge
iamharshbeniwal
nishanaat
meio
tilgo
mushtarik
estaban
completa
koh
tipos
wir
dagha
##mesi
##patel
arrive
fisher
sholay
participation
shawahid
glat
luter
nooh
wesi
##thar
##پری
##ayo
##adr
mulayam
diay
bible
soaz
##mix
2020
khudmu
sarshar
hogia
mukkay
biological
byk
achhai
##uso
dome
votes
ہی
##imam
##kyon
msd
participated
dhany
bmw
rupy
plate
lashari
effective
##hia
##hos
continues
representative
nda
idade
چک
llegar
اسٹراي
nirman
spot
##ومب
##aexol
cabeza
womens
files
chhorey
begins
bhonkna
crystal
dgp
qasoorwar
##یانو
##bagga
mehsus
isilye
aquel
valo
soooo
uchit
widely
##thee
##qismat
haie
##ungan
kemana
meas
lugares
##esab
تیم
##med
leja
iyi
ankita
##ckt
moder
xe
##shon
prath
mina
mines
##uddha
rehain
##zal
pakis
niat
balasaheb
ridi
edited
bajane
laboratory
gandum
finance
offend
armed
puhn
estuvo
standing
bahawal
##idi
vikasgupta
liberty
trell
mohlat
muawiya
##rot
najam
muskurata
tilak
malaa
pendukung
billion
candle
mizaji
bugti
naarad
weather
darwaza
ine
fukrey
smell
younger
##lay
hifazati
symbol
zeng
ریپ
chay
##meez
##cance
##ansi
koq
nino
seke
muaser
aapane
carbon
internal
claims
##aqu
dokha
ova
##fat
##wel
sibl
rehmi
entah
bhkt
##opal
##opakistan
magan
##itu
khatma
giran
karen
mayar
bakht
##ln
bnati
sachchai
chupe
amazon
bed
desho
manh
sahaafat
numa
nuevos
paula
##ashah
vina
gives
nirala
##titute
rehem
indonesiacall
hypocr
nidar
pahariyoon
kishwar
##mahagov
karrahe
pukhtoon
aiims
gelang
nikaali
##git
##blackday
meherbani
رینال
##studentsp
gesture
paristaron
##roshanromance
کال
##jyo
##tado
##caanrc
haihar
##eks
sehnaaz
##lav
##enquiry
luar
istif
parat
##lata
chachu
aliks
wilde
khushkhabri
saman
##wahan
##ws
alongside
radical
jupiter
plane
shop
##anaam
##istkaro
haven
nifi
janas
mustaf
##stars
shi
##people
wekawe
hahahaa
bayalees
sahabi
yaksar
ira
ghanemat
intqal
dushwaar
dekhegi
sangharsh
##frt
vide
trop
yogiji
sukkur
sikoylz
##rikes
##cutta
mozart
##iten
سینڈرا
ترتیبات
jiomeet
aeh
qs
##aplog
saay
message
##khr
itani
pry
update
marathon
jioswitch
laati
chandio
facility
btate
samajhti
ellahi
monica
mauke
rakhnaajay
bom
eve
chaheay
##talis
##ofindia
اسن
munafiqat
##dilkokaraaraaya
pyaaz
imrankhanpubgkholo
republicbharat
برون
jiobro
badshahi
kagajscanner
spread
tron
ibrahim
##tizekhuj
instigate
captured
boobs
terror
elyments
jiobrowser
glam
porem
escrito
##mana
hte
hing
kujh
mme
oqat
##laya
khbr
edmund
serves
mida
219
intaq
jawah
nor
bedr
229
##ubat
nige
cr
nipat
##mene
pace
mainbhi
chet
strike
arrahman
makanan
saling
objek
shokh
imdad
mad
romani
khotay
##krat
وار
insa
zarurt
jalal
minaar
##ਵ
bandagi
lgne
##eet
jholi
##ents
nong
pahn
falaste
purchased
sehen
##twee
ilha
copies
naseebi
اپ
qurbaan
khalistan
maangte
##hahahahaha
geral
kalimat
teu
##jamad
twiter
embora
puedo
dukungbukalapak
weareoneexo
graduate
anjanaomkashyap
utaara
mujasma
khinchtaa
bkn
deek
indo
tama
juma
##thin
##hae
kiay
lodhi
##fie
humm
manufacturing
worldwide
banaras
lagda
cop
##lives
adopted
moht
bareng
jeste
##sum
allahu
wong
choari
chouhanshivraj
##inas
##eza
##gir
dt
zarai
shipper
bandhi
##esti
rand
ladayi
hatana
aql
sonho
compared
dhaar
asa
wrest
##یٹو
rank
organizations
mumbaiwalapappu
pende
agama
mitane
tangen
speech
##ducated
pale
campeon
paintalis
oppo
cozinha
##tida
375
wins
laathi
gustakh
##mate
yaqoob
utrney
ghnta
effort
paighambar
kehlaanay
category
sndrila
advertisement
allamti
indiastrikes
marin
fazeelat
ksa
kvi
zbr
hollow
minimum
بیٹ
ڈون
##frat
robot
##kd
romeo
haikal
chase
##aksh
madame
##chop
khos
##apas
thal
khayega
boca
hutiye
##kib
stre
elecciones
passou
##oora
chalati
##vities
sok
##asif
baltistan
##vahi
mumasil
jeeto
alive
vishesh
##nea
bhejte
dunyawi
dreams
##hou
poochh
supply
##bullying
nashriyat
##khtaari
dhadkan
khoshion
congres
agae
astaghfirullah
kasheedgi
nighdasht
dignity
khudmukhtaari
راک
##qbal
##یسٹر
##kamaat
##asad
##abus
##abul
todd
tooo
rahan
humri
honda
difa
check
boil
exit
##angan
##iar
bolain
dohr
barsi
sakin
sakshi
##bung
yng
shrif
nida
easy
rakesh
##bina
rofl
condol
lit
jitega
behne
245
haseena
chikna
simply
limit
##erim
pix
munjamad
blam
##beda
deewan
ohoo
iqt
chhoda
##lica
##جر
ranked
bors
rex
chodenge
bith
shadow
gad
rhoge
mentioned
balochi
##ticia
nsbta
##jal
khuram
muskurane
sekalian
tarfah
posta
fazaiya
blu
enterprise
cricketers
dhundo
humayun
performing
dry
pmc
quarto
mah
##bighit
vd
##qey
completo
##faiz
##rang
##pz
kajal
##aseem
##oshon
passo
khumar
##icin
noto
alr
behi
tum
banenge
usnay
doct
marln
sunaye
frq
##izindagi
isi
wanita
##oria
forever
251
horror
buna
awein
##bad
padai
##aanat
tempc
declared
##یلہ
yakja
morr
becharo
khilta
chodna
utarna
beeni
bazabta
hojaega
koko
querendo
saahab
siya
tumahri
dakhlay
tato
tunay
##uuuuu
sudah
ashish
bentuk
khaanoon
finish
taarif
hanif
narayan
pasmandah
empresas
##uil
udar
vh
##gori
pearl
249
mensen
##ntapostponejeeneet
##rah
user
lever
korup
semb
khti
chaud
chamat
thakey
terey
maju
##yar
pakanay
patients
mannat
stak
##pat
nigal
##bok
difficult
saints
##alities
##jaha
tr
sarhadi
farinha
trek
exerc
samajwadi
nikalen
amigos
sanwi
touch
kintki
derechos
##jewala
faz
##jhoot
sunaon
mills
lyrics
##ave
biki
kasm
chune
investigation
##نگر
chatna
bazari
karyakarta
##rafia
sajeela
##upportasim
musafiron
nagri
nagpur
saturday
rocky
##prime
##aliyaquat
nigehain
dkho
sett
ind
وق
##رات
##vaise
##muj
jump
##bhut
seht
cannot
##ذ
##isht
isly
apmaan
bhaji
jawo
jet
diab
banny
##amen
mous
soyd
req
samar
maya
##lad
harny
janak
chek
##sthe
bhht
kahana
##sofat
cheezian
chila
jaichand
##tani
angazi
paid
sadness
smbhal
khee
appi
aasabi
bajanay
##assam
##cation
consejo
nisaab
looking
killing
kaif
ganj
justic
sum
##وار
gulen
talliyan
اسٹری
pues
tattu
querer
angela
##sey
remain
colegio
incident
##uden
nui
uneducated
##nir
gauahar
##far
##rf
ride
zikria
greece
launch
tazaeen
hosted
pocas
tibet
##سم
##kli
lah
staystrongshehnaaz
rafique
darjanon
pajama
naxal
sintalis
ویروولف
##kijaanshehnaaz
##sofatg
jstn
lao
bordeaux
##lye
##mgr
kimbl
dehl
injustice
chakk
agora
connection
##fication
##ajj
responsable
##nad
recordings
redu
manenge
ota
adwaar
oba
launder
lands
gard
##ip
shobo
basath
chorar
sancha
gp
gil
aagayi
dusare
btaa
starboyasim
mardangi
puchha
usd
laiken
##ports
##war
zari
##lished
ahmedabad
sikhao
provinces
##jjjj
##اکی
manana
karwata
tanhaji
tootne
dhoondata
seenon
motivo
victi
cv
tirar
sides
yanha
nmbr
marseille
sidharthshuk
ratio
sachinpilot
shatranj
arabia
imaarton
apesar
bunda
khraab
jalebi
301
sarparast
powell
solid
really
##فیلڈ
srayiki
kli
rz
جھ
##cop
##atr
##esar
##teach
satt
inkay
thaanay
usee
##andhonest
sojao
darood
samagh
chain
ofcourse
sidh
##toun
##tarfare
konri
girgit
chitra
bald
chuppi
display
movies
##mado
##edi
letras
fazul
intizar
pu
larkiya
criana
dabanay
homo
##gde
muzak
churee
nikleen
beauty
guyz
ghoont
noticed
##رس
portr
beshaq
appreciated
##فی
swarg
umur
jarrain
##lek
batien
representatives
tubelight
uci
companian
wnw
integral
ultimate
neighbo
##entes
##ffen
admiral
naujawan
arma
جولیٹ
kamp
sugar
bawjood
parlimani
tutta
fundamental
mkrmh
soydsh
jila
موری
##jv
##lapan
gain
chem
wildlife
##xf
kaasht
##hanallah
bawal
bhichar
leli
abub
##khn
oor
walit
chron
##anahi
chair
hamey
jisam
taaq
taoon
dauran
ghadeer
bib
##lere
##gat
reaction
ker
chele
angels
liking
chalods
umpire
##baani
duty
bhk
bhud
##tarfa
basharat
jinn
shikan
##mph
nayazi
aylit
chize
seluruh
##ینر
sadqay
happynew
bsnl
coron
musalmah
##nese
rajsthan
jeetenge
vehi
bikta
##tumhare
##akahan
pitai
wiladat
ways
livro
ginat
bhosda
rabia
sentido
doktor
jrurt
reporters
obser
ashaab
sargarmi
attacks
kayaknya
bevkoof
رینالڈس
titular
aama
vehicles
hwin
sult
سا
ویمپ
visit
ٹور
پن
##hb
buried
##wang
##maj
##esweather
##raani
heere
rahamere
walun
mujey
takar
aryan
mazza
cono
##cipl
firshton
indie
inspired
ballet
tasalli
fauran
##air
evening
buresweather
##ining
utra
##tram
##goyal
##در
monas
jbhi
recognized
palne
##guine
auraton
solution
memer
naqshay
##jjat
nii
gunaho
pakarmy
household
loads
sudharne
##roy
##eret
pathano
chhatees
ijtima
qadiani
papua
##bumps
pia
makhloqaat
agenday
chose
compromise
flipkart
##llas
##sofatgchennaiexpress
gained
diyan
sah
gati
oven
orders
niger
##rou
rant
ae
reni
historian
فلر
android
sl
##gor
##jaji
##paya
kaur
kaale
mw
##eeeen
marre
poems
apani
detective
reduced
##irin
mudeer
ino
moong
vue
sunan
kroz
matram
bachchon
ladenge
syria
cance
##ھ
ilaaqon
jhul
respectively
btai
postal
auz
anytime
sorakhon
qaari
saharay
thakrey
qayam
jhang
nitin
sacche
fairandhonest
jaakarke
gulaam
tjhy
asbaq
mdr
wud
covers
##پل
##haaa
##ayr
##erhe
ge
hob
sehi
##abab
##qi
isol
##ahu
##agle
saur
communist
jaadu
krney
khaki
titles
vede
##gaari
##chu
jura
linn
ghuse
prad
pradar
مما
kamre
citizens
aisee
akhir
sequence
##there
umair
faryad
aksr
awai
uppolice
lagaam
zaad
tanta
nazro
galoch
bhagaya
chupi
sikka
##nyt
bulb
hathora
conservative
##نگ
papi
intihai
##lic
##inthe
laity
chuney
pencil
chahea
risala
shivika
sd
dilaade
advis
##iat
madarse
##iiiiii
ahmed
fruit
bajao
sharmaa
raajneeti
guzaarna
chawalees
##chandna
bebasi
##elections
mst3
tyagi
##yes
indiascreamscbissr
qadima
##umu
rohingya
anurodh
kartonon
ltif
##stone
mbar
sng
rivers
zol
سوپ
kichu
houlle
karway
##yahan
##chne
loga
abra
jaang
krst
unu
meraintezaarkarna
hubby
soach
kyoon
manan
##bou
ekbar
passes
tienes
thhi
webs
awakhr
tram
pigh
hadse
ah
bram
##jodi
dynasty
durbhagya
##venue
##eshani
jaygi
geography
dharnay
##oe
manusia
mtt
advance
##سٹرو
##aghmakhan
saabat
kapda
kapre
gehlot
kula
majboot
painsath
penn
aayyo
##haqqat
doobe
nuskhay
noche
karnama
waduh
##rita
##shameon
##erie
nichli
blagrz
orient
mazzaq
لوگوسی
beloved
bedroom
ltifon
lallu
strand
zakat
##qj
usage
amigo
##qv
##mayi
##arendramodi
naas
jessica
napun
hous
##eema
muham
##kiyaat
edit
maaz
chos
chhed
bolly
tyler
ammen
tarre
##atus
tejas
provin
madeen
zarayi
balad
mukka
bangkok
mahool
mojod
kathin
disagree
junction
funcion
toote
##imran
mean
dyan
##waseem
kasmain
mph
begini
rukhi
aitqaad
shabnam
dharmik
##poneneet
##thik
sukriya
hataane
biscuit
adhikaar
کارٹ
##eru
burada
astinle
bmc
trabal
kafeel
socorro
dhabba
rimnd
aeinak
##izindagiikay
adventures
aali
iraad
propose
nunggu
rv
naakh
##heh
holn
dehan
lhe
##esath
##irah
raje
thaek
دوم
humsha
##araha
##cham
ending
##ندا
sil
starring
youm
pakeeza
bado
menteri
aach
sib
##essr
shobha
bhuri
magfirat
##mai
chizo
fanoon
gai
##ogo
##yat
jayiye
##cca
shuklaji
##jai
realhimanshi
khilonay
ajae
wafad
hija
shikni
##برک
giant
pedra
rishtedar
##rrrrrrrr
lagataar
##rao
kushal
##mmmmmmmm
##lee
presidential
wabastagi
yogdaan
nagrikta
ahoker
##agi
##republicforsushant
tonguetwistkaro
mutsadam
akht
fto
famoso
qy
ucc
apsy
agreed
fuerte
##ooth
##alo
unstop
lagbhag
mara
logh
boley
prayed
annie
hamsa
##indh
darham
equivalent
noke
dando
242
laen
##ends
bharte
tasheeh
ayga
##uni
##trl
vimp
routes
spee
hato
raaton
chupaney
##pon
ming
##یوان
fazlu
secron
tafweez
maanga
lykin
muitas
##yyyyy
amrik
dastay
shikayaat
##ینڈر
##eze
seal
faysal
pinned
ware
catup
tharoor
telecast
correction
ایلیس
jhota
bgair
nnw
chalayein
earthqu
##kami
genuinely
owais
ltima
hk
denmark
shuroo
israeli
pair
dhanyawad
##dolillah
euros
lkhno
chourasi
izaat
sli
maka
hermano
someone
worth
tsk
yag
ڈول
ہیو
##whi
##wese
##kitna
##گز
kade
toak
abyari
khushboo
maans
terbang
chons
fata
soum
hamd
milad
milana
tarr
kabur
badtar
providing
##rour
forgive
tradi
khudai
salgado
comunista
dala
sarsari
ajzaa
presiden
##ogy
##peace
atna
uga
sochke
taught
##wanya
nayab
wiki
##minister
taraha
boss
keray
withdra
coz
##aste
bnke
##pte
##mmer
charhne
luq
##govern
expected
pankh
larkio
mrta
mirin
dukhad
rez
khawand
haathon
utarne
bankon
hoje
losing
hojayegi
chahia
fond
bude
hotstar
##awaaz
ranaayyub
gets
compilation
makhloot
rujhanaat
hearted
dgispr
imtehan
visible
cubby
kartarpur
baluchistan
iksath
bastante
gente
saudi
sporting
luca
bzy
sda
sle
entra
sdd
wkt
cita
zas
##mentos
پال
newly
##cco
ہا
##nail
##erra
lapangan
##lerini
oldugunu
##uce
koro
reader
##isyon
debo
paratha
chada
krl
##cm
betiya
dil
ends
terrist
kamate
darurat
##lerinde
milain
milenial
needs
##dec
artinya
sifaat
tiap
mutwast
hijos
tamana
bakhabar
supporting
sadqy
task
##jom
amei
##eh
mimin
idara
peechhe
saha
diss
emi
pastor
gener
ganwaa
stopbullying
collections
akhlaq
setuju
##یسن
poochta
##ikian
sikhati
siwae
##dilkomainedikasam
fakir
occupation
mutalay
ashokgehlot
jiddat
diesel
##tha
cachor
contribution
gulenaghmakhan
fairandhonestsid
chonsath
ekonomi
##ktor
##gaan
dase
lho
pind
riks
sway
##rias
contrato
genel
اگ
روچ
##tort
seri
##lees
hohum
rauf
identified
##haran
yaas
barking
kosovo
write
pemana
aaur
sunat
##urt
sarv
duga
maliyati
mp
seks
kirnay
kura
jeremy
tamiz
kerke
##orial
ramji
outstanding
##stra
vib
##akan
appko
lec
samajhdaar
##nig
wazah
galay
chupaya
kept
fazer
##khawar
tafr
becho
debate
negra
osy
##enden
##wasa
sahare
ijlas
##moto
cave
texto
offensive
begerat
ruknay
##anoe
shabaz
poochti
horrible
mika
opener
##jju
kaatne
faken
##bla
muzafati
##icas
tech
zahree
badhte
privile
##sid
waseela
linha
kenal
oonchai
aloodgi
murdabad
ghazabnak
ٹايٹینک
##colorstv
badastoor
aub
bdy
switzerland
courses
lbh
سول
گور
ﷺکے
##fort
##imp
##qw
##cine
##pray
ego
##poot
mining
meem
orlando
kagh
ispar
##iyu
bhaiye
bhaichara
rahata
##astan
##shp
marney
##versi
missions
##hentic
lato
khudki
##baap
ibu
stalin
enki
salami
faroo
fuel
arba
##yor
qabul
curso
jeep
##hrain
hojaty
ski
uthake
##assador
pichla
jurey
rupe
##یڈو
##qareeb
graves
##words
martha
##وپی
shell
aditi
athawan
queda
kandhay
##eel
tilr
legenda
geladeira
##grover
mol
enter
kkkkkkkkkkk
##huttozardari
##sun
lembro
ayyaam
medida
photo
460
receive
goosebumps
canaddy
parliman
qand
oak
zaka
##odi
##jits
##oosh
##goo
morir
haibas
contrario
kite
medo
##enu
##dek
kaas
officials
sure
amas
##asp
koyn
##adya
##adrish
karraha
baah
##ob
##hope
alam
laba
mem
##laan
yaw
##ayaa
ouro
##limited
kamna
samundar
dilse
patria
badhta
aajkl
existen
##hamari
kahaani
behs
gharwale
wajid
vit
esme
##pers
qabl
chorando
paiker
bakray
munkir
dima
chosen
menye
##azi
resour
blky
ilaka
##جی
##icious
chhura
regi
connected
rajesh
mrne
ladkio
captan
rabba
chatni
smjhti
domestic
metoo
sambhalay
radi
zrurt
beij
onemli
anuragkashyap
infiradiat
curious
##yearsofsrk
meteobridge
northeast
مزاحی
selepas
bw
##enen
##ph
priest
flim
piss
##jori
##ظ
##aiti
##ayl
keht
##icao
propaganda
kast
naveen
claim
##ended
##usic
dept
chatt
hiten
thaaur
emilio
afwaah
dipak
banwaya
shaba
chole
runner
pric
pedo
##vere
recon
sunty
##dekho
arbab
trj
chalak
##shish
##massa
kitta
basar
jinna
insti
teknik
sule
##ew
jaanat
cheezen
pairr
ladh
try
##qiq
dalalo
foz
pyaray
jayaj
suffered
ahora
existing
fatati
tabdili
fully
welldone
phek
rathee
basel
deserved
jhand
adaptation
tehran
##ief
unas
stavan
##fy
##light
alternate
dre
ghalazat
sepak
resultados
vikram
##zation
bhukhe
muzammil
##thanks
ras
matehat
bolentertainment
hundred
josh
janasheen
aee
jyega
##dle
##ince
##ple
##akhilesh
isliya
baut
##olak
bermain
sahan
humili
usama
chheen
asmano
associ
scoring
jabray
necessary
##dew
combo
taj
ajaz
chuhe
##ington
awwwww
testa
talve
##noa
shayron
patlon
mushri
dikhayega
loop
##born
tayyi
deewane
bahan
##تان
umeedwar
jarhiyat
##rag
boom
palan
shadid
pagalon
oska
mabzol
rossi
rato
incr
qasm
ashray
dariya
##rig
lawde
advise
selmon
##kamra
aseer
albm
reyes
##uvaaripaat
##lerde
##sit
centi
ktna
tinka
sanathe
##happybirthday
tara
jhagde
ave
satisfy
vulgar
##kaweka
##iran
bevkuf
galaxy
crazy
karakter
obrigada
sarparasti
##بار
demagh
##democracy
nacheez
allows
cool
immigr
untaalees
falasteeni
mst3k
eaanat
kly
sq
nce
seats
##athe
nacha
karib
##naagin
suku
weapons
suicide
##unci
khlal
inhein
marion
treaty
##leader
##omy
dije
##uls
shaqq
sokal
takr
aaegi
ngo
batayen
##tics
##edh
btaiye
respect
murt
gamma
iden
yargham
rajats
sekarang
jhootha
gracias
ghuss
larkiyo
walls
cash
soop
ide
##tabhi
entrar
develop
hole
belgium
shaanti
mukhtar
muskurana
nashtay
arabic
tells
sanihay
panjatan
انٹون
entertainersid
##proudof
bigaad
garbage
oj
تری
concerts
##yati
gaz
##ambar
kaus
naap
##rti
raahi
muth
##sider
aln
yehan
ghunda
hemil
portion
sabd
prapt
dekhane
chalai
faroshi
zeer
berbagai
##mous
qabron
toma
bandon
baba
##bres
##ege
stones
##count
##thakur
##rand
chupana
belanda
gram
##sam
khaasa
swati
pokemon
veo
manila
masjid
bhoolnay
bnaa
latt
rkhty
istmal
lucy
##bbwinner
kamzoor
maalum
path
ameeron
chunao
##atoday
beeswin
##ushantsinghraj
##odes
diyook
qatilana
bheria
pohnchain
organic
mystery
junta
##now
##سر
landing
dbng
confirmed
babies
##asta
ڈیلن
##aten
postponed
zndgi
tuhanu
gulf
stopbullyingasim
doobi
crash
hbl
layenge
##aki
nurs
pnd
zro
ایری
##ghay
##12
##cdp
##يس
seja
##arab
##hiday
haijai
##cate
##insha
##vent
kaati
##tact
isro
isase
deter
ansi
alab
altern
falling
##shy
sana
manisha
mach
libas
##entinha
##orum
jandaar
hala
badam
chidiya
crpf
jahanum
jake
smh
ska
##lane
##lation
rakhu
gaii
fanaplog
jazair
lyk
zewar
ehkamaat
interpretation
chindi
devgan
headline
eian
tentalees
saudade
##uarjun
fanaplogose
jya
kira
lke
##bah
tgfamily
شا
##disi
##wek
##يیر
kida
row
rising
##chur
antin
behis
bannay
dispute
oldest
banty
honesty
dartay
bel
sakon
takhall
##tyan
pahad
##vij
samjhenge
wasool
wasiyat
rashi
ikram
maqalah
fif
raatain
jews
nathan
##nov
aukaad
collab
joven
hazara
mnh
molk
##wadar
lassi
laraiyan
zakhair
noorani
tharak
chine
##شن
##cricket
dum
levi
dollars
##devgn
gauhar
khutba
maghrour
ghuroob
normalmente
hbds
ounchay
##urg
karnamon
jaishreeram
sisters
astagfirullah
thehray
##vs
فراہم
astitva
rubikaliyaquat
وقوف
jirimi
injury
kho
hemilton
takhallus
ezzat
iye
iht
jall
otha
ﮦat
##gunt
##fad
##wri
##oren
##hiti
haibhai
##amam
todi
mando
topper
##ilal
drum
##ago
##usne
anusar
krri
maeno
prs
##uhan
barheen
usando
ambi
moth
mushaqqat
completely
mazar
pervaiz
dikhan
##target
##targets
purush
visita
quem
malem
shidat
khatna
utang
##ghr
montagne
lagae
##eken
gali
lgay
##ارو
surrounding
tried
safed
disp
representation
sikhana
jbki
bhoj
behavior
derr
leone
justific
##taindia
##olla
omar
sreesanth
##balik
sidnaazis
zulff
bhulad
##یسوڈ
actors
programon
yol
chehry
consum
trip
authentic
##یيل
untung
sazaa
functions
bhooton
##penter
urrnay
chokidaar
##duniya
##hobbat
analyse
fidya
rend
##rani
nuqsanaat
ishtiraaq
authorities
##vartan
clay
##ware
##rg
libros
chuck
knsas
hsas
granted
usar
ihs
transportation
shape
sket
tapp
##dea
##pv
hairs
haikisi
preto
kide
kachay
thack
leag
##hall
jac
jaedad
territ
ande
maina
##وش
firme
##rof
arya
herkes
##gree
akkal
sataye
clinical
bux
bandish
sadiyoun
mengg
ilaaz
##lene
bro
resident
passar
lute
##engey
larga
##શ
mandal
kashmirio
fancy
##yshehnaaz
tata
chandr
##colle
jumat
##tim
quraan
##rane
carry
paar
gunahgar
##rajya
kita
##وٹا
##sssss
chirak
gndi
nachnay
krdya
manuga
##uringsid
masomiyat
##jk
##judg
madhurima
weekendkavaarwiths
chhyalis
rua
unchaas
gorakhpur
catupiry
sed
##pad
pust
qr
sook
میپ
##گم
##inter
aspects
##abd
anda
bahal
chaon
centuries
chamach
##kiawaaz
shaaid
takal
cheguei
##uin
recebeu
personaje
rehkar
thx
shoping
kitana
dele
upbr
##zians
281
bakwass
hndost
mukab
byanoe
lgata
himlit
dhk
dhmak
gender
pooj
##ums
descul
lehaz
##conne
stoptort
nationwithasim
rukne
engvpak
##dambar
arnabgoswami
rulaya
drop
bhrosa
ghom
pawankalyan
madhosh
smiles
darshanraval
ttp
nakhre
##allaha
copian
dajjal
kemarenan
##subhanallah
karorron
fehmiyan
##atellite
shan
vatsn
ill
hndostanyon
aasi
oke
##jc
##huma
paradise
##fail
##فمین
keun
##ahnay
hains
##iture
##sip
bhaya
strange
##ainssrcase
##ultan
shash
chm
mohit
nichor
##tyle
aawa
masak
##rico
jia
kitabi
asal
burrows
timepass
mayos
vim
depart
murammat
outrage
kutt
sikhna
jesse
khaizi
humana
ketua
stuck
aurato
tajaw
ganas
decades
##sla
##ismati
espacio
zeist
aaney
##bing
dorr
ashdeep
tlp
headlines
rkhen
##try
jorta
ailiya
##poserhe
darjeeling
dicen
##umkinhai
kandhe
akhirnya
barfani
jhelna
##etes
aastha
##inga
##mahagovt
bezti
ready
gubhar
khainchti
daghdar
abubaker
##targetsasim
gt
hsasit
##hle
qualified
bjay
سوس
ہیڈ
haidar
##eesha
##ikut
deakh
baeed
abbey
savi
wohe
jaada
patron
kraya
understanding
alh
##inghearts
beja
##lover
##hur
##nay
chullu
##ateful
دار
shugal
shwetasinghkirt
rahun
sayah
senat
samjhy
##owo
##ostsid
ahti
patte
happyfriendshipday
mb
killer
blkul
##pppp
returning
destruction
kutay
passand
kuy
heard
palti
261
##bohot
whopper
saima
kuwa
vasco
sharef
khairat
vl
rishtay
pehchane
taisi
cabelo
dous
llor
chhorta
machaya
zruri
sundayswithamaal
atom
choohon
mehroomi
##book
khwabon
madrasa
hus
jong
سايیک
ghutnon
samarthak
گریف
vagon
fuddu
##dexposerhe
##lita
czn
dewasa
junt
sre
tunggu
ہوم
frame
##other
##voo
##mla
seguir
bottom
investment
haig
naala
##akum
razam
##neta
nechy
haari
##dii
laser
##utter
humhe
context
didu
hutiya
kis
##riors
##cci
bhaihbdmaheshbabu
movi
prank
amree
votos
##star
arnav
adw
##veria
thhour
pota
##hahai
banaoge
##awaq
hadir
munnay
##sor
rashan
viva
capture
khete
##rini
lgaye
##beli
aasteen
spt
##wano
gaie
apoyo
bhagne
akelay
##hasil
ikhte
khilony
boysssssss
rkhti
bewaqfoon
obje
lara
apnon
michelle
kudos
yadavtejashwi
chirag
darwazon
muqarara
##kur
arakshan
nibba
hathiyar
##boxing
##ligen
badshahat
deli
mizaj
justicia
signif
##dita
masalas
ولا
parvarish
sadhvi
ایپیسوڈ
bajrangibhaijaan
iltija
##run
bndoqin
churrasco
faayda
feito
dayriktrz
pesawat
eke
fh
peed
reech
wuz
haiallah
carte
haiabhi
##atumhara
##inhas
##alist
##asana
ولی
##adit
##lov
##akang
##ehow
chapa
npr
alvid
mock
takeed
harna
tarw
referendum
paayi
rokay
##baari
langer
denger
melakukan
##tsoldout
khoty
sete
jalwa
mojud
##tab
sami
##iras
creating
forbes
gaiye
##زی
milaad
baraat
joy
nathi
ash
uzun
aanand
##sak
maangi
rangat
izzati
pur
bachiyon
sumameen
dakuon
harbor
cheeje
gareebon
ule
##heeray
pinter
tariqa
tehattar
##indo
trpking
##vor
##ick
kaddu
rehnumao
##stoptargetingsid
ای
interna
heenks
meteoc
masing
kurang
noms
besharmo
anupam
bhateejay
cancelcompartmentexam
propeganda
krstina
##adrishti
fbi
bz
corao
gly
nica
olu
ریٹ
لنڈ
ونٹ
##qas
##kc
ronda
kiven
##cena
hoker
##hanks
##chna
mubas
##azon
lef
khai
behe
##hain
heal
chood
philippine
filks
##hato
prt
hameed
asla
jismon
taresath
##ely
daat
decir
frequently
##roff
##ises
bahno
torne
dati
##fin
vang
##akhush
scary
ques
jaghen
##hron
##kant
lgsg
luga
teraaki
aliaa
daiwata
pakistanion
gira
rajrz
phoonk
##لیڈ
address
maregi
phone
##نگس
fitna
ranjida
kaatna
karwaiyon
##hahahahahahahaha
chunaav
nosso
apnane
bhrasta
tone
tazleel
pen
berry
zrurat
##iding
aditirathore
mushahiday
##pil
islahi
dgnta
pratibha
satisfied
westandby
nafarmani
sargoshi
hypocrites
vaga
stoptorturingsid
##pio
clow
cham
grif
ghiza
haga
jgha
patent
streets
plo
nazim
parin
pardes
kete
raay
mutaq
ethnic
anum
krengy
unwaan
##idhi
jamie
maadi
sabji
##sav
##antes
sotry
terappan
pine
pehal
darindo
sakha
shwe
##usu
tarkin
arkan
sibuk
rear
sifak
gobhi
parole
kritik
jataa
dengi
sharmi
taqre
daylight
nayak
jaleel
kasht
bnaty
##iyanus
boot
bsm
##fan
illogical
interactive
sikhane
rajy
showed
##vari
##ورین
jazo
parhny
siyast
##oshit
##urrana
##لیہ
##wat
sapa
##upa
bahagia
confess
nalli
##vati
انف
aazam
appease
charges
biswas
keluarga
##kadostsid
aandolan
ووڈس
bilawaja
##cano
istifada
wekawekaweka
ftohat
upbringing
meteocat
dancing
sifakana
fash
jf
lz
congreso
##vers
nhee
##wray
##chir
haiphir
lucha
kaw
kaaj
##unj
##unches
##olr
##azads
anub
kuna
mero
kampan
##mafia
stun
sunu
adani
phirnay
azerbaijan
aajati
##edgi
##hayad
pula
shari
mutasib
magarmach
sanad
lle
principles
shuruwat
chun
sachcha
btati
proc
pad
onek
pato
kuc
kuxh
motors
shani
sawalat
qaabiz
pensei
underrated
lgaa
footpath
undang
##carry
kaaam
qurb
kamyabion
lehron
automobile
lalchi
franko
zakheeray
hijjay
preso
اسپل
bhookhe
phenka
photosh
quarentena
fools
##sil
mehrban
oqiyanus
zehniyat
absence
bingung
reechh
aaq
shared
aaind
bche
esh
retire
suggested
htum
powerful
jhi
mko
script
##sts
vamo
##valo
zindi
halt
سیو
##then
##nrc
##fol
##bbra
kartin
deket
اسم
khne
parde
holds
##iraj
fortune
##iyya
haap
bhada
khaoge
psychology
flowers
setting
boya
moq
darust
milla
milawat
##kh
##tag
manny
sholat
adeel
cheisat
oda
pakistanarmy
##viz
dengy
atul
maliyat
##antr
tamir
bataon
hattar
سر
bhojp
##licate
jaraseem
##boht
##ysy
##ogi
farmata
##dge
amrica
saifi
kasab
naqais
##janas
mur
jika
ngap
humarey
sanskari
simran
hook
hasil
##wadari
bdutt
pith
guftu
certeza
apradh
##cite
##tri
##donald
trem
##mnon
sufiyana
##erin
icinde
##ابیل
##deshmukh
fama
paryoon
jafferi
numainday
lavde
brhhawa
surbhichandna
mahfooz
kasautiizindagiikay
##av
ridicul
roads
intaqal
naakhun
tarweej
##azadsln
sejarah
bth
eyan
fone
issu
jefe
faid
transit
##ukan
##jitna
##need
##eede
##iksha
values
##azhar
afwa
afzl
loya
jaaty
bezaar
wet
passion
banayega
hars
waqif
phirte
##grade
bashing
suja
##haib
kharap
##coli
blind
minist
##vaus
agents
##onal
sadiyon
##prit
brono
##qui
consecutive
##kum
maqabil
tourism
peeti
doble
##yout
pagle
kral
palta
dhobi
ghana
familiar
##kanwal
flir
empat
bhulna
controlled
karwaen
zalalat
##patti
انیم
doing
lotney
##ويی
##تن
lelaki
quinta
silent
courts
nishanain
pedaishi
ghazlon
correntinha
##demandcbiforssr
ovely
ungelian
##dexposerheainssrcase
cud
rooms
dhat
fcil
lf
penge
pamaal
tng
##lice
اوس
ریس
میتھ
ڈوم
##ovo
##کھ
##خش
haisid
sedih
baandh
rawadari
##olved
muht
saaien
jawar
shaori
chon
##loun
bogi
retwee
darny
shuj
dav
##iset
athanway
##anan
##ops
agustus
purn
paishi
tashee
gent
qualquer
faul
##shahid
minton
##bir
thatta
tyre
hns
mahz
fof
charwaha
eman
##quar
##nil
kuti
whoever
##toria
deshat
##ddd
pm
##urious
tujhpe
rafeeq
rkhiye
kidher
toward
shilpi
chia
jruri
selling
badlega
##kta
rashtrapati
##akshaykumar
pohanchna
inner
unemployed
betty
ach
occupied
jadugarni
##rulinghearts
atiya
ghira
kuran
ksy
anv
اوٹ
##ھم
##xes
haiwaise
kawan
nass
sedha
##haro
anqareeb
ghhoom
maff
moqay
gor
motab
##waf
petaindia
kamana
##sebest
andray
harasan
gradu
sucesso
nifty
tanpa
##alaunches
advan
salmani
khansi
chohtr
gharat
smule
##ggg
lucu
offices
awon
bajne
durga
tayees
##wewant
##ilekin
##eseen
daalne
khuwahish
mangti
ishqsubhanallah
getting
##contr
chamray
rabbani
baithne
bolege
sanskaar
sayahat
aaraaam
dastaan
badhao
badhawas
zahra
##sharmak
laalchi
ellas
##mediate
unsath
ravishndtv
sarkaruvaaripaataurstrulymahesh
missing
bidang
سینڈلر
##vishwas
arrestrheachakraborty
reshmi
bepannaah
nojwan
##itos
ghhoomti
hpi
##icion
hjri
##bans
##منٹ
haiand
kasha
princesa
karlena
baata
mudd
lagya
shave
height
##hattar
operator
tela
doe
##saad
##udan
samil
kisanon
##after
mant
amid
shyam
taamul
paayega
rush
muskaan
##inte
congi
champagne
##pez
##nyak
entitled
wegas
##iyaa
321
dekhai
kharb
choranway
quente
aadami
bajti
swift
oneplus
qarzay
phoo
bulata
dafatir
##indiatv
whn
notebandi
##vert
brid
seekhi
cutest
pkka
speechless
difcil
##quia
succeeded
uganda
refug
ارج
uddha
sharp
godimedia
دنیا
hehehehe
atifcam
mund
nakhun
tableeghi
suc
chaplusi
hajaro
wta
uratay
eviction
panchawan
unstoppable
finn
sanathebbwinner
hne
bomb
kall
maye
pch
##mma
rora
##that
##px
hothon
##akapoor
ishaar
##irad
##iyeh
nepo
##fied
chapr
walekum
ose
chcha
parece
diversity
pemil
chew
hull
jota
salee
khanna
bharosha
logoko
suj
girane
##gau
plano
chorni
mamly
burger
baksng
tmari
vivi
achch
aagar
##yogi
skin
opini
##keun
tayyari
jeetain
desen
rally
lafaf
سون
pio
thikane
khilana
aarab
sorte
hardwork
homework
chutye
shehla
tore
cerdas
##ويٹ
sambhale
##ssrkilledonjune
bismal
faisalabad
sandesh
##rrrrr
mente
##yearsofepicchakdeindia
lalu
haatho
rating
machines
nimaz
yesss
weareproudof
qeht
pavel
##cks
restauran
satyame
angothay
tribe
basin
mukhtasran
segment
pehelvaan
##utan
patriotic
biasedbbtargetsasim
ell
conto
kanjoos
busca
suv
personne
qnd
##itt
xtra
وکٹ
##amn
kob
##ussidnaaz
dej
dewar
khum
parveen
thaali
khae
lagra
shashi
mahana
dohri
arbi
siway
checked
jiha
tota
kabhie
imo
##uel
zindegi
billo
arrested
recognition
tests
hindo
karengi
namoos
pg
##data
paiti
##ggers
bbshow
bachaaya
perform
soldier
coal
bhokte
##assir
ono
##yanway
desco
lander
puchiye
oral
parivartan
naqli
chatte
proudly
انت
huai
tafseeli
##ومی
##restrhe
serait
aceh
bakhs
farzand
divya
heheh
##thoda
nibhana
refri
##uki
geld
seni
genes
##sunny
ns
thekedar
allowing
asti
yasooh
sessions
bidesh
btsbighit
##aos
sering
shocking
sociedade
chheyanway
jhonk
chahtin
##ares
rhythm
esaiyat
kundali
shalwar
لیمون
laxmi
obama
##iser
achieved
##ਪ
wonder
##bservers
happynewyear
tafreeq
##cast
aasim
tuch
کیگ
##ayt
##onti
napa
depress
apana
##jam
khoso
##cc
##him
paraye
##iyab
mukaam
bhal
broke
khass
comision
franchise
irene
yey
##ardhara
rahana
engage
##save
##mica
partners
versus
asna
basket
lions
asool
dificil
antoni
aspir
jant
adami
behte
larh
vse
palabra
##vane
shippers
networks
padd
wine
submit
##mans
sumber
broo
braber
batae
chahtey
shaher
lyty
getwellsoon
##یما
uthne
taraqiyati
weekend
soorten
jhootay
shaitaan
shitty
ujala
samjhega
##abhoomi
tentar
justiceforzainab
zoo
inspirationasim
shore
ignored
taranah
لیونارڈ
muhtarma
msica
mahabharat
lik
nazayaz
pradarshan
emergency
napunsak
failure
bchi
vry
yudh
لیل
کٹ
گلو
##vard
##wid
##cplano
##aiat
haikahan
##aine
kibl
keye
nekal
saary
levan
##iyega
##alla
##eden
pega
establishment
hams
bali
avo
md
samai
marja
llevo
chess
sunder
batla
pash
mazalim
##yet
##zaade
leder
maturity
##endment
violin
sarai
ajdaad
tabish
sheela
myan
minnat
blagr
calling
ghairay
bataun
می
btain
statement
udaan
katt
katha
baydaari
helpless
anybody
##medesai
steam
genoc
##uke
sic
##ened
intak
##psc
beghar
cloud
rupya
turkoon
bhanji
soil
##adarsh
saaday
##نسکی
funding
##ووا
##goswam
harusnya
competi
humaare
sintis
waapis
intolerance
atheist
ales
##hart
paraschabbra
daruratcplano
poc
##resign
##لینگ
##akuch
oman
##isab
##sena
##aht
dehaat
khood
bajp
sawa
jawaa
khaar
unboxing
maata
slam
doces
sogra
hamsafar
rekha
bahubali
##stha
enke
entar
coke
##hara
twink
sochy
suvidha
palm
quam
talli
cres
mumma
maqaam
alig
iblees
serious
irony
elektrik
howey
fatt
##uries
##culo
bikhat
macdonald
bored
##راڈ
chodte
cure
nanak
qasai
shirts
jatt
seeker
fasadaat
jhank
explorer
krien
anjali
dramon
ikhtal
ghour
rakhiyega
recogni
shafeeq
kaghzat
bought
rajatsharm
leeds
passenger
sar
azar
lumpur
pdha
vaisa
zaye
بد
##vir
##jane
##aris
##vation
##sok
rider
##bho
##cool
reasons
kece
mira
pick
kareena
##ahhh
thake
jooray
##hatya
##liq
##chaudhry
sakein
lihaz
batne
desire
waheed
rocks
troma
buena
goons
faraghat
kitane
chop
mehta
balk
mahsoos
bbkijaanshehnaaz
sikhs
##quin
toyota
##rm
plats
deepik
nag
##kkkkk
palghar
keeda
poojan
stru
srkar
srkians
dikhnana
##day
kholeen
silsil
ones
developing
juram
tangon
gods
perempuan
simples
jhaank
##cene
rishab
jaatey
bewaqof
اسٹیف
chaie
##rano
rin
jesey
ertu
jhuthe
##hhhhhhhh
phenkna
hungami
khaima
divers
سلیوان
316
ros
terjadi
siyahi
buzurg
والکن
ayuda
gairon
prop
kunalkamra
etti
iqtisabaat
##amaadmi
sushma
consegui
naghmay
aprove
souteli
frinkln
divyadrishti
##khulwaopubg
cdew
daka
ibaad
kode
wil
else
zom
iftari
jfaa
nall
pum
pene
zariya
پوٹ
##the
##bly
##ree
##raz
##space
##mran
##ply
##onon
hotee
istr
##kra
##eey
aired
soli
deol
sef
inven
perusahaan
sauda
mene
krishn
humny
banoge
merce
ustu
dicho
maay
##encia
##arif
##indori
harap
rakna
aaunga
##aires
confi
chalenge
ajate
thukla
gharwalo
##zzle
majmu
plot
breaking
munq
munda
menj
sanvidhan
aadesh
khena
bhagte
ourhero
discipl
alias
##ڑ
ibham
dimension
kanhi
jarha
pooche
bechar
##luck
laib
##fra
cin
nuqoosh
richards
##plan
##cil
solu
bhulo
##bridge
bankers
khubsurti
##eeeb
mastung
dadi
tarjum
dheeray
khao
muddo
##hindustan
##united
kasihan
bhonkte
assez
coalition
##fon
akkian
puta
##nbhatt
tshirt
sosial
speaking
inch
khincha
##eid
haikabhi
##zana
##anak
pemerintah
nashedi
##tale
fenk
lulli
singing
oer
hzari
angothi
zimadar
crossing
totalmente
##awaqar
dube
kuld
uq
wira
مر
##sham
##bf
##pappu
##sim
##akakar
lig
##unday
##uniya
aplogo
sawer
krao
walla
##andah
pei
milane
askal
manag
batad
perce
lachar
shelf
pataayi
sap
experiencia
akhiri
experiment
##anta
purey
##amahesh
nambaron
burhan
holiday
bachhi
waran
jhol
sections
droga
wazarat
amit
bbhuttozardari
makhoz
katoti
tajdeed
hansty
latayen
wafai
muqabil
bukhar
assass
##khabar
susant
##ghair
settled
hotta
assistance
##iy
shrad
beyhadh
abaadi
##devgan
harus
seddiq
iqrarulhassan
dhadak
##anjali
##ister
oncologie
biwiyan
dehleez
iraadon
##rist
##کس
tayyiba
nauk
kaya
edar
saab
haba
cooperation
jakh
mami
##rique
ام
vans
matahari
wana
wjha
وايک
##fati
کم
haitoh
moreno
##يے
haiwoh
##ayati
kiyat
liber
goles
spre
karye
##iktr
khdayi
racist
aftaar
anubha
krishan
prevent
alright
##hill
machane
chamada
dop
##waadi
soyi
darinde
##graf
depression
samp
pakdo
takheer
terkenal
jild
##ukti
mariyam
siddar
kaamo
syasi
##tool
frmaye
chodi
nayapakistan
##tty
modiha
##shaat
declare
ayan
jaiy
##tier
##truth
brdasht
maqnat
votefors
progressive
makekarachianewprovince
chahunga
delusion
encontrar
serius
malikan
##choices
vejo
qaabil
jumlon
projeto
##palji
sinto
wouldnt
##صور
##ensation
kardena
examples
kez
welcom
saa
empo
sambhav
jhutha
tutne
mbwind
chamakate
tulna
suruh
transactions
##wwwwwwww
misalon
musi
317
qeematein
ghazwah
##rim
##جا
follo
preshani
pavitra
bezati
##گر
directors
hemsha
concentrate
excel
##roborty
photos
##studentspm
sidnaazisrulinghearts
##janasanghi
direito
cdewpoint
bki
jhad
snak
ginn
ٹمٹ
پار
##teshwar
users
##rai
##gain
brad
##zm
##dst
ent
option
##zx
alban
##bute
creations
sear
deber
lateral
##diz
lohay
krda
alwa
dixit
bhaion
sobr
kamaye
mayer
##mahira
dilata
slow
amhigh
matr
universo
enka
sarsath
boa
merece
merepaastumho
poda
kepala
##tour
taqtee
churchill
wajeh
##ersin
approved
exaexol
tasan
satat
haso
issy
bandhu
nikalenge
bycott
bnya
sachha
##job
ouron
##ined
##ological
capable
tribute
##kis
dilakukan
##diyaan
pedaos
pichlay
elaaj
filmes
zulfi
gandhiji
looh
بی
universities
handles
calls
aitbar
smjhna
chegou
geri
saarey
lou
kbhe
nigam
antim
piyara
##وڈر
darjat
badhne
danishwer
paicheedgi
happybirthdaysalmankhan
##adays
mehnati
velle
hutch
tetangga
چھد
senetor
bismillah
syeda
leg
shaayad
lung
yarghamal
##aji
ahin
awaron
##gle
mkal
midnight
nhon
ozaar
korte
reet
sza
device
##wal
wukla
پشا
##gq
##رز
kuri
##fill
##ashan
karati
khras
baahum
chaey
summary
aftaari
cousin
##tom
##icant
khalo
bodies
yek
lagani
diploma
shabab
sandy
##asto
darty
##had
tution
takrao
niii
masajid
rehtey
rahoon
ہن
khanzeer
abhiyan
trump
athar
azeen
mutton
chiya
##ksk
##hotra
isle
ramu
cortar
likhny
participa
sikahnay
unable
fazil
seconds
kaithi
mtnoa
ganesh
##von
milton
window
destino
kop
kliye
aatm
rokti
kunji
pilla
failana
hardly
factors
laborat
##arohit
tomar
zal
sf
##ners
##وکی
haddiyan
semble
##برن
darjah
lapet
arriba
##essive
totnay
bhikhar
pride
daque
saniha
hello
grig
billions
##lun
##mailcom
taaluq
gregori
intrest
bhatija
cocok
mullon
sozinha
hammeed
bghdad
odeio
maksudnya
informacin
پشاچ
##aru
nost
kalimantan
sory
ujar
yada
میری
##uicide
##gv
##بیٹ
##atri
##chare
rahane
lekh
##omorrow
krlia
banaty
##astru
##saal
##kahin
daring
marunga
badosh
##angir
musalat
sunata
##ilir
##stream
chant
dikho
basit
libertad
malbay
sucha
talha
padres
tamgha
##polis
##oor
munt
aged
tmr
##preet
##hm
sanaullah
charag
ids
khilao
refused
##krishn
panel
kristen
gadkari
##ولڈ
mahilao
candidato
marks
##ikahan
bawajud
prove
error
kyonkr
shehnaazgiii
creativity
putla
shehnaazian
zayan
chahiey
danishmandi
zrort
chudai
##old
baabo
fought
athasi
##hard
ff
sanjayazadsln
reduce
bhonkne
wkv
pedaish
grijoy
guilt
mohawra
arnst
fiqray
##alan
bhateeji
cadena
th
##fficeup
cockroach
##apadukone
gunehgaar
shooting
gulukarah
himachal
madeeney
amrikyon
##cola
##aw
##sebesthai
##alaunchesnaagin
گلوور
##amaadmiparty
mkalmon
gra
rakyat
cpm
caanrc
رینڈی
گیم
##aati
##liy
logro
nokia
##zub
##mx
##hiqa
ahead
kasay
baak
bolivar
##apaa
presa
##neil
chaako
##itanya
thaaa
mawa
hebat
ghumsh
##kof
unlike
asaktay
zabard
lena
##giya
chey
nahn
baarha
##apping
presentes
mutl
jalse
##fever
جان
waraq
summit
brabr
zamir
chamka
sadaf
ngeri
mahawray
##stances
karanjohar
mlas
baqaya
buraiyon
pelas
##ffer
##guruinthe
attempts
zrorat
circum
kapilsharmak
tilawat
##ternal
burns
ignorance
demand
pico
mubarkbad
rete
##arte
##cular
soalnya
oppostion
##colo
dhinchak
humor
ikawan
pnsl
##uno
laundering
speeches
##government
bbshowussidnaaz
ustuwar
##ally
ourheroasim
fishan
downtown
mshah
tqr
ایکس
##rayi
##oh
##zaz
##wwat
حاصل
##کوف
haimain
##jala
ratu
kawi
##abardast
meiny
aurr
##tano
deikh
hainye
aaplogo
##ght
anhazrat
bega
maadri
##saaf
barma
asharam
hydrogen
mantr
baadalon
matra
rescue
suits
kharan
jeev
uks
tambah
bhtttt
respecto
khiirad
hanse
sanab
ici
resist
##aze
##isse
brbad
appar
##hsy
ishrafia
greed
mashaa
rahulkanwal
airforce
##yal
zoro
##larin
karaingay
ssrkilledonjun
##nai
pehchanney
bhadak
masiha
distra
retali
murderers
phatnay
glori
dante
sikhte
londa
dhakke
cens
##ازی
telangana
##brothers
##اہن
imtiazi
سملینگ
verify
sickul
collage
##ushantsinghrajpoot
dhmakon
vaal
waye
wudu
کوپ
ہیر
##dated
##math
##pyar
employed
##aimed
kaeh
nacho
##رب
rama
kotak
##adiyat
decade
karab
##lardan
##xia
##handi
khull
abrar
rode
backing
khakar
khasay
banaao
airways
huhu
soun
ficou
fat
siraap
engagement
kitab
##hiram
kissan
mairaaj
ghab
badt
##manan
##inden
vas
rahib
rehni
##spor
waat
trol
khudke
ajtak
behuda
##lerinin
##olu
##front
chodd
rodrigo
ghare
##mpl
girey
liyaa
##chayi
yake
bachoo
misl
##eshkar
qadyan
phor
aanch
##farm
##bahot
rabnsn
##fn
sudhaar
manshoor
##board
chodkar
mitro
##veis
equal
shouldnt
aitraza
bhejen
salahiyaten
##bbbb
random
khalai
transpar
##class
##blok
daqui
badnas
bhuke
haiisliye
charhao
##photo
severe
nokraani
bhayya
##aju
ace
berdasarkan
##som
barkhast
chad
qualities
extremist
soft
keemiyai
basta
jp
pertanyaan
purple
faarsi
murtakib
tasaneef
سملینگک
aitrazaat
pub
bff
cik
##iles
fakh
hiv
columbus
eleven
ponto
gvt
##lugu
jfb
lanch
mention
vard
##mid
##rma
intento
##bhu
nombres
##pj
##ہول
sequ
##eeta
khre
rafel
aftari
##dimag
##ajab
daftar
krwata
maun
impossible
moter
##shti
strength
daaman
lar
jida
faut
salmaan
taboot
syll
baste
urta
##istic
bandhay
##nsi
creo
showstop
piti
roots
gereja
brind
nasam
hojayenge
finds
##onaug
##با
daimi
##ngz
saja
##ologia
bone
feio
##force
berb
saber
katam
tumhey
bayram
betaab
hearts
irre
pream
##asimnewsongtomorrow
virsa
matrix
##inio
##gene
fakeer
partnership
bawajod
lotus
##badshah
chodke
bithti
raped
ilmoon
zimme
jaayein
pandya
alaa
monthly
puttar
guft
##pathi
asey
kharida
ajo
fines
jhutay
##amaattack
##esse
aunties
##petent
strip
##kten
heights
adatees
duplicate
danish
jidhar
nematon
##pos
suhaag
ٹرانس
trillion
##eshameonyou
ibadate
##waseembadami
##sunnydry
gtu
shall
##gol
mcc
qazz
vyap
yz
نايٹ
ڈراي
کبرک
##hub
##mly
##hasim
seles
khham
oc
hair
chahal
jodh
anwaa
teachers
krwai
##illo
lin
lagadi
##tered
sabes
itlaq
ghumate
soys
prakar
##arek
camps
aspat
##upanti
haraya
baile
taall
dawar
waqalat
maroo
arry
##not
walaupun
likhty
tiver
spor
sargod
athayin
awas
glory
laro
##fight
roof
##kers
bones
nikalega
##brt
aasha
##sonaro
maqbo
maqrooz
aqsa
detail
pic
kanp
bulati
justified
sengar
karsakta
underwear
##utu
##uet
frost
smjhdar
sardan
fuc
ruso
painful
jawanoo
fascist
kasian
fixing
farig
crimes
mazdooron
vakt
ultimately
fiel
tranqu
کاساو
##pandey
keys
increasing
muhasra
pandemia
##indiascreamscbissr
##dambaram
alvidah
pnslwanya
##cak
views
mbl
pss
fiesta
solamente
qd
ultra
شین
associate
ہیریس
##قی
alman
##vaya
keno
##akk
thousand
iskay
kereta
##anda
lleva
##agta
apai
##oss
terbaik
paron
##abb
strategy
##kej
mega
classics
parantu
##apka
##ooon
thaki
##tere
usase
huin
##ariwala
bolra
tert
pegi
sambal
sakuu
dekhun
mangg
badbakht
batch
arkad
randy
mela
ajk
dikhani
wedding
mulzi
compos
transmission
intezam
siksha
##ورز
categories
##سٹی
##chus
##hre
##right
dhawan
thankyo
dropped
milege
##کر
srkian
udit
binkari
##yana
##acin
stopjudg
trouble
walking
raqeeb
hammer
tareefen
exception
netaji
presin
saheli
##pic
quedo
langar
sooba
karyn
##neet
persons
regul
prabhas
jooti
jaago
##modiji
nibhate
ghina
nashiston
cheater
##urasia
##politics
chhyasi
##kamp
muhajreen
fahaashi
misunderstanding
superman
gela
rudaad
stopjudgings
kulon
patient
fz
peshani
tati
famosa
وڈ
##dhani
oy
sebut
##fico
##akukan
##order
cry
dediya
colors
intha
ferry
chaaye
joking
behak
khushhali
chlti
mujeh
prazm
reddy
kamiya
manak
ofc
kabab
marain
roji
gober
##lut
aren
donga
buton
sarta
merii
##izo
##biased
##grul
frwd
bharna
twet
awo
jaankari
##sai
fai
jagat
majdur
sadqe
determined
##menta
ahsaas
##hottest
moje
aakash
observe
daikhi
shakha
jevan
katwe
kit
disini
greet
shanasa
tujhey
fundo
ganje
gulu
aite
apart
quite
cmg
ren
reclam
mithi
##masuk
abadkari
chakke
sansar
bhaiyaa
chocolates
bdla
maango
imagen
unaasi
lauta
malik
##hindus
pelne
parade
##komat
ovo
fandoms
segur
kehlate
thukai
##ams
gill
kenny
bnega
regarding
batii
chonkanay
visited
aafaqi
sjday
describe
marakish
esqueci
salgadinho
satattar
jutt
nute
##dera
##ٹی
paf
##bis
aina
rsp
acara
دھ
##rooh
monroe
lists
##mukt
##کیا
starts
##توں
##urage
nawaq
##oke
##adad
constituency
##akash
karmo
isqaat
bak
auro
##ikrat
apapun
cnn
thaamay
nta
afreen
anus
hood
##tana
alok
lynn
##bot
##gent
unbelie
humry
merg
barnar
milaa
##ukur
integration
maron
paad
verse
masly
arsath
sharan
frust
baarisho
nambah
upto
gates
lire
thoko
byasi
transition
attacked
bnn
tea
bnday
ilahi
likhni
##30
reput
katti
ibne
##jus
##انٹ
tayyaron
einstein
khoobiyan
aya
fln
##rite
##راگ
peny
rukta
smjhne
jhuthi
gb
##kuchh
arahe
ati
##ppa
jaagta
represent
cooler
zrori
baabat
massive
##etu
hirasat
bangsa
##umbaipolice
fearless
bhukay
motocycle
kendi
tasadeeqi
suggestions
nikammi
greatestguruinthe
##ايل
docinho
babypenguin
tamirati
ishaaron
##gada
barnarad
huty
amanda
##ax
jti
nort
ragar
schi
doba
slight
waiz
##sali
##gid
##sima
##dishaandssrcaselinked
##fuz
##mere
##mud
##camp
##ature
##inagar
keha
##yta
kac
##asamo
parri
nehayat
##ooi
hiii
haafsos
afeem
joun
##alis
##mani
anya
##kop
khaim
lagny
bolom
##indays
tufan
##alaa
paunga
aaaaa
sip
sippy
tabh
##خت
akl
sbne
uthani
##awo
sadly
sanasab
ramdev
##oratorium
likhu
##یلین
laksh
btaon
##rido
govind
gunbad
guzartay
##panch
##alikum
profayl
lund
##udio
favs
shabana
kijiyega
guroor
knsa
jeenay
gunahgaar
##dilbechara
niklta
ked
tadfeen
ajal
meraypaastumho
trinidad
##ويیل
auntie
hirs
##لو
mushawar
pehanti
funds
urrtay
opportunity
awalnyak
hak
گاربو
perspective
##jia
##itameny
##chester
cang
traitors
##uerdo
aashirwad
sudhro
jabariyajodi
passing
gear
spokesperson
کارلوف
kurtapajama
hamsaaya
maan
کاساویٹس
awalnyakitameny
awalnyakitamenyangka
buff
gayen
jsa
legacy
kla
ober
##wand
pshton
rook
returns
snat
میاز
aids
##rass
##gmailcom
##aie
hoafsos
##aat
##ahrs
##tiyo
sot
khrid
hainab
festivals
sajan
abar
khakay
ghtya
peyar
kamron
darama
jangal
kaba
maim
lunga
bahtay
naimat
##eyat
drake
تھی
##ryo
nikhil
chudi
##qua
jalsy
nyi
jagir
lgane
wapda
jamai
ingrid
berhata
nowadays
ulad
dafna
damagh
##sir
avk
##tumhari
samjhaana
latal
tashbeeh
phelay
corrupted
mult
shabbir
rhein
labh
rkhay
ask
chin
friday
aayga
muzir
zainimam
##tization
dostokadostsid
bisti
machli
rajnitik
termina
maheshnbhatt
qaisar
gunahi
stupidity
mehrbaan
motivational
selfies
##publicforsushant
##tot
##hung
##master
dukunghabibrizieq
##verse
sardesai
voda
reserch
atras
wehshiana
charter
opposed
sudhrenge
vyavastha
aayyowa
jaime
furn
tazi
tjh
vyana
defensive
ہیچ
##gj
##gyan
##مک
kebanyak
koot
hoping
##apl
ene
chaty
humna
false
usdin
sakate
manoo
tahaj
##jt
benz
uncle
roki
chalom
poudo
##tout
##here
jiri
indoor
dika
polar
bashir
jinhain
mehwar
espa
jaanu
qabol
banawat
muneeb
sankat
##gnr
lati
aagyi
industri
suresh
makka
brohi
brit
iztira
mt
antic
##chando
rajkumar
nic
mushkilat
btau
ohho
memberikan
realy
##ray
budqismat
##ikarak
##quer
derek
lahu
hafsos
nanhay
broad
##ugu
jap
evry
##orsunuz
dabaya
andhbhakti
chuss
chaplo
brahma
dango
gnda
ghi
pun
##iyoruz
musalmaano
pratap
tun
glasses
lights
vakil
abdalm
##bling
indiasupports
sitaara
##htrma
##مممم
dedication
mousamoo
rukniat
burhapay
##constitu
apo
echo
entendi
dao
dating
puhnch
darshanravaldz
trpkingsidharth
kampanye
ارجنٹو
poudoun
wer
iztiraab
slightly
aili
cpec
emelec
ffs
kmi
hukum
herald
qillat
##hq
##zmin
##pto
##kp
##arai
kartha
tob
##eeti
dehati
converted
ott
##قا
##iyay
##idades
##kana
##rates
##nexus
abhy
rotten
bhail
##cit
jawi
khabre
reign
mato
humai
beyan
allies
logoo
skills
##arians
walu
barm
##meme
##cado
tule
asasa
receiving
##afor
amla
morto
ambil
trying
shq
tahai
tekn
paaray
bimaar
##hayari
mataram
ajadi
ago
##kkan
##gno
jau
chodu
gita
##isan
malkin
dund
urana
pihak
##rait
representing
faced
##fiqa
##hrah
kertey
kashmeer
lega
patras
rasm
fokat
viv
milaane
##pta
fiqr
artistic
sikhay
jackie
phrao
fanbase
didn
mjhay
cepet
rangu
influenced
protect
ramos
saira
sabhib
bitching
##وکو
bhulae
paalne
lur
nuestra
capacidad
formulay
##lak
intizamaa
##gatum
کارمین
aashiqi
rainbow
hale
brainless
maheena
jiwa
babrizindahai
##court
dimagi
humano
gumraahi
chusletasim
manqool
##bh
apeal
##trendonaug
behlaane
mirror
analyst
##enquiryforssr
##bur
incrvel
zindigi
sargodha
auj
equip
vient
hwi
اینڈ
ہسٹن
algun
haikiski
democracy
terceiro
token
photography
dedu
chadd
jawad
moss
devlet
maap
homem
artificial
danger
hemant
sochenge
##mean
vin
##gram
##sept
gaum
dahil
mustafa
niver
warriors
##ukri
imamat
baldon
##rais
tmharay
##eefa
menc
warid
corri
qaron
bayani
juhi
palestine
poochi
ndon
tukra
judg
aarhi
phataa
hela
nisan
##نگز
benim
rupye
paidais
zimmay
اسٹال
chhodkar
praying
hijda
cyl
chudwa
jrmnon
tamashaayi
itihad
yadavakhilesh
organise
entrance
meant
hukmarano
chothee
rockstar
pancholi
badlne
falsafi
qalandars
rawaiyon
savoir
##cancel
indonesiacallso
##astructure
gili
##kea
attendance
mhi
niyo
srio
zh
میم
specifically
ڈورو
##bida
##food
##biyat
##cw
##کنگ
##چن
##mde
haiy
##tiger
aly
shae
doond
onto
sohna
metre
##udents
maa
andhy
##arem
dekhtey
[...]
