[PAD]
[UNK]
[CLS]
[MASK]
[SEP]
!
"
#
$
%
&
'
(
)
*
+
,
-
.
/
0
1
2
3
4
5
6
7
8
9
:
;
<
=
>
?
@
[
\
]
^
_
`
a
b
c
d
e
f
g
h
i
j
k
l
m
n
o
p
q
r
s
t
u
v
w
x
y
z
{
|
}
~
¡
¢
£
¤
¦
§
¨
©
«
®
°
±
´
·
º
»
½
¿
×
ß
æ
ð
ø
œ
˜
ו
כ
מ
ן
ר
؈
،
؍
؎
؏
؛
ؠ
ء
ا
ب
ة
ت
ث
ج
ح
خ
د
ذ
ر
ز
س
ش
ص
ض
ط
ظ
ع
غ
ػ
ف
ق
ك
ل
م
ن
ه
و
ي
٪
٭
ٮ
ٴ
ٹ
ټ
پ
چ
ڈ
ډ
ڑ
ژ
ک
ڪ
ګ
گ
ں
ھ
ہ
ی
ے
۞
۱
ۺ
۽
۾
आ
उ
ए
क
ख
ग
च
ज
ट
ड
ण
त
थ
द
न
प
फ
ब
भ
म
य
र
ल
व
श
ष
स
ह
ा
ि
ी
ॉ
ो
ौ
०
१
२
অ
ট
ন
ভ
য
র
া
ি
ਇ
ਕ
ਖ
ਥ
ਪ
ਭ
ਰ
ਵ
ਸ
ਾ
ੀ
ક
ગ
ટ
ડ
થ
ધ
ન
ફ
મ
ય
ર
વ
શ
સ
ા
ો
–
—
‘
’
‚
“
”
„
†
•
…
⁉
€
™
⏳
★
☕
☘
♻
♾
⚘
⚠
⚡
✊
✋
✨
❓
❗
❤
⬅
⬇
⭐
⭕
ﭐ
ﭘ
ﭙ
ﭨ
ﭩ
ﭼ
ﭽ
ﮈ
ﮉ
ﮎ
ﮐ
ﮔ
ﮕ
ﮞ
ﮟ
ﮦ
ﮧ
ﮩ
ﮫ
ﮬ
ﮭ
ﮯ
ﯼ
ﯽ
ﯾ
ﯿ
ﱠ
ﱡ
﴾
﴿
﷜
﷞
﷠
﷢
﷤
﷫
ﷲ
ﷺ
ﷻ
ﺀ
ﺁ
ﺅ
ﺋ
ﺌ
ﺍ
ﺎ
ﺐ
ﺑ
ﺒ
ﺕ
ﺗ
ﺛ
ﺟ
ﺠ
ﺧ
ﺩ
ﺪ
ﺭ
ﺮ
ﺯ
ﺰ
ﺲ
ﺳ
ﺴ
ﺷ
ﺸ
ﺿ
ﻋ
ﻌ
ﻒ
ﻓ
ﻔ
ﻛ
ﻞ
ﻟ
ﻠ
ﻣ
ﻤ
ﻦ
ﻧ
ﻨ
ﻭ
ﻮ
ﻳ
ﻼ
￼
￿
🆔
🇮
🇰
🇳
🇵
🌈
🌚
🌟
🌠
🌱
🌴
🌷
🌸
🌹
🌺
🌻
🌼
🌾
🌿
🍀
🍁
🍂
🍃
🍷
🎀
🎂
🎈
🎉
🎊
🎓
🎗
🎤
🎶
🏏
🏘
🏵
🏻
🏾
🐅
🐆
🐖
👀
👁
👂
👅
👆
👇
👈
👉
👊
👌
👍
👎
👑
👣
👨
👩
👪
👶
💄
💅
💍
💎
💏
💐
💓
💔
💕
💖
💗
💘
💚
💛
💜
💝
💞
💟
💠
💡
💢
💥
💦
💧
💪
💫
💮
💯
💰
💻
💽
💾
💿
📌
📍
📒
📖
📝
📢
📣
📱
📲
📼
🔊
🔔
🔥
🔦
🔫
🔴
🔵
🔶
🔷
🔸
🔹
🔺
🕋
🕓
🕯
🖋
🖐
🖤
🖥
🗨
😀
😁
😂
😃
😄
😅
😆
😇
😉
😊
😋
😌
😍
😎
😏
😐
😑
😒
😓
😔
😕
😘
😙
😛
😜
😝
😞
😟
😠
😡
😢
😥
😨
😫
😬
😭
😮
😯
😱
😳
😴
😹
🙁
🙂
🙄
🙇
🙈
🙉
🙊
🙏
🚙
🚩
🛁
🛑
🤐
🤓
🤔
🤕
🤗
🤘
🤣
🤧
🤭
🤲
🥀
🥛
🥰
🥺
🦁
🧕
##v
##g
##w
##i
##n
##h
##e
##a
##r
##t
##s
##l
##d
##j
##4
##1
##5
##u
##k
##y
##o
##m
##c
##f
##z
##p
##ر
##ی
##گ
##و
##ل
##b
##x
##ذ
##ا
##ق
##ن
##ک
##ٹ
##س
##م
##ں
##ز
##ف
##ے
##ڈ
##ب
##q
##چ
##ت
##ھ
##ي
##د
##ش
##ج
##پ
##🙈
##😂
##😜
##😁
##0
##8
##خ
##ہ
##7
##2
##ط
##ڑ
##ع
##😊
##😞
##😢
##😭
##ث
##9
##ح
##6
##😀
##द
##ظ
##غ
##ص
##ी
##च
##र
##ض
##3
##🍁
##🌿
##ﺌ
##ﯽ
##ء
##🔹
##🔥
##✨
##🔵
##😠
##😎
##ژ
##⬇
##ټ
##ﻠ
##ﯿ
##ﻨ
##ﺰ
##˜
##¨
##ﺸ
##ﮕ
##😏
##✋
##ۺ
##ﮦ
##😹
##☘
##🙂
##ﻼ
##ﺳ
##ﻞ
##०
##ه
##★
##ػ
##😍
##ર
##થ
##ा
##त
##🔶
##💧
##💕
##ﺮ
##ﯼ
##💚
##¤
##🇰
##🔸
##💫
##१
##ګ
##❓
##💞
##ष
##ण
##भ
##स
##🎤
##ﮯ
##ﷲ
##🤔
##🌸
##🤣
##🖤
##😝
##💢
##💗
##😔
##🙊
##🔫
##😌
##શ
##ﻮ
##ﻧ
##ﻦ
##🐖
##श
##ð
##😛
##ﮩ
##ﺋ
##ﮟ
##🌟
##ﮞ
##ك
##ﺅ
##💐
##🙁
##ि
##া
##র
##ਥ
##ੀ
##💔
##👌
##ધ
##ﺿ
##ﮭ
##🗨
##👊
##ٴ
##प
##ग
##ह
##؈
##ट
##🌺
##😆
##😅
##ة
##😬
##क
##ؠ
##ﭽ
##ﮫ
##🎂
##ﺀ
##€
##œ
##न
##ो
##ﺒ
##🙄
##😐
##🏻
##ન
##ટ
##ﺍ
##ﻭ
##ﻟ
##ﭙ
##ﮉ
##ﭨ
##￿
##ज
##🆔
##थ
##😋
##😡
##ß
##🔴
##🍂
##👎
##🌹
##🌷
##ﷺ
##🏾
##🌴
##💠
##व
##￼
##ﺭ
##य
##😘
##۞
##म
##🙏
##🖐
##ਸ
##ਪ
##😨
##ﮔ
##ﺎ
##½
##×
##🤲
##ड
##ॉ
##👀
##ો
##ડ
##😉
##😄
##ਰ
##ਭ
##ਾ
##ਵ
##🤐
##😯
##ल
##ौ
##🤕
##😓
##ø
##ڪ
##ভ
##ি
##ন
##য
##💟
##👇
##😃
##😥
##સ
##💮
##💖
##વ
##ા
##ય
##😮
##🔷
##🐆
##ﺠ
##💪
##؎
##🔊
##📢
##🛁
##🌠
##ﻳ
##💝
##⚡
##२
##♾
##ﭩ
##👍
##ﻤ
##🎈
##🎉
##🎊
##💰
##🤓
##💯
##۽
##ﺑ
##💡
##💏
##ફ
##ﻓ
##ﻔ
##ﻒ
##ﺗ
##ﯾ
##👩
##💻
##´
##📲
##📱
##💾
##💿
##💽
##📼
##😟
##☕
##😇
##👉
##💓
##ٮ
##🥀
##😒
##👂
##💦
##🤗
##ब
##💍
##🌚
##💎
##±
##🌱
##😕
##😑
##ﺴ
##⬅
##⭐
##ਕ
##ﺛ
##ﺕ
##ﺩ
##ﮬ
##🍃
##🌼
##😳
##💘
##۱
##£
##😱
##🍷
##🤘
##📣
##™
##ગ
##👑
##⏳
##💅
##🌻
##ﺷ
##😴
##👆
##🇵
##ﱡ
##ﭐ
##👈
##ﺲ
##🌾
##ﻌ
##ﺪ
##🇮
##🇳
##उ
##ﺯ
##🕓
##💜
##ר
##מ
##ו
##ן
##ډ
##º
##🍀
##🤭
##👅
##❗
##۾
##📖
##મ
##✊
##ﮧ
##ﺐ
##🙉
##ﭼ
##ﮎ
##🚩
##🥺
##🥰
##ख
##ਖ
##ar
##ha
##ai
##hi
##an
hai
##at
##ay
##in
ki
##al
##er
ke
##am
##on
me
##ur
ka
na
##he
##as
ko
##ad
ho
se
##ab
##um
##ak
kar
##ta
to
##en
##ya
mein
##il
is
##is
##us
aur
##or
##ah
##ee
##ti
##na
##ik
de
##os
##han
nahi
##eh
##ch
##ag
##un
##es
ap
kh
ba
par
##ap
##te
##ir
##iy
bhi
ra
hain
##ol
##ne
##har
mu
ne
##oo
##az
in
cha
hi
sa
##it
tum
##ho
tha
ha
wo
aap
af
ya
##di
lo
##si
le
##da
##le
ab
aik
##ic
##kh
bha
##om
##aj
jo
##ut
an
ja
yeh
##iye
kya
kr
##sos
##la
##ush
afsos
kha
al
##ain
un
##aya
the
hum
##ing
be
di
ban
##aye
mer
us
##ul
hu
##re
##ata
##ki
ye
lag
##aq
##ri
ac
sha
##ga
##uch
##ais
##id
khush
##hat
gh
log
ma
##ke
##ra
liye
bhai
##ard
he
##ter
hon
##ath
##lo
##ye
##ari
bo
raha
wal
##li
ch
mo
sab
bol
fil
##and
it
##ast
kuch
woh
##ni
film
##sa
##ka
##ara
##ati
muj
do
koi
ghum
##wa
ag
so
##sh
##ana
pr
##ko
or
##ada
bar
##ge
ter
baat
pe
##ud
thi
##ht
##me
ham
re
sir
kam
##ind
##ist
dar
##cha
##ve
##kin
##se
nhi
no
yo
sam
tu
mil
##hir
and
pak
##ani
all
ky
##are
mujhe
##ate
sak
as
lekin
dekh
sath
##ma
kis
##af
jis
zab
bohat
kisi
ga
##ly
ais
kahan
dil
hota
apna
##gi
man
##th
##ardast
am
jab
tumhar
li
zabardast
##ce
##ub
tak
rahe
##ent
apne
##nay
st
##up
gaya
lagta
mera
har
sh
karne
ni
jan
tar
##ali
##ala
##uk
ta
of
da
##wit
waq
kab
mai
ek
peh
gha
rak
te
agar
main
toh
mar
allah
##lay
##ty
pic
pa
##tay
bad
##ang
dek
##ayi
##witter
aa
##ro
achi
mus
sun
##ood
##de
mas
bat
gus
ar
bi
##man
you
##com
##oor
ad
##ue
pakist
com
si
che
pas
tumhara
diya
##ck
gussa
##ja
sirf
phir
rahi
aaj
pict
bah
maz
##mi
tor
lik
per
##zar
ro
bolo
##een
##za
##st
apni
##wittercom
pictwittercom
chalo
##ver
for
um
sid
con
##eed
ji
##ed
##hay
##kar
baad
##ane
mat
reh
##tion
wa
##eet
kiski
##hin
##hen
kaam
##hy
hy
jais
keh
la
kabhi
tr
rah
terhan
khud
pakistan
##dia
##ba
go
##ish
##adi
dos
karta
don
##ct
ge
din
en
##end
rha
karte
jaye
##oon
ti
##ash
kiya
##hab
co
ziy
but
##ess
kyun
sal
##ans
##abi
chal
ziyada
##aa
itna
##vi
jata
nai
##est
on
##ey
##eeb
sar
hoga
##kay
meri
aj
th
den
usay
pro
karna
sho
tab
nah
mere
##ation
vo
##pe
khan
##ore
##ham
her
sahi
##ry
##agi
hoti
##shi
##ny
she
say
##bi
##hon
shar
pata
nik
sy
im
##day
po
##gr
abhi
##to
far
##mat
##hiye
are
##ray
bh
kaha
karo
beh
fr
##uf
we
kit
zind
##haha
cho
bhar
##ust
gi
hue
dik
tw
naam
at
ak
##ci
ghar
##bar
##qa
waqt
##ll
##ts
##tar
du
bil
hua
sakta
pur
acha
kho
aisa
baar
bas
##all
gu
gaye
jin
yahan
wali
##ice
saal
##kk
chahiye
##esha
##iya
mad
##chi
pais
az
mal
##daar
logon
taq
haq
zar
##ill
##dar
desh
soch
##eeq
logo
##ort
kal
##ama
ins
dun
##app
##ail
day
nazar
mut
##ase
pol
kia
waj
chu
meh
wala
##ot
##ia
##war
hind
que
fir
karen
##ek
##ment
rahay
##iz
##ant
they
##ers
##yar
##che
aw
lar
##ez
##akh
##ool
es
##iyat
##oot
pehlay
dekha
##ere
su
gayi
##mo
ex
tas
pl
##eel
##ine
khus
##op
hwa
hm
fa
##asi
##wan
##ake
jaan
nam
shi
this
mag
his
zindagi
##hna
bur
##mp
sb
##wal
##rat
walay
##ght
pasand
kon
##ity
##oom
rhe
sat
##aza
qab
##so
my
##ber
ur
khat
up
kir
tweet
tal
##no
pad
sc
asi
nay
##do
##amil
bahut
jal
##ein
##du
gir
modi
##hai
##hil
time
hui
cheez
##ji
khar
chor
isl
##hta
##et
chan
liya
##alat
##eem
dr
samj
##ss
##ong
bana
ut
sup
##chay
##fe
##sha
was
min
##low
itni
len
##bat
india
##uru
yaad
##ide
##wab
bu
ay
##fi
##gh
##aray
##ami
dono
##ran
jee
##pa
##aiz
kais
##ost
ny
has
tam
bach
aam
honay
##hal
wor
new
hun
hay
##eer
wajah
baray
##anay
qu
mul
jag
mis
kyu
##port
chi
##el
wit
gya
##ees
that
not
##ین
samaj
than
bal
hog
##eri
adak
karti
##uda
tho
bht
##hr
##zi
khauf
iss
tara
ker
happ
cr
pi
hona
##kul
kirdaar
##ung
jai
##der
##sp
##aw
sub
pai
##zz
ri
band
may
mam
raho
maj
##ayen
kay
bhe
##ori
koshi
hamesha
isi
kamiy
shay
asim
##ff
apko
ang
##jp
paas
bilkul
bag
show
##vie
##gar
khi
nikal
##age
bak
had
wale
dost
kash
##ks
mun
##va
##one
##waz
##od
lad
taraf
##ega
laga
with
tou
your
kamiyabi
jahan
##kht
tm
sad
##esh
##ollow
##qi
haqeeq
pm
koshish
mum
##art
##lim
gy
zaroor
##mal
magar
##co
poor
##eef
##era
can
ah
pat
tere
kahani
##air
men
sm
jati
##hot
##ii
##ure
love
##areen
khushi
##had
za
han
##for
yaar
aata
##saan
duniya
tan
like
hn
maa
aisi
mush
##pr
deta
aise
tuj
teri
sana
##azi
aaya
##gg
hal
san
jaise
ras
rakh
happy
res
shayad
hindu
war
shuru
hogi
yahi
##ally
jaisay
ram
##habbat
##ora
theek
follow
##tr
bl
##qeen
##und
bai
aad
ame
##yada
##ina
muk
congr
thay
br
ada
by
vide
##my
muslim
##ted
waqai
py
##lease
bn
##oob
##uj
dikha
ver
bola
kro
cl
jit
##iyan
##wi
hote
bjp
wais
dal
mah
mi
fo
##pp
sk
##hh
##tic
##sion
vi
##naak
dete
##sar
zam
gay
##br
jao
qabil
ata
char
haan
##way
bab
dekhnay
num
ila
khe
##afi
lg
police
##ار
matl
nas
kahin
##ukla
lu
hahaha
khatam
##fa
##unt
##ese
ae
rhi
##osh
sach
lam
kare
##gn
baap
ghair
##qu
have
gar
bus
good
pay
bata
bs
##ence
##mir
ik
jh
app
bahar
tamam
herat
##aid
movie
##go
##ction
bt
dena
yaqeen
samajh
##wn
##orat
bir
nahin
paish
aas
mohabbat
##tu
pehle
wah
hoj
##aan
##ona
video
ach
unhon
##ting
aag
naz
insan
##son
what
##osi
khaya
moj
##atay
kara
il
##kaar
pta
##lat
him
bagha
use
sahib
##aat
##hing
mur
sp
saath
##ute
hone
##eek
aak
jawab
##oss
dan
aaye
saf
kitna
uda
##ame
##dah
baj
will
gai
##ld
dia
agr
maq
comp
sur
indi
##enge
islam
##ft
##ary
##hs
##uq
kyunkay
matlab
##hiy
party
hoon
mand
##ket
##ری
id
##jo
waz
maar
##nd
bb
##oof
one
vote
jana
maza
##harth
tera
##ook
haqeeqat
ali
mujh
dukh
media
mak
##ome
##kil
behtar
##bs
dai
hat
eu
##now
##tiya
mila
fi
pyar
gand
jagah
pee
##ank
shak
haal
cor
ameen
khof
##ici
see
##ous
raat
qat
imran
##ng
##maal
wap
##tha
aapko
##reen
iste
huk
kaafi
just
fe
bro
##uran
sarkar
udaas
car
aq
out
qad
please
kharab
##be
gal
iz
dekho
##ila
off
au
kut
pah
aayi
filmon
from
qis
sakti
aati
chah
beht
khofnaak
je
jam
likh
20
##ca
##asil
##waj
ber
dus
kashmir
el
rep
##use
##khs
khayaal
col
dua
kin
bara
##rr
pass
bacha
dh
mulk
inter
usko
##iyon
##yo
pag
support
bhag
wahan
team
##riend
tarah
##chan
##ade
kat
##andi
haz
muq
our
dis
mojood
##pt
yar
##اي
##thday
wat
##ther
##ion
kita
aye
pakistani
umar
temp
if
tumhe
inte
musal
dosray
shah
mei
##ble
mon
dur
##htay
howa
istemaal
twitter
chup
qar
know
kaise
sik
krna
bay
jane
op
khaas
teh
naf
##mad
jb
shakhs
tay
pun
chh
##je
likha
behtareen
##ale
sakte
tv
del
##ven
hotay
congress
##tan
ib
bho
ph
##یل
##uld
##ram
##ica
##یو
##ney
hamein
ish
hos
kiye
khila
hamari
bharat
too
##soos
mau
haasil
##we
seri
##min
##hid
dee
utha
tumhari
dain
mukht
news
hus
##ull
sahab
raj
life
apki
mushkil
asal
uske
##eshan
aisay
##ond
##ose
aakhir
##sid
##say
##im
##kr
ever
##lic
roz
##hnaaz
##nat
##nya
urdu
##aal
fan
##tey
ake
##kha
poori
ele
fais
##mag
chala
lak
mubar
aya
bta
##ass
pan
now
pehli
##ory
faz
##urt
bura
shaamil
umeed
##asir
dy
mukam
angaiz
lagi
beta
uski
kan
##ach
hen
uska
jay
##ton
##vo
##gl
dekhna
son
##abad
sing
khuda
doos
##jh
jar
best
para
jayen
manzar
friend
##bha
tumhare
##kkkk
##jiye
ul
chale
##waq
chahta
oh
zaroorat
dhar
hel
birthday
jeet
ku
any
por
gol
gov
pal
bul
##iyo
ir
galat
gr
how
jaa
##hein
##ور
##ura
khaiz
hath
mn
aadmi
##ire
##diya
##if
19
adakari
shan
nat
madad
yaha
##bhi
hein
dilcha
rakha
shadi
##ushan
pareshan
dilchasp
##bai
post
its
satke
nis
shuk
aan
nh
##pl
yak
##bo
ju
walon
karachi
real
##ile
awam
kahi
peop
adakar
kehna
maine
hes
##tice
##eez
##hone
##یک
kai
sec
who
diye
jung
mt
##kat
insaan
jaz
bun
##سٹ
sala
mor
dha
##ys
dho
tujhe
kehte
daur
mubarak
krne
sham
mukammal
##gu
anda
kee
hala
peda
krte
maloom
wohi
taf
hamare
mash
back
##wat
sor
daal
pap
##yan
##wer
##kari
##bra
##oomat
poo
##med
barri
jaisa
lena
##ron
des
bhut
##reat
aurat
##ون
sidharth
pra
##hli
##dan
badal
hamaray
janta
mean
amer
bech
unko
nar
##out
phr
##allah
qatal
##nt
taj
##ado
pagal
bud
maan
famil
##dd
##amat
boht
indian
##ctor
kitaab
##ky
jaane
umdah
krta
ajeeb
taree
##ando
##icket
inti
##esa
##get
##ree
baqi
year
mehf
##per
##led
malik
gun
##tt
km
musalman
tk
pho
ru
##yaar
salman
deti
song
feel
pre
suna
ghalat
dimag
##ayat
gen
##taf
##nk
iq
gad
kaun
people
poli
##kan
##tif
##uma
teen
lead
every
##ublic
sch
nawaz
bet
##kt
##ان
ty
larki
dekhte
##ikar
rehta
bc
leha
khu
##olo
inhen
##raad
sw
khel
##uri
jitna
plz
thank
##azaar
##mb
sawal
##ning
parh
##haka
andaaz
number
guzar
das
only
bohot
amal
mark
##awat
itne
mj
kitni
hesiyat
##haz
10
##hee
##haar
naa
fai
hazaar
##par
jyada
family
##ds
ilawa
hissa
##has
dont
##gan
der
##shukla
jaldi
ahe
farm
walo
some
star
govt
very
apny
##naaz
##qaat
str
pu
afraad
mazhaka
dard
waisay
##wood
ser
##khan
sara
rahy
wind
army
zare
hr
lah
gye
##lu
pura
rahen
gan
ghan
jatay
##cho
ce
pti
ly
int
##sr
mard
ve
##eng
##ban
more
hamara
zara
socha
haha
abb
##vel
##po
khobs
mazeed
##sal
paisa
gro
wapas
jus
same
##alo
mandir
tala
jayega
##ents
##wai
about
puch
zyada
mang
fans
mile
mehsoos
et
shair
##int
##urat
get
rang
##asht
zareya
hey
person
big
asli
ms
##alif
##aba
warna
dekhi
##ps
##taq
##maan
kaisay
beti
khobsorat
##ena
##ول
achay
baghaawat
yah
isliye
##lywood
balkay
##asim
##aki
##vers
##jab
banaya
school
cam
kah
yr
bigg
anay
##jar
##zaar
kere
name
##any
chand
##lot
##ves
inko
##hammad
shehar
gali
##men
buri
america
##heen
kardiya
est
##mar
##asat
sil
pri
again
##jid
##tain
##yal
mahi
bhool
sr
##ise
##uth
wr
manaz
##ance
blo
rhy
##urn
qa
milta
barray
bang
samjh
karke
os
jari
daf
##pan
comm
ten
ud
unki
manazair
dam
jate
when
ishq
##hri
lain
chho
em
##jay
##ait
nee
saari
##yy
##pect
##was
mukhtalif
aapke
##far
why
bada
##ult
unke
mm
##cy
##cial
##taar
##inda
rain
##weer
fat
mr
##tak
dush
saaray
##esi
##vid
janab
tasweer
pani
##ord
zahir
ghabra
delhi
line
hans
tra
##hesh
##oll
##ero
##ister
##yi
##uu
ind
##ws
dekhen
thora
##daron
yg
vir
right
##یٹ
masha
##ww
bayan
##mm
fake
vis
today
pich
##hana
kuchh
wahi
mout
jun
sharam
##asa
girl
naya
dehli
bin
##یم
ney
case
##istan
bajaye
thy
##sak
yad
insa
##agh
wazeh
qareeb
sen
##ways
lol
amr
lai
agarchay
##abiq
##aim
doosri
##ital
comment
lehaza
bachon
##lti
think
tareen
tabd
sah
nafrat
ehs
##ushant
aakh
lay
sit
shame
##gy
##ze
bina
##ism
sorry
parta
mutabiq
mir
fal
waise
baghair
filme
bahot
help
##hara
hak
dainay
av
miss
count
bananay
lin
sare
laf
apke
hero
make
play
screen
baki
guz
##tem
gul
kitne
sai
faisla
##ac
god
reply
whi
aakhri
ini
zi
mara
world
##bal
rahul
trend
##ene
mom
action
salam
bik
siy
##con
isko
##barah
honge
##bah
##nel
tweets
jaha
yang
nd
mol
bna
mumbai
ikh
ghabrahat
kaar
kas
mili
##hain
choti
khail
muh
tayyar
rehne
ij
mab
ok
##hari
lete
##lik
##ini
##boss
cal
work
public
##ason
duk
##tive
win
much
##san
##ner
##fir
##unga
fin
khul
jani
nae
kl
##ooq
aawaz
andar
hogaya
##dr
minute
majmo
chuka
##the
##anat
ghabr
##ug
khoon
ladki
##dy
cham
bor
agay
##char
election
atay
dene
even
mana
phone
##hra
kayi
nuq
thik
##xt
sale
##que
shakal
##wo
aapki
jad
acco
sher
samnay
cap
last
##indi
well
bes
##yon
sidnaaz
khoob
ehsas
##india
plot
saab
bare
##isa
##oz
naay
them
apka
rab
izz
nak
ze
ahem
masjid
##ito
##lf
##zam
jald
##ten
##his
air
ghareeb
paras
match
justice
dikh
##azat
##cer
fl
jail
pyaar
rakhe
waqe
tuk
kami
aankh
kre
##pi
##akar
usse
proble
##oshi
puri
cast
angre
aksar
masla
chore
muje
qo
gover
way
##sy
eh
##tum
yes
##reeb
talaash
thoda
##zai
kap
stop
channel
##cle
khana
sabko
haf
chalta
shukla
dec
baith
always
theen
sol
##bab
##oooo
great
bachay
sind
ghabrana
fun
waqay
##reer
then
yakeen
care
abe
##رو
##zal
khabar
##ou
##ahi
##riya
yehi
raq
thanks
krty
leader
intehai
karsak
spe
such
##aty
ai
dire
douran
mohammad
saat
iska
tb
##llah
##ont
##را
sabse
rehna
meu
halat
pari
lutaf
##urr
haqeeqi
muta
taham
##ated
problem
##wala
khil
##hum
##ubs
sud
sama
krdaron
mp
paise
cm
izzat
over
##hu
hindust
eid
dobarah
after
##bd
hosla
##kal
really
rakhna
##aaaa
account
leke
hume
govern
bhot
stud
##shad
##ole
sabhi
said
did
##wahi
##hehnaaz
there
##bay
aapne
politic
amrici
drama
lage
samjha
alag
yani
##oge
sari
##ateen
also
kark
game
saktay
ela
##umar
kala
bolte
##rah
mehfhil
kham
gyi
chahtay
zul
chun
##aur
##raat
gandhi
lat
super
taqreeb
exam
saaf
baba
high
madam
##gram
##ayega
series
pen
##sain
lagti
call
##may
##sad
loo
tareef
free
200
##fer
roo
##ters
uni
##oni
hpa
tash
##able
##wah
qisam
##ror
##tin
##col
daikh
stay
beg
##fans
##aish
galti
##str
##htar
wh
##pak
boy
dear
##andar
mamool
##ika
##les
aks
##لی
##mu
perfor
jud
gham
bawaj
face
aar
aeye
##wari
aage
akh
##oos
lia
##jawan
kyo
aja
##ving
under
hukoomat
mans
aal
nation
karsaktha
##her
##bad
##oosi
abadi
##anch
kyon
##mahesh
##por
uss
feh
##kn
haar
dushman
mem
##tahi
##au
come
jese
photo
subah
krti
bee
naq
chod
##eeda
rec
khol
##baat
bade
chahe
##hoor
tareekh
banda
##alik
insha
##log
music
##ather
##leef
yun
##tal
mare
majmoi
jama
start
##akay
##ashi
their
test
waha
want
papp
hosp
mujhy
##khuda
cri
mos
ati
sey
behan
jisay
##taa
##ful
share
cricket
jhoot
itu
chuke
om
jaisi
##als
hee
##une
##hayi
##ations
first
need
job
##nab
sul
huwa
bom
rash
set
khilaf
mit
##rup
lakin
##uz
mamu
bawajood
ci
##heed
sci
unhe
check
##ady
khaw
peechay
hazrat
denge
pos
##jan
##aise
##ln
list
##py
hussain
kur
bari
chutiya
sakht
bandi
group
taqreeban
##dul
tag
mumkin
khilaaf
rish
saam
change
sils
lafz
##lis
chaar
bhul
chuti
jaanta
aate
shehnaaz
pahle
kehta
pehla
##hty
daar
yout
lga
ol
unka
taiz
skta
batao
geh
class
hospital
##ream
many
##tor
quran
thori
##ular
##raha
nojawan
##tw
hame
aapka
##trol
akela
##uly
##gaar
##hane
##urs
deen
ache
prom
kbhi
accha
chaha
bit
haath
##lb
rt
musht
jabkay
neta
tod
##pres
takleef
biwi
##aja
apnay
##mas
##ick
poora
karni
paida
angrezi
rap
punjab
jum
live
zameen
##sed
##ler
##rey
ahmed
hoo
def
pres
yakeeni
##bil
waf
kkhuda
##یس
rehti
ans
aane
respect
bac
karenge
khair
ilm
##aka
bolne
ed
##osa
lahore
mazahiy
##lam
##aqat
##endo
bataya
rom
atta
cle
dahai
##ms
try
maf
singh
mauqa
markazi
musk
country
naye
wish
usi
##hoon
hand
azad
rho
##ked
performan
bhiya
dekhe
shaam
bolna
##ship
should
samne
##main
pha
badi
mutasir
scri
nahe
biggboss
##ili
zikar
##ces
sang
satah
bre
ruk
itnay
tau
government
lye
muqab
tri
nan
ghus
naseeb
hada
dhan
aao
nehi
dum
ait
##نگ
los
utar
via
##king
bla
qan
##aliq
gum
minha
##lion
kamy
buk
##waar
##ger
prof
buny
201
take
state
##waqqa
court
jas
##mani
##hn
zeh
sahe
ani
zabaan
produ
##cause
china
boss
azam
bhagwan
bhej
##ال
##rc
usne
performance
ekht
ass
##udi
jur
##var
##hiyat
##ira
bole
##ataam
fav
##qat
haa
night
##ikas
##zo
afzai
himmat
ekhtataam
jara
door
##ano
kese
ign
tasaw
mushtamil
pappu
chat
chuki
dah
phe
bollywood
hoty
rat
dew
saza
abi
baaz
khawateen
##key
sushant
idhar
vaq
karkard
aat
mene
power
corona
##cc
ہار
##ube
uma
##test
##afsos
paye
##haan
harkat
because
corrup
sharm
rok
natee
##ike
being
road
##lon
karkardagi
dunya
##mes
fit
##our
ghatiya
bihar
ben
##gir
keep
oop
inc
##esy
##van
pure
deegar
nor
##deed
##but
zada
##of
aab
##ula
script
lgta
qas
guys
tall
##kaam
##cal
awa
tujh
rup
vaqata
top
##khab
engl
other
##arat
shab
chin
cine
ev
##nn
##ooz
against
##uh
##aron
mula
tumko
##ved
gae
batain
waly
##rist
afr
ziada
sada
##haat
##yed
sindh
##enay
let
ng
dosra
##shah
upar
pooch
##lie
abad
##zaam
##unty
andaza
lekar
##ib
##ties
##tir
inki
##kis
smj
goli
most
##dh
isse
va
month
cre
aza
##mon
rkh
still
ghr
look
mob
down
terror
ese
bard
azeem
##iki
chay
karwa
mehnat
gener
qoum
##eeqi
##oli
##hor
colle
bhakt
mazah
maqsad
dub
rad
hojata
wi
sidharthshukla
dor
kch
##veer
##hira
manz
lainay
##gill
krny
full
hadaayat
ghazal
maaf
block
##pal
ist
chak
kun
qaim
hei
science
next
tang
##wara
kafi
waal
farma
##یڈ
##eep
thing
farq
var
exp
##یر
jha
dast
part
##zad
yeah
key
program
safar
##koon
bank
bunyadi
nhe
misaal
mashhoor
cinema
qanoon
ash
rakhnay
shik
chhoo
##act
sus
kak
chahte
chori
##tage
mazhab
dm
these
salahiyat
humare
smjh
##fr
##mber
akele
dham
##agar
kahe
run
##ooo
tehreer
baal
ep
amit
yaqeenan
ana
papa
done
parre
majb
mahar
ris
##lt
##pur
paid
##him
mood
been
sap
##akti
sanj
sans
##hib
##ude
side
here
##وں
rakhta
baare
fazer
neechay
##ns
lang
achha
##tiv
##oy
##ings
tumne
ibti
ps
##view
اس
##aab
hahahaha
uth
##mati
tap
##ugh
zinda
raf
serious
jae
leta
sharif
esa
##astay
dari
saha
karega
faida
sim
sin
akhir
neg
##tra
kijiye
black
baha
chali
bhaiya
mtlb
waja
tareeq
aman
dharm
##wad
hope
barh
##ors
##din
shamshad
jahil
cele
kher
chocol
larke
##chalo
rakhi
##iness
mamooli
##bani
rashmi
##aji
chalay
late
kamya
zindah
kry
##dk
##اس
##wahish
iske
ran
dusre
posi
##uba
hindustan
aai
ہارر
tabhi
mustaq
##bb
val
##hl
uch
isme
lark
##alim
##hani
mind
house
hit
padh
##asha
##nak
bolta
haram
##mand
banana
congrat
##rak
##odi
##jaam
talluq
##lete
bani
##yaan
##joy
hoa
##pon
must
iski
baro
dab
muslims
jaate
##ayenge
meet
heart
sipa
##line
##jri
kht
khubs
##cts
inka
stand
dikhayi
sikha
raye
youtube
social
copy
khas
##row
lene
land
ghalti
rakhtay
som
rakho
zim
arab
ghul
maqam
jaaye
##icha
##wana
##estion
bhak
##یا
bd
tur
hukum
##eee
wak
ank
karoon
ensaan
seed
sard
##duc
##hez
##iso
hissay
aaghaz
morning
namaz
##likes
kil
ignore
dp
balo
darja
chocolate
dosti
##ric
saare
rasta
milega
never
wow
story
shandaar
##oj
durust
khusi
better
version
lie
tabdeel
##gha
ijazat
sl
hol
##ao
cu
##ikh
hor
##tici
hogayi
honi
would
##ley
lambi
dekhne
##وس
plan
kamyaab
bane
rakhay
sipahi
las
##its
aleh
##riaz
hiday
shukar
foot
rh
aankhon
promo
inke
aqal
##car
budget
##nam
aayega
kaisa
bachi
##win
fu
dev
soo
##bu
##yaad
rel
pand
ger
watch
##reeh
intikhab
bewaq
tawaqqa
ide
years
paanch
kmh
##qay
##ru
bless
halaank
mery
##oray
##baad
izhaar
awaz
##kash
aqw
award
mutaliq
shikaar
sifar
kaa
khid
sahih
jaga
week
office
##ینڈ
wait
kamz
##anya
chaiye
huye
##gal
taraq
jinsi
director
lit
qaum
ala
kb
mgr
##yat
##sc
bache
qur
pil
darya
report
seekh
break
zor
hidayat
shareef
cheezon
afg
##thing
buhat
##edy
jantay
##qui
banai
##ned
shayar
gari
kamyabi
minister
##come
taleem
##tee
hmesha
bart
dewp
gaali
maha
intzaar
insani
iqbal
##less
cheh
##ajaj
##liya
##ente
soorat
banaye
gur
pls
ao
##liye
kn
muna
bain
##aik
##eni
ikhti
zaya
اسٹ
karam
card
mast
fight
##asti
oopar
rona
mobile
##bir
neend
##eno
sum
send
thak
rosh
baaray
tees
##manshi
point
followers
bel
dak
end
open
##yam
##ative
kyuki
##nu
mph
##wk
note
politics
ste
level
chil
hojaye
mari
hora
journ
train
doston
siwa
dega
##jj
fail
bardasht
khawab
khayal
clear
baz
##ons
reli
doctor
tarj
##maheshbab
vid
##usam
won
##ker
##hit
##abar
give
hard
siyasi
##eeli
enjoy
como
true
luck
baby
hist
nig
uncle
kashi
rahega
halaat
##lar
mann
comer
makh
karde
acting
##ical
##qaab
asraat
##laylikes
mukhtasir
##shan
mehez
jain
zulm
parha
##cus
##bl
waalid
hoi
shiv
dala
##adat
khwahish
##icial
king
piche
##ught
tune
##ukat
aana
##hut
cas
wese
##laylikeshehnaaz
ppp
##bt
pada
tax
roshni
qui
##em
chai
##ardari
maghri
nice
paaya
janib
ise
were
sadi
arey
unhein
marne
khara
hogaye
rehte
karty
narend
kaat
emo
zub
##mis
comedy
sys
rakhy
chahye
##اک
vie
aala
fara
aor
jeen
plzz
allag
educ
pain
binod
##chod
bhala
nu
nikla
##thi
aug
zariye
janwar
press
bisa
pit
##ching
shukriya
fay
##del
friends
tl
conf
hate
question
dhon
chaye
hindi
##gham
milti
##naam
tart
andh
shuda
hae
##ork
##stan
home
##asal
##asta
bachpan
tanz
cbi
nabi
karkay
zakh
kabi
##lah
##wur
does
gos
hawal
tarteeb
beech
bri
word
chl
ane
kary
got
filmi
fikar
injaam
web
eng
meter
wahid
leh
nal
terrorist
dara
taakay
##pol
##ision
jawan
##dam
system
##gle
release
record
karain
asar
lakh
##adesh
chain
##wani
##ones
law
muza
control
didi
khandan
##inha
adakaron
ami
ssr
##cted
nikaal
##kaan
miley
waza
vai
zal
qub
jitni
##gue
##fat
##cia
bich
zaroori
kamzor
##lop
##ident
##hista
jaati
chutiye
shaheed
##bert
ca
##bdmaheshbab
##rar
days
chhootey
bij
apa
marzi
insaaf
barish
dhe
art
link
tasawwur
thodi
tafreeh
sabi
kutte
dri
fouj
jannat
bator
neh
season
samandar
qader
money
qismati
muqablay
ghali
jhoo
admi
##ria
samb
shir
##iri
taw
liy
izaf
aameen
khal
head
##rop
captain
##ded
chee
tea
national
gang
qabal
bewaqoof
##asib
tah
##fort
beth
chahti
aasaan
qubool
##urse
nakaam
gunah
##oobi
tom
jayenge
##stand
sarkari
camera
score
lanat
yu
single
diff
tareeqa
##isi
aul
moseeqi
##ward
wagh
##ullah
##pk
cute
mais
vou
shairi
lal
haye
yaa
dila
chill
##odh
##ilay
gyan
doub
kyunki
ros
acc
afghan
todo
dad
nya
mausam
jayegi
##chu
##raj
beau
letay
larka
skte
bap
asa
##ok
islami
put
lagey
religi
sake
waghera
##baar
maal
##eeee
wai
gam
##gin
kalo
journal
mazak
proud
rishta
karw
##den
behen
vikas
guf
waqea
hahahahaha
karein
lab
gana
boo
##pat
naan
ameer
hawa
##tiful
net
##ling
dein
tell
hasil
karan
##put
fut
##dayi
juga
##das
hoja
humari
taraqqi
cheeze
barah
saya
dijiye
##dio
doll
chut
zardari
hosakti
jaata
kkkkk
mohtar
taaqat
khamosh
##rif
aasani
##akht
raah
rk
##ungi
btw
jahaaz
jisko
dilchaspi
##self
##aaa
mjhe
##uji
##chal
##ustr
wan
##usi
muqad
tat
kag
scene
saka
wapis
##arts
mazb
nasal
majboor
qarar
laa
sex
cant
ammi
##hak
reg
janu
miya
aunty
aay
bhee
tanha
##laat
sidd
qee
assar
##res
kehnay
##iro
toot
soon
adv
madar
shehna
jism
##voot
gayab
##jriwal
##qt
ikhtiyar
maang
company
##ris
which
yhi
##aro
aara
result
sel
khule
watan
where
beautiful
fic
mabain
ان
rs
kor
##rio
actu
pmln
safe
both
inn
maam
baton
kaho
##iliye
sheh
una
age
aahista
##cot
##cu
chacha
tafs
ob
larai
suppor
muzahira
pasandeeda
waah
hojati
##dil
lagaya
nab
ajj
wazeer
board
aqwami
ray
yh
##bot
actor
##iiii
chahay
guru
kutta
saaz
##fiq
nir
##bas
sakay
masoom
jor
dunia
cer
araha
maienay
##atein
andoz
bss
personal
##oh
##ats
usme
mansoob
siyasat
##kam
taa
msg
congratul
##itr
##tab
tarha
mahol
##haq
gareeb
zay
hamla
college
##lle
bartan
opp
##hyan
hif
chhota
gard
padta
type
career
qeemat
sem
##cin
naak
##raf
insaf
bunyaad
rai
tanq
long
##nah
ksi
bomb
##وم
##ailer
##ola
wazahat
apr
aslifans
##versity
##aap
bachan
##fore
goo
asimriaz
general
reham
##don
khatoon
samaeen
darr
lond
tabdeeli
tareek
nikl
##kkk
rail
##yah
##bh
humara
sifarish
pehchan
talu
jaty
old
##onvoot
auqaat
secular
sehat
pab
ry
bbonvoot
ibtidayi
kid
chair
##band
tumse
read
mumalik
mud
track
saw
trans
mayoos
dimagh
khanay
##isode
called
##ple
requ
ask
tai
teach
##heer
dul
bhaag
nuqta
ghanta
pati
banane
rasool
students
mes
##maat
saamna
etc
ohh
interview
haalat
aulad
##jabi
bakwas
##fors
qismat
lala
maut
##kaat
walid
haina
nateeja
zakhmi
pakar
##ashtra
##form
##mai
gandi
hour
ayen
jat
english
behn
desi
inhe
tajur
episode
pin
anti
whats
bijli
roti
tik
##ual
jinhon
words
baatein
tabah
##cept
chalne
zaati
##asli
lot
##lin
humesha
yogi
phle
doob
##00
final
seek
abbu
imam
kitab
saddar
rakhen
judge
bande
##by
ml
enter
##logo
maloomat
##waye
jack
going
rooh
roman
##dha
krke
##aiye
##tik
pohan
london
ear
dusro
narendram
##arah
modiji
dey
tashad
##illah
sweet
kaisi
saabit
##alth
pehly
mutahid
##tv
taluqaat
nara
dhund
intahi
lea
non
pade
tada
mujy
hogya
##ens
kang
josh
##gli
##ccha
##ameen
tad
fiz
##rest
##akat
dekhaya
dhoka
amaz
##andom
zamane
humne
farmaya
##ras
tawaj
karay
##isha
bhad
##ague
tali
crore
achan
takhl
khay
unwan
##laa
rahiye
##ls
rastay
##ins
cup
pegham
likhi
jap
lau
july
pesha
million
##pik
kartay
university
qay
##uro
baaki
save
bhara
deser
shoq
paz
cons
chunkay
##ania
munasib
fb
##وک
jamaat
saboot
wrong
ghalib
arrey
muqaab
hansi
ss
betay
medi
hoge
mashallah
stat
##ow
jadeed
##tri
ghhor
muqaabla
jub
own
##nif
##eeen
khali
rehtay
fas
##سن
chehra
quer
city
inv
ikhla
tadaad
adakara
##taz
hadd
##bus
dollar
##وٹ
##aikum
##hash
ahal
##pend
kren
kbi
garam
rape
masi
aut
chalega
raja
##mak
kard
chahi
hony
tem
shri
janam
mutahidda
hot
##ject
someone
history
##vin
zamana
writ
badla
tajurbah
dist
piy
sacha
ghulam
hollywood
jitne
cent
dinon
daikhta
rss
padega
##تھ
##tit
ail
theat
##haa
fehmi
bekar
##cs
join
karoge
sure
room
##aslifans
suk
##net
##tions
chuk
##nee
##cks
made
mutad
phool
taweel
darasal
aukat
bulandi
lenge
doing
hokar
##abhi
##abba
fak
##tweet
##site
baithe
pyari
muz
raftaar
iam
##tific
##hey
##hti
chur
##ating
isiliye
congratulations
jazb
##pas
fehrist
aaz
waqeat
parast
giri
dhoond
##essed
muf
silsilay
banay
##dhi
nuqsaan
boli
barabar
mabni
shadeed
masr
##pos
##mari
respon
##ness
ret
thats
##vies
mata
samjhta
##unch
light
bakh
##hearts
roj
murabba
sister
asse
##liam
##faaz
##udo
##ashta
gayeen
baq
##maar
khane
##aga
##mer
kamal
hil
phan
yrr
##conom
kumar
hur
haya
##lip
ghoom
kum
everyone
mazboot
##cl
##etry
january
fran
##ie
shree
nizaam
murder
mahira
syed
btao
yay
##keaslifans
fati
khubsurt
harry
##یگ
insta
plat
ron
arnab
pes
mug
hisab
behar
ayega
puranay
tasa
mutadid
yha
taar
protest
saheb
wis
##inho
degr
future
lan
##gay
jala
naaq
website
zak
lkn
##io
muam
jhan
bra
seen
fees
jaissa
##bdmaheshbabu
tareeqay
socho
##rim
khareed
chhod
hawalay
##او
bolti
zindabad
naaqis
##haad
hidayatkaar
##henge
husn
gaddar
tanqeed
jesa
lijiye
##zan
tension
ahm
feeling
karwai
saa
ns
jisne
roshan
safha
pareshani
girls
dasta
understand
zur
##hes
##ikr
mauzo
saying
koe
tre
lock
bhae
##waal
pazeer
alfaaz
issue
##thers
##ace
batana
seriously
econom
phat
gaand
izafah
##ef
##ento
business
ano
agen
kisne
dehs
sele
##pro
kri
##you
jy
mess
jadi
achanak
differ
reason
clas
##hout
qaumi
##fan
banta
each
maryam
jes
##ju
hahah
loot
ent
strong
shehnaazgill
##cel
novel
##reek
darm
##mn
oper
##ping
##waan
religion
import
##بر
ghantay
molana
##cott
##tap
dill
khusoosi
##let
jante
azadi
kind
riy
tashw
league
nazreen
fra
punjabi
##vy
second
rum
bill
nauk
##ayed
##iden
##kl
lamba
qaat
krwa
commun
abdul
##lif
##vs
tasaveer
rahain
qaatil
##ready
##uti
jarurat
khur
muash
andaz
pero
miyaar
data
##uter
wil
##val
badha
silsila
bye
those
##hed
sabit
gird
##uman
thapp
elaan
dino
salamat
##ches
aadat
pq
##azir
shohar
dhyan
tech
##ام
bukan
ameeen
bharti
imaan
tari
zain
health
march
madah
jazbaat
raqba
paya
demo
##bara
esi
fall
nrc
##urti
##alia
poun
camp
request
##qar
brother
##tention
kamaal
daak
##ority
bharosa
##ae
##qm
meray
##wak
movies
musan
nikle
politici
parents
google
anj
qal
chaand
muntaq
station
edit
cab
##یز
##وڈ
tig
musannif
##kara
saj
dance
heran
daan
gl
mjhy
already
fore
mister
crush
##daan
dehshat
tawajah
humko
reha
##sible
##afat
prime
darmain
##ational
talk
sochta
tashadud
sis
##chy
could
theatre
bail
##ased
##titu
behas
##hare
rahein
maazi
bhari
dafaa
##down
human
dram
death
dig
two
actually
sth
##hadi
pehlu
zah
mel
##ret
##maad
zindgi
##ku
pray
##reme
milna
buz
proof
bangl
mehfooz
choro
chehray
dada
jada
kardah
hme
barbaad
zail
shahid
simp
troll
chhup
##vaj
mim
##apa
wel
parwah
##tam
darj
buland
abd
maharashtra
ticket
master
##hahahaha
##police
##iche
women
box
##ushants
khatir
pop
##yak
##fay
ase
raqam
hmare
rahenge
caa
zurori
german
##ken
gufta
farz
chuna
ataa
bahan
alb
arsa
##ddat
kejriwal
samay
fark
achy
##eshi
##uty
alham
##koi
boring
##mit
attack
nit
paper
maro
ale
marna
pair
halaak
ghat
add
arsay
skti
lap
nyay
kali
shum
shareek
feb
hab
karnay
muhabbat
red
ou
purani
sikh
##ething
gin
##bhar
ishara
fact
nom
leg
shaadi
chalti
##yani
says
fam
##maya
##tah
##orrow
karlo
jaiza
hathon
comments
kasam
foo
pare
unf
agaya
##hind
qual
##cent
##یي
##ua
model
hmari
muamlay
milne
esse
aet
saja
hoye
mourr
##ingh
saale
uthaya
mey
serv
##harthshukla
les
jany
##pad
##chor
himanshi
billi
##mbly
mashaallah
uff
self
pathar
langu
riz
##یپ
naik
bhos
##pression
liay
alla
likhnay
##pone
usy
dog
something
shai
##load
order
retweet
##وي
hisaab
saathi
milnay
bibi
##andhi
##ists
prop
##hair
dima
bhen
aisy
##urity
target
speak
##eshnak
van
apk
dukhi
er
laya
belie
inf
internet
winner
bow
corruption
##sat
shr
aesa
##baz
##amer
tumah
mart
##adah
##eedgi
unse
without
rakhti
##ides
masroof
shaan
moh
chakkar
suno
##chistan
kilom
amar
isra
##bhai
lambay
##wali
##book
utna
aitra
tehreek
jazbati
##pir
town
##eech
##ggak
bhula
tashweshnak
dafa
marey
##weez
matter
entertain
emp
##eeh
hij
peace
mujhay
online
islamabad
cat
charac
pel
##lace
uk
##sic
khidmat
bhan
degree
west
maghribi
gor
nuk
##cil
kilomitr
jurm
rukh
##adar
date
shit
akshay
guftagu
saloon
anivers
hais
nigah
wife
dya
##yn
alm
konsa
kiraya
##waad
baja
logic
##kon
prab
##bre
raaz
bartanwi
muskura
corrupt
positive
##fect
okay
kharid
fouji
aetmaad
mazaaq
betha
jins
hara
garmi
met
ager
guj
shakhsiyat
cont
blessed
##tle
mazm
pir
##wadi
kari
thought
paal
mujhse
zimma
hurt
bahir
arz
qud
##jey
political
##read
bangal
azaadi
idea
##yab
sac
##zahir
##rs
blog
mid
##رز
khr
raast
bacho
##tel
agree
kalaam
nos
sd
inshallah
##seem
soci
jiska
jake
jaiz
mustaqbil
sust
##rhe
seh
dir
##ony
##ral
##jaan
waar
##tim
saken
mc
kise
##ology
##amp
jise
kii
times
##waja
ulta
hata
vic
##ichael
##dari
manzil
rahey
##dood
##kya
##dit
##off
dece
muqami
aglay
attention
aalam
load
leti
listen
##ooda
favo
shikast
##gen
nggak
michael
##lan
cover
subha
##ures
bzahir
rag
mota
daakhil
zai
##oso
aapse
sambha
buht
inkaar
afsoos
##hiya
##kom
normal
assembly
curr
celebr
language
wada
janti
maya
muaw
##laad
trailer
##bin
##allam
thaa
##aind
khula
zila
##ign
##iyaat
##ista
##faz
##num
taqseem
siyah
##کی
##haram
maalik
tarb
##ump
##tes
agli
##kri
##ato
babu
grap
fer
hawala
tehat
abey
rest
##rz
##iko
dimaag
haii
jim
##anki
hamza
shot
riyasat
ll
zair
zuban
##rani
sty
##umaar
##erat
##ender
##vil
barbad
narendramodi
umm
faro
dialo
##hel
khaali
jind
lr
bass
aath
burai
hatt
##essi
pd
hin
##guru
##light
##cb
##angan
special
chota
gak
mukh
nama
noor
waale
sochte
kul
chha
gaon
sukoon
ain
kesi
means
khela
##chen
##zaaj
nishana
humein
ilaqay
hello
unt
gaz
products
##ges
left
sabka
##mera
aalmi
zalim
##bri
shamil
##upport
apn
picture
act
##یوں
naj
hii
kismat
faltu
muskur
afghanistan
bsdk
nazam
computer
bartari
##uva
form
dharam
mjy
ayi
##izi
##oro
purana
wasallam
izat
naraaz
##iat
##ars
videos
ilaaj
education
##zr
##tta
badh
iblis
aamir
shehnaz
##cra
book
thar
keya
sabr
mention
safaid
raza
ankhen
##یری
rub
##akr
##gawar
bees
tid
##uki
naw
afs
taaza
##anon
parhnay
karny
bday
daba
austr
iran
noon
muntak
tabs
sahafi
##piku
joo
##tiz
hmm
15
amir
##ores
bula
##botpiku
bano
bechara
##harrak
kitney
iblisbotpiku
div
gra
kashmiri
student
##waya
sbko
daily
peeche
sri
gujar
blood
unhi
ganda
father
mahs
faiz
bary
cut
kafir
##tig
qadam
dosto
dream
smile
murda
##date
##vr
tot
exact
krni
appe
task
##apna
##sim
prin
market
arre
khari
##وف
likhna
sena
karon
##with
proper
pya
##hany
##artment
##anda
##ushantsing
tit
##geen
##zab
deb
masail
mian
yai
bandh
##dani
shaya
hehe
##dat
programme
vision
facebook
##dulillah
arti
railway
##aqi
max
reme
aziz
dety
character
aniversrio
nothing
everything
qaid
##enoura
adam
jang
intizam
whatsapp
##pti
##habat
jhut
klas
moo
parti
mama
mayoosi
maamla
alaikum
boycott
cenoura
bohut
sabki
chalein
banti
khanah
hindustani
##cr
inde
rul
body
harami
beshtar
afrad
jesy
padi
khushgawar
boor
udhar
hafiz
ilaqa
before
shows
##ido
dikhao
era
##bol
view
sambhal
##eron
##struly
bahad
##round
walidain
##least
dekhta
saan
tarjuma
aese
david
jarur
##tn
##very
slaylikeshehnaaz
ill
##ٹن
oye
mazaq
masih
muntakhib
beroj
##ety
##strulymahesh
##kuch
##arch
karu
bhr
rhea
intern
pk
mukha
takhleeq
##mana
##lekin
shumaar
kahaan
weather
indians
ungli
bete
baais
franc
ara
khamoshi
lake
saazish
##jha
kill
coz
##buster
stream
huz
##pn
##erv
##geting
martaba
bewa
shil
club
jiske
suni
##dad
sochna
##press
tukre
##رن
muito
naraz
defend
tafseel
##aks
##back
mulki
meer
bila
ishti
priv
dakh
ready
randi
guy
tasl
mustaqil
soor
dikhta
ladk
speed
##vind
##ushi
wazir
##akan
situ
dilkash
alam
puras
ishh
##iii
##itu
footage
##yd
fandom
security
ikht
banata
dom
ley
bon
##sk
mustahi
opposi
##uvaari
sukh
fatah
sanam
hifazat
bahi
ey
arabi
happen
pichlle
saz
millti
khoubs
imrankhan
speech
##uvaaripa
##aar
xd
zameer
poooray
moz
buat
bhutto
##wor
taamer
course
mashri
##eda
delete
janay
##awa
##bet
khata
##red
##ico
##wh
seat
kisko
##blo
joke
paar
tabsaray
aank
trust
nikala
##ارڈ
double
ishhq
khoubsurti
cry
imag
nami
treat
busy
12
##bul
##oop
##ahar
deal
muntaqil
sheikh
kharch
milegi
mental
bnd
##wast
dunga
mazmoon
##ssr
payi
sharma
fri
oc
hours
##hayat
mulaqaat
##friend
skty
sorat
rabi
mustahiq
mardon
saeed
##oun
frnd
purastaar
bhon
sep
techn
##istry
fes
nishan
remember
york
opin
sanjeeda
##ding
kok
bis
jaoge
talent
nafsi
##vn
ld
zaat
sek
sahb
fel
deve
mae
##eray
##amos
paa
##she
welcome
bangladesh
covid
badnaam
answer
jangan
amazing
jn
bnda
sabar
##des
##yaa
##tii
saq
pack
dukha
balochistan
teacher
classic
hoke
dalit
##tm
##vir
inse
##ween
nateejay
relation
##ات
alg
chhor
tarz
awaam
pallay
tajweez
##وگ
bey
sabab
30
##lia
unhone
hinduo
##su
gente
##hhhh
kahoon
cart
vc
jaag
beha
##indo
kehne
itny
tapi
##hraj
pyare
shoot
negative
darmiyan
arrest
succ
few
hadees
sona
taz
patwari
unfollow
janoobi
ate
##ita
atleast
sakty
bhoot
zehni
sound
mumkina
cheekh
diy
##aly
danish
kehty
srk
sense
feesad
##modi
chance
baithy
liber
fuck
##وری
##ujood
sonay
ppl
##cked
##qon
tasleem
qatil
##atan
chez
pabandi
kareem
hyn
saamne
raaj
##eena
##ite
champ
magr
believe
nash
##qarar
##heel
jaat
banne
jinko
acche
wes
##dir
##qdaar
guzaar
cult
##bon
##bih
page
##ubg
society
dem
##hok
##omat
barha
lady
milte
decision
fire
##jis
trah
ilzaam
##birthday
sn
det
once
larkiyon
cool
babar
##اين
gho
##یں
shikay
pait
##fs
pita
##wr
##esome
##udh
jungle
##gam
##itay
mummy
things
##idesai
rus
shaks
##forthe
vale
kra
manta
md
aaccha
akal
hahahah
lamha
tajar
ibn
kanoon
tut
jiski
##hiyon
ub
mach
##room
crimin
style
adalat
supreme
taaruf
pakka
laakh
expect
roza
##salam
raksha
tabahi
england
mutharrak
cy
nazd
##hah
sanjeedgi
##ما
thek
hosh
dawat
watching
sidhearts
bore
gas
wafa
une
saada
##gawaar
wha
eht
tun
##cas
barqarar
vaj
muhammad
##یب
voice
##lain
##وب
saad
avi
haazir
buray
offic
zo
mojooda
musalmano
suf
##ujhe
chhut
##dardi
saans
paani
ahmiyat
##aij
##omi
rehn
phail
tarbiyat
gaari
sih
hoy
dit
##sho
sudhar
bheja
sidharthkeaslifans
jali
##ues
hatmi
##gat
##feen
ankh
hochu
##azmi
pesh
satta
##وپ
khtm
laye
mb
##seer
tavaj
aamdeed
##uvaaripaata
muft
rupay
aans
##ession
chus
samaan
farmaye
opinion
aajkal
##hsin
accept
tark
mamlaat
##gon
##kahan
##wale
jesi
kehti
sulooq
soob
muashray
wapsi
baa
leye
##rehi
##ardasti
aulaad
arif
##hm
##abb
kiy
##ody
taliban
huzoor
##tom
##ched
laita
rich
izhar
mubt
197
rule
##ilah
june
##aam
faraham
shikayat
sant
reality
journalist
##khush
zehan
ryast
کل
##jam
rakhne
ganay
dare
james
priyan
##fsos
likhte
nhn
##uni
tafrehi
##ference
chall
poetry
##kumar
hasi
amo
##amaat
economy
##hav
tavajja
##ained
cc
hall
lif
carry
indust
dastaw
maat
sabaq
success
casa
gf
meko
##moindia
##forthewin
nada
##agay
die
chiz
inshaallah
ama
gut
kaamil
tare
rav
bewak
trp
click
phi
poch
option
thappad
11
daari
bhabhi
mughal
fek
kata
pet
jeete
adab
dastawizi
uj
shehri
achcha
##cri
mazhabi
guzashta
dhamki
exactly
kad
macha
wicket
mano
geo
oct
udah
##orts
ary
##heink
zehen
waiting
message
##ande
trop
mahswara
##saar
pheink
twee
mlitay
low
force
##sam
##star
tim
baji
banayen
tukde
laat
walida
aakar
isso
##ulat
##cracy
awesome
199
mqm
##nabi
hoje
fund
kaya
polic
maqb
##ooj
songs
##cket
##andari
salah
##liyat
##khi
chap
young
funny
april
deserve
asad
##kkkkkkkk
##alous
mirza
ven
##reci
sabiq
neez
mehar
##pen
player
sochnay
cancel
jarahi
zom
##len
##rohi
gira
australia
##una
##non
lets
##girah
##sab
tally
foi
198
lehaaz
pul
##wki
##نس
amli
##adio
sarkaar
wasee
##ینٹ
##jai
plus
##tho
##fta
mizaaj
jul
ground
hari
rehe
##amay
##mankhan
siwaye
asif
##ino
hali
lagte
paap
lost
##lab
##afir
##harma
maul
robert
gon
comi
khusus
runs
banatay
mujrim
lagaye
brah
##grap
##bos
kiun
konsi
likhe
dra
francesi
engine
kissi
rate
##haj
kaari
padha
design
##ishi
##icide
goi
waste
faisal
##manay
hindus
##asthan
dusra
return
##uaat
##رس
apse
anything
august
hamary
musl
taala
shetan
80
dang
##gard
aba
notice
mily
saudi
thk
samjho
##ments
graphi
##icke
dair
##ink
##aman
adhi
lamhay
dl
zr
##og
jealous
mohtaram
port
vish
simt
biased
lgti
gaa
iradah
##ph
##atey
marnay
hmara
karegi
chud
whole
rana
##tional
keliye
##ogi
##ishan
##angg
project
pouncha
##pu
##inc
##mil
parda
jeeta
tudo
nih
tail
##cul
jaega
2013
jeena
bhat
kursi
euro
area
kush
##jeen
inves
badshah
sunday
abba
##rior
fori
##sas
dalal
khyal
paiche
dulu
##list
##aney
zero
usool
bed
zarurat
lockdown
##bers
orang
stage
tarm
pics
##lak
##uck
##aste
cartoon
gala
kaan
##love
chamak
jhar
oo
##vt
dhaagay
khayalat
klasiki
thro
mubtala
besha
experi
##olat
hogai
maahir
kuttay
adi
##mission
##کس
vaise
tana
##egi
tuh
republic
mohsin
samjhe
##heart
##idad
soft
kalau
##baas
##oorat
important
abs
taali
alhamdulillah
baab
taizi
##azrat
##iss
##hrajput
##hatay
jr
lut
chad
uskay
ee
east
tir
##side
salo
pasandana
president
aukaat
manzoor
humse
kos
husband
##action
dusri
haiaur
maarny
کار
##ostan
##mente
nem
haad
file
atha
kardo
sachi
short
##hami
mje
issi
oscar
اسپ
place
##dt
##rooni
18
sand
mante
##eld
into
choo
hbdmaheshbabu
khatm
sitam
maidan
worry
gandagi
kach
##adav
qabza
tarmeem
hah
laja
pate
balon
complete
pilot
pyara
nasha
service
south
sardi
agent
ajnabi
nazdeek
##oc
jisse
supporter
fitrat
sardar
used
waqat
tuje
machi
pemanay
biar
fayda
##rati
##arti
##onga
insaniyat
least
kate
flop
##umat
baari
suit
scan
##uka
jehad
kiss
decide
loog
assalam
bechare
bartania
chart
mazay
pori
##alama
gila
##asy
chairman
twit
jaoon
sta
lagana
rakhte
bhik
gehri
ori
##لن
tery
situation
aake
seni
patr
bemaar
##ries
beng
sei
اسک
##sn
park
christ
islamic
meme
thee
libaas
bachy
dood
##mood
toar
srf
layak
fast
wujood
##itna
debate
hoc
chief
aah
mother
sultan
chaat
acchi
nihayat
cheeni
sabke
khususiyaat
kesy
cen
expl
karle
dat
inspir
makhl
##dp
chupa
##waas
bhook
bheek
lamhaat
typing
jazak
jaana
deni
sunen
smart
appreci
##jeeneet
uper
half
biryani
sag
##jal
foran
happybirthday
vs
geor
lega
mukalama
nakli
##amo
thr
garib
bachanay
parhi
sudah
yafta
getting
kamray
aesi
jalan
zombi
taki
opposition
waris
direct
gup
forum
nagawaar
thanda
romantic
topic
likhay
rishte
aqui
doc
shub
mahine
##wane
##opi
sadak
international
lajawab
kaash
seb
13
dekhiye
sansani
rd
##news
amma
##gas
pake
##gra
turkey
himayat
##alu
pakad
bhol
wonder
##coz
ahmad
white
doosron
queria
inhi
##sssr
deewar
hta
##alah
nazr
idar
virodh
pressure
mohtarma
kasi
sanjay
handle
##adu
banao
solo
seta
tele
else
##titude
gift
##zada
##aib
##waab
aitbaar
dialogue
ei
usta
looking
poin
##minda
chinta
celeb
deep
develop
##azz
france
seedha
asy
qadeem
tareekhi
pairwi
mawaad
coun
tidak
artic
trophy
gud
truth
##urite
tour
qadar
gust
rajni
doo
rajp
another
##poor
##raar
##gger
wesy
##ايٹ
jhal
butt
##zzzz
##time
raees
africa
##deer
cara
##abil
degi
hands
faraar
##jus
##dim
mask
image
##tia
##ango
memb
##iyam
kiska
klo
##set
##jat
darkh
finally
miyan
krn
musalsal
aun
zy
nav
##pakistan
##dum
kahte
mansoobah
paicheeda
##gandhi
##ago
industry
dif
dobara
##aday
##ared
farak
favourite
ura
code
numaya
appeal
alfaz
##cing
giroh
yadgar
kore
##taab
tamasha
##ledge
##yana
moazrat
disha
dic
wab
pasandi
rehmat
agenda
find
##xx
saki
dili
marri
dengan
shanti
##ough
phansi
inform
youth
sto
vishal
muhim
##cially
idol
little
aku
koo
baazi
nei
tayari
markaz
peshawar
##tember
qom
bhaij
malum
bj
agora
gia
dawa
bacche
george
dikhane
glt
investig
dekhkar
poanch
mandar
khiladi
boojh
koun
leaders
tukda
##deep
khatar
pasht
##akhr
sign
larkiyan
nus
##ober
nibha
dhaga
bilawal
baras
##zim
culture
gw
hir
karn
##ooh
studi
sooraj
larkoon
talking
contin
##onj
gusse
##kti
##cess
##ridi
private
batata
perfect
daryaft
##mus
hamdardi
israel
inno
##dev
jaya
##نٹ
##tie
rahte
rajasthan
september
##itan
paon
wood
abu
jl
seg
dep
font
utaar
umer
cancer
##aisa
nove
trha
molvi
green
nigaar
citiz
##phone
##xi
hotel
role
koy
voc
sanaf
famous
gee
##body
##ursat
khub
banke
attitude
aashi
##ukh
hamlay
kama
official
rece
status
waqoof
gobar
atal
hina
tumlog
voh
##ostpone
mish
cir
hawai
soul
kapil
iti
##rhea
quero
asimforthewin
##kho
sawala
boys
tenu
##lig
chote
hakoomat
fraham
jeh
jaake
nazriya
operation
politicians
bate
##nz
##dle
##vert
ball
brain
khwaja
baitha
##tty
baru
ship
salahiyaton
khao
akhbar
setaaray
vol
interest
mafia
alawa
aray
att
mahan
bala
##ilan
doodh
sawalaat
nii
bhonk
ost
horaha
sae
unn
##onesia
jore
##cture
chalte
ladka
credit
##tire
promote
khurram
mehb
canada
pmoindia
mushar
razi
past
##ster
ehtram
parr
omg
wrna
lateef
بر
##pm
making
policy
cheet
awaaz
##ssss
abdullah
ref
simple
lana
##astic
while
bolnay
gey
seedhay
##ctive
##shar
hazaron
cross
junoon
14
##وز
hunar
nataij
darkhwast
kk
phly
profile
##yap
enough
qabar
constitu
makl
mahesh
##ukar
##izza
months
since
champion
others
##lee
goya
lout
born
##sun
##fil
conta
##forsushant
##inya
##taan
##aida
hindostan
esta
shor
ustaad
lge
pon
##ently
khatrah
october
fursat
ار
##uff
chowki
wk
lagtay
##bhakt
##afa
november
##amosh
##ission
##gad
##فی
##asub
huay
shots
shehr
ainda
##ushantsinghrajput
bahadur
##مین
focus
moment
wast
##khe
ladai
deh
filmo
##yega
ghal
slow
shaiqeen
hik
##maa
bath
qais
less
مار
behad
##pace
pucho
majab
pathan
corre
maghrib
beshak
##gs
isti
##killed
dedo
move
peecha
##oyl
leave
bakhash
##hhh
qayamat
tarf
hyder
irr
radio
##hiza
petrol
saalgirah
hafta
phas
sharminda
dkh
hang
##ior
##rd
chaltay
tumahray
jhat
mra
foto
tul
saazi
achhe
ses
toda
bhaari
munh
kud
propag
flat
##qq
##abh
##usood
musha
sarah
fix
phele
##کن
##chanay
##ury
color
##hazab
##pet
akbar
nasir
colum
bnaya
rohit
daq
hazar
liter
zaleel
hockey
nun
confir
waaq
##loy
ladke
chartbuster
khate
lagega
county
##ices
mahe
hamid
laal
ایل
producer
##kisha
fez
zan
##ald
##dition
baraye
tijar
coming
50
ks
suru
mehdood
muntaz
ruj
janwaron
##hary
##mein
muslman
##umkin
mutal
##ikasam
weekend
yadav
##tf
##mos
apky
laganay
jadu
sapna
##iry
##aze
##raa
gadhe
##wards
##اٹ
atank
sahara
mukhalif
jakar
jaali
##oshiyar
gil
kyaa
marte
##ssrc
community
##las
saray
abbas
hooshiyar
cheap
kerna
haftay
sayad
sayarah
tent
repor
##ager
##hart
faat
water
ibtida
cases
##ako
tey
haqooq
europe
semu
##mt
ther
germany
lok
16
following
didnt
mission
driver
sain
nehru
##یج
##لر
mareez
adat
democracy
mani
pote
riway
kand
##ults
goar
dikhaya
aayegi
##uta
hisson
jho
til
##akta
prove
gold
zabardasti
suar
lines
almost
##agr
##apan
bolega
majaboor
##jit
rashami
anyone
nakami
azhar
due
##jee
conference
khtama
sabiqa
waaqif
dna
کر
dubai
chir
freed
shikar
maqamat
trying
kiu
fawad
##tumhara
makan
ikhlaq
crime
challenge
mohazab
chem
quando
##hata
chahat
rokkk
gujarat
qist
##gress
saalo
daftar
##komained
numaish
gn
mna
##yaat
dahi
essa
nishaan
khidmaat
mojoodgi
christmas
food
isne
anasir
##komainedikasam
balat
humain
adhay
2009
lund
galt
mist
##dal
sou
jismani
ibadat
chartbustersid
##hero
##jad
baate
sbse
muawin
##وو
##ian
##ery
lebih
##ards
##liz
likes
##wazna
field
untuk
complain
##ishna
niklay
aamad
profess
70
lear
jnu
pucha
thinking
paris
org
secularism
till
zarur
##where
##ural
##meber
albata
##hg
khabr
uspe
##deen
vont
zaheen
barson
bahana
mawazna
boqt
niche
##oron
decemeber
fard
veer
##abe
milay
allama
bataye
pakistanio
different
akki
matlb
bilal
ikhlaqi
kesa
##urag
taman
bcz
hear
195
##odhya
math
ال
hell
##ories
knowledge
##amar
mauka
jodi
aasman
taqat
aapas
darwaz
youn
apney
makes
cell
##elo
##yae
krega
gosht
vil
beli
commit
saala
##qal
manshi
experience
kuf
##hre
##yeh
seekha
sehra
isla
moti
andher
waseem
rehnuma
caf
##usar
##chha
inkisha
banyak
tanhai
machine
poll
mla
bhav
active
shilpa
##tomorrow
nafsiati
lon
dikhana
elect
rkha
##kir
chla
faam
tmhari
porque
##neeti
gat
vez
##kes
##fied
##hanat
incre
25
prote
happiness
insanon
sonusood
apno
indonesia
fallak
berojgar
maqbool
##xy
gyaan
nisbat
pizza
vin
ander
halala
##tafaq
origin
ia
phen
justicefor
##uddin
padhe
##ense
sidna
##kab
pane
suicide
notific
bhakto
salute
tym
##salmankhan
commission
virus
##anti
dei
##iyor
naqal
##zind
##aram
ansar
##chak
entertainment
badter
##dress
##met
latefay
shooting
through
##justice
##یش
kamon
jahannum
kijiyej
vah
rajniti
vontade
daramay
##karan
##aaj
hoe
##ڈر
daant
bhakti
farokht
##gos
##under
taang
behna
push
##bis
##سی
##uuuu
raazi
maklmay
baara
away
##hele
sau
jaao
kitabon
iman
##fy
madarchod
nepal
niazi
qadri
member
afsoosnaak
itte
mehn
haters
chhutti
##ativ
scot
hongi
chamcha
kashti
faateh
##gai
aatank
##ghar
##bak
khade
حص
usa
##medari
mola
makhlooq
misbet
halka
surkh
sharaab
makhsoos
ladi
faramosh
fakhr
jajaj
##jor
##keel
##usiyat
##ith
doge
choice
mulaz
##zadah
sleep
chawal
anees
numay
dhak
jumla
views
chukay
conne
lari
vac
##peh
muddat
trending
##rai
##kte
barey
hmmm
talab
nanga
jon
##rit
##anaat
augst
hamain
taalib
paisay
samajhney
border
##jah
##لا
##zaa
stock
fair
rahta
queen
title
##esso
senior
kom
chalu
atau
dhoop
discus
knows
sapne
anno
##vez
quality
turn
jisme
playing
farmaiye
##chara
hasti
lagao
hj
banati
rkhy
honest
ittafaq
##chey
chahy
fazendo
looks
achh
aurton
khasusiyat
maulana
##hamidesai
richard
bemari
lagay
peter
guess
rahoge
spread
baarey
girift
cul
apun
inta
wazan
wiki
burn
brand
professor
cb
noiyat
##sin
##real
##medi
bechari
bos
kt
##wt
saltan
roop
2012
baloch
content
##harti
taap
kharray
statement
bakwaas
tashkeel
position
taqreer
##pper
siddharth
dn
nach
badnam
nazri
sikoyl
musalmanoon
vel
##ante
musafir
jihad
jaien
kpk
##ex
critic
hypo
##sarah
saltanat
##land
faila
aty
cur
path
##gya
yous
daawa
vida
achhi
propaganda
ree
##fo
##indah
urooj
sindhi
wajo
nikalta
mumtaz
pou
daalnay
common
##aaaaaaaa
musical
suneney
manshiat
karaye
aadhi
##wwww
forever
article
jaiso
salary
batting
##mz
##arnab
##shit
kyonki
mz
kisiko
tabsarah
officer
dg
rota
paiso
payega
inst
##mpre
qadray
udd
lein
##moga
safai
baje
mulahiza
mutfiq
pedawar
batein
##erai
##tian
aree
jinke
khaufzadah
jaiye
hou
pohancha
sakhti
maroof
awwal
blue
pehn
blame
##waisi
##yyy
kamyab
##official
nasi
trf
bigboss
clean
##ayet
##ppy
shanakht
educated
anchor
tauba
layte
##gil
##new
hukm
##world
rg
seper
agla
taras
overs
sani
##js
koyi
sunna
##dor
yahin
ange
address
bulaya
gain
##fali
kek
##temp
points
namak
hassan
sexy
wishes
added
100
misal
muqaddas
bitanay
##ssrcase
chris
pora
##pay
banate
wajohaat
##یت
##badi
tasveer
bure
tameez
##ostponejeeneet
##rik
quo
raqs
tareeqon
legend
jol
##amente
saood
mantri
##baab
middle
clo
deshd
##azians
zayad
afridi
jaakar
shaheen
upload
friendship
qudrati
squ
##ux
##ule
kiske
rahegi
##upid
compr
fari
khandani
##ologi
tahir
##rrrr
qalam
##ٹی
baten
mereka
phot
##ulation
janna
gaal
hanya
close
dalali
audi
faislay
akhtar
lee
javed
##baaz
mung
sas
##hik
houn
##daad
jahal
##eedah
mufti
##ution
khy
krr
gujrat
##pic
##istar
ashaar
rajput
cos
##dm
pehan
puj
waali
qasoor
daad
dukaan
update
japan
dora
##pot
tel
godi
##jy
hyderabad
came
toni
##یان
##pected
sachhi
videsh
##hte
badle
##tok
aitraaz
vahi
chlo
##یکس
zid
nahee
ehad
topi
deya
##andan
hukumat
bachane
##hrat
##asid
raa
jazeer
##tad
bandar
contest
##jaj
kahna
##vey
ilaj
##gari
##khta
criminal
dz
kena
barf
mass
coinc
ahel
chinese
akan
vik
awaami
jer
space
mujhko
north
doesnt
sna
naaz
##gether
duty
sti
##vas
taaj
qaboo
jhooth
relationship
##ume
##araar
hmary
countries
kaaro
tanzeem
سن
kes
krenge
##eeshan
kariye
altaf
congressi
hukam
soobah
##boy
pichli
##aho
soy
numayesh
##afar
teer
jio
talaq
hukmar
feels
nayaab
vill
تھ
ilaqon
##mol
namumkin
halal
khuf
theke
jaisy
paidai
bf
##رین
##amaal
extra
qurbani
rehaishi
chaal
coach
jaanch
meng
guna
expose
ped
rehman
khanaay
baaton
bhartiya
miqdaar
dukan
ficou
ln
ext
laanat
jaruri
zainab
bait
shahkaar
playlist
parivar
##mind
##cine
lgi
##ency
pras
dadi
joh
panah
medical
##ican
shumali
mashriqi
hh
lash
##ert
krtay
##tao
mane
sary
qaail
kehtay
kadam
karunga
dark
allan
kahaniyan
information
around
raak
mazameen
##uv
tol
##cion
grade
karli
offer
gehra
todos
##daa
ussi
loan
khaye
maafi
reaction
harus
obs
krain
huwe
##arey
mehboob
از
##nb
##fiyat
##pai
2008
##door
##ui
##mere
huyi
andhe
laazmi
samajte
##bjp
howe
cheen
serial
krlo
quar
thode
ahliya
amitshah
##adri
namo
##umbai
##qaal
tweeter
##waron
maja
pour
azaab
mod
inkishaaf
vala
banna
plzzzz
17
hk
##cor
baala
yea
dastyab
ug
hea
maiz
site
##sof
mandarja
coup
##اب
##ern
196
innocent
##idence
chamche
study
aitraaf
jami
ton
mehak
azm
yourself
tatti
niyat
##phir
bahr
##lai
bolenge
buil
bring
dhair
sahet
rone
##kta
##bro
##tttt
uz
##fl
search
##utt
hama
kinare
cli
bagh
##ajar
follower
##alea
rapist
chahie
##ison
tumhain
bantaa
ente
##hahaha
junior
sanghi
lata
##atha
##layi
visit
ehm
quied
doubt
vajah
##sta
anak
paidaiesh
##waa
##targeting
priyanka
kaarobar
wb
##chon
talash
ansoo
value
pesso
ganti
bher
dekhke
morad
dhr
##wy
chot
geherai
semoga
aajtak
##sto
muntazir
dead
zaror
haseen
william
dramayi
##bed
dress
lyric
momin
engineer
##wish
##cp
hair
raam
rey
shop
lakeer
khaz
dilon
stupid
##abaad
aankhh
bewafa
##ativity
90
bem
eyes
deli
##meen
foji
nisf
hasta
##vaar
poore
citizen
##zy
nikalo
ای
khalis
gaaye
sunne
subhan
teesri
##annya
chhat
tmhe
zeher
neel
##vis
ashok
khelna
parheen
##oriat
parasti
fool
sehar
liked
rahne
mutalea
biggest
karey
##bie
patti
surpr
tauheen
lehjey
zakham
melhor
sasta
karliya
rae
major
rahulgandhi
##desh
shiddat
possible
semua
muqar
sitara
kidhar
mutawaqqa
muqabla
##see
lety
musalmaan
##ftar
##gardo
##dj
ifti
akhri
کو
##eq
kyoki
aaraha
khada
darakht
dikhata
hazraat
feelings
jaayega
jaizay
##wis
farsi
etna
hansnay
marr
##via
found
##utes
gardi
pooja
street
ginti
shyd
cake
total
shut
truck
tabiyat
plane
##azim
pue
kol
aayat
pubg
##harm
orat
rock
khushiyan
bk
bharpoor
bike
jen
##نی
viol
piya
sed
aisha
hotey
##کا
tasals
fauj
tasalsul
breaking
confus
bengal
told
exci
faas
##quiry
##zay
khuli
khrab
bg
##ono
thn
idaray
dochar
kutto
nunca
chemistry
fest
sche
##gical
lots
begum
taaqatwar
pt
dip
kalam
padtee
dushmani
original
bhoo
tus
##adhan
alamat
mafi
##quer
majmoa
investigation
ghot
nag
demand
hamen
esy
confirm
khir
moon
yahodi
##ٹر
marsha
roka
dikkat
tabeer
peoples
guzra
adh
admin
##sss
hathyaar
##haarat
smjha
zeeshan
saara
john
kitny
seekhnay
kru
defini
bali
sent
tava
pher
center
chaman
pradesh
raste
ef
vap
present
##utanki
gri
qeem
rabita
tro
wao
##ervation
italy
kamera
jihadi
youre
##ghi
##bari
mahaarat
shore
bien
cheif
desp
dilana
maari
agy
strike
dastak
##killedonj
uthana
jasoos
banega
##jaat
congrats
literally
##کو
eso
fazl
kunba
kehl
crash
instagram
jaj
together
local
bhaga
shb
ilzam
24
jinhein
rip
mubarakbaad
dukhaay
absol
darta
lao
shukr
certific
40
##kb
chahty
asaraar
inspiration
jet
ekdum
saleem
grow
bda
palat
kavi
aram
##kiski
##laf
khudk
khayaali
qaisrani
rani
hung
crdt
irrit
masti
194
haliya
##wx
marks
shirkat
digital
valo
jawani
kapoor
saanp
equ
##mao
nabeel
##apne
review
store
flmaya
tanao
contact
pawan
##ometer
hayaat
##pri
##die
honey
jiss
bot
mukhal
##well
mh
pct
##jun
##kah
##sia
##ckeray
kharabi
mahmood
##سٹر
##ording
hakumat
bistar
yap
sunta
chapp
riv
flash
qanooni
psl
hochuka
kp
ayodhya
##ffic
punya
bethe
nikah
dikhai
kerta
beroz
##sidharth
##ishta
##hoom
kids
totally
ice
##fin
concer
rajneeti
##qam
##haal
shahad
thuk
##vd
price
trump
jameel
khoobs
chehre
piyar
aiz
rp
##vent
parind
trh
bener
chhupa
##hos
khasi
harf
nikalna
fatima
##wati
haider
raz
unkay
askr
##ukan
loved
iraq
##bility
chalanay
dusron
missing
index
hs
ghaz
zahanat
tumhein
phel
seu
##umhara
woman
##lao
kapray
shabash
abh
pasti
express
memes
riwayati
peng
##haray
##mel
pach
matti
compare
##again
maana
##vious
##pping
example
2007
wad
mudda
aani
farooq
dalam
mehfil
started
vali
actr
leni
offici
prac
##av
##qy
parhay
dawn
aae
working
##zabardast
##lz
lagne
pey
talwar
ahelkaar
muy
shahzad
khuwa
pandrah
bond
##zat
samny
quem
pahunch
naach
karaya
dest
parwa
devi
aagaya
favori
hojao
##guruji
idi
yan
ریم
##urstrulymahesh
##iste
##athy
dilli
##stv
madh
chanda
waisa
gonna
khufia
##iyati
maara
candi
lekr
asha
mehr
dup
phal
kea
diwali
##oliat
yas
##rt
##bala
rasht
babri
rhay
##rish
sakoon
##haqeeq
chowkidar
mall
ple
asliyat
اي
##tern
umat
asia
##روں
hati
##akhan
ashi
##bia
property
gost
##mah
waley
chalna
fazai
varna
sikhaya
##liament
constitution
notification
nagar
marta
laash
jaroor
mesmo
chahiy
##baan
gel
dikhe
uthany
muha
##khabaat
naram
korray
khaa
shahr
imandari
exams
fine
##ahmi
depression
musani
rashid
##اہ
##sel
thand
didn
beghair
easy
jg
##qe
usey
amlay
technology
haitum
mary
jinhe
buy
kohli
section
imkaan
choos
este
patli
##unda
bott
tahaqeeq
chunav
dabao
لیو
##ران
##ument
manfi
deny
193
##wc
tiger
##fiqat
balki
jeene
marshal
tex
detail
##vad
##dos
films
compe
##riorsssr
kadar
fahim
mien
sitaron
studio
bato
shart
mutan
isteh
karena
##srk
evm
sawaal
lagai
channels
tin
##ming
doulat
nzar
pant
lagata
pazeeri
inaam
##zami
race
jigar
baqaida
shohrat
emotional
naukri
marke
kartey
prem
politician
##unce
makers
lucky
development
aadi
bund
hday
##nai
jaen
##alian
arvind
##xo
poster
##ilanka
60
eik
gab
nautanki
sahiba
ishtihar
larioon
vr
parliament
imarat
khilari
##kashi
likhta
acho
intezar
radd
lalu
##lish
##hanay
allow
lagane
geya
intqaal
jom
##bes
numaind
katora
krde
imp
yuva
hehehe
fikr
##tis
loge
size
guzara
musta
maze
markooz
puhan
aed
##chin
rakhiye
pichle
qasam
uns
girftar
halki
ilmi
peet
wqt
roos
incl
##aran
##inon
isa
dekhti
panch
iqrar
mundo
foj
daqyan
favorite
nizam
appreciate
vad
##not
##xa
tumha
thapar
##omin
union
ummat
aqsat
aayenge
sunai
##stop
rabt
21
##tkari
fant
weh
deke
khwab
chhal
ndtv
##mor
jod
forget
ajay
tasd
pariwar
##kap
hamne
cong
##kron
jah
##kur
krnay
krdo
remo
##toh
mutali
bne
ones
insaaniyat
chaa
adal
giving
sugg
jaante
netw
loc
##laq
sooti
daqyanoosi
rast
##orty
daleel
pandit
ghad
baik
daman
parhna
symp
bujey
##tapostponejeeneet
yee
##ging
muhabat
##karon
grand
nao
paray
##azy
entry
uh
##year
between
apkee
reporter
nain
tadi
zaruri
saqafat
ajaye
intikhabaat
tugger
##ینگ
pairo
makaan
eli
deu
aadha
traffic
aksariyat
##oooooooo
rivayet
##umi
##dict
##forssr
##jr
##ayenaat
favor
roknay
khatarnaak
zra
krein
cricke
paiir
writer
mozuaat
hp
taha
laane
jaahil
zikr
plate
mumbar
darwazay
iya
kion
sour
population
handsome
jahalat
##cep
arg
##sidnaaz
cycle
dzni
superb
thrill
##jb
chaly
become
patt
charon
difference
jldi
tasdeeq
uv
##aser
nokari
##iyani
enco
urstrulymahesh
tujhy
22
juda
kaayenaat
moqa
shayari
khitaab
gandu
fehash
ruka
haae
zayada
nitish
nge
##tari
##arak
sky
poocha
##lal
bhaal
manga
marha
akka
hila
##ilo
izafi
srilanka
shahadat
کی
saky
meeting
foreign
deshdrohi
##hate
kaka
kardi
yet
masharti
ajata
frustr
lovely
bcoz
cra
nayi
mub
astin
eff
assim
invol
correct
hbd
##kas
##fc
boltay
fiza
rkhe
qai
wag
##sena
saba
rahna
##ishn
blind
payar
gulam
bowling
##ball
players
mala
phy
##uon
motiv
pehen
esper
aagai
jazba
nid
sathi
aashiq
mulazmat
psy
##eelaat
feliz
jindagi
##aigi
parte
chout
espe
child
tafseelaat
bewakoof
haim
ken
##ander
zarorat
ayy
##ینو
mita
pakra
maare
niklo
kerne
laikin
yat
##ugg
##boo
jungi
##kok
##karuvaaripaata
malbos
majak
##ctions
kufar
namal
fear
##lit
##ately
arak
bandooq
sadar
needs
##iks
solve
certificate
wake
##hida
##woh
##tivity
ghazi
##itas
##ilaaf
aayiyae
rozgardo
##urav
asked
khowab
##sen
##akho
haamil
base
issues
intezaar
uthaye
having
step
bea
mazl
gale
letter
vas
##how
muskurahat
loss
masa
istemal
feham
hd
##cap
tumhen
kabir
rote
shameon
saahil
hdaytkari
baali
johar
rajya
ehmaq
bid
vit
##jd
##alis
krishna
daali
firing
ua
##adity
muhib
sanat
anaa
numaindagi
##dge
jaun
sunn
during
supporters
freedom
hv
بل
##kna
khuch
using
bio
khulasa
##ashion
nojawanon
haj
andha
lalach
karun
##ilet
bahen
farzi
dedi
##harat
tumhary
interact
tajz
atif
bante
mot
pohn
tujhse
kagak
actress
sunte
majority
pedao
hanstay
wus
##ator
mill
ramzan
##onay
chas
itt
darjay
jeetnay
##ورڈ
karwaya
lyrics
##please
##bud
mela
##khand
##vk
chip
puchta
dol
ic
vamp
inq
##dian
huaa
hark
shuba
shefali
wakeel
inch
tawaq
kitaaben
js
jel
daud
panay
##bn
ajkal
##hiyo
##angi
cheezein
janm
bihari
taqdeer
##wise
##lling
maffi
dabangg
##want
khati
negativity
nalla
sair
##نڈ
##ikan
##hoos
bimari
santa
fox
aindah
fre
sastay
ull
comes
wafaat
assur
fc
vy
supporting
##salik
audience
ii
sonia
swag
emang
##yyyy
tp
##dard
##cen
jinki
kg
kath
##ised
awww
teesra
jhalak
##waise
absolute
dekar
sarhad
gharelo
##fit
mehal
nad
soche
##chodi
senate
map
##gun
##uel
roosi
munsalik
gayarah
selfi
##بی
##ariya
ener
jinda
luv
guzray
meharbani
baaligh
chle
##dup
abt
##rizi
rese
intel
hrs
ehmaqana
yaz
golden
paidaish
aizaz
ari
dj
sone
badtam
bhuk
facts
galiyan
advance
qiyam
##ics
jinhone
riaz
american
##nge
##aria
dhun
dhi
ام
detay
wajood
pid
##ware
parties
bakri
ikhtilaaf
cali
##sung
##لو
deewana
celebrity
aajay
brig
rakyat
##habib
choor
drop
gitu
jd
##cell
sidha
btaya
qayadat
tajarbay
besh
ego
lya
##inge
kabil
small
secre
##heeda
chhoti
peenay
charge
ful
asan
nib
mansoor
pend
uf
cour
premi
##pasand
huroof
adaigi
padhai
ird
##ncia
shandar
bukhari
beingsalmankhan
tomorrow
ipl
##ros
gau
colour
kus
siapa
weak
dharti
dhamakay
zee
##tely
##vaat
hag
oho
wheel
##astaa
deus
zaman
##sidshukla
dhoni
##tani
##just
airport
raghib
maheman
ave
##uan
##amal
##chand
dekhenge
##cre
nature
##strong
gutter
nang
##mh
maaray
manoj
##withs
kapde
dana
bazaar
gawar
network
##gro
##het
api
khor
bant
front
nikalne
karma
imti
brit
assist
confidence
atalwi
##atab
inhg
amjad
tawan
mulla
compar
besharam
##can
paison
##khar
paste
wtf
zayed
##inay
##tition
waqar
hatta
elections
mitti
##mandir
wanna
aus
bam
##rahim
qabool
surah
calm
ot
میک
haat
hug
##chai
univer
oy
##vat
##ece
reco
mansoobay
ig
##bm
almi
waala
kitnay
dekhata
##ینی
duaon
##hehnaazgill
kardey
gate
##dus
##hiri
##alka
##nahi
comendo
jhuk
current
namaloom
qk
##chat
khut
##saa
agle
sonu
fatti
rights
##bharat
nani
##utan
repe
##upa
##comp
thos
##ustom
jawabaat
mirchi
profession
suspend
fashion
jye
wm
chora
hathi
bhagwaan
khubsurat
nzarah
##qr
haiye
##leen
kabhar
badlay
kero
laiq
dubara
returns
anwar
choron
ft
##thy
sunanay
##firat
siddharthshukla
##cd
##yaada
##tere
prat
shuruvaat
spo
nafs
##pnishan
##اگ
##اپ
kart
hajj
jour
consi
worst
phela
rkhna
shirt
nm
##vp
##eemi
numa
shahbaz
##pok
zia
##jin
bhale
bhaiyon
usman
sakun
ayegi
secret
##haaz
kaali
dele
samjhi
likhne
karkun
cuando
buraiee
shin
##hne
seats
##ilag
rehty
samjhna
department
ds
dap
tbhi
##istr
##یمپ
faq
##play
##pyaar
kio
##akak
##enes
chum
darte
surat
##kisi
saqi
chodo
nomin
puhanche
##yad
tow
conver
pouch
khech
kanha
askrpt
bash
bhayan
doesn
seperti
##dom
##ict
libr
##uzool
nt
##asan
sarbarah
##bechara
##presiden
qiya
tume
loyal
milein
smil
kardete
journalism
satu
emoji
ting
badolat
aaja
quei
reservation
deed
gaj
tumari
koshisho
kamiyab
hadayat
geet
##ikta
insult
mushkilaat
##ونٹ
##habibrizi
##fic
toilet
though
kutton
lakri
guzarish
##enci
muqam
zeli
##graphy
##reef
##bang
kae
pelo
samgha
paak
musallah
idhr
watched
##zeb
response
eur
gue
touch
##scri
abaad
##ados
muzam
##inde
##mano
ghairat
jamat
lyn
aqwam
bae
pao
urr
mulle
misar
imagine
##unter
chura
asta
coo
##anath
saman
pode
wakt
khowaboon
yon
##vide
dean
maybe
ahbaab
##یلو
gilaay
zayega
##public
##lies
pacha
##kashmir
nigari
pesey
wont
##nia
button
rasheed
outside
wants
##aign
meny
sawaar
muja
rev
aish
surgical
hafeez
jarahay
lrki
##وہ
rawana
##saas
voting
parhte
rid
ts
##word
##amad
##hayen
haste
##wb
##pun
##ینس
sehraa
##habibrizieq
vln
##تی
lagy
nigar
popular
wed
goes
dhond
terrorists
##cast
afsar
##raan
arth
exist
bachney
takhleeqi
victim
cbse
noshi
##pada
##akin
##khor
thin
mange
gole
##rap
##یف
leya
##daam
soins
travel
##wkwk
jhooti
mutalba
swar
##یرا
##saf
##indagi
batane
trail
barhti
entre
lambaalka
tard
##eedi
##ooba
moat
gaana
nikli
dikhate
announce
anpad
guzarnay
aarti
ittehaad
quetta
dhang
tarif
heen
pakht
targeting
maras
danda
shukria
##lag
##illa
barg
##odhi
muqarrar
musanifeen
hash
pis
ispe
##ايڈ
jazeeray
qeemti
##eela
taking
doosre
nz
bros
gayee
##krab
iftitahi
gawah
suntay
##dey
kerte
tape
kahaaniyon
tusi
martin
##sidharthshukla
##uuu
kindly
festiv
jomblo
hare
mujay
rela
virat
##mmmm
farmaen
afsur
raut
maray
mahroom
dhamaka
ahad
rawal
##ged
sune
tabad
madina
kahen
raji
##dahi
members
lunch
acade
munafiq
ax
nes
sos
##jadi
andr
##top
quaid
subscri
##vay
##maye
##bees
jaon
ast
khoj
sathiyon
pahar
civil
aaina
##ehum
tiktok
auto
fakhar
text
postpone
cloud
aim
##bc
##iron
muwa
governor
##gup
##tead
bhaiyo
solar
paint
becha
gharon
##برگ
liberal
##mumbai
nawab
##ences
meine
dikhaye
femal
invest
ukhad
streaming
jame
rpt
فل
parwar
irshad
##badami
ulat
##wl
##zon
naal
##ented
kisan
tmhara
qatee
##posed
##cam
##ford
##prab
nisar
boorhay
najar
##sey
mandi
taknee
maslay
chick
ghulami
doctors
idiot
takneeki
##wam
##rem
bolu
maqool
chutti
##forever
gah
uthe
monday
lafzi
yi
##daari
laate
tehre
irani
ghante
##pya
hova
ravish
committee
##adon
khalayi
plzzz
qudrat
##appo
##walo
metro
karney
thread
ignor
baag
asking
limit
marhoom
##karo
aagaye
cause
gaind
igh
bahhar
likho
fui
custom
khen
##army
##ality
muashi
##dega
pictures
##tary
fitri
aansu
ical
##osed
jawaab
##lix
##ndr
explain
lagatay
aslam
paaye
sarmaya
larnay
nazriaat
tama
##onch
jaey
mahir
##gus
##اد
kewal
##hatta
bhaijaan
bolke
arha
##hilesh
tmhare
jamh
##ites
androoni
khoya
utni
##ghters
sports
nzr
jobs
##koor
waa
##وج
##ested
baant
daagh
wja
baccha
wanted
behavi
vampire
##pnishank
od
tn
##mr
##usa
##old
lelo
maali
uttar
photos
ighwa
مور
inhone
nhii
##jao
given
achaa
iqti
actors
continue
khin
nn
inna
##sive
##bolo
naheen
jau
bei
mahila
shivsena
mine
badn
##ryani
pml
japani
##تا
##eezi
##izz
colo
nuksan
mutaliqa
dhee
suma
baato
##vete
behno
yaado
stoptargeting
download
century
feku
questions
rojgar
pounchanay
bm
cere
fad
rahat
bhais
##utam
charles
mostly
muwafiqat
fur
glo
qki
leay
daro
hatya
fraud
khiladion
##wami
##shat
billion
hindut
tenho
happened
lun
##kad
ant
khad
sirji
##chana
asm
bahu
basic
basri
cig
پری
##uli
manage
resign
##hiyan
maharaj
musharraf
session
mk
napasand
karr
asraar
according
nishandahi
##heroarnab
##bhag
udas
cuma
##jub
##iter
mujhey
##gia
sharah
safhaat
hakomat
mungkin
tawanai
##maid
##ancha
bewk
mushtar
kkkkkkkkk
cand
jhot
سلی
haik
##azia
tumhy
##oma
joi
bhu
maarna
sidharthsh
db
wer
##وچ
##ark
shabd
nijaat
awal
subh
shubh
##rao
votes
makr
promotion
wabasta
23
ija
##asar
milke
shia
tanto
hinduon
dumb
bhosdi
wif
##uhan
##یچ
kaum
inho
bhasha
khai
##andssrcase
qowat
iphone
##sif
mentality
##andssrcaselin
bts
habi
jut
owaisi
##lying
gram
salim
scam
drive
aash
dgn
##riyo
sawari
minutes
shaksi
lmao
chalaye
frank
##dua
damn
##bby
mashriq
jones
jhel
zad
##atees
##ilab
theme
laag
bnta
disappo
judai
lafzon
zyda
faqat
bolty
instead
##guin
neeche
employ
pp
sdr
##wd
##cris
alone
lug
natak
##like
aaram
jasakay
burnol
##nath
##lm
##yer
##using
ekta
satya
hitler
absolutely
kish
himat
amain
tumharay
##mia
sarkaruvaaripaata
naqaab
##aker
abhin
unk
ahsaan
qissa
yousuf
##too
bolay
##ilih
kachra
gadi
ward
##iyc
bataiye
personality
paband
amazon
uryani
kaaf
results
fazool
teachers
aht
##enti
sobre
terah
rele
three
azan
kroge
jarr
##qo
holi
bologe
farhat
bairooni
##akshay
whe
chash
##ajh
dio
##رافی
##killedonjune
bati
tand
##tein
##soci
rashamidesai
##giri
mayaari
thriller
bers
##pata
hold
deg
##unya
coisa
sachin
bhaut
beat
seems
khulay
nakam
caste
lle
wc
##yr
parhta
trab
comple
daraaz
gone
##cbi
karva
##iyai
motor
marny
dosri
shakir
nst
##بل
boleh
raddi
##atar
##kaari
darshan
coba
dayilag
jharkhand
##kraborty
mic
##sd
pok
balke
zamanat
charlie
sambhaal
zeen
##andne
achie
magh
istand
pala
khafa
daikhon
##nik
##ses
##ades
albert
ajab
independ
gupta
##ies
##life
games
haiis
dim
misbah
rozana
tehreeri
mjh
مہ
mohabat
##seen
dhoandne
viral
2006
partner
nashi
shayed
gantipresiden
definitely
hap
rhta
##vv
##faq
pache
dalta
khelo
difaa
tube
mereko
##illat
tasawurat
tharki
##komainedikasamtomorrow
excited
##agini
loug
banday
##karang
mahireen
jummay
shaksiaat
saud
zaban
sarrak
duayen
puchna
couple
gave
thu
##plus
vishwas
adbi
akkaasi
vn
سک
##zn
chaap
khabri
belum
28
##mail
##cca
##fri
bhatak
##zaad
nikalti
ijjat
zafar
naat
hikmat
##tics
##minan
kagaz
janty
bandmaid
cupp
intellig
phar
##yari
##cm
##adeshi
sajid
agya
dong
ulti
##unts
jav
darkaar
paki
rangeen
jori
##نا
laun
blast
dhol
genu
aatma
susti
speaker
asmat
jii
sarcas
khatre
hogal
narendramod
friday
dro
##eye
tok
krd
##aqa
badl
awail
newbie
qareebi
otherwise
##against
walk
react
tujy
baithi
event
hye
##inah
khoof
armaan
##ateeni
earth
lateeni
ner
went
aacha
khatmay
chara
chutiyo
sav
anna
samna
akai
specially
aast
bann
feat
shehron
zama
haddi
bril
later
fuq
barbadi
yog
kisse
aaa
azmat
jesay
bhayanak
##oya
sampai
pot
farsh
bitha
sali
baen
##itar
##hop
##ario
pick
donon
ghanton
chunancha
کری
##jhe
##ament
ohhh
festival
sood
mee
unho
shaed
##ayiq
peri
pernah
##dern
kinng
idaron
zik
##tever
##ither
milni
kyn
rohani
pahu
bachao
##stru
campaign
stick
mutanazia
pila
##vision
##adhi
tumare
sakhta
drr
baind
ankhon
##fqat
joker
imte
galiya
##teri
##tery
siddi
madr
angry
zawaal
akeli
mangte
juraim
chicken
gd
##bel
jabki
taal
gusta
council
##jn
##رل
toba
##ailable
##garh
nato
budh
intibah
tashreef
imrankhanpti
##wen
itminan
pakda
roye
dalain
colors
farmay
sameit
mrs
##fully
##andssrcaselinked
avo
nic
##god
chata
lagayen
##roy
kharcha
muratab
brothers
jyda
##sir
nadir
shad
##saat
haqayiq
giraf
estab
mukhalfat
dk
##owo
##itni
banget
bads
rukhs
khelne
mangal
winning
wishing
dera
khone
dekhlo
laaye
tank
afwaj
aziat
mabham
2010
##akragini
tamanna
dude
##ground
##xh
koh
parcha
mou
mango
tarjeeh
##git
apas
catch
##wj
##lad
maula
baazu
##gf
##rk
##ren
##case
##hati
repres
paate
##ozgaar
marriage
zzz
##haas
##akistan
humary
musli
brigade
kim
##times
##medar
haryana
cow
##wany
hogye
##bong
##ڈی
bazar
hawas
farmai
pichhe
editing
celebrate
ladkiyo
amaan
zaraye
nuqsan
learn
zeeshaniyc
isy
chukla
standard
gosto
madahon
سم
sekarang
baagh
bando
ghumte
sachai
ahan
jgn
##ange
dou
gharz
menos
mix
guzri
mulawis
bornfi
nin
##uie
mahin
dikhti
flip
##vl
sabe
tarhan
siasat
akun
appro
problems
gumra
bethy
hl
##chiye
anho
ghuma
milenge
bharay
gire
ummid
kaf
abuse
shahi
bhaii
sunny
##adiya
might
olad
nalle
album
info
##jye
##caa
woo
##got
##nan
##aldin
##iram
laut
upr
##ffee
sangeen
lakho
meaning
mahinay
alehe
qualquer
whatever
arakeen
oil
aagah
yarr
create
sadiq
december
##adityanath
##bur
##rite
khod
##rankhan
fuqdaan
flight
wise
khuj
hainlogo
mujha
sochen
giya
malah
played
bandy
naukriyo
fed
kno
kushi
##pira
bahane
parday
##khud
##rei
##ups
masno
conde
patta
##tify
yrs
hakeem
generation
kiijiye
##dorozgaar
ishaq
dies
janaza
cobert
gula
dange
azaad
nyaydorozgaar
hogalakho
26
fik
haji
mutabad
mager
nazron
beeet
##bollywood
mutabadil
bear
hudood
gher
tie
vaha
sachaai
ullu
##inayakragini
narendramodinayakragini
pros
dekhni
badan
cous
chorney
zahmat
پر
##gah
##zl
##qaf
##idade
noi
kaira
thankyou
horha
planning
bhatti
##pindi
##backs
##pois
robot
balance
evening
##fai
pahan
psnd
beliau
bais
##tte
haiab
host
moka
nimat
judi
ghusa
responsi
haraam
farogh
saar
milkar
janat
taaw
dayen
jhoota
##یير
mushahida
hti
jash
kahta
##asab
##itos
jhuth
mangta
rukan
dede
shaid
taklif
masood
ganga
##asimriaz
rakshas
ijaad
genuine
fasa
jid
##athi
anmol
itwaar
pig
tehqi
##ooooo
##owos
boorha
ittila
sut
tt
taza
##mujhe
##hale
behind
shaitan
ow
ren
##یرو
kasa
adad
missed
visa
baccho
clip
##tei
heard
tahaz
daha
frame
sattar
surak
horahee
##bersama
cobertura
ina
nicha
##ador
alot
install
nagr
manu
upper
bulaa
##tahkam
##shn
paoge
saalon
konse
multi
vich
birth
wafadar
jazakallah
dhal
##ayan
nakaat
sunnat
adit
centre
aeen
aldeen
churr
dosro
tehq
soldi
shehnaazians
tazkara
haadsay
bornfighters
taawun
##rid
##udhary
chalana
states
encounter
ida
khushk
jisy
btana
puja
colorstv
squad
payen
tinha
##gaya
##gust
depend
shaz
teray
##afati
kehny
provo
##ايی
maanta
zehar
jerry
rukawat
research
deik
malam
lakhoon
gadha
andheray
sympathy
academy
##won
##josh
##kejriwal
koshis
meetha
electric
boot
pese
##adan
##adam
##hand
near
beb
huy
samait
dainee
steve
err
jheel
##atum
isharay
##kibaat
##kot
##adaat
sarfar
wear
##away
inteha
ldki
machhli
inhisaar
##full
chon
padti
worth
pahonch
disco
bikin
akhirat
bhii
ghur
mazdoor
tasali
bhok
##plz
ine
سل
##more
haib
mangi
mazkoor
mulak
hansna
books
guruji
tijarti
iqtidaar
tahazeeb
##chr
dilanay
brown
ibrahim
sharamnaak
mozoon
bornfightersana
gill
glti
##xe
##xam
##unity
torta
lambai
took
dukung
solah
dheere
distric
kharidne
quote
nen
ooo
riya
haara
logun
##adaan
##faan
nanti
glass
beauty
europi
##naye
mete
kareeb
##habi
hadi
##ghe
##happy
kangana
central
bahanay
dag
##gz
peer
badhai
##ddy
gardan
fojion
##adh
algo
matches
madat
pahuch
##ahida
cricketer
pachees
igu
mustahkam
jeeti
munsif
##یٹر
accident
phoolon
ssp
hoya
##agal
partici
samaji
ahsan
##ریس
femin
khalid
wonderful
connection
inqilab
assistant
tez
waqeye
chilla
secretary
noo
##uy
##mam
taleemi
##fficial
horahi
##erature
afsana
hochuki
##owosandi
layi
ساي
depois
parvez
jaw
krdi
mohta
dosron
exper
mustard
tajarbaat
bhikhari
##zindabad
##zer
##liat
uljha
shant
karbala
##inder
buhut
##aching
##cher
hud
amor
bhn
myself
jagha
majlis
technical
##dry
shat
pradhan
##zaat
##farid
##bersamahabibrizieq
27
gung
khw
saakh
niji
cheer
madinah
buj
tajzia
ghi
icon
chakar
sunke
gunda
hahahahah
breakup
tawaquaat
qamar
##ود
tokri
##naa
##kokara
##cio
qabr
umatbersamahabibrizieq
badhiya
ulma
mazloom
##ped
##riti
aib
childr
mufeed
treatment
##sing
lekn
doce
tanaza
buddhi
##bdmaheshbabusar
healthy
ski
##shay
##eral
##ataa
ballay
rhna
کا
kaal
forward
paidal
niklny
##ayak
##night
sidra
idr
swat
raway
jaal
badm
jalti
halakat
dalle
risk
crying
rally
nim
dhad
ene
kub
##gee
##bor
usk
lagate
farishta
##shame
mullo
spot
jammu
husool
thanku
fateh
mumbaipolice
emotions
nstaliq
baarish
kanjar
##box
gulami
factory
##ele
##dike
##onto
##iyoon
nich
hayee
ghaddar
##kokaraara
##gul
##indu
minority
##orities
jug
khailnay
knbe
moahida
jinho
expression
surya
mukamal
guzarta
killed
felt
source
eqdaar
soye
dekhny
rehny
gif
khelte
staystrong
posheeda
gazabb
flo
haiafsos
dinner
zamee
kahne
select
sdraldin
sla
haihum
##ages
##ookh
heat
united
##hajir
##نک
kili
kefiyat
retire
##range
hazaro
animal
bloody
cost
jiye
##چک
kot
tora
##apni
anurag
##habra
mutab
baich
samajhte
bajwa
##ریٹ
ghussa
patrakar
nuskha
chit
dhyaan
physi
zabt
exe
jaghon
yakin
shameless
##ughter
mantaqi
karana
gaey
sarfeen
pretty
pulw
pachaas
bde
##aien
tiene
paigha
claim
suraj
jayada
avpira
aid
##ند
krk
bock
##witha
##oolat
bakchodi
##gov
rizwan
abhinandan
##alon
naja
najay
kardia
pary
janata
ford
adaad
gunde
loota
khudkushi
pank
میل
##km
samman
badsha
conse
##hayya
naamzad
godse
rkho
daya
mst
bhikari
laug
bachhe
##ujh
package
##rishtey
hna
guard
jinnah
ganoon
favour
details
hut
lm
##hile
ravi
##ajo
maqasid
likhain
##hainpyaar
##vince
officiel
qi
siya
table
##ارٹ
bachaya
juz
tariq
patthar
fol
##fiz
karv
##terday
soda
dalo
danga
algum
aesy
##ڈا
chandi
poochna
dulhan
thai
gaurav
choose
jehaad
iqdaam
artist
fantastic
asmth
bum
lic
pesa
yess
##pta
sea
hia
loves
legi
munfarid
tanasub
gunj
khaam
stories
condition
purane
obvious
##hartshukla
neet
##wada
mex
jokes
##liment
dosh
poke
qurban
aaraam
mukhlis
dea
##agin
lagnay
kaisy
sorvete
nakh
sabun
doon
rahin
perfe
stars
zaida
brahman
rand
ٹری
sobai
stone
##hahah
chodan
supp
ghalatiyan
kurk
lehja
female
paighamaat
pub
dogle
terus
khatray
worker
thappar
afsan
bhau
jahaz
tib
bhare
huien
toota
##fraz
romanvi
dwara
gdp
bhabi
ficar
waseembadami
rgbi
rawalpindi
marti
walii
talba
guraiz
listening
lifafa
##tiye
hongy
shud
imthe
kirdar
shoqia
ریمیک
candidate
bottle
tabadlah
igual
##what
janba
dekhatii
excell
qawan
emer
justicefors
naveed
##hainpyaarke
med
zabanon
sie
rhega
murad
papu
##zadi
##amain
jaam
krdia
##vered
swe
##nar
##bdmaheshbabusarkaruvaaripaata
imthehaan
ingl
liat
##shid
naahi
##engy
yesterday
related
ske
##wing
##uat
##ben
raas
angr
print
mulai
nashay
aabb
ashraf
istehsal
eye
uc
##iest
behtr
jinka
except
casting
kilometer
prabhu
aey
##rina
##khera
##gressi
myogi
halkay
vijay
nashe
garv
survey
##rrr
samjhte
hashta
kati
root
##gaye
##pate
isay
mugh
muhayya
virodhi
sendiri
buzur
christian
##encia
pran
rahti
dale
phup
khudi
available
##mur
##pes
taasub
talak
taftee
risht
selected
tijarat
yara
haiaap
adil
##nyata
aynd
##quei
training
patel
pana
##vidhan
humanity
rules
vamos
rahai
##baa
##aaan
##chit
##iiiii
mustafa
curse
ming
##amy
khala
nobody
thok
mamta
##vj
able
wall
##jaaz
workers
2011
teesray
advent
texas
##bla
mele
leite
pear
bahoot
trade
gets
jeevan
carl
intiqam
ijti
calling
amitabh
negara
amanh
princi
##cak
karane
##hindu
##erson
awr
nasli
##magar
##aaaaa
dilaata
reading
koch
tomar
pehnay
jiya
ohday
nites
prince
parosi
tarike
kerti
vichar
jeb
dharna
salmankhan
zubair
dirty
rol
##meri
##پر
chaho
haw
hack
##kia
ambani
jano
rahu
##force
gary
seeing
##ickets
staff
##rishteyhainpyaarke
khun
pawankhera
selfie
achieve
##hail
umomi
taste
##views
##سٹن
shrm
rukhsat
bene
ہیں
##name
kel
jaff
##witch
##esto
uffff
khoobsurat
nashist
qawaneen
pn
naseer
sami
suroor
hazir
sahoolat
chhalang
qata
khadi
sabha
preshan
shayd
charha
fig
abbasi
jackson
##backsana
وال
bashin
hasrat
senti
chamcho
jumlay
chuky
parece
dreams
ladkiyon
makrooh
vak
##جر
sempre
devo
huge
shaa
rio
kripa
##cur
##esday
hija
##aliz
bichar
tablee
sochti
betaye
bp
matt
sochne
zulam
jhag
khazana
muzammat
idaara
jiy
##ader
krle
shag
pela
amin
shock
haqi
pahun
loag
sako
##malik
audio
kagaj
sazish
mq
##oi
##aishi
ghut
chone
##media
dekhty
gautam
rula
wash
kick
##umho
##khon
ghalt
shira
flag
##fsd
chappal
ez
ntapostponejeeneet
yasir
##لز
##anto
gaane
##bigg
##qaad
wasti
sahafat
padegi
paraston
malbosaat
##buk
seenay
mohar
remind
akhatta
fightbacksana
skin
write
##ien
##tega
muhar
tmhy
rasam
##ورٹ
chutiyapa
sardes
akailey
##hehe
##aso
##unil
##ayeda
rehi
guide
chipk
##tikhar
lane
maslan
tafseer
presiden
editor
janbahaq
jason
##ants
hamre
aawar
sunni
wajib
pareshaniyon
ghusse
dheyaan
liberals
coincid
aka
sawab
huya
##maha
##abii
mutma
nashar
morango
khooni
ikhtil
tc
##مر
##uments
pehna
bats
##ustan
bachche
##change
saif
agency
bic
eat
##aire
krs
beda
gaan
forces
multan
panj
posts
ایک
##wz
##teen
lecture
taaki
akhilesh
arzoo
atankwadi
district
sata
bankar
mawaq
##kel
nazil
tehseen
energy
evid
qaw
tht
##یہ
ghaf
##endra
strugg
lateefa
dastakhat
represent
shiraakat
fab
slo
##heb
##unki
lion
bhed
ehsaas
daku
bias
sharing
##asion
works
patra
kutub
sdfsd
fd
gair
lor
mik
##hei
##chh
khon
##hayy
##vida
azab
samjhain
aque
##انا
ladkiya
written
califor
bcha
سین
khoshi
muahi
jaay
stuff
tromin
bhejo
idk
dhul
rozgar
##enaaz
missile
mistake
parwarish
nahii
wahin
dosre
frazz
strate
esto
rhte
jamhoriat
##vg
##wade
##tk
##sath
##ڈو
darri
mamla
sms
verdad
tayar
daini
##active
football
muahiday
aes
fod
##dn
##atta
inj
##tyon
##miz
choki
aysa
dikhaane
ufff
winnersid
children
kkk
sdh
manager
doosra
judda
sahaba
trailor
ade
karwana
jaaiz
dot
nhin
tiwari
##jhoom
sajda
responsibility
rawayya
california
ako
ptm
##hali
sawan
loys
unhen
bec
sarfraz
jalta
linen
latest
##llect
criminals
chuslet
pouche
phon
##dak
##uc
##leha
kirol
nigaron
loving
##rib
chhe
marwa
jaman
latka
naqsh
gre
##than
##alay
##andh
asimanshi
nikalte
##aidh
##usive
ejaaz
khoobi
raab
muat
yahe
heera
exc
hisa
wahh
consider
fee
idio
jhon
bhug
weare
duaa
ayesha
peeta
bikhar
aour
jk
pus
##ture
##kum
mecca
##aku
farmat
malka
chij
bakol
advice
fuzool
miz
##kata
##نز
baath
ghor
##kowi
paisy
suka
congres
solution
pens
raahat
pup
##paa
huta
##oton
pork
brian
nind
##pul
naara
raw
hajhoom
usmani
regi
onche
todays
clearly
##blm
chaddi
queijo
bagi
##soom
lagen
taken
contra
entire
coat
publicity
pohanch
viewers
kenapa
repeat
mazkoorah
##noon
infir
tumara
hace
legal
sabz
gaah
bimar
likhon
jeetay
murak
pahari
leadership
mri
کام
khoye
##ghum
insano
istila
hijrat
sebel
tehqiqaat
qoom
tch
vese
##rm
shikari
mulkon
kattar
lahoo
khirki
##kun
##ination
muze
sua
suwar
iftikhar
sikho
tarek
flow
lti
tes
ining
chahain
anal
roy
chorr
chorra
maaro
jhatka
31
wasi
سو
dela
##ulo
##atives
nigr
##waray
prec
nuksaan
mishra
beghairat
mode
shees
mehdi
##rangi
buss
hatho
drrpnishank
##vani
##tera
##live
jayein
assam
belong
amiga
muqadma
culpr
bast
sushantsinghrajput
##keen
talented
disgust
qoam
mawaqay
kkkk
##weet
isupport
##iyr
thum
bajay
temperature
salaam
defence
aon
amaal
jora
##slaylikeshehnaaz
karlen
lem
anil
reche
chalane
##cias
mint
zamray
panga
crack
aamaal
pore
uchal
ket
living
colon
desai
ankho
kardiye
hindutva
badsoorat
mate
##tas
karnat
bhaiy
hamlon
dilo
badar
coffee
thook
shara
##your
bhuto
mosam
terrorism
jaenge
manti
samjhay
bakra
##charge
bheekh
avoid
mahino
kemar
hamdard
permission
lac
dikhay
intellect
kuchal
sangat
##gency
ws
##gol
##ight
##irt
ghula
boat
ghumne
chalees
##ینک
kkkkkkkkkkkkk
competition
milty
plastic
uljan
actual
establish
adventure
infiradi
sane
##dis
##bit
haior
hacer
##maam
ghatia
##coming
wajha
behtari
ahead
virgin
tahaff
##dhe
reach
##appu
kiran
##esign
wifaqi
29
##crat
paata
jalsa
vem
osama
recor
incident
jaegi
diesel
moot
##rab
##olan
dour
percent
sharab
male
rangon
jatey
buzdil
scheme
shaguf
##wra
abp
huva
lagu
##mane
##faat
winds
british
samart
janey
frm
ahora
skill
rakhain
naqvi
bakhoobi
habib
rhen
##abff
##ayaan
bantay
institu
##pressed
ranj
seedhi
item
##enta
prjosh
darna
##potism
mre
payenge
##hia
nek
income
chapl
humy
##rifi
soh
prh
bigaar
butter
naman
islye
thomas
bnaye
murkh
khelon
##strike
chlta
married
complaint
##lla
##cut
##fak
##apar
alle
imk
accounts
jimmedari
isaai
coincidncia
lid
##gt
aimi
kripya
dand
hb
ihata
oun
##ily
parhai
abid
khatra
utt
ayat
kheli
safhay
##ttt
shumal
zouq
bhago
moun
cheat
pursu
##dding
beshar
perform
##tabas
writing
protect
zone
##hbdmaheshbabu
##uss
lota
batt
##tical
bachana
thakur
farigh
cash
karra
##ikum
##roon
fresh
bheed
mangne
dafan
caption
collection
selalu
transfer
##ukia
gund
tee
پرو
##wm
anni
##max
manhoos
masuk
berry
irti
yaksaa
kheltaa
##usion
bazi
rao
usky
hamesa
harne
nihaad
tohfa
ghari
bnana
bnane
andhbhakt
bhadwe
aankho
uboor
aunti
##ahum
cop
charh
numain
insafi
nikaalte
mejor
muki
kamai
matan
pocha
farhan
jurrat
angel
کے
##nama
prati
respected
kaatnay
kaghaz
bran
lindo
##aita
neha
##khna
##lok
##bach
shok
lifaf
television
violence
pleas
khench
period
poucheen
remain
salon
##ايل
temple
junoob
starting
fucking
naazuk
nati
nahen
dars
aadam
phn
yahaan
maante
excellent
ispr
hip
mahal
sameer
opening
suffer
pc
vhi
zrifi
kaheen
##hoori
takkar
shur
maseeh
uthayen
estou
tashreeh
arvindkejriwal
##crisy
yup
yaq
bojh
##delhi
qib
tamil
اور
##ays
sabir
siap
##cky
sahil
baseer
nishani
junaid
hooda
awards
nossa
##gupta
aqa
jak
##fon
jahi
daastaa
##stwt
bitch
fakenaaz
bowler
sspns
lone
roll
##good
##ٹس
ghas
##roz
taba
resol
payment
compani
moral
##clear
setting
comprar
mehakma
brilli
##akshi
karsto
##ahre
##tib
##otes
##sofe
##eless
aasan
disk
netao
##basoya
ashokbasoya
khutoot
tafteesh
karstofer
##midesai
##itne
haft
jaib
badalna
heroen
fighting
aqu
boom
ips
jwab
##شی
##arid
meus
mehan
parab
tornay
voter
imdaad
vive
officeof
reporting
gostoso
dani
##asharma
##orry
humay
chye
gaadi
pav
ladne
deepak
singer
##kokaraaraaya
gall
rr
dilbechara
guar
aww
warriorsssr
##bahut
prayers
attend
istilaah
lupa
mne
takhayy
sunkar
naina
ess
padhany
charch
khele
narendra
fiction
takhayyul
##dud
##رڈ
bhikh
huma
bez
hararat
gande
jamhoor
##hasir
rating
evil
##chakde
sick
##gab
saccha
##karnb
mutr
satrah
padho
##govt
pursukoon
##karnbhan
##bhal
##aper
safi
uno
badhe
maarne
chalegi
linon
hardik
##bhoo
ihti
random
##seel
anjaam
darpok
jija
iqtabas
pb
##amit
ghoray
wahe
shool
tabqa
calls
dastan
jawano
##dates
fica
ht
##wata
##با
##ates
##usan
##aziz
jeetne
failed
currency
rn
krun
takat
hogay
ramadaan
##undinon
ille
kunal
phatt
myogiadityanath
aaqa
گری
lagati
##istani
dins
shamoliat
sorakh
estar
elawa
##mula
baaes
itihas
fing
##ip
karm
kray
##enty
tabqay
malom
daina
traf
wicketon
##istration
hashtag
cn
ڈا
##fb
asd
##uppor
tarika
marz
ajati
syd
tereko
achchi
##یٹس
roads
taajjub
bull
kesay
##ured
sayaray
shakti
jayga
dasht
bhakton
selection
abdal
killing
festa
uddhav
hukmaran
murakkab
dish
gina
ہچک
thaka
diary
munhasir
laker
##kibaathai
farmatay
lunga
pagi
##sana
##qad
manh
pers
ayo
##tral
apple
puche
benazir
daidh
او
unity
riwaya
bndi
lamhoon
garh
##uqat
nafiz
thoughts
eidi
##sociation
fm
##leri
sachey
amuman
##jects
tengo
narazgi
##lr
karya
saber
maje
product
disgusting
dali
fish
ning
wing
من
##singh
rafi
chaah
aisey
##bhakti
helly
dushmanon
ghatna
peaceful
dareaye
priyank
khyber
qibla
بری
mouj
takra
kabar
convert
majeed
rhne
kasih
tya
فن
##kabhi
##pc
invi
chasp
##lahi
unit
sabh
ikees
kosis
nimatnay
##undinonkibaathai
fen
گھ
tosee
##apt
hub
##asty
darwa
comfort
six
shoaib
shopping
tanaz
uthata
decl
mohlik
##picchakde
bherne
siddiqui
jase
zum
##راي
hoor
##abr
ink
hem
darjan
amlah
museeb
##edar
tale
uthane
behtreen
jaaney
summa
##sofepicchakde
##aps
andy
arkaan
proto
farahmi
dimaghi
sometimes
neech
lagegi
ronay
confused
riwayaat
lard
rts
kahenge
##eej
apartment
andhi
background
swt
##mark
judges
chatne
incindia
wesay
village
##ually
##kook
##zm
##ہم
nemat
tumlogo
##right
pehele
kale
hass
pahli
yaaar
mudde
tadween
hich
khawar
dopeh
tarak
daw
convers
chalaya
##amily
ayenge
newze
smo
##cch
##pati
ustad
pem
milit
shoro
##ankan
naqsha
kardaita
gaddaro
inglistan
gk
lati
phil
qasim
mohal
takut
hunri
silent
kharaaj
garden
especially
babi
ڈیل
##jk
##jas
orr
tufaan
massa
chowk
kharosh
journalists
hahahahahaha
##numai
afsurdah
karate
##isation
aby
humaray
drug
bug
showing
mashq
todne
gumrah
rujoo
fata
jiyo
##bihar
madras
##iaat
tried
brave
increase
bush
curi
asty
paham
rog
##tou
halqa
##یکا
dhanya
aaf
auth
nk
sagar
##sm
haipar
humlog
adha
bilang
ayr
##zzam
##ksks
daita
padhne
citizenship
aabad
gb
##ٹز
##aina
##astra
arr
asian
cual
ummeed
gaaliyan
vikash
uday
##urb
dews
krtey
##raaj
##mek
goonga
ajmal
##asih
jungli
girlfriend
ansari
mutasirah
gumsh
mushtarqa
chate
ador
mathe
##chane
sarif
ladies
includ
baseerat
wee
wid
##cn
kend
##eness
soya
##ques
apps
sudhir
gini
anos
moto
lift
condi
bilhaaz
taqub
##ganda
inten
bestie
religious
rashtra
sarfaraz
najaaiz
brilliant
cum
creat
##yor
##beer
haijo
##alees
bahat
takm
##jaa
anyway
boyfriend
tussi
cmo
gran
##wp
##nis
##urday
##esan
apkay
stadi
yours
aagya
interactive
fatt
rafale
bakhsh
balatar
hypocrisy
gumraah
##miyon
##aniya
yaaro
braz
aqeed
dher
gunnah
##vak
##yu
##fm
nap
##adas
##oran
neut
janch
gea
telling
qaidi
##jaye
abay
##aje
aloom
hmy
daaley
chhote
tbh
zalil
insec
nashon
irritating
faqeer
##bag
karzzzz
yehrishteyhainpyaarke
##entes
akhaz
bastii
samjhane
apply
promise
brigadeiro
io
##inted
##oria
taab
gharib
taswer
iqtis
pukht
chaheye
epis
dlhara
shagufata
ira
##dra
##adil
hori
horr
##iyana
leak
prr
##antra
##airaj
parhaiz
zubaan
lashkar
marketing
سلیش
مش
##wq
dosry
papers
buddy
bachat
blockbuster
responsible
cest
lama
##eb
chhi
##entine
gustak
##stud
##hyat
dungi
firqa
khareeda
hogy
bakhair
dhu
mashg
makeup
wafat
ronaq
##dz
kota
saww
yehundinonkibaathai
khayi
mustand
semana
owner
qeh
##cg
reject
batayi
##adian
scenes
girnay
waisy
garma
guria
bhosdike
athaara
discuss
laq
nepotism
filhal
ment
kashish
apan
manana
tek
pae
rahoo
sarzam
wasta
peeth
##www
##they
scienci
muzah
darmiyani
##akshays
bera
vl
##alan
khya
banwa
##gaah
askari
gawahi
amen
batate
tipo
hmne
sbki
kertay
lux
##power
##cos
##کٹ
howi
sargar
passport
liyay
nafsiat
musharaf
dopehar
nashonuma
ive
lazmi
inside
kernay
lgy
pukhta
lynching
niy
##gis
##nas
##dol
##nie
haroon
nizami
drone
hogyi
rizvi
adhikar
zanj
ڈین
##vee
towards
bej
##aqqaf
##comm
##stn
hasan
kardeti
saadgi
tahaffuz
##aridgro
cate
##jak
##kiyan
##fal
##pit
##bht
##ished
##anaa
astif
kabul
batatay
thor
faryaad
##mpin
practice
mexico
kye
lara
ہاي
hoto
anch
##aisha
chobees
thokar
##unggu
rasai
zulum
##tinya
mulaqat
ghaliban
tahun
danger
##biggboss
darwaaza
##alho
toler
apologi
shaad
rahaish
bars
tawaz
arhay
kalay
mayor
himself
jeetna
pakarney
medicine
badtameezi
##aridgroups
cook
ukha
##shehnaaz
##och
chadar
boly
##adaar
yoon
triste
##warna
pashto
pearl
mutmaen
establishment
##karnbhandari
yuk
##cream
##mey
darp
mantaq
##ced
masala
kahu
deserves
ahadees
##fz
##haron
bhalu
##chakraborty
gives
##ghter
gunjaish
emergency
akar
jga
ہال
##anga
lagna
pakai
asdas
donald
natural
##dsf
marega
lucknow
frustration
tasalii
bub
##رم
semel
mantay
process
namona
bhtt
ikut
badalny
cin
uu
abo
shaoor
maen
shout
satis
padosi
##heem
etni
screens
flush
maria
##risunil
muashra
aami
nath
##urana
##omo
tub
takay
arts
laugh
bua
agreed
dairay
ehti
daripada
anokha
nawaza
comparison
smiling
aii
fate
pla
##shab
##یسٹ
##alam
##chhabra
khaan
dib
rakhein
sundar
bologuruji
ontem
misraa
##sary
snap
iconic
siempre
feed
vul
کول
##tami
##jya
##arita
arjun
torr
garbar
ayaan
bangla
##ashami
oq
sasti
##nr
third
pawar
jhund
jhuka
yahudi
madarsa
relax
asaan
ler
dii
doh
##eyon
farakh
washing
##tron
btstwt
kant
wase
wdj
ایڈ
##vq
##aras
mega
nazi
##never
baaten
muskil
impro
##akhlat
cannot
kasoor
muntaqili
ishtial
draoni
##ews
##rin
chahoon
badiya
rotay
airtel
##اکاو
chairag
behnoon
jhanda
receita
##kashish
cwc
ghis
##cate
isnt
##esid
haami
jaunga
choot
kayak
##luar
schools
gehray
munazzam
karwane
soonahre
pessoa
marhalay
##hits
paresha
##hom
purkashish
##jection
andhere
koshishen
stadium
dnt
##hun
haius
karungi
anton
banake
kamar
yok
fao
##erial
knw
blow
ie
##pubg
##oodi
sarkon
satais
ayaat
kanun
intro
samjhti
trip
triple
yam
##beeh
##ooti
aaplog
unatees
manna
ghaib
poder
##erita
happiest
rozgaar
udasi
sdf
lazim
tong
vle
rafa
rahaa
##wanay
balak
bagair
kutty
##ونس
hadaf
jindgi
behave
##bdmaheshbabusarkaruvaaripaataurstrulymahesh
astifn
##anj
##naz
dege
kholo
alhum
pele
kasmir
kiyun
psycho
stoptargetingsid
cada
nil
##chhe
khalaa
martay
faris
jhagra
gurbat
cro
ved
##feel
##یتھ
##engi
##harsh
beizz
kaunsa
commer
sherni
museebat
asdasd
000
##enda
tham
huey
hamwar
indias
rishwat
frnds
کیم
##vpak
##kaha
ayee
phul
budha
dhanda
shiksha
wild
##selves
semelhana
aga
mati
rik
haip
bawa
##olic
lover
thha
rakhey
khtam
mahadev
khujli
qut
seva
##asth
sok
manaya
kartik
wardi
aany
daikhna
##gussa
ska
گار
##ea
##sud
##db
##dur
sewa
sawar
sache
lele
exabff
uthai
civ
lkin
mpa
ما
##vh
##vm
##dyo
##fare
##anja
##irf
bots
saturday
urf
transl
zalimana
wabsta
hungama
astyort
dust
##uo
kisaan
##assar
begh
temen
admit
pakistanis
namoon
##fact
bbc
ifrit
gehrai
turant
soobay
taswerain
sdfdsf
howay
haaye
aloy
umoor
fankar
bigad
dushmano
dakhal
hahahha
subscribe
cereja
phain
ral
##gk
hongay
ago
##aao
basa
based
gradu
jazbay
sunao
veil
chhodo
##babu
arthur
##airajdeep
qaf
shru
gimana
mehng
ayub
halak
aabadi
garibo
##rajput
mudakhlat
imtiaz
مہاکاو
takmeel
aqeedat
aada
bdi
dry
fue
##yl
##eekh
user
umr
lav
ento
tasad
khaufnaak
hazam
anyways
damad
bnao
zeyaa
msh
wht
سپ
##best
##چھ
sehri
bhalai
boltaa
mubarik
palest
##heeb
vedio
chunn
height
laughing
##sofepicchakdeindia
drohi
ring
##oetry
##akhon
shaq
chr
asto
##thak
lahrisunil
salamti
caller
beeno
pitt
andhera
falling
anjana
analys
imkanaat
aaty
beet
rush
##dik
baca
shaukat
samja
##uper
behri
shaytani
katrina
faisle
##standing
parwaaz
dans
nons
zyaada
##bakht
agha
hamko
manane
paaji
pahele
utne
##awaz
tmko
bhagwa
porn
gumshuda
ore
##wayi
roya
thandhi
##panwi
africi
##eeeeeeee
knew
nana
##work
##alla
waqia
fraib
##ciones
faal
muqaddar
rujhan
hya
uta
kou
##oomi
inayat
##iting
tumhi
surr
##mmm
langra
kashif
register
##rsn
jelas
riyan
##kkh
pedi
baadal
zindabaad
haspanwi
aatish
qatilon
brazil
pish
sell
##ikya
aff
abki
##uto
humen
agai
giray
anpadh
aha
rait
jaado
barhta
assi
thoray
##peare
choup
aagay
galati
##ايز
##یٹی
partaal
##virus
villiam
heavy
##nl
##jz
haij
##iniz
nel
kisine
marenge
kinara
##bhak
##ورن
streng
dafaq
alehda
regular
khabrain
35
fala
oon
ات
سینڈ
acor
barkat
guest
hassas
bheer
angle
chhu
fatwa
sharmindagi
pujari
ajayeen
wusool
candy
naar
chaht
tukron
assaar
marg
cheek
bhagat
rabb
dikhte
pohanchanay
unemp
hukmran
ell
yum
##atu
bhatt
achche
anjam
fli
iy
##bk
##affar
tao
waqfay
naamon
scared
utk
bachchan
keren
hakoom
meethi
##fortun
lapait
bahaduri
demais
1950
unky
huq
peene
##enting
aaap
khusbhoo
pasandeedgi
karao
##huum
sansad
##lines
platform
saqafati
wheels
maraslay
lakerain
jasa
sport
##wu
##mish
##heli
takhat
piece
singing
mafhuum
##thought
sidharthshukia
beizzati
nadi
antes
##lian
hareef
tarik
ikhlaqiaat
zuba
را
##hant
khna
##team
haen
khatay
merit
usmaan
bhaieyon
doray
sanskar
patient
shehnazgill
fot
gz
ukh
کن
kejri
kadi
saas
faut
ghamand
brahmin
surprise
zanjeer
villiams
dc
vk
wazi
chabis
joy
krdiya
lagwa
organ
##thon
phoot
##یون
rajdeep
##iyoun
##quier
1970
haqiqat
categ
eman
ima
سیل
##usta
##eesh
ghlt
maane
shu
batati
shariat
upset
alien
daira
opport
dhokha
iqd
obc
happening
##dupoetry
nigrani
##why
##leed
##aland
##isas
nein
bible
admission
pluie
hasad
tambm
zahiri
##gues
khailtay
begun
ajao
mithai
ansu
ٹاي
rawan
anth
mouth
sabne
nokri
aaega
goa
probab
buen
karege
tayyaray
guzaarne
pulwama
dant
##aktay
##ille
jaani
khait
reci
rocket
saktey
posting
zibah
##winning
header
obviously
fare
sj
نو
ہول
##wind
afsa
jaayenge
##idar
hamy
##aliya
taari
arhaan
wahein
kerala
tough
##bron
##ریک
jayda
mooh
arahi
1980
aho
gnd
zey
moul
sota
sita
round
nikly
behter
fac
kasrat
khalifa
joly
nangay
jamhooria
jaadoyi
emaan
either
##dhan
hailekin
##ising
##icult
unhain
ghumao
##baal
wewant
charah
mashwaray
##congress
bacchi
powerful
emotion
early
trolling
selfish
meharban
tanazur
cane
fame
nw
tyar
##zah
badma
battery
formula
tips
sahiwal
kitno
basi
##youn
tempo
ikhtitami
chillate
aatankwadi
quarant
munsifana
expert
neutral
ril
zaid
##fu
##fk
##لڈ
##osid
modern
##andhan
robin
##hadry
galiyo
qarz
justify
ngga
pohanchi
chahiya
chhorna
gst
tdk
bahas
bhab
jaad
khami
marty
badly
gii
qaaf
##oooooo
pdta
shehnazkeaslifans
kuj
zaw
melay
nep
sakal
shoba
spin
mazaak
cebong
gulukar
مہاکاوی
paj
rank
کون
##ende
chati
haaa
boliye
sigl
chohadry
jasy
qassar
positivity
argument
##ei
kisay
manus
threat
firse
shift
qabliyat
tawazun
fani
jose
sila
vha
##atiya
hamri
##veen
allha
imandar
##doz
hayat
charcha
aand
##follow
##hena
sector
##iski
##ird
pechay
liey
polish
esp
##eeshat
cris
hatred
jamanat
aazadi
maizban
qiyaas
hashmi
rent
##لنگ
##akah
##olf
suha
rammandir
interested
punish
mardana
ghatya
younis
gungay
##hk
##ایک
##abha
relie
ajar
kalma
kharja
crazy
mamas
hansa
colony
rashmidesai
bewakuf
##uur
##aine
khd
along
sabzi
ternyata
zarori
exchange
##feq
paling
buddha
avr
##likat
successful
graf
rut
##leel
##kiya
ladte
##pped
hats
jaroorat
bhakts
intizamia
involved
execu
angraiz
sardesairajdeep
bch
yhan
yadi
zat
##arrest
##tial
bhaisa
mooli
##roor
##oori
##versary
jayege
estoy
pichh
waktu
gardish
westand
behaviour
cuz
##gado
kase
##ikat
khra
haam
afzal
bany
mainy
batay
forgot
twenty
##amaad
chandni
tasweeron
hospitals
building
##lena
##oda
##usti
bekaar
itti
term
hadsa
personally
chiye
cats
lil
lais
##joo
##bandi
unfortun
asay
harj
##hammed
muthi
##ftari
##ولا
soinsdes
fis
ور
وا
aapna
prag
ghadar
teko
copi
faraz
taluq
bahami
customer
aditya
unhy
kalank
utr
hojayega
irfan
driving
bapu
anchors
gumshudaa
hill
ias
میگ
##lg
##kie
maeeshat
sohail
harr
sig
contri
duck
malala
jalte
matlooba
papad
strai
chhootay
haadsa
shahrukh
batsman
military
ubhar
##vz
##ners
keeray
intr
khabi
cher
petr
khudko
goal
karogi
choda
##iyaan
drame
brh
bnany
safdar
kregi
2014
steady
aos
zillat
mahat
kerty
mumlikat
bndy
choden
shakspeare
interesting
faaslay
parcham
analysis
ww
loud
waalo
hogae
minorities
ulama
bechne
haramkhor
turk
taxi
dent
##dasht
##pra
##akhi
moi
agaye
musi
##adif
##viet
bhumi
awan
##vaan
##tica
corr
##icion
kheriyat
suggest
occ
نیو
aapni
##laab
aawazian
lehar
sarzamen
##fx
segu
hearts
manay
pastel
vous
atma
nafees
yrkkh
penguin
karwao
management
lose
rais
swal
##wate
kej
kopi
##akhir
manq
##big
bhg
gharri
jinhen
numbers
desde
teeno
athais
delivery
harkatein
journey
##dun
##رک
##abat
##laas
khaane
und
##rel
ghaas
naame
bikau
youtub
berozgar
hijaab
کرو
aurtain
banayi
matters
tran
apradhi
akshaykumar
jootay
saudia
wehshat
yonani
ita
mia
ullah
veri
##cup
##arr
##asya
lov
jaany
tweetrhea
khuloos
##indian
wakai
##ushantsingrajput
namodaar
##gressive
mamaslat
ling
ox
tbs
umed
##ela
##inst
bilash
zindagion
drag
dhoom
parivaar
##hutto
kkkkkk
avec
kain
فری
##hry
##ڈس
##nao
alood
##shdd
bujh
jago
nikale
##yog
families
laila
pessoas
intelligent
pighal
##lk
##khwa
barab
refer
arm
wahab
poet
nikaltay
verga
clin
chupkay
gulshan
surrender
lul
vari
##yav
khasa
humor
huway
honton
##maari
likhy
urdupoetry
surbhi
jamin
seekhna
pehluo
struggle
ily
posh
yor
##hetic
jaari
diam
sony
##nnnn
currently
engineering
ahthyat
bje
tabi
##tya
##isan
##harif
inning
shall
ashaat
##hahahah
##ungan
hanuman
daikha
likhti
safety
##bandhan
philip
documents
pohanchaya
tarde
parabns
##sood
##uar
##شن
lemb
humour
matam
throw
##llll
basti
talkh
##odes
pahly
fazal
bhejna
selamat
taiyar
tadad
jajaja
chasham
##aster
istaq
##udu
kisam
trs
gem
minta
lado
dhara
##ونی
rising
rhti
shirf
bakhud
ghoomnay
ijtimai
haiin
haiwo
inquiry
abir
bhati
khaak
doz
barra
muslam
launch
jinah
mutwaj
sadma
peetay
daaltay
faith
jadugar
bilashuba
beem
##tai
##loo
bela
tetap
##mited
##hayak
jamal
finan
hifz
sukhan
wkwkwk
discussion
spoil
##iab
##zh
##pin
##pho
##xic
hijar
frango
lagaata
heiek
bethnay
division
rajiv
mutwajjah
wro
##nal
##dosh
antar
huwi
darw
##rou
phirtay
skr
epi
vag
##از
karoo
##rew
##sht
pechy
##htr
tarh
##awi
ahl
khushiya
##kyu
jamea
##gang
##xp
hokr
##akya
muda
##ically
bhaad
samaat
tarfa
inspe
ayse
puta
capital
rabta
hafte
importance
##pehle
strength
پل
##anan
kood
appr
##ithik
itsssr
bartao
##roid
conven
rehnay
nika
bandhan
gym
btaye
officers
muhafiz
suggestion
tofeq
chachi
yaani
muse
tia
vot
##cious
padhi
jahaan
arsaal
until
katega
allowed
location
soinsdesupport
ehal
##vish
##uras
nakhush
##asing
##grhe
atom
bahaali
taraqi
vapas
pakhtun
45
fos
wn
##pah
deer
nok
pakde
ens
choty
bjpindia
mubark
bethi
khayen
cigare
idiots
aver
sree
##gm
##this
##xs
##uring
naqaad
##akes
##ape
ace
jankari
rhaa
urane
resp
idher
puchh
binaa
korea
gub
phaar
##rate
kahiye
parega
khadim
taur
masalah
esai
faad
samjhoo
commentary
jamaaton
gm
##heers
##adari
khare
huh
##kawe
manj
dawai
chalata
##ciary
pehley
##انی
besharm
lawyer
ghotala
##thoughts
awar
##ilar
loh
lou
prta
limo
##devi
hype
larky
bugh
daalna
qasbay
wich
cel
td
taim
بار
##fq
##hada
deo
dehi
boa
chul
soviet
weight
patwar
mushtaq
##gery
profit
failure
captaincy
certo
deepika
soldiers
badmaash
tbsron
##lh
##amb
ravan
ing
lives
awaj
hashar
patri
mashkook
seekho
noman
tableegh
evidence
mutradif
aatay
cable
ola
##duk
##inin
kaj
pink
contestant
professional
nonsense
hani
raise
##while
##usla
parney
dias
prak
hamal
amaiz
denay
malay
tassad
drik
irada
##یسی
radhe
dogla
layein
movement
islaah
kanhaiya
gord
##oti
##ید
##osha
mature
feal
punch
fankaran
qoul
mutasireen
joining
nigahon
mukhatib
khoofzada
fankaranah
auqat
equi
rather
naaa
aurang
milo
liaqat
baher
waadi
bnai
##irect
yaden
rupees
devol
garibi
niklee
##udhry
bkwas
courage
masnoi
straight
aek
fla
muaqqaf
thali
bhay
##haty
barkha
mail
jite
##antu
wasy
ladko
nange
hakoomati
ڈیو
thaam
barhay
gibi
plant
uthatay
dikhawa
uthao
commander
udhaar
romance
pandey
ideology
daraona
kolkata
sheeshay
ghee
lada
##lari
##مم
##dies
bhait
contr
coco
jale
canadian
ilz
swamy
highlight
recei
nadeem
protocol
oi
##nad
##tek
##azm
kamran
gua
zarb
mins
tmhri
resta
blah
dhaal
services
deix
khadsha
cah
##alman
kaand
##lied
arshi
adda
mehman
sensi
jaraha
doran
##tivate
##winner
pyaari
jare
spr
bhaj
bhashan
##wao
dekhy
##alize
masum
perman
madhar
murti
rokna
aanso
dfa
diri
kora
rawi
##edo
achar
falsa
romans
speaking
##black
principal
ہچکاک
emb
##wel
##aon
##rp
##pdi
##abki
islie
##uno
rawa
stal
individ
gandgi
jarjya
##ولف
jm
##geh
keval
##saaz
##angat
rahnumai
akram
taqleed
larna
dekhieye
links
bja
ایم
##vic
##erah
##amma
kaz
##ading
seerat
khty
soi
daano
coisas
akmal
indiana
khuwab
superstar
subhanallah
faasla
weeks
kny
bolny
##trailer
dalla
harkato
planet
ct
jgh
kana
lum
lub
tj
ves
##agandhi
sampe
exten
katne
mrzi
##paksh
##girl
##kashyap
amigo
gamzan
jehti
cooper
sarcasm
washington
fon
humble
moor
samandari
gaar
khani
guil
broad
bachaye
falan
samjhaya
farmae
ashya
painting
seena
sop
amad
##ubarak
likin
##mohan
cru
murghi
morgan
nangi
wedding
katay
کور
##vu
##aha
##sil
##mom
##سک
ape
parhy
bhij
saahi
dae
provide
munna
luta
##یلی
##point
salamt
sambit
waisi
khrb
honestly
revol
crow
##flix
demon
infor
maino
khandaan
sugar
magaz
mini
aamdani
mig
busr
peechy
indeed
moments
lathi
aarha
jajajajaj
extreme
##cional
vande
##vraj
##gap
##hus
hovered
karin
aapa
##cek
voy
##eraan
hinduism
warm
aqeedah
khilafat
##fiqar
gajab
conversation
including
iqdamaat
edie
ہے
##pd
lagty
kamu
jameen
teams
##party
airk
shehbaz
gardon
fellow
timing
neelam
dt
ite
sush
wesa
نیک
separ
khwa
unme
chean
twt
indies
colom
bhejnay
bahaal
munaqq
destroy
nagrik
hafton
newzea
mike
##zin
khte
parliment
mute
chauki
hien
laatay
ishkarnbhandari
videshi
ruswa
screenshot
munaqqid
kv
nye
##hoo
keti
##tet
##nifer
mujri
asl
truly
enjo
aji
paraschhabra
mutazaad
lngrhe
dikhega
effort
muslimo
fsd
npr
rind
karai
ishehnaazgill
##used
dese
dij
##kian
mac
barhatay
rahn
talwe
##ايک
badalne
guzarte
priya
photography
jumma
confuse
whenever
tehqeeq
##ghest
سینما
mashgool
civili
palestine
pindi
pcb
##nh
##heikh
##ardar
barbra
##chain
pakistanzindabad
enquiry
voters
imad
madham
sbhi
aagy
fida
grant
bethay
dekhega
communist
##aharashtra
dishaandssrcaselinked
##mumbaipolice
disappointed
chashma
bv
##uga
##cist
soal
##mach
cheharon
hassi
cares
eles
ishwar
dyn
juta
prachar
guzr
afternoon
phair
running
quite
democrat
##music
nelson
jaadoo
lt
lord
swi
##wide
##dmin
naagin
##unk
mucho
bety
menu
regard
completely
beneran
dedic
cousin
cz
لار
##eli
keluar
##heet
##chall
lib
muskan
expected
wahn
justo
gumaan
##maniae
disturb
badhaane
dhakka
juzwi
cuk
kem
tof
bolen
daughter
tet
fort
umda
sadd
##quad
berarti
replies
##ورو
tbm
classes
istamal
blessings
yuhin
himanshikh
eesa
kund
zer
##cab
haimai
##atory
##iyar
khawaja
niya
##eries
tanzia
patients
sisters
tailor
dooba
afsanwi
jahilo
nurse
کاس
tourn
##nav
##apak
anjaan
maani
pakv
batayega
gusa
tree
khany
interaction
##راف
sulah
انٹ
tarkeeb
coinciden
afsaanay
##card
##boot
parhe
parho
##lihat
hmko
quase
puchhte
falar
range
##knay
##riz
##hatt
##araan
asman
nie
rahim
pakistaniyo
naib
awara
##ینا
mubarakbad
flood
relatives
comfortable
rude
zil
##vai
##khay
##وا
parchi
##iyal
bolon
kalik
tmhary
aqsam
##یوس
anymore
192
ehsan
valid
##respect
iamsrk
muatali
kse
##jt
##uit
##pre
kasar
hau
sochiye
baatain
darling
craze
##uje
dhandha
##protest
conditions
ff
pik
##hass
##iran
mua
taaz
masom
##mantri
mutala
nazare
makhi
betiyan
ideal
sadiiyon
ladkiyan
judiciary
probably
چھ
##vx
##abo
alert
##hatar
##waat
shoiab
patni
khushiyon
tanya
warana
garo
identi
panama
suspen
tashaddud
##bachchan
relief
gent
tata
##tag
aplog
##hob
##chap
android
ghata
material
urban
mamle
##ullu
##banon
kahun
exposed
jennifer
amaar
waday
zati
##pf
##ayy
rakhty
mutta
##aseer
fauji
lgte
udhr
chahey
steal
istifa
maghfirat
anthony
inspector
bnay
eres
heh
wastay
بھ
##vsp
##sb
##cat
shaista
mauj
hasb
becharay
muskurati
##block
guzaraa
raga
##vc
##jer
##person
##iny
sachay
stor
aaas
##fiha
amethi
ibrat
ohda
prep
direction
mansikta
jaayegi
regret
counter
##winninghearts
joseph
flying
gid
sf
yt
##ida
##rn
tumhri
sabak
prblm
milk
dilaya
jaison
fault
anger
bagga
buster
bert
mashwara
ehsaan
israar
grace
tonight
concern
chipkali
mong
mosi
##fire
##ancy
muqa
##sei
khota
tootay
##imum
mirror
##sanjay
boorhi
fixed
tandr
jashnn
ghulaab
tassadum
falo
mone
snd
slam
termin
onc
##waraj
spir
qadir
katil
memory
loser
shikwa
churail
phisal
moattal
episodes
astodyo
dd
mza
##wed
kau
toe
isn
andi
sob
amra
ghaat
##zarat
buts
chalate
sheher
haqq
##wabit
nasr
khelta
memang
patience
anjuman
hypocri
category
edi
gap
puk
##wers
kiani
kaseer
baani
rem
##deo
arshad
aajate
geer
behria
##vaaj
aasmaa
##bechar
badalta
khailay
allaha
pusht
illegal
##care
##xz
##ehri
huna
##idnaaz
##meer
jabar
rahman
smaj
maqsood
bhout
nasib
##bedkar
strategy
above
pg
zari
##airat
nax
karanay
khwahi
helic
mouti
masal
salana
thous
warner
##osition
elan
cold
fattu
memon
##talees
holid
yrrr
nhy
tone
bhage
khaka
khawahish
logu
pasnd
##endar
thnk
##asimanshi
roznama
howy
pret
##برٹ
organi
puede
cloudy
karnataka
magazine
dall
##alagi
##asingh
bevk
ush
maai
##rahi
##lier
peeri
tua
gaaya
##ukam
raksh
passion
pocket
faraiz
frma
burger
rasa
naslon
applic
rozay
iron
yearsof
##choice
blocked
mmbron
nirng
influ
muskurate
aankhe
##shabandhan
##maniaevery
cari
srif
##jaz
##ushman
alia
italian
kamjor
taknik
pera
rozi
laranja
esc
leny
sadme
patah
menjadi
mukesh
compan
ganday
jamhoori
falando
##firullah
bread
ahmaq
##withsidshukla
sawanah
gender
zani
برو
##mall
##xposed
##aming
semi
loe
theory
ghn
moha
amm
concept
tight
wasail
mulher
##uju
swami
hakkaam
langsung
amigos
##ername
quarantine
##lor
shama
bold
tip
falta
aazma
akkians
involve
okk
##oofi
inhon
hajar
abang
jou
ann
##safar
mujse
doum
tav
kitn
madni
ministry
sadko
makanya
phd
changed
admion
kkkkkkk
lanka
arrestrhea
##sharif
ugly
remove
##lol
##kana
##cido
##pil
kaata
kahein
karnam
paat
frn
##zzz
shower
zaar
warzi
outro
juice
email
needed
raton
majboori
aare
highest
useless
shal
asleha
##angana
advert
dug
esliye
chim
##ffff
reser
##asily
chalaak
##gls
swadeshi
ganja
besar
lanti
wehshi
converted
pahucha
aham
dudh
zali
##path
##نو
##ined
##eres
infe
safa
motion
adnan
trus
##cies
tweeting
##alekin
##board
stress
cameron
dhona
phatti
laptop
divide
johnson
colonel
btay
لیم
##kol
saaye
##ubah
daala
disse
mangtay
khabardaar
beej
pyaas
ihtimaam
mort
##بو
haibut
##eram
toa
apakah
abhe
thehr
belt
thii
##isto
targ
sark
grande
pukaar
##ولی
vict
sagheer
ile
vay
##zeeb
##tiwari
raag
shauk
wallah
doori
koii
peeron
assh
niti
pasa
timeline
##ورا
juwaz
khola
cutie
izafay
shehzadi
glad
bhenchod
sidnaz
records
khyaal
wla
لاين
##noo
##rh
tool
##istic
shait
shami
##raak
gao
stan
sunaya
jine
meher
rasmi
puncture
swara
swasth
flirt
naqid
rokne
evict
aqalmand
##rajaat
zayda
transmission
confusion
wy
##ads
karish
##jahan
baht
##warriorsssr
lakhon
desse
ruke
zulfiqar
ngopi
##اسی
joota
almiya
astagh
ayndrsn
helicop
dhab
fuk
otaar
sooo
##vik
##gak
kawish
isb
##nawaz
bantu
nive
saram
thanday
tmne
danoton
phli
maqboliat
giraftari
سینماگ
##yun
hok
among
lips
engr
achchha
broke
daaron
phati
banegi
parrin
effect
auk
bny
phad
yy
ڈیم
##ring
##puri
##baj
##almankhan
nawa
noah
##entar
marak
mazrat
welove
drink
happens
maarta
dise
watni
waaah
bhy
بیک
##jq
kahy
depan
hamra
asate
rahee
paati
karobari
atya
cheezain
##ینز
##لیس
qanon
dollars
badnami
samarthan
aaza
hty
sse
uae
ھلن
haikya
khora
baas
mullah
##itra
loos
mushta
batau
uthate
invite
thousand
pgl
vm
##uske
##ikl
##did
merko
sakt
##hindi
rivaaj
ghareebon
tashheer
critici
chahate
trib
##یاں
obri
##iyorum
clips
bewkoof
musibat
cigarette
suth
##کار
sett
##olar
loon
bhali
##aquat
##mandi
mutlaq
esque
within
bnde
pagla
gadhay
##poetry
dhongi
coverage
##ووین
chamchagiri
equal
nitishkumar
mohtaat
sydney
گیل
##wag
##here
##cz
##عم
##arsh
##ench
##itam
username
choom
takle
forma
jivan
rehm
carne
##ونگ
##aarmy
bengali
sharaabii
easily
nut
weraan
##orati
kron
hamay
amg
daam
atas
jayaz
mansab
valentine
klov
supply
ikhtilafat
ronaqe
wasim
tumhre
##republic
##chaan
noble
adalah
abhishe
suc
namanya
bachcho
jahangir
brt
dhaka
gaddi
aarai
##akaar
zehn
runuma
sekali
##muslim
hukmarani
aadaab
ھلنایک
tq
wic
##fh
##xm
nape
##union
lokt
dilane
kirn
sanatan
ulj
iraday
predi
bowl
misalein
jt
فار
##eran
##dawards
alt
dilwa
##dekh
advo
enko
zindag
jaanti
jaltay
supre
safal
jeff
bhejta
balouch
buzurag
waziristan
##stery
muslmano
rply
raabtey
coincidencia
##bz
thapad
bemar
mahaan
boi
likn
kitchen
basorat
shiva
sbka
hostel
##olog
maravil
##dulilah
creo
ssrkilledonjune
usoolon
hathyaaron
vadra
pensando
aaasaaan
mba
kori
bawar
saali
aftaab
anand
banadiya
##aston
##niya
manof
biasa
kuki
dhoke
guzarti
izafa
ikhtiyarat
jeso
dakhla
nominate
khwahisaat
cream
dut
ewaan
jute
##xn
##aira
motay
##adaari
arrange
nazeer
madadgaar
manao
angrez
uthta
qureshi
munafqat
mario
netflix
tadbeer
western
neigh
nusrat
paneer
azmaish
dake
pdh
rcb
##rer
##ining
##ikal
##osron
merey
##andu
cheating
##adia
chotay
broken
tooti
bullet
kholnay
ministers
labour
nirdosh
deedar
popularity
rishton
hypocrite
bsp
ghir
##loob
kaanon
sotay
##shu
tarbi
adop
siva
lae
atm
ikat
whom
tujhko
afghani
bichare
##000
buzdar
divor
lughat
pankaj
iqtisadi
tournament
joot
swa
vento
##jm
##ٹا
kafan
##apur
anup
raham
##upt
marji
##tarah
polling
esko
khit
dalna
dancer
five
##یلا
falsaf
ending
pitch
espero
sebelum
cage
hz
jika
##gur
##jana
kele
yaan
asani
gawara
sidheart
jita
##eday
trait
ladna
guzarna
ijlaas
dhong
muzaffar
shaandaar
wesupport
itihaas
adhuri
swagat
fasaad
saneha
knyu
khoraak
32
##dli
unpe
chk
lies
rod
bharta
bale
hojana
shakl
budhi
waalon
economic
prabowo
feature
aari
pde
kemb
mea
nau
koye
ded
##howa
alp
banakar
activ
rehma
frans
puray
##agem
babe
lgaya
kutti
prim
benar
millions
autral
##khilaf
muyassar
waheguru
yahudion
rafael
autraliyai
ghe
oor
rice
##gd
##xq
pard
##irat
abr
##ided
##lock
peche
darti
taran
const
atomi
duwa
cheezo
patna
wahhh
spam
##paras
##lution
##cycle
mansookh
rumah
badhaya
dye
##رپ
##شا
navy
anok
milho
syria
ahsas
halt
##wajah
daalo
sensible
quiero
tommy
hainap
tamaam
bhabhee
unfortunately
سینماگرافی
bni
cai
##call
banin
##andal
sog
paan
admir
##karna
karnaama
samajhta
##ngy
yahn
indirect
pichwade
ooper
kaahe
jaizon
shubhkam
aalim
dgls
qadi
##vor
##soon
##fia
##ڈن
##haye
##amin
##adti
##tified
##chari
logg
atanki
##allu
dormir
dastoor
simply
ghotale
darpaish
targheeb
bing
ہن
##مپ
kiyon
##eny
krt
entr
hayeee
spain
padahal
shumari
dapat
##ress
##dagi
sekha
mohan
mogam
mujas
adliya
mazaa
liken
byan
surgery
katnay
rangers
fico
imandaar
hul
ping
##mul
##ption
##omen
khaala
shaikh
##loves
mobil
agu
jabardasti
harta
sarpar
padne
##ously
realheroarnab
indira
ways
daddy
killer
retirement
cualquier
improve
pareshaan
grafk
muttahid
##wet
##over
kapr
##ajay
##rahe
##deli
mazhar
royal
dona
kiyaa
##fel
mamnon
baithta
gracias
kharidi
khabron
##morning
tarakki
chhuut
executive
falsafah
liri
piyo
##mkb
##fn
isey
baqa
theak
lagan
dob
##shuk
ghadd
aajao
##hinde
goad
encom
deshbhakt
##ینج
asimkeaslifans
spons
fiquei
dhool
sudden
kholi
##emic
opposite
##show
##cbiforssr
tibbi
##creamsc
ehtijaj
##لیٹ
##hackeray
##aiman
dewan
khta
yaara
souch
barometer
refr
takes
pahira
##یناس
##hriram
poocho
hrithik
bright
aazad
guts
##یشن
zeenews
bayaan
##zul
leves
logoon
##waah
waqi
sidhe
exit
girta
kharay
mazaar
prepar
prefer
shameful
daraamad
intellectual
dice
mry
none
اٹ
##adha
isis
raasta
##ains
##ried
ghun
bolein
matri
sarm
prody
scr
dalne
compartment
gaddari
##kten
oopri
communal
dipika
recheio
average
مونٹ
##wasi
##kanay
##aiy
##onk
nabu
apalagi
lagake
mount
##vet
manate
##roh
addition
proved
hiss
menang
thankhowa
heroes
##iiiiiiii
mehngi
buzurgon
porkistan
yhe
##squad
##lum
haikoi
joor
krwaya
khaaliq
samsung
perlu
munir
##baik
udh
##aaaaaa
failane
label
jealousy
##bissr
vyakti
qiyaasi
##choiceasim
prodyosron
rit
##vati
##ines
toxic
##tement
inme
##dip
bhaap
noori
dekhkr
##demand
roar
jaisey
sarbara
aysi
subject
##aryin
pregn
semangat
masihi
circle
provoke
officeofut
laqab
mushtael
sint
wjh
##maz
haid
tower
bhim
shakh
samet
ghaar
arn
##matters
frk
logoun
jalne
##imrankhan
junoo
pashtun
bashm
vcs
##rom
##himanshi
haiii
tota
dehani
##irbhar
##ayein
##astha
shram
quwat
qualif
hamarey
swee
kahn
epic
berojgari
figure
mentally
daj
eva
qaryin
ucha
##pass
##لس
algu
died
banani
dekhle
manne
waqf
sung
doshi
imf
shiah
mangni
cosuon
naqideen
aain
ec
fasal
jyo
##qai
##hala
hotum
##aban
##eev
deput
tumi
bohra
teaser
chalty
sharait
zarf
upsc
dhaaray
maharastra
horhi
vaccine
mahirasharma
swear
muzahmat
beef
gs
lh
pdega
zu
##aiya
kapt
##iyun
saving
##dible
jauh
##kaa
##kaur
dois
barkhilaf
##gey
hamse
ambedkar
shushant
tej
gear
bury
chik
fiq
katwa
##یور
oleh
pinto
lights
dialogues
hamaare
##maniaeverywhere
fud
lora
##gp
##nda
##کے
haisa
##alty
defe
demag
leken
khak
filmsaaz
amanat
tarap
sial
nikali
syasat
chok
namas
burj
##mpo
qabzay
mandana
elaj
hosakay
##ugal
kurang
olsun
talib
sambhalo
mathura
library
qabrustan
tickets
uber
##فورڈ
##enen
##ismo
##uses
mukar
##mei
reti
niaz
mareekh
shes
##antee
rihayi
survi
maanna
command
2005
##nnn
radha
tabdeelian
fully
independence
pranam
qawaid
saahib
##creamscbissr
yom
##rana
##raiz
##rise
##bagh
kaag
kaaba
##tawa
accep
mutnab
patak
surname
sikhata
sooch
nawway
amount
besharmi
kail
ninho
pia
ragh
##vadi
##try
##qab
hide
##endram
naii
sayasat
bueno
crap
rim
spend
##ngtn
tareeka
pues
rahyn
false
chudail
karleta
balatkar
aastn
viewerschoiceasim
asateza
gori
nare
oly
paji
sry
dipl
sote
baradri
rehan
##jawab
enc
hmain
shifa
aagey
kuta
mtshdd
neelay
bolegi
zimmedari
document
rakshson
helicopter
mutnabba
dw
فر
##gada
haito
savar
abbe
jokowi
itta
kameen
mushabi
sallu
sura
##dsn
avly
production
sazoon
##realasim
courts
manofword
mushabihat
##dai
##eeza
##tico
parag
thackeray
yaaa
##ider
association
biz
basis
##dule
##aanrc
hukomat
##braan
manav
##oyz
jeeny
ssw
piyari
tolong
uzma
ashiq
electricity
lazz
##ode
depressed
bhadk
##ardo
bolos
kamina
gaay
pod
jaanay
hunter
crores
pathetic
meio
akely
molho
bazm
qalandar
maths
dahaiyo
kemaren
manofwordsid
qilah
##zation
##zinda
##have
haiek
##enas
debat
inqal
mazoor
sbke
comprei
##bhagya
drign
graphics
ishtiharaat
##budar
vivek
ip
och
vg
کوری
##vb
##pose
waqti
chalen
progress
queta
bachho
##fthe
pahchan
sikandar
musalmanon
kamzoree
contro
horror
balakot
ath
smp
yer
##dee
##uals
##haya
kei
banany
##saab
asma
imple
impos
buut
quali
balky
khich
replace
jnb
khatarnak
deliver
condemn
anniversary
khamion
joshi
kings
teek
تر
##hpa
##dadi
##jata
##pand
kie
##hartha
muhal
sajj
##ulan
mael
barat
takraar
janan
aajata
projects
shayri
##vaad
sadhu
sanu
themselves
flori
unique
dhek
kiyu
ghaltion
observ
tinggal
##prabowosandi
##withasim
distan
ڈار
##gb
##meh
isk
##undar
apane
baw
abtak
yehe
moula
agey
nov
adeeb
rhain
prob
##mple
quom
porra
##salman
begairat
chahiay
niklega
weekendka
elite
mutabqat
spirit
bashmole
aayen
bosa
okat
penting
##jud
khwaab
##ayegi
honga
ashir
taan
##antum
drd
utho
rampal
##سٹین
americion
priority
pichy
concert
madhuri
baaghi
##goldawards
wazifa
mogambo
bose
dolat
hri
mny
گل
##سکی
hooo
##ajaja
chly
tute
##giz
maror
##eedar
poco
padhta
dostana
screening
spelling
wizarat
adakaraon
writers
khareedain
99
vent
پول
##uer
##itor
tumhra
##athn
##loon
mobay
##shton
barhi
kisano
amb
badbudar
sochty
wasay
gandh
sarey
chahata
complex
zeenat
riloyz
malaysia
gordn
wani
##riyat
##nagar
indo
##ajat
theka
honor
##years
dok
terha
taak
trash
enak
coc
shark
rhein
padhna
gadho
window
##guei
chhupi
mukhtaar
reyaston
aashna
virginia
ghaddari
bohraan
ih
shen
##bast
napak
##lection
bolunga
daraja
andhay
##tionary
choud
qabail
murd
password
askati
judgement
primeiro
mimbraan
##loyment
yateem
aquele
fid
gt
jnab
##jut
##چر
medal
hom
chae
mohajir
sabores
barqi
peak
manda
##ubha
marboot
roger
uthi
sadqa
##gou
##veng
nakara
khilona
##itswaraj
shahrah
zumra
##install
##abkibaar
core
oe
oli
zaki
اپ
##sf
kaala
inbox
##arian
##astumho
taqw
balik
##hram
talaafi
begitu
sulaiman
enjoying
kharaab
gangster
dramay
wusat
sohbat
##challenge
cj
##qan
##esty
shaakh
dekna
condu
zavia
zamany
beron
jasoosi
tasawuf
shehzad
bhadka
arnabofficial
pitaji
##ability
nasiyaat
parindon
لیون
excuse
insecure
tongue
begunah
nivedan
mobayyana
ahi
با
رو
ہیل
##md
##apko
infact
##siz
jacket
beach
##gaan
##meon
##dein
arman
hadh
rasal
hater
##ifat
intol
puchne
comedian
difficult
jajajaja
vndoz
saarhay
suraksha
participate
moulana
##heersheikh
dst
hint
لیس
##wand
##pire
##baki
kidr
hop
##hod
diz
acabe
daru
matric
dosaron
zaroriat
larns
chitral
berani
ghamgeen
tasaworati
gazab
shehrion
dict
tentang
permanent
pull
##rng
##qur
##ameet
mull
hav
mohammed
milny
takh
masle
##walon
laken
irm
intizami
guzari
attach
aaiye
phans
entertainer
ujagar
consegu
ncp
وار
##sur
##bye
selaab
##isht
loks
##gaa
##seter
paka
attra
eska
mulazim
maho
vivo
appo
##ریڈ
grup
narmi
trends
speci
scrip
sadaa
gufa
baqiya
fro
gath
jyaada
##jna
thana
##chaar
sunay
hyd
##urance
descri
everyday
pandemic
chutya
gareebo
kangan
hiran
champions
vitnam
poss
##sg
hobe
baahar
##laal
##aries
noite
manind
ekdam
ghazab
impor
jaogi
hazf
tempor
##bhaiche
dharkan
##یکن
biggbos
kkkkkkkk
arijit
فنت
tasadum
identity
##bhaicheabkibaar
ich
nne
pse
vada
##vit
lebanon
krunga
banaa
soz
miller
lions
phirta
faraq
excl
##few
roze
dyne
##ilities
goswami
sebag
spreading
dikhayenge
ہالووین
##seterifat
bry
jakr
pine
اچھ
باي
##wash
##bum
##xd
kilo
karpor
insi
inlogo
hump
bebi
kamaya
tarp
cok
farid
bachna
##zzat
katanya
salawon
qasba
zalzal
khuleaam
khinch
gehraion
victory
iv
##qk
woi
bhaee
anday
##hnaz
qabee
respe
kurta
bichara
hainaur
earzi
sacrif
lesson
column
sidnazz
isupportasim
bkl
ptv
##fp
##osop
parts
inkar
maham
sabkuch
peta
gaur
jabse
adday
sanji
dalail
ikutan
##weather
galian
pouchye
aimim
sarbarahi
kph
ٹران
کیری
##swara
##faa
haiagar
nadan
##apat
bhatee
##gets
shuro
tears
mashr
bhola
fitnah
rupee
slap
dadu
zahuur
##یبل
phenk
lidz
aqaed
lazzat
cath
cek
dhay
oxy
xi
##psi
##qn
##qh
##پس
lewat
anu
##idbi
##waha
##thr
waqfa
ghayr
baty
rahon
buzz
tmam
viento
reports
##khain
puchte
##zadgi
masruf
kharij
dangerous
mehngai
dere
lhr
کوي
##xit
##زا
tumhay
##araat
dilkashi
harm
coment
hmen
followed
mukt
cliche
pagli
dharma
serf
haarne
oldu
rafta
##pashinde
utthay
appren
odi
ماي
hoyi
##abut
##ahy
shaandar
hamsha
amarat
conte
nikam
mulzim
pahoron
ruim
betul
msla
majbur
##dilkomainedikasamtomorrow
zahar
##یين
bhang
prabow
kehlata
growth
hichk
vers
##ٹو
##aiq
haiya
##lod
chy
ghumna
millat
##comes
trees
chorna
dikhati
zamanay
qatl
kaunsi
samaaj
risalat
shehwat
dogs
##timate
announcement
known
bashindon
mja
##kit
##yt
##cular
##aisi
nasa
bharak
mehram
hmesa
upon
gadda
bhulaye
ranbir
gaaliya
hawale
nalayak
jolia
companiyon
olymp
cad
gilah
rati
sic
sera
hajam
##ukt
##dei
shararti
talaf
fermaye
zehniat
##withsameet
independent
rootti
petrick
hw
pees
##rain
##گو
sene
##akal
thim
sunset
pasandon
uraya
misali
four
hojate
dhula
golion
jaaane
ghani
##waif
begair
##toria
padhte
aarahi
bangladeshi
aankhein
investment
zeyada
pda
rin
##کر
lartay
bsd
##ونڈ
ussey
olha
bukhaar
makhlo
dhundh
tadap
jeetega
justojoo
tend
##jos
nase
hole
bhaai
diet
miltay
combin
kalah
aaka
muqeem
pride
khulla
decir
rony
maheshbabu
نوعم
کیپ
##kut
##fik
##arth
##aili
naare
##ired
anp
sopa
tarzan
kabool
endia
##china
rigg
##ffice
##minister
##mbol
smjho
thakre
israeli
mayawati
rautsanjay
suthra
نوعمروں
dais
nali
rhenge
vash
##erna
meant
##hang
khoo
baan
muu
##memes
##give
harnay
davn
musaw
bigar
duh
maday
jalva
bachha
##ggy
dhoon
##zalzal
shikwah
mughe
##karann
frustrated
ineqad
region
haamla
36
aanay
laj
vindu
##ying
kargil
##isingh
injection
sahee
levar
tuu
immedi
kaly
thandi
alif
hosakta
shams
daalti
mutazalzal
bombay
dalaal
##cuit
theres
museum
weekendkavaar
qabeeley
mali
##rad
haijab
##ensive
ussay
nota
taky
pehchana
##verdict
nazuk
fighter
##minati
lahori
finale
##logon
azadana
sapno
federal
pakhtunkhwa
iin
jld
mds
natey
ssc
##hya
##sub
##dain
haiun
ghos
logical
itney
##chad
pakvs
torture
chalain
khusoos
2001
rokta
##یرس
distance
bukannya
dukhati
ghafoor
ilzamaat
fajar
juth
nj
switch
vos
##hp
##city
##eho
apart
baaqi
difer
##eshwar
bajai
soniya
mahina
laina
solid
uthna
##emos
mazbooti
bravo
hasiat
badmash
badmashi
ehalkaron
dilkashii
bind
gane
mv
nga
nate
##arm
seven
##usko
##navis
bau
##azay
##lets
jaoo
alas
nou
sunti
constru
##vio
imm
sanp
corn
irish
edward
bdl
aesay
caneca
aro
resh
##mnt
aggressive
rea
pahale
arsh
esfiha
chid
##court
##pton
keeps
momento
hojae
siddhartshukla
apnaya
citizens
mishti
##goswami
foundation
tick
##xr
##نر
mehen
nagh
##navi
khain
mohon
mouse
badli
bachcha
sanbha
murshid
##khair
jui
##mbl
silence
deserving
khelaf
venus
declare
bughz
catholic
drow
lick
sayeda
ugal
##gor
##zish
##esta
parkr
johri
below
##rible
##bahi
ajkl
larkay
jalaya
hasna
##agement
verdict
aakr
mazahab
waps
bechary
naraj
##temu
naqad
kryn
giveaway
gosta
leaving
pqp
muawza
mentioned
funding
mareezon
extrem
schedule
churraya
jaffer
hf
rise
voot
##hd
##مب
##qz
meena
##isti
##tayn
##mimpin
ummed
trap
##baca
##shine
saty
padte
hasa
geni
ngom
##bridge
##اتی
chhutkara
1960
tumhaare
elizeb
yatra
perfeito
##baaaz
companies
sacchai
elizebath
jcd
##rated
nahein
##eeeee
parvar
hijab
leker
##uday
marathi
jiju
hayn
tanpa
izr
##sidesid
dyie
bully
silver
##mukh
ukhaad
linda
rb
##who
##ig
hairat
kidding
metr
##ises
chaiy
khab
thhe
magic
pados
mismo
spok
teamon
strict
todas
bahao
larkana
kingasim
geeta
build
motivation
bigaarnay
aen
مان
##uram
mousam
milaya
##mant
pollution
gyaa
paigham
falki
finance
##ishaandssrcaselinked
retweets
circus
marasla
grat
ninda
vns
##hem
##taj
toor
istan
yae
##khus
dogl
##stin
kehla
shoes
pie
pyr
sprim
pheri
everywhere
devta
tarjuman
najayaz
gg
اف
ایو
##gosh
##nic
##jati
##amani
##aged
aps
baet
hidup
soti
maintain
##angle
sunana
sunehri
##wanat
konay
sadh
aadhe
alive
display
nawazish
mangna
samjhne
jhagr
jeeney
authackeray
innings
jue
pukar
##cue
kaang
##naat
yei
shagir
shafqat
simi
wet
deshbhakti
mutra
taloot
majmaa
tmhre
karaam
murr
outstanding
jamia
ulfat
aarop
##kriti
ponch
hukmra
technicalguruji
matrix
deputy
00
lali
بیو
##poli
bewajah
kamm
taees
ghaarat
diyaa
angot
clos
gaib
qadmon
kucch
paltu
meanwhile
##adowaisi
sunaein
greatest
function
vahan
openly
domain
islahat
parinday
madharchod
daketi
##ghon
##fast
karre
uninstall
chhy
baatil
pemb
kamine
novo
tuo
tuesday
sunrise
masro
poh
smriti
chupke
bulan
posso
##prof
pkmkb
##justicefors
vapis
behavior
pist
urat
##zain
##qs
##tack
belon
chhin
kishan
jaish
chalan
mehs
hmri
ramlal
qarza
dabey
dheet
fridi
phelanay
bandobast
karbalaa
chaplin
crowd
khusoosan
eta
nro
sndr
##will
##mate
##base
##iser
hian
##itation
abro
alay
shahab
barr
recently
bachega
recording
chhap
imtezaaj
phones
iba
vat
گر
##hao
##ikn
apo
banayenge
accus
hamaisha
kamrah
samasya
dekhu
##rotest
pert
donde
chalon
bharnay
wajh
facil
nasb
##assum
##یکل
gadar
finish
kaptaan
elahi
defame
mafadaat
qalb
zaib
istandby
ahangi
jse
##tng
##pg
##xk
karor
acre
##athore
itana
##dow
khizaa
sadaqat
corpor
kinda
katal
marahil
similar
murderer
naukari
jaroori
khenchnay
##thakkar
mujrimon
##hassan
##کین
##hawa
semes
toti
##oles
paane
sidseterifat
coaching
##mento
##ppers
daik
##ايیڈ
kanpur
groups
rkhi
efforts
dhire
bersama
retired
acabei
kute
lv
##skar
##dade
baam
##khya
##ingo
##ulad
machin
lim
adjust
enqu
duain
jaihind
##bhaq
mns
jashan
araam
sufi
panchwin
saqib
divorce
nabuwat
florida
فنتاسی
dud
poon
yd
ایپ
##fli
##zet
##hall
##alli
khn
jach
alhm
stunt
aaoge
batin
##verse
tril
durr
deramo
nuqs
mushtaba
jumle
mindset
insaniat
##onsn
khalil
gamb
bonus
##baku
massage
masrufiyat
33
bung
flix
lungi
nish
rw
رین
##azan
hiz
shajar
dilkomainedikasam
sidhu
kons
dikhavay
vip
##says
##assus
dhakel
keeper
##masti
jurwan
##وسی
mahaaz
kharidari
##binod
rubika
drawing
continu
bathroom
effe
deikhein
##endramodi
gag
ire
sort
wt
##fv
##anway
##inal
kijye
nadaan
##issr
##apun
usny
usloob
shabih
bobby
barpaa
kabse
pehchaan
mazi
sochye
hmre
mayk
##faad
aashir
mardo
ethi
krege
russia
aansoo
mujahid
##upports
##uja
##fd
kep
##iler
wou
yahee
rout
##hampton
karobar
chothi
twist
atra
charger
tajassus
khelti
hansaney
sahar
salebi
dikhne
##reeram
celebri
ismein
standing
##byyour
ghoomta
##crimin
##cessary
gunaaho
harkate
tardeed
##prabowo
bewkuf
zalzalay
fub
jta
pena
www
ٹر
##kill
naki
sabut
mujra
pasar
pataa
chic
halqay
lame
lamhe
chahne
laip
sidnaazforever
alwaysbyyour
photograp
medium
achievement
copter
apprentice
rata
snow
##los
##madi
##chenge
naali
kohi
thehra
kism
##gio
batai
arhi
quick
kerny
laden
garaj
seema
thikana
bachayen
smjhe
sukun
hiln
reasons
mazmoom
akhbarat
jhatkay
##uxe
dhrm
1930
global
errado
khwaish
مشیل
##pubgkh
observatory
alwaysbyyoursidesid
lkh
oooo
گیگ
##jon
##fun
##zd
haia
hait
##ahon
##chup
haali
khaber
##ainte
machal
movee
asti
sii
forno
sided
trk
donate
shocked
farmaan
duur
namaste
hisse
##paastumho
khushii
bybi
viu
berat
indv
sitting
begin
mosoof
duba
phansay
1990
balls
prasad
thnx
khudkush
marhala
##gehlot
bori
dkha
lankan
sukla
##bish
maas
fill
##mez
kamra
toronto
pov
chomu
taley
tamas
blm
jitny
kuty
previous
sens
tabdee
cmnt
ashfaq
devgn
ideas
shirk
skills
faaltu
hukmraanon
bora
ching
git
gore
kuk
kkr
pill
##dost
hoten
dewaron
diana
kamane
hotaa
jabeen
haris
rober
condom
lack
impa
farosh
##hasan
gulab
prophet
raeesbhaicheabkibaar
kamaai
werna
ningum
application
oxygen
fah
oar
uri
##cles
##سو
sete
saadi
##utosh
humra
sobon
pakki
badlo
sunah
dikhi
awami
##rating
riayat
mamnoo
bruh
vipaksh
idraak
##bhaya
##asaheb
yunhi
stevin
zalz
##dono
understanding
mehndi
##video
licence
naray
pam
veena
##jx
neces
##azo
shana
walaikum
pech
##chaya
pakr
liza
dao
bivi
akash
dekhain
tambin
##spira
##trz
brow
tayt
postpon
##marks
jahilon
##maine
kalian
sacchi
##friendship
tired
refund
cinta
financial
colombo
aki
ov
pory
sya
##nye
hood
##tip
bebas
acr
dilkomainedikasamtomorrow
masters
passo
salgirah
kong
migr
qadyani
gundo
samjhao
2000
payegi
nuclear
platon
jimmedar
bewafai
beyond
panel
bhoomi
beshumar
daniel
ahista
oont
swit
ول
##pana
##aking
##usse
lower
jaein
darbaar
thoo
saymn
weird
puraka
jina
taqaza
brasil
bayanaat
vaastaa
##tapaj
akshays
haisab
##azeo
extension
tandrusti
##mallik
engrazeo
mng
wik
##nor
krey
khaami
shumar
donu
cock
tabassum
reallyswara
##nsn
khusihyan
quien
taied
##proud
jrur
criticize
humpct
drowna
sini
مل
مین
##rul
##ayeh
muhas
##azam
anc
alvida
chub
kisike
bholi
kalsoom
firdo
##erein
suara
tasn
ayya
pidi
claro
jeans
mrfi
khulle
aaiine
tidur
sidnaazians
tiempo
contribu
kaptan
ezat
lant
nend
##iland
unlogo
##hats
samvidhan
manmohan
ched
permi
##shak
tambaku
umeeden
typ
khilaya
akhrat
evic
chakka
mansoobon
ravay
ashamed
##osidharthshukla
democratic
icc
slim
ui
znd
روم
کھ
##oe
##bank
##aru
##erto
kareen
##apoor
muhajir
##ication
alf
dimak
huve
filter
harsh
umid
chalaki
gharo
malai
khargosh
kerja
bheje
halaf
##ujan
qadr
deewany
sonakshi
initi
kasy
sambitswaraj
bhavish
mubali
cukup
fahmi
iaf
lud
کرن
##yas
##amai
kaudi
bapak
jawa
mawra
harga
waqiya
pocho
khopdi
malu
namor
rakhni
brad
maartay
caring
disrespect
##ونز
kaarkun
akhrajaat
jhoothe
ankhe
shehzada
ditta
winningsid
advocate
impossible
emi
gare
برا
بوگ
##لے
##amera
khole
partic
muasar
##hour
afford
abla
kamanay
manush
shol
baho
##aahi
progr
fahad
jaanwar
piano
asimsquad
ahle
samajhne
janaab
estn
ishqbaaaz
valter
##ینڈی
##vresign
sleeping
bundon
choutha
intelligence
benef
culprits
dozakh
holiday
لاينر
nr
yab
جول
aurto
bezz
huti
##kahi
##arachi
daulat
rehy
waap
laws
##pedia
satar
qabaili
##asirf
##ونک
indvs
chamakti
certain
comida
junooni
aids
malomati
abhishek
kapron
celebrities
pang
haime
haikuch
deac
##aph
chaya
lodu
##khy
khushy
sabot
mars
##erem
talah
##nown
terima
mier
replied
chutiyon
valley
##youasim
desper
surakshit
riots
commercial
sayed
##gaj
##gando
##wg
##nin
##xl
kaay
##usnya
loose
alka
usual
bhaio
##hamare
mystery
ups
scor
mulakat
jageer
brut
khet
##krit
schoolon
qaazi
rainin
##janta
jazeera
culprit
unemployment
bya
dande
ووڈ
##گن
kahty
parah
paraya
ghoron
barket
##udar
sirplease
nikkah
kone
talabb
misri
pahla
ruko
guzaray
ehkaam
recent
##mony
seedhe
tahu
qitaar
jarehana
piye
##rang
##فیل
kaant
apman
bhaw
bhaid
bolwala
pree
hamaqat
amwaat
rahunga
sharabi
shareer
imrealasim
##motiv
utre
tmhra
##cob
patha
##prt
##enger
blokir
avhay
coronavirus
relative
vidhayak
fayrng
lakhs
packing
expectations
mbak
khatima
deikhna
minggu
chokidar
ڈایناس
himanshikhurana
##withsameetthakkar
##مان
##tiyan
##oood
hao
huu
acab
rot
samajhna
munharif
makam
##wait
neecha
posted
alaat
piyush
studies
irritate
chlega
slogan
ghaseet
flipper
kembali
loksabha
ڈایناسور
aart
yhn
##aani
##zardari
##bly
##hap
##atbar
##asay
##unan
##khla
maah
kisika
aje
provid
haqe
tasurat
chipak
thanx
daitay
bhagnay
chupane
greeb
samjhdar
##piff
bahaq
device
mooatbar
alamnaak
zrur
gilgit
jamiat
namoonay
chaukidar
نا
hoey
krsk
bepan
raheel
sidhartshukla
itnaa
saree
##kkan
##inet
talks
misra
caralho
delcia
pany
fehm
daarhi
youthi
varun
cheema
##fortrp
krwao
tiranga
jakarta
criticism
sarcastic
finger
muqaam
inqalabi
mubaligha
avhayyo
bint
mbah
##anth
##amento
noha
tabdeli
urdan
minhas
quiz
clark
bird
brought
##khana
rukni
childh
bsss
tamancha
42
aalo
پیٹ
گول
##gant
##jeet
##alar
##amul
kapan
naka
chhaa
moamma
asbaab
arhan
sall
zarort
yaadein
tujhay
bajrangi
guzeer
boycot
memories
##polic
chairr
earlier
kardoon
sridevi
wkw
neroo
mg
tila
##xc
##alvi
toss
##ishy
dita
##raam
shre
jaishriram
propo
##matlab
naamkarann
##kkr
kerni
majaal
corner
sonam
bulbul
realidad
mangnay
bunyadon
farmaaish
kahega
sanskriti
cheej
karien
najane
balatkari
sasural
heaven
##yearsof
aamiin
atyachar
tabdeelion
##vresignor
dando
iasi
میٹ
کین
##adin
##endi
raaste
becoz
usah
##aqon
andolan
##atel
jib
jimi
coca
kahawat
weloves
zamin
delici
ibu
buddhe
saib
housefull
اسٹیو
mazakraat
zakir
##rette
baichnay
justiceforsushantsinghrajput
jhagda
respond
sebagai
eb
fy
vdeo
مون
پا
##nes
chadh
krli
alli
##ulous
mujahi
hamesh
amish
addi
nailed
hogaa
chouti
bhagna
inteqal
achei
naukar
##cbissr
slowly
##fg
##zk
##تو
##hame
naeem
##heera
##akha
nehin
khaana
uncha
shahar
trhan
ajib
farji
areas
weap
bharam
aamin
makin
daity
chhur
starts
sahul
zimad
##lerin
norway
dakhil
tahreer
sounds
##کنز
sosan
oncologi
karishma
loktantra
aabaad
hence
ntar
##sari
##xb
##نے
paros
lek
gobi
bhukla
issay
##waqt
poray
##atherine
wafadaari
aatanki
shehwani
taqaton
maravilh
ngomong
childhood
icin
jil
zror
تع
جیک
##gni
##yers
##fandom
karz
##ahkan
##lel
lagayi
marry
##wazi
lade
khushiyaan
sanki
##bru
pagl
cima
dubey
hahahahahah
gilani
hungry
otro
priyankagandhi
qaafley
##aintezaar
tasneef
omar
zir
ایس
##spe
##ٹک
medam
kaabil
isha
parna
khaate
khabara
sod
nobat
dekhein
arbo
rob
roko
goonj
chaliye
freez
basta
sochon
insane
mulana
broks
zarea
mitra
chatuk
wifi
vezes
intahaa
destro
guarantee
fsdf
shenshah
71
ration
uy
##mubarak
##zu
##high
##atir
kecil
kacha
##isco
lago
shafi
chli
##chas
tuhan
daa
mazy
##ashti
bilaw
hmra
upcoming
patang
warning
mahf
stopped
behnain
bhadwa
abaca
riwayat
##student
dentro
sponsor
sajjad
scripted
across
ato
aein
hny
ose
saye
بیل
neki
##daal
moak
milli
kisiki
dilkokaraaraaya
batam
lax
salgad
samajhdar
##vote
nisha
starplus
bangkok
tagar
##ursday
phase
varan
nirbhaya
tanqeedi
##uresna
##films
saint
##final
axha
nesse
jahazoo
mulaika
suraagh
distancing
catherine
ghin
nhai
nome
##iley
usted
dilatey
##stal
##anshi
newsp
##qita
patla
chaley
jazz
keemat
##انو
negeri
اسٹار
famlia
cyber
signal
estava
ghaznavi
implement
sidseterifatikya
bno
vats
naah
istarah
##tih
##aret
rahien
urg
kashmak
kahti
rukna
smjhte
uthte
yousaf
piddi
میلوڈ
contract
talafuz
ravayye
eating
ludo
teng
##urant
##hede
chadha
hid
maw
filhaal
kambakht
kabza
phirse
bharose
##gging
##tras
grp
realme
##انہ
hanstaa
testing
uchhal
nashta
pregnant
namaskar
kaarkunon
fanaa
ls
rapp
##wey
##lj
##mk
##unu
##undo
baaat
infr
unwani
digo
reve
stro
##anew
matal
sheet
talat
girne
aqli
pappa
histor
nuest
messi
janamdin
cigrette
kurkuresna
bhaiyya
pbuh
manqola
suddenly
gest
oss
tud
اڈ
فرین
karar
##islam
hits
khabees
livin
umri
##edad
##gardi
##forms
sanwar
blag
sktay
chupaye
serve
ganhei
tasweerai
capt
caso
entertaining
##vrt
cousins
affair
istanbul
abacaxi
bicha
rbi
sme
##roo
##fj
##feh
##atv
nazaad
koee
apro
##tep
inget
behal
beje
##rez
lagaa
dogi
aggr
pegar
gawa
sharafat
impress
pound
taso
##shaw
yaaron
vibes
detey
aasmani
aasakta
bhagtay
fansi
elected
narr
maano
##rahul
presente
##passt
qaidyoun
cafe
nisbatan
bgt
bord
lq
kiaa
sekh
##isliye
##oswitch
chato
aapi
##gae
samaz
hareem
shyad
aaeni
haqdaar
##orao
maker
coll
tehzeeb
bhopal
##ysm
##انک
baithna
jesus
zaidi
taskheer
aankhen
snake
لیوک
astag
staystrongsidharth
animals
irtiqa
blowing
wickten
bebida
ireland
37
kmy
nira
otra
pose
rj
yii
##gc
##cum
##eras
hoaur
sever
##ikes
muhtar
haak
lom
almaari
##kita
##rie
shaant
barq
realize
kaml
noch
polls
esay
majaz
##priyan
interviews
##یلر
doosro
##kyun
everytime
sering
seria
##tainment
bika
borng
besok
asslam
bachey
hifaz
restric
bjaye
philosop
aukad
intoler
##pubgkholo
bism
cd
eak
jasi
##sl
sev
seene
##ilii
##tize
muaziz
abis
pronto
kamini
##istas
samaa
amp
taunt
daaway
badami
siz
passar
sally
naira
poti
chuda
adaa
bnate
goodnight
##joko
jams
bhagta
tempf
jazbat
hansti
olan
bacchon
celebs
cahiye
oppose
wilson
afsaraan
nidhi
##رلینڈ
taqwiyat
vashngtn
kashmakash
kurkuresnacks
gosh
jst
##sit
kiyo
##onfire
##akte
isma
##hank
paresan
bhid
anim
bek
doa
asadowaisi
kaboo
roke
myn
buka
kayar
##trend
aadhar
clari
aazm
##office
celebration
istehkaam
pohnch
pending
recovery
pleasure
gentle
istandbyasim
aoor
kuda
mto
ngo
pale
rhiye
##vasi
##وش
##urd
##asaan
kodi
apnab
baalo
##daat
anwanat
manty
raheem
##angkan
##azian
surf
jaaoge
##pls
##bok
##ctors
mardum
kholne
hoax
bichari
properly
directly
incredible
##killedonjun
masnoaat
کوریوگ
dms
mgar
nue
ون
##arkar
##aihi
bawj
##tej
unblock
bell
merda
chhar
hamle
maslak
chel
shel
purpose
azeez
jalane
aamaiz
paich
ahli
dalito
btata
##انگ
decent
decided
rupiya
##یڈی
hawaon
sanamade
pashtoon
connect
vacancy
sentence
berozgaar
bhugat
apologizet
##uslaugh
ooh
##dull
##fw
nadie
itself
doang
praise
darind
##ubi
pau
chef
sarr
eski
bachchen
munqita
hojay
fiel
##ugust
bench
blackmail
safeer
bhand
najaiz
carryminati
##zindagi
universal
punishment
taimoor
bong
fero
jaza
vsk
wickets
##joshi
##cado
##fty
##وین
##qin
##aikan
hoshi
##aber
totay
##ahul
##khul
##ingat
badhane
azma
malang
firqay
hmry
drtay
khiyal
##ndtv
offline
durusta
yakki
##engay
yahood
hanste
slee
lasani
klasra
cosas
excitement
bend
dash
psp
rose
##jeel
##لین
##تے
##chhi
##unuz
rawai
saand
sochi
##ceu
rakshabandhan
mashal
instig
bachne
bnne
suron
laytng
##riyaz
chattaan
afraid
khasiyat
##ichalo
fayaz
##eeeeee
jnta
tareqi
mishbir
dressing
pabandiyan
durustagi
34
vakr
zard
##vah
##میٹ
##only
##abir
##uski
##iyt
alikum
acid
remarks
nokar
tawaif
bhart
##qaar
polici
ahsen
sandi
nasheen
qissay
khuw
prize
kasur
chamk
samjhaye
##ajajajaj
bonito
geograp
telephone
##dministry
##aintezaarkarna
##passtumho
38
##aroo
karak
##tech
rawabit
siraj
kamtar
youll
sheri
masawi
##cking
ghark
##warrior
##wano
ayd
munta
khushian
##gggg
brabar
fever
visi
mahaul
hainafsos
zakheera
remote
basically
eee
msi
sko
##gye
##nos
##beni
kahon
isna
##chka
bhasan
diper
shamat
thika
milan
saku
ambul
shee
azlaa
giraya
majal
pattay
rassi
##from
##ltn
fasana
hatao
adhik
gatar
protection
employees
approach
meteo
##withamaal
##friendshipday
hwe
yash
zina
##pilih
##atra
toheen
##ahmed
asb
gohar
gharane
urdus
updates
ramadan
rajat
precious
khayalon
hahahahahahahahaha
chhaati
cancelcomp
ghalba
istimal
nichale
mutabik
mahatma
madniyaat
deem
##iq
##noor
##mq
seja
khona
bolkar
hamisha
kisy
dawood
sharad
kahain
chour
##dout
bagus
qism
chalao
panjab
golf
nawaze
##hanaat
airstrike
sudhr
kholna
deeni
nanhi
kakak
khubsoorat
surely
maatam
wikipedia
dapet
krska
talemaat
assign
sialkot
sayasatdan
cub
lis
nata
مال
##ngi
##lq
##وسٹ
seor
##eneet
anush
dios
boh
##sher
pemer
lihat
pehne
##dek
donkey
sheer
daykhna
jeety
brtn
ikatees
maarte
##voice
##dden
bigger
bangsa
pichwada
senkron
tarjamani
karwaye
##lsn
##hhhhh
##corona
freind
settle
meese
##urya
##hek
seer
##nap
khonay
##teaser
##olah
##itum
jaungi
acti
terl
##sem
takk
harass
pow
pois
upa
chorh
chang
##akarta
uniform
ghusal
khasta
zimbab
parecido
dangal
armaanmalik
indirectly
roberts
sanamadeuslaugh
48
aabi
feet
gatiya
kw
##guj
##ehar
inches
haare
beche
moose
agye
pron
pedir
##mele
tarikh
ads
sarak
##honi
aware
##walap
##ghty
hasne
majnu
charges
asalam
tareeke
intzar
heroic
nibhaya
rasty
esperando
launde
adopt
zalzala
nger
yall
وین
##late
##jw
##clo
deko
##unal
afzaa
theh
beber
uspar
##atif
dardi
##vedi
janji
##hyon
propos
charsi
nazir
sper
bigada
bitayen
congratulation
princess
vrna
released
numainda
individual
pretend
##pilot
aafat
##vya
##sushant
##jen
##api
muhaj
haai
havent
sidmaniaeverywhere
convo
theyre
uppar
girtay
mulq
##hadgi
santi
rakhny
dasti
sendo
sadaarti
sayaq
church
bulao
istiq
kesari
1940
dkka
biasanya
zimbabwe
boob
eg
jna
lind
mf
nda
tjhe
##vant
##lp
##اڈ
##inar
##erta
keel
haaan
kriye
niilii
taraki
hmlog
uryaan
##airforce
maka
dessa
gadhi
politik
tener
embar
zeaf
scient
##acting
soochey
muqadmay
kulsoom
manzoori
ghaflat
enquanto
cau
dps
فیل
##ih
sehan
activity
sabb
shy
pasmand
##miya
butuh
changa
thane
ilti
feito
statements
##agardi
dhundlaa
paaltoo
##aaaaaaaaaaaaaaaa
places
vskonsn
dagh
hq
ksh
uang
wager
##nalo
##post
tolak
isil
##eso
thaak
##lein
ittif
##saeed
##wafa
##kout
hamm
asks
##sthan
##eeds
##karta
khob
mehmood
jalanay
tanaze
bliyr
charan
btas
##یوڈ
everybody
##aimana
##masjid
intikhabi
propose
##ception
chouthay
napasandeedah
sensitive
advertise
hartaal
setelah
bhavishya
edu
jra
rist
saga
tain
tbi
##cere
hail
##inaa
##tira
##iyoo
inky
preet
siraf
##upi
##rot
muskr
sunil
batti
chenn
pase
roty
khanjar
behosh
jagh
pite
sonch
ehsasat
##rahman
awazon
cards
iamwithsidshukla
became
bullshit
istaqbaal
roarlikes
shagird
##vresignorcbissr
##beniwal
cag
otak
##wain
##mrankhan
##bana
##من
##isn
##olas
bhaik
##iyet
##ulle
ghora
mohab
kamo
##gie
badboo
baddua
argue
gopal
qabeela
jeki
##ples
rhyn
credi
values
fasad
degiye
buttermasti
impact
bgh
berita
اول
فرا
##von
##dhar
meen
melo
raakh
muharrak
yeha
mois
##chaudhary
dilao
chopra
faces
clg
charo
##ndon
shakeel
kutch
##kariban
nawazsharif
hongey
##human
comemor
payearidgroups
sikhate
lgega
pujan
##targetingsid
dalehede
puppet
opportunity
shaitano
tarbiat
chhuranay
payearidgroupskariban
dalehedepression
cp
fasi
llu
ostan
ride
rhn
ڈیان
##کل
ketemu
##apad
saff
bhaar
##riel
ghreeb
mahab
##astr
agra
reviews
noti
manish
nia
janne
##alaat
rakhon
paheli
##viol
vohi
##pel
attemp
madhu
suco
burha
chicha
dusman
kutiya
lyf
matchon
munafe
automat
couldn
juloos
pouco
congresafsos
madrassa
khittay
firdous
mujahideen
bair
gaf
مص
##keh
##bp
kotha
##ility
##ahmad
boon
agend
ekon
marham
##dem
##demo
perha
jayeg
sheesha
suchi
scar
clash
galiyon
helmet
bulana
iqra
roomi
created
churra
soldier
natija
dhayan
ctemp
nwaz
qilay
taid
vendo
##week
##khat
##ote
##qd
##erno
##home
lege
##utra
##idente
doaridgroups
soute
orange
ando
aahe
##habar
bhj
insurance
##noy
bhagvan
##danon
##akib
udr
udhav
achey
jasaktay
susah
pandito
nonton
lapar
patwario
nazrain
yazeed
##vspak
specific
particular
dhai
nur
taseer
wide
##aian
##onment
##iyas
ankhain
alan
##gaon
##arious
gaee
mazz
tru
thursday
mehroom
tamatar
issliye
mayarat
sadgi
##covid
zahid
sanati
surang
jamali
irmo
superman
loop
ranga
summer
yuhi
labon
phili
funds
##labh
trouxe
mangetar
ikathay
franss
avlyor
chicago
mierda
roarlikesana
tant
مت
##sati
##fee
##erjee
##onte
##akbar
tout
##udin
sales
majhab
aadh
tehseel
kudi
##park
farmit
khulti
zehnon
poochne
##ghazi
karwnay
##وکس
booking
navlon
korean
dheelay
karporasion
bezzati
75
pdi
ria
مس
##ھا
keu
##kians
mahen
ashe
liv
arul
arro
mazedar
ahwaal
mens
mending
ramayan
fofo
##اير
lakar
avg
sudh
alava
hurts
##province
##haraman
jindabad
ruswai
andheron
comprom
tumhaari
nomination
thinks
mughfirat
intention
lionsgoldawards
fayeda
kue
لوگ
ٹايٹ
##ob
komal
tos
kroo
maheen
##tero
##chahe
nope
##alive
maskh
##mies
robe
##pec
sharts
jinse
taliyan
girty
ayashi
ayushman
majid
rasookh
hataya
aqliat
fait
abbot
highly
msgs
garmion
thandak
pakdae
bashinday
cooking
hush
pump
rara
wsy
ریو
##وت
##مٹ
##aif
##hina
haijis
kimat
##uslim
deka
rac
##lega
##uten
krre
banks
bool
agly
jabab
##angka
chances
ayk
cros
asimriyaz
##wizaat
dalte
sachy
btane
kashmiris
##sidy
soni
persons
chamchi
chutia
smjhta
sushil
quresh
kardya
dastawizaat
kalie
hinsa
julm
nazriati
universi
disappoint
garohoon
aega
jurat
wir
##gand
##erh
##adlaal
tola
##hanway
saakht
##idents
ghost
reference
##ateam
##ths
aahat
lawan
prope
shekhar
sharf
hmaray
rhey
##doh
yaro
veg
msm
kapra
comeu
istadlaal
jhak
ankit
horas
##maheshbabu
haei
nabwi
kidney
doobnay
classe
graph
##though
saghar
kavita
pengen
hzar
jz
qazi
روز
haitu
khaal
khushbu
##sach
kamp
sakit
masawa
farman
jaano
chini
majdoor
##quotes
bulate
yearsofepicchakdeindia
pension
##jjati
presentation
wagera
##election
authority
civilian
alguien
masawaat
hase
yn
##vw
##ghat
##ever
##free
naha
aftab
alum
logn
maakh
peena
darbar
fruit
laraka
warrior
lugar
jhuti
nazer
gairat
##ايے
hena
##march
angrezo
khamiyan
bahasa
##ualaikum
simples
hijaz
ishtira
mbbs
pahunchti
awwww
physical
iraadi
bowlers
dici
ikk
pilih
tysm
##sani
##jaise
##kus
##ater
hola
afia
jacob
yemen
aawara
perc
##vijay
tabse
potty
excel
brush
dikhaoge
foda
baju
budd
faiday
##iseof
rashk
asaab
registration
iamwiths
rizq
##medical
laashon
taazgee
##zindahai
hriday
atraaf
apologizetosidharthshukla
iit
luk
sye
واٹ
##ghan
##rees
##lane
##jir
##hihi
karl
##oldout
himal
belo
koie
peg
hamar
gaad
liaquat
sunataa
##daro
dayan
exaarmy
names
chitrol
thod
mammy
tmse
blade
murta
dancing
jehadi
bachata
pappi
jumaraat
zameeni
##وٹو
dhoondh
baqaid
andazay
cabin
pyaare
##fication
hc
ode
rud
saste
ٹرا
کلی
##qp
##ayun
muaf
chaw
tuze
asee
astayn
manaye
biga
chela
##ctv
thug
bhole
##otum
##ize
sadarat
closed
ilaqai
garmiyon
maksud
daikho
dusry
guneh
guzre
sold
engagement
hahahahahahaha
oppos
japaani
alehadgi
sepertinya
bushra
savarkar
sanjivani
routine
taytlz
dhik
##uke
##xie
nagin
##ashe
deera
apare
inhy
chaaray
hidden
##athers
agak
sourat
ters
aajaye
##aaah
vocs
escol
tasbeeh
##course
lgty
gariyon
dainy
lakiron
kanwari
emak
sexual
characters
felic
bjy
karname
tanzeemon
jashn
policies
aust
gora
ion
nuzool
pisha
لوک
کرا
##wsi
##پن
##atti
##ayna
kith
hod
##ooki
woke
lode
aliiiii
unne
janb
##death
voted
duas
mehsos
girna
charas
latak
smjhty
golian
bazoo
muskuratay
software
feminism
benefit
cruise
varanasi
narrative
aiy
deri
flu
pmo
##nesday
##xj
haiaaj
##ators
kept
kranti
yel
ghon
zabani
arri
adhar
perf
##opa
bakre
tmhain
febru
##jected
mukhtas
polio
pudim
chodne
maharasht
##اسک
##یاز
darjaat
##وسکی
##residen
supported
##hahahahah
boycottbollywood
hahha
##newsong
mehnga
darakhton
gabbar
colocar
najayaj
muslaman
piro
vang
##nit
##تیب
##urus
##abas
apar
##apki
bhains
##ajak
##ardom
barhana
kyamain
kabhe
perh
shobay
popat
##mod
##motion
khary
quit
jaiga
##artmente
raseed
charbi
berm
##adeira
##ushanth
ghanti
etne
qaom
falah
maraah
sukhi
bajae
decisions
dlm
##exam
graduate
bti
buch
bayi
hira
mada
بون
##nts
##jum
##uge
##poll
##aky
##ehra
muhh
haur
shaheersheikh
##idt
##raval
yoga
shoo
musheer
sunega
##story
sbr
suport
hashim
bhttt
ahh
zealand
liyee
earn
saveidbi
dramy
shreef
shubhat
whether
moujza
begherat
propoganda
cuba
qran
rick
tair
##unn
##iyabi
krwana
shaf
docin
andal
sakain
taron
thore
##matma
behla
pury
awaien
namard
urself
chanel
##uruh
tanda
paytm
fiqa
tempat
faisly
sono
pedawari
gadbad
indraaj
guluk
kaaran
mosque
bunyad
istri
zakhm
joote
kosish
mehbooba
##akhand
##commend
introdu
farishtay
nepali
lnd
vend
wse
##zeer
haiki
##erte
seth
sesu
##isat
baaji
##next
chaak
chaudhary
leo
login
hamrah
bite
sift
sidhart
laude
poem
frink
faani
uthay
chich
baitho
husan
insaa
naqadon
sangh
uthnay
sinha
maulvi
##sunami
theriseof
learning
mzak
##lagta
unknown
gustaakhi
##artmentexam
clot
rm
rare
sania
yung
yoni
##tki
##لان
##bhutto
##ير
##ayee
##ajd
lied
perdi
laago
ajit
basheer
faw
ayn
gyani
smajh
islamia
qatra
berapa
pune
rajeev
shankar
msl
problema
ranveer
zimn
##buat
lawyers
fridge
peshkash
سنیم
##playing
nnja
phainknay
shubhkamnaye
choudhri
haqeqat
lluvia
aandhi
boni
gom
kudh
##raza
##meet
##cke
##btw
##estic
paro
bhir
sahir
##khte
khaj
shaay
pram
pehel
paagal
kehtey
enti
behti
chode
##ekarachi
larko
asimfandom
touching
##ppp
duroood
knowing
dekhnaa
##bhav
##watch
##ونا
morepower
wraps
jobless
nanya
afrata
chakra
bakhsha
gorge
##vnz
کارن
villain
bimarion
condet
noida
bhokne
qutub
jyoti
ترتیب
photographer
cla
swab
بور
نول
kich
##onya
senat
##isho
##unko
ingat
chakraborty
ussy
bark
siri
dekhtay
paadri
impression
khattak
khatraat
##jie
chord
aydm
##paar
ladd
##pration
##pradesh
halla
naseem
lamhon
bataa
hojane
suray
##jokowi
hrdministry
hakikat
tayyarah
higher
dakhli
expecting
pradhanmantri
amaalmallik
abpnews
facilities
nakhushgawaar
metric
##motivation
tahreeron
pity
slay
##lv
##look
meat
hove
paragr
led
bhauk
ung
beaker
##ardad
asmaan
##ukhi
daerah
concent
mehwish
##wazan
vig
##chodo
beete
mahagov
rojgaar
images
zoya
hearing
hmmmm
psych
gustakhi
##arrestrhea
pistol
newspaper
morepowerto
dhin
ein
fale
gull
ous
وان
##lara
kije
kaab
##aprotest
##oman
thein
becomes
hont
recharge
limited
hardi
hargiz
nifaz
raky
namzadgi
badalti
naqali
fitness
shabir
##rashamidesai
##padh
##games
hahahahha
ghaleez
krsti
##kahaantum
crisis
extremely
dedicated
mosiqaar
##ukammal
doglapan
##profile
deactivate
afratafri
rage
پیر
##lind
##anand
##also
nache
##unka
##apke
aapk
lagwayi
##kaal
mainu
biw
hyper
karengy
padenge
supposed
riasat
##forsh
nasl
jhum
##یوپ
husain
##wser
##یمر
naqab
possi
vaar
landing
columbia
khazanay
chaahe
chaahiye
laagat
drugs
alhmd
kaanton
apnabharat
cil
fs
hma
kdr
nand
tony
vyav
wth
yese
جن
سر
کیل
##emat
keera
##ismat
krdy
hamry
yojna
batayenge
bahur
conhe
##shivraj
pool
halwa
sann
luar
bajaj
qadmi
palak
dhokay
bhoolna
bacch
vaale
انج
hilarious
jalao
tashweesh
prabowosandi
##idodo
pohanchana
equality
motivate
##iterate
fikri
##bhakto
itaat
restaurant
##asimanshimet
semester
fly
مول
##cx
##cche
toi
##isse
##ikaat
##dih
##omaharashtra
##kaab
dohra
recommend
daon
pakistaniyon
donation
madoo
chuva
faha
urs
halchal
aagye
jamana
dheron
##یکو
##ronic
mangay
sites
pensar
aarak
oops
babypen
daraonay
neher
transport
hahhaha
chaatne
championsidshukla
balighon
badtameez
##rapati
physics
naseeruddin
mathew
سلیشر
acordei
esaion
prediction
ambulance
pemerin
theriseofsidharth
##ekarachianew
faj
##moon
##phon
##qb
seeng
ism
##ikay
bahe
parso
raaij
chatu
sahal
##rier
hami
arent
rohan
rohing
goon
##ashmi
##ashwi
dikhna
purany
larr
namukammal
riha
jahanbhaq
tmlog
mengal
maaon
##yadav
carter
ella
discrimin
intekhab
realise
keem
iqraar
nawazi
##ooooooo
hussaini
hook
dhanchay
zehr
ankhein
##namh
andheri
khalq
lannat
crystal
mustafi
enjoyed
influence
hichkicha
fhir
laty
np
nud
pkr
vais
yug
##must
##creat
##phr
haiyeh
naks
##isko
##sian
lect
aconte
##ligi
agama
noj
milen
pehar
aajiz
trag
sarj
mader
banae
baksh
##quat
span
##یکر
scholar
types
intesha
estamos
dabang
reliance
sahafion
kahaanhum
curfew
qafas
diamond
atey
cak
fry
jwb
nose
nico
##when
##eu
haiapna
mena
##tiyon
tumpe
jok
shaheer
tumharey
rahege
ghayab
picha
siang
envir
hadsati
bnti
##brar
matloob
jhuta
##ousid
aqeday
jamati
kintu
ayaz
pula
actions
winter
sheron
angrezon
comeback
romil
dhandli
khandano
ohhhh
comigo
republicforsushant
ouncha
phulka
oxford
immediately
sanbhala
corporate
##jokow
heroicasim
##gx
raft
jahat
##ingin
##udgi
pakro
jabasimanshimet
aache
coward
pohon
##eshameon
##amaan
urfan
samjo
rif
viva
jhoom
ptaa
##bser
doosray
ulajh
##kyuki
heroine
capac
khoobiyon
careful
cuenta
devil
vidhan
dilae
maximum
rakshak
ravani
manipul
duper
weakness
feminist
pishr
##hussain
masrofiyat
destroyed
february
gani
gatay
goray
lw
nini
الی
تیم
##aii
##akhtar
##eehat
##oshan
##itharaman
unpar
behes
##kaun
tui
gaoun
amat
harkaat
teve
##dex
adhy
pertan
laad
##allat
awleen
##rano
quotes
bheem
comprou
makhan
katna
monitor
gaddaron
saraha
srbachchan
##hisab
mafooq
chatukar
khtati
somos
shivaji
maholiyati
dulha
bhens
jimme
arabia
##express
angeles
universe
##uhanshivraj
shadab
##alized
pragya
appoint
contribution
inteshaar
gasht
nine
raiz
tf
taya
میڈ
ڈور
##mj
##pang
##qx
kod
##eeha
##eesi
baasi
parist
chahanay
abvp
humme
divy
##ulu
##safi
ordin
takhta
shola
confe
rahye
##hamara
atti
##lll
##ekum
rhegi
kirain
river
mend
sahiban
danon
hatane
peete
nafar
deewani
lahor
siton
events
pille
belajar
muntazmeen
despite
chipka
tamacha
aud
kd
vet
vatan
سب
##hol
##eraj
kahay
nahy
holo
khaani
bedaar
##kiat
ghumta
paksh
allam
##thu
shararat
chuute
bhtr
piinaa
##prise
halqon
dyna
keechar
yahya
mutawazan
sulag
attacks
pheli
majburi
relate
cabinet
moodi
##وبی
jonathn
##boycott
administration
multiple
persona
guilty
kaagaz
vnsnt
##violence
baqaidagi
andaleeb
aaise
qam
tx
wen
لوس
##jel
##گی
##abadi
ishi
yaari
anur
jaaa
kridt
shadow
honour
mujko
agg
##gel
darne
astr
##afil
##afri
gayaa
janazay
mashoor
matha
##baaki
##matar
bhla
bhule
basket
madrid
dekhana
##erec
hmse
wasnt
kerain
ourpri
##vou
insaano
typo
yahoodi
lafafa
##cons
rakhega
##baby
bdalty
artisingh
rayazi
hahahhaha
berojgaar
jhalkiyan
therap
dhondhna
expressions
phupho
hawiley
muharikaat
tonguetw
blokirjokow
blokirjokowidodo
fvrt
kf
vlog
wolf
##ann
##err
##ases
seti
semp
##ening
##yaft
##uso
parking
saadat
bhasa
##terror
##lite
chol
barron
kamaan
##ueen
rhai
plans
angoor
wats
##یوٹ
##hazrat
ceo
shivin
dilaati
agencies
khurshid
designer
scanner
utaarnay
yogdan
translation
regarding
aggression
##walapappu
hsi
iii
ric
vhs
zaa
برن
کیو
گلی
##game
##zel
##pura
##گر
##لک
naag
##esai
jawaan
##inging
beiz
begar
huee
lagg
gherat
##sahi
ghumz
gawaar
bathain
gelo
tienen
saran
##shil
##ustad
akhand
kerwa
bakal
tmy
garm
duaen
friendly
parhne
##urrah
aatey
muqablon
bhejne
rakhenge
juban
tentees
rastra
justiceforsushantsingrajput
devoleena
exclusive
fawaid
danay
nari
zoom
نور
##jara
##mine
##zara
##bing
haichalo
kawa
kaafir
hore
holy
aleem
##kim
lagany
mujre
##ukung
marrah
paana
challan
immi
behta
suba
bheji
bnna
bndo
disaster
phod
stopusing
##desid
nazriye
surpresa
practical
tadipar
almighty
##friday
flipkar
muharram
ukhda
wiktoria
maravilhoso
ourpridesid
beedar
wd
yud
##wass
##uska
muka
##azer
incom
bhalo
divid
lagakar
mahas
stardom
##upun
paun
battle
##vern
##ships
achai
firr
burhena
superi
jaipur
##ffa
rescue
chars
##bela
dusray
dislike
jayengi
desk
sareaam
jasay
##girls
stands
gujarati
tazaad
alhumdulillah
shakhsi
##newsongtomorrow
dpiff
kina
niyam
wadi
ہم
##nain
##sum
##cers
haif
karwan
muheet
##lib
##kaad
agh
jabariya
##uble
janda
biya
##zaan
scandal
utara
tameer
durlabh
options
cities
bombari
##lipop
dastaweez
##million
##نٹو
sainik
##worldwide
hpah
kkkkkkkkkk
employment
floor
danday
permier
##ekarachianewprovince
ghumzdaa
mona
wuq
پین
ڈری
##vf
##hj
##laji
##jais
##pop
##لینڈ
##hea
homz
sehna
afwah
hamasha
##vei
dilbechar
##ubali
##rob
bater
jaanun
worried
bandook
raju
badalte
betho
##first
hukoomaton
chodh
aitdaal
horahe
muzahi
karwate
muzamat
couldnt
unglio
tulu
##akoi
quarter
hichkichahat
juj
mshi
tyo
روڈ
فال
ٹرو
ہنس
##tat
##swithamaal
##ders
##cj
##مول
##onee
##asam
##agree
incharge
hie
thap
lekan
##ajid
boho
mote
dogli
##sea
asap
strange
##alij
passed
enten
bharne
##chill
malkiat
changes
rita
mamata
udaasi
##veni
dhagon
narak
abbey
galib
commando
lolz
aaropi
است
kamzori
messages
jeson
alex
ukhar
ruling
dhruv
zakhamo
##fitrat
afsurdagi
bhgwan
##fehmi
haakim
buttermastichallenge
damaad
zm
سام
##qg
##ql
##qid
##hairi
##alt
##heiro
##asse
##org
##naah
bhaav
ghtiya
mao
waloon
##kohli
barni
darane
asghar
sunane
umas
sarg
poten
##jida
drin
piog
aagahi
comput
cars
bachaaye
pancha
udher
netaon
issey
pande
billiyon
domingo
1999
aatankwad
recover
spoke
kartoot
ulatnay
pahuncha
tolerate
musawir
cun
jaja
nick
pz
##vol
##pink
##فر
##qati
##anta
##erc
ketu
parody
rachi
chaudhry
thalag
##dians
letey
##khli
joint
banned
bhaijan
tuta
##entena
shura
ekk
tema
aaaa
##roach
bia
torna
umra
##ufeeq
zindage
hund
bnata
lgai
matlabi
jaae
dhakkan
##kyunki
veio
lgao
rapists
breath
rkhta
hawalon
matawazi
rizaq
eewsi
ksm
##kapoor
favoritos
nibbi
astodyoz
thousands
combination
tanazeaat
##profilepic
pishrft
pioggia
500
hram
pvt
qaza
##bina
##می
##urg
alfitrat
diba
boca
walikum
doonga
##upar
achii
khudara
herald
##ryon
sharjeel
weld
scq
##fff
warn
leading
overall
mafad
casual
nabina
adhikari
surprised
fadnavis
zamaane
fosse
edited
##ftheday
لیسلی
df
kaye
latay
miks
این
ڈرا
##ndi
##kor
##balo
kira
dess
##apr
krwane
hujan
files
barom
kamraan
darin
kissa
mantan
fora
sayang
bhs
waqtan
purse
##oting
##yarakat
sui
subko
zaeef
raseedah
jhute
aasmaan
haty
bechna
talaab
keeping
jhoote
tahre
pinj
protests
alhamdulilah
##bhaijaan
leftist
jangoo
rocking
adhura
surgicalstrike
kirolayna
alleg
##hitsm
wrote
constant
gathbandhan
iamwithsana
aqi
pesy
##mare
##bta
##bazi
kachi
kartar
##iska
##isme
saved
##ingy
chont
zabar
protes
fareeq
bhram
athe
billa
sbb
asiayi
samje
indiaagainst
showed
nikalay
cler
shuker
jugad
tknalo
larkion
lollipop
rkhne
gerek
jornay
khareedna
dangai
explan
mulazmeen
shaheenbagh
peetne
javab
crossed
burhenapa
tknaloji
aangan
eolo
htt
ika
jp
پیرا
##tistan
##hii
haiso
##ales
##iyad
inhpa
analy
dizer
ushe
usaat
itra
kambal
liar
arun
siasi
##ishq
onde
khanda
sahid
##mato
naamwar
purvaj
warq
verdade
foq
larkian
betiyon
##یٹا
senin
parascha
mansik
sulooki
shehnaazgil
evnow
asimriazforthewin
totmm
inspired
bandargaah
tehqeeqi
wsw
mohalla
snapchat
amraaz
asshk
kamlesh
environment
stopusingsid
cs
tme
##zol
##مون
##ہیں
##yafsos
##ulah
acar
barang
andrew
mainay
ado
khudh
kyunke
salwar
export
burqa
scat
sade
mandou
jayn
bestfriend
papaji
bhoolay
bangali
kasheed
mithaas
shayarana
churaya
zubanain
assalamualaikum
tourism
practic
##thank
سلیشیر
##homicide
vktr
barabari
bhajpa
gorgeous
44
کیس
گو
##head
depos
inhain
chaiya
##daf
krva
thei
##sek
lite
stra
nigh
badho
aaaj
aaey
tabqaat
french
##apped
hmsha
jalsay
followback
swed
oski
worldcup
bhulana
sardiyoon
kidhr
boxer
easthampton
majaboori
criticise
##buddhi
kishore
carlos
irtikaab
skrg
ensole
bawarchi
ismael
ittifaqi
usaatzaa
stopusingsidfortrp
diyo
gata
hva
kpa
llam
soom
wl
wooo
##vikas
##پٹ
##arn
##ooor
antr
dign
kamino
aso
sigh
jiom
purcha
dayanat
jalay
patrak
katu
tempoc
sikhe
hoskta
##یکٹ
tafheem
gumnaam
ashutosh
sanju
fayada
usmein
chhupanay
samjhoge
notifications
lnda
mutanasib
photoshop
ghuroor
gifts
sazishon
##illement
prakash
survive
##harthashukla
credibility
46
cvent
lath
qus
tsunami
ure
viz
vdo
yesa
بال
ویرو
##aameen
##rha
##cf
holl
##yaha
bahaar
mukk
neither
##hota
afaq
bhatta
humsafar
boldo
barbar
pemai
gav
shona
saro
poe
bilkhus
jalana
danista
panchay
dhari
mnhum
##pluie
damage
mmdern
amrit
bikao
solaire
overacting
dramas
illiterate
alamgir
odisha
##students
reveal
hpahpluie
ensoleillement
mmdernire
47
fome
ghoor
hire
madaar
olaad
rola
sz
vom
yk
ویل
##sorry
mechan
##abhai
##ahh
delay
parlim
saap
leaks
anso
##ayaat
##reunion
shahna
prest
##vibes
mamad
##arton
##sarkar
votefor
seem
iftar
toofan
shukook
somewhere
vei
##yie
ijaz
daaru
manzir
qurani
aoa
gunahon
kahoge
gareebi
gazleen
##lakin
bhooka
yazid
further
##weets
میلوڈرا
cena
hdsn
yal
zel
لا
##nana
##tna
##yai
##fall
##bile
##فری
##hela
hoay
rawish
abusing
##kher
humdard
maus
bolun
rehay
gaata
masyarakat
province
bhukh
frmane
firke
wasa
lenay
##ranj
worse
misunder
##tual
maksad
##tiyaan
berlin
kanj
##outtomorrow
dushwari
##them
rooth
harkaton
creative
slamat
##buah
sweetheart
##poso
sandeep
happybirthdaysana
cbseindia
fabulous
mohalle
kazmi
##ayyub
yellow
kahaanhumkahaantum
miksikn
cctv
og
ora
ovo
بین
##vos
##vaiz
##zed
##amu
naaray
##enar
deil
##apakistan
##hoda
abusive
anxie
terko
kamse
asf
concl
denmark
herself
pado
##ranwala
ataaq
ilam
pyary
##beat
ibad
##adoe
calcul
goverment
kyoun
sethi
mitr
khairaat
anaari
##adatar
##karachi
oui
samjhota
##heartsid
maizbani
sedang
wednesday
werzish
zawiyon
acharya
zalimo
shivaay
mountain
sahuliyaat
kabootar
ahok
jahar
xy
سار
##sya
##jf
##inas
medio
##hear
##ikit
muita
thag
thae
thailand
jaatay
khaty
beard
mujeeb
prith
barda
jispe
manen
tac
ghadi
##anghi
aahang
trai
tipu
sco
samjhana
samjhty
mulu
pipe
rahogi
muncul
safah
pagar
temper
bayaniya
faislon
keede
jummah
advani
fasla
lanjut
##chennai
patwarion
square
chuttiyan
istandwithsameetthakkar
institute
anokhi
gara
kz
phee
siso
ریڈ
##bill
##چی
##tick
##azad
##diq
aneh
although
##ulay
##kifli
bolde
recom
badd
##manirbhar
roi
goth
sayid
##appa
maghl
sathe
khitab
hnn
halan
nowplaying
191
kahunga
jump
eden
##khabri
dilaane
##bersam
atankwad
baithay
##centage
loyalty
ninsi
fotos
gobierno
wagerna
cg
cach
nfak
pns
sore
tika
##cation
##fah
##zid
##aroon
haimera
##alp
kehe
ekla
ziyarat
##grat
##appan
walau
leng
pmik
murshad
##ايس
sunaate
tyari
putih
bikne
##indias
tapak
phaily
##tttttttt
pachta
baised
branco
beemar
marakaz
kalyug
jed
mkr
niye
pharma
sushants
ٹیر
##raz
##last
hotha
##ehman
hima
affe
lewa
unlike
merry
shake
shauq
chd
kameez
sakey
raheen
launda
trick
##abiz
jalli
kaisey
misrey
patrio
smith
##ankhan
qadamat
jamane
fankaron
ultra
##nkj
aima
overse
##scan
##miss
mcd
vicky
muawnat
rubber
dictionary
chowkidaar
halakaton
ralf
deixar
##wetasingh
accepted
##oneexo
zin
ویر
##gri
##ksh
##inhos
##asna
##ikt
bawan
himan
##itn
unnao
##safe
asri
packet
sunlo
adarsh
timatar
saly
verna
mtlab
viswas
answers
pureheartsid
muqadar
##rested
saveustad
gaandu
anjum
digest
choohay
##boyasim
ugc
manusia
##zulkifli
accused
paragraph
##forshushant
aarakshan
foqtan
saveustadzulkifli
cbs
cosa
rolo
rhty
tsh
میر
کس
##wf
##iah
##ots
##جی
##ampe
kaate
koti
##hando
##agiri
apenas
bhajan
krw
shawa
bhaiii
ghume
##afaat
takla
##rows
passa
##zaab
sidhi
dekhao
newprofilepic
tehwar
ayaa
##versy
##zaib
##aaaaaaa
unfair
khreed
kachray
appreciation
برینڈ
##attack
dugna
muhallay
conduct
dictator
daonlod
maghloob
liyo
lazy
wari
##ہٹ
memp
sebuah
##ishain
##utha
krungi
maujood
##rahat
##loyed
daraz
shra
tarseel
chegar
trisi
farah
akr
##opresiden
##wants
hisi
wasal
minut
##ارک
garb
ikan
hojai
pahlay
bayar
dyta
jarurt
tyre
##ganj
somebody
tention
calda
##charya
begana
whos
triangle
planned
tlba
causa
seenah
manif
vinay
pakhtoon
ltife
ellos
convention
tofeeq
switzer
muntazim
chennai
##wetasinghkir
bardast
cet
dvd
kup
مک
پاپ
##ste
##sharma
##dgi
##jl
##jain
##kaya
##حی
##alapak
khpal
khake
alvi
##ulhassan
ghol
amu
lig
aau
comun
roh
##stra
##hayin
matar
##ufi
insul
eske
##ranay
majm
zaalim
rasan
kheti
safaya
##being
integr
phol
fazol
shamsi
bcci
estaba
osko
2003
whose
gariyaan
##اکس
dhoondtay
shehnazkaur
australvi
vahm
jgah
کامیڈ
gundagardi
stalk
attachment
sacrifice
context
##spiracy
morepowertoyouasim
anxiety
aer
ziya
##vart
kaghazi
nadim
tode
##orum
demi
##texposed
##iyn
inam
krra
beer
boltey
reerh
andazi
kyayeh
kyasirf
taare
rocks
azal
asimraiz
hanji
aasra
nazyon
qadeer
qarardad
kuat
hows
##waty
ranger
##mming
##conf
capture
nakal
##ilihan
sahaf
sincere
dakha
khaleej
madaris
cutting
sekhen
celebrating
wkwk
critics
wearing
hadion
dhulai
ablaagh
terlalu
switzerland
39
csk
hga
hra
sue
vuel
wu
فران
##yen
##zb
debe
parmatma
##teza
muhab
saver
##ingay
bans
huj
##anib
jann
daale
ghaafil
muskar
gods
syast
suvar
##ople
##mpa
satwen
minum
bagher
shown
ahliat
smugg
blkl
bradoe
##اری
outra
maange
msnoy
chandra
besti
highway
rooz
partai
##scam
gorakh
gujranwala
##realheroarnab
mukhalfin
include
churras
ratio
ancest
##scanner
duld
zoor
##dri
##mc
##foon
##qah
##ammat
##ispr
##tians
##unke
thakan
hugs
modo
##astar
sooni
rezim
roast
mutnahi
larta
notes
bandha
##hadh
##joining
kuttey
kashmirion
##vidha
doctoron
zalmi
##chester
francisco
##اتا
datang
##sirf
enemy
dhuwan
seguir
niyazi
ristoran
duldul
dpt
klay
soot
ڈو
گوڈ
haitumhara
##inko
karata
##yaz
##tio
parwan
##khuj
##idos
pepsi
samer
amman
tezi
maryada
cheese
##jaans
salook
##eebi
duit
khoyi
haqeer
paishgi
alim
phla
##یول
trave
mariam
taiyaar
nsitharaman
hijde
##cbse
pochna
julian
##zzzzzzzz
thukra
gustaakh
registered
bhaisaab
copied
youtuber
thikaane
##cloud
eti
jura
vjh
سوف
##wee
##dont
##ml
##cuj
##zor
kidar
seng
thaab
barsa
##lyn
teman
maroge
##layam
imla
##antes
awamil
kono
##rance
hadith
baityon
##sarkaruvaaripaata
bajate
aqval
jeo
hazoor
##khauf
##pless
yakam
##mbre
hraya
msori
msajd
betiyo
ehl
tagline
todna
susu
larkon
holnaak
khidki
bazyaft
nationalist
classi
##istaan
insidaad
chatukarita
##erecording
shehnaazgilll
bilkhushoos
##texposedin
dutt
ہیم
##vana
##wv
##amen
##heek
##uns
banya
##idan
machar
teu
insya
sadhna
pooray
mureed
dekhoge
pages
hazem
sikhi
backup
talawat
indore
laitay
falsf
cmomaharashtra
mitha
olarak
##ofsid
manndi
confession
gotta
qeematon
taiyari
kangna
bhadve
internal
danishwar
chamakta
prosper
afsanoon
aurangzeb
falsafay
##dullilah
austria
overseas
55
biyan
cus
dyo
jdi
jsy
rerecording
sq
wjah
##hood
##lng
##know
##cter
##xol
##arrat
degil
apaan
##tedar
haay
allo
sabor
##waop
sakata
dekr
pergun
##ston
chaloon
contain
salay
chotu
bagal
bagaimana
sachhai
##khala
porki
2004
jonno
giraftar
traitor
alliance
moakhar
لوکاس
95
eent
hth
nutt
sbi
tis
wey
ڈریک
chama
kabr
kabeer
paay
arbon
chen
pasha
kaleedi
##anthi
ilha
jeito
tajawaz
##kalyan
checking
##mesid
norman
##oyn
zimmedar
emojis
raahon
korte
apnai
pyaara
difai
argent
##gfamily
pahannay
kasmiri
zawiye
patriot
tribute
sucide
anushka
falsfiyana
cjp
easi
gc
jayi
##twitter
##done
##jag
##ayur
kars
isky
yawr
##dig
annu
##ulta
##idas
##kek
##tertainment
bout
bound
##araa
nous
shkl
dekhay
artalees
comme
pasta
imdadi
bhuj
chow
atak
firdos
balu
jitnay
mie
compliment
lakn
jayo
dharne
##bohat
##سٹری
##anyon
expos
munawar
zaireen
ummah
bndron
##sssssss
sasur
gunaah
darwaish
jooton
mahoday
maakhuz
64
ahy
raid
##rag
##sng
##lil
##yabi
##poo
##xv
##بری
kij
haintum
chaina
hizab
sahay
##omkashyap
jog
mercy
mafaad
agayi
tars
marni
areee
bahera
kaladam
escap
scen
##cow
charging
kaunse
indra
karsakte
##color
phali
breakfast
dakho
semakin
krig
adiza
##issue
candidates
dupatta
potter
##singhrajput
thakawat
curios
spokes
urdushairi
aiye
gaza
mnd
nb
ome
ugh
کم
##yee
##zt
toheed
khori
krin
humre
humdardi
dipik
hek
bother
barrel
terse
dile
##giii
##angga
##ashmir
##ryoz
##honest
sharai
##ller
guleen
malak
sanaonfire
ramazan
blan
##ورک
americ
ruki
mira
aie
underworld
yunan
presence
wafadari
##ccin
majbor
rishty
minded
qurbat
failate
##makhan
reyasti
pahunchte
javaahi
ayndryoz
kemarin
branch
##amitshah
##bdmaheshbabusarkaruvaaripaataurstrulymaheshmaheshbabu
javaahiir
lgg
rjd
tane
پھ
##xus
##qc
##anh
##amir
kosh
kook
##ilon
chab
abaid
aloo
logi
aghaz
prerna
often
kabja
paala
tive
##pective
imdb
khoti
zarrar
##ereal
padma
jalo
giroge
kashyap
monstr
chupay
khelny
windn
hahaa
personas
justiceforsushant
kholta
trial
bossbht
phely
sanskrit
hormat
homem
chhapa
biasedbb
patrkar
keknya
##payee
equally
##pride
mehrbani
nessa
smpsn
typical
کوریوگرافی
murtaza
chontis
sray
سیم
گڈ
##lation
##keep
##ٹل
##anha
##amaz
memar
##apo
##lem
bhair
jaayen
alamaat
bareek
darbari
andesha
diljit
##ubar
roposo
##stood
waada
khans
##baron
basha
malkaan
plss
##chayz
yaadon
rame
##sidd
##boys
cambi
priva
mrk
hansta
mitron
zimni
sifarat
dako
confident
hifzo
##hhhhhh
challeng
irres
colours
ہايپ
نیکول
frnchayz
300
lillah
qaida
rdo
##aren
##ayodhya
karda
tole
##ensi
##ilat
##ishe
##istir
##oson
##esse
bew
divert
waldain
manchester
##uku
masool
salud
khouf
mutual
wasn
keral
tmhry
smja
##latoon
bajrang
##johar
veget
gully
kasheeda
##pio
angrejo
rupaye
hopefully
putting
karwati
shehbaaz
hmein
##chorhai
amaada
کارل
intazar
iftitah
##bhagwan
features
usmaniya
اتلی
beemari
qualify
temporary
btaskte
wuqoo
41
nerv
##gum
##rl
##mun
##qf
##alai
ismail
destru
chamar
haus
boond
nokia
jabir
##uption
musallat
batees
shetty
kahate
frmay
##baran
##tsalmankhan
myoz
scoo
worked
quin
baita
qatar
##rrpnishank
watt
panda
ohde
realmente
mardan
##banyak
yahoo
phaila
rishi
devdas
##results
required
dehshatgard
sthon
woody
defeat
genius
##zainab
pertama
##khulwaop
falei
tahreerein
##texposedinssrcase
myozikl
ea
gte
jik
qari
tallah
گرو
##shin
##hega
##taari
##isar
paran
woe
unta
ungl
dimana
banner
huga
huwy
chose
filled
petta
kamin
##matter
fruta
faay
baghi
rasham
clit
fifa
qadiyani
dying
##dddd
101
##khane
cepat
meethay
gosha
seconds
habis
shilpashinde
domestic
imagin
boseedah
snaps
obsessed
mubash
kasauti
controversy
brownie
ڈریکلا
bone
rath
sne
ue
ایگ
##hbi
##mary
##cmo
##ٹینو
##سپ
mutay
haven
alq
alkht
##shya
##geon
mananay
waqas
perta
enna
##hamesha
chokhe
kalyan
esleha
##movie
kayo
ladakh
lambe
gandy
peela
katai
pagalpan
prev
mirz
##cont
bareme
2002
losing
explo
rista
bahaut
talkhi
chamakdar
##idades
twitt
deixa
discount
gallery
bhijwa
scroll
deposit
eslehaath
aint
dhone
fase
gant
iks
jey
jamil
kmp
##til
##xg
medon
##aders
baaj
saheed
jaaz
alstar
##kijaans
##ardan
moueen
##hirt
kisise
jabardast
daag
badhi
suniye
rahmat
khudka
##bacha
khangress
dikit
bile
mehv
jalna
waisey
buses
spine
dhaat
sensa
hakim
finished
rkhte
chakki
uthti
seekhta
hawaas
faizan
chirya
##wellsoon
chappan
bottom
tinggi
trabalho
wroth
received
supremesid
ashirwad
gambhir
kmyon
comemorar
patrakarita
ely
mni
qn
ubal
vz
seal
##chool
baand
inpe
afkaar
jogo
alz
##rip
mille
sakhi
badast
arsal
coma
##jaar
##baazi
shenaaz
##ufa
urusan
padna
tmhen
sanaworldwide
verma
mohabbaton
indiast
jeafri
dhuk
papua
desc
governance
##enial
sending
steps
vides
##larn
obama
peso
zaher
graham
saanson
jhoti
intahai
dhram
momineen
malaal
holland
kns
laz
pud
sra
پیل
کاو
##gayi
##nc
##yay
##pb
##چو
kav
##abaat
jahir
ghlti
prn
##thn
##ukone
waqae
##jaane
##habad
taskeen
thop
munici
menina
kheer
mujhpe
dhood
kato
fazeel
dynam
singap
##bow
juye
tajir
budhe
veere
indya
raftar
blessing
asaram
lootne
sajish
primeira
mastermind
shameonmumbaipolice
consigo
feder
kendra
translate
##protests
falou
##chennaiexpress
iyi
kurrah
vji
haiap
kif
##association
komp
##abta
##ilm
deye
muts
loda
jaaan
banon
maaa
hong
prais
barsaat
##chaap
asr
assa
tumharamain
maidam
adhe
robo
##biz
bhum
kahaa
##darshan
bachchi
daiti
peelay
##cau
rajnath
bulaye
estos
maracuj
momo
bikul
dhancha
janwaro
patharon
rubbish
tweeted
##wkidar
assalamu
investigate
justiceforasim
jajajajaja
annoying
haimujhe
pohncha
tankeed
jawabi
sudhirchaudhary
##romance
mujremana
bchy
cort
fle
fet
foll
lue
انگ
سد
مزا
##nga
##mata
##cara
##adores
chakr
krye
krate
beton
##rein
##kid
maash
doun
soil
batado
adity
cheers
hyy
laam
lauda
sarma
inshan
dayrik
large
##akhti
tasrat
chorne
minus
aysy
nyc
subsidy
mame
##orium
qattan
fela
berhate
jarsi
##plano
visale
pichly
mirch
##lionheart
dabbay
fayde
lehr
fatia
tumahra
raastoon
kudu
vinod
aussi
deleted
paintees
bithaya
##murder
preciso
clinton
looser
universities
soomro
56
aoo
pangg
sg
yus
ڈاي
##dg
##jg
##bbat
##xw
##پی
kaki
##yahi
inner
##ithi
afgan
abdi
unban
lagenge
pemimpin
dariyo
dekhunga
badkaari
guss
adho
shared
##waris
sataish
utun
utter
##odhy
tmc
babur
##thackeray
##ورس
mors
##getum
mandiro
gulzar
bikhare
looked
bardash
bahaya
lashain
bridge
shaheedon
انڈر
hurmat
techni
jooth
forced
peterson
seharusnya
despus
##illahi
skip
##bukalapak
sargaram
pichhle
mehmanon
quwatoon
ethics
feroz
asimfandomhitsm
pemerintah
aney
ck
tans
wle
zoo
##gara
##great
##rooz
##jhi
keli
##chti
hainhum
##hou
##rian
##riat
bhaia
chhari
##wae
aller
jabhi
maior
paseen
cou
produk
shehad
buhot
hunda
hayati
ilaz
##wear
bunda
dhoya
sharechat
edhi
sazae
psand
rhoo
distri
waarsat
##یریس
piyaar
definition
parindy
gulaabii
mohtaaj
mehanga
adorable
cheekhain
maweshi
bacchus
bohoth
##wetasinghkirt
medonna
66
aaisa
dny
mhar
##gic
##heeh
karb
##enya
khosh
khared
hainn
anjan
humey
##ulla
##kafeel
reform
samz
ampe
teaching
paul
wahiyat
goose
fareed
bhra
faar
taluk
drs
bujha
canad
nazay
bajana
galli
##cao
dykh
kanwal
grass
indianairforce
ruh
puchho
sudhre
kurbani
kurtapaj
chahati
ashram
tahleel
mufad
selective
gujjar
contestants
berozgari
adalti
chasma
##roshan
washroom
sebelah
toseefi
##tejashwi
##utenant
##ushanthsinghrajput
sarjnt
ہنسیوں
panchayat
cid
esos
qomi
visto
##rir
##dub
##فٹ
##جن
##haari
metal
komen
tori
bhao
baney
mouka
prha
pakri
astit
mantar
taayun
kabeena
maira
laaj
merepasstumho
madre
burkha
pior
paiter
tanveer
bailay
lgana
jhola
##waji
yarrr
inteiro
jayee
estado
helping
bhulane
bukti
azaan
##blos
hawaly
maangne
ryt
statue
cabea
haber
rubik
##kkkkkkkkkkkkkkkk
dehk
aimly
stoptargetingasim
chonka
##harshbeniwal
kanganateam
assignment
pishaab
pemaiesh
shahnawaz
privacy
eager
gather
gashti
jado
kle
nub
جیو
روب
کان
کیمپ
##rashami
##لوک
##bey
##xon
##anu
keta
kaks
isle
##chd
baati
parli
chabi
ansh
boll
itn
##chale
sambil
pakd
pakode
##gim
raka
tetep
pahen
ars
##uffer
mehmaan
##otr
satguru
##dok
aysh
##zie
kery
warga
sachme
complic
colek
##assy
dyty
sont
sonra
bangun
wahaan
##یسا
produce
powerofsid
bardari
farmaey
sumit
cantt
sehatmand
braay
tumahre
##craft
partition
fesla
mistakes
islaam
officially
##dryclear
lifafay
gustakhana
commerce
ilyas
49
52
daty
elim
oz
فین
پیک
ہو
##gato
##mic
##pari
##beh
##ashamidesai
karton
##aghat
khosa
tumy
ante
##ingan
merah
barood
amn
aachi
paseena
sidharthashukla
trin
gein
##open
##eesanth
blaming
payal
iktalees
makkar
##belie
beryani
secara
tajrib
tukang
lieutenant
grapher
janglaat
ارک
beginning
nirav
seerhi
##melec
rickshaw
explanation
mutayyan
tajribati
ehh
jos
jir
lori
##kangana
##mson
##fake
kartu
##ishas
param
##iyak
##lect
bhain
unless
lagatar
chz
chp
bardaar
samney
jisey
jabtak
aawaj
musarrat
povo
taqleef
laraz
asifa
chortay
##tanya
kanjo
indianarmy
superhit
##pakistani
tagayur
##frnd
runner
##اسن
##chuka
trolls
vansh
almoo
bloging
sambhala
jangju
partiyon
ruler
domin
dilip
error
nenhum
reminds
کیمیو
bhaisahab
ittihadi
wwii
khwahan
uljhan
ej
lma
mx
wol
zong
##west
##tl
##ugi
##miyat
keb
parth
humesa
mantra
daway
##mizi
sido
enfi
##ciendo
firaon
##eeling
##nots
ayl
ayman
kayam
nazmein
faisala
mnzr
mtv
mangty
phale
##tirathore
haramkh
dabba
belated
siwaay
pitne
##bhushan
##restrhea
khayenge
iamharshbeniwal
nishanaat
tilgo
mushtarik
dagha
##patel
sholay
scientist
shawahid
glat
luter
nooh
wesi
##thar
##cana
##پری
##ayo
##adr
##tivo
mulayam
diay
soaz
##mix
khudmu
sarshar
hogia
mukkay
byk
dallo
achhai
cola
##imam
##kyon
msd
dhany
rupy
lashari
اسٹراي
nirman
##ومب
##aexol
womens
chhorey
bhonkna
dgp
qasoorwar
##یانو
nicolas
##bagga
mehsus
isilye
65
soooo
uchit
بو
##thee
##jik
##qismat
##haf
haie
##ayn
kemana
meas
##esab
leja
ankita
moder
##shon
prath
##uddha
rehain
pakis
niat
array
chega
wealth
firm
esses
balasaheb
ridi
##tros
bajane
gandum
offend
ruled
puhn
bahawal
fights
vikasgupta
##maker
trell
mohlat
muawiya
najam
muskurata
1971
tilak
gates
malaa
pendukung
revenge
candle
mizaji
bugti
naarad
darwaza
fukrey
smell
hifazati
ekonomi
vice
zeng
ریپ
##meez
##cance
##anas
##ansi
##inn
koq
seke
muaser
aapane
humans
##aqu
dokha
ghana
aren
arrested
sibl
formal
rehmi
entah
bhkt
##opal
##opakistan
magan
khatma
giran
mayar
bakht
bnati
sachchai
katta
chupe
desho
farmers
wins
sahaafat
##ashah
nirala
meses
##titute
rehem
indonesiacall
hypocr
nidar
pahariyoon
kishwar
##mahagov
karrahe
pukhtoon
aiims
nikaali
awareness
##blackday
swimming
meherbani
رینال
##studentsp
gesture
paristaron
##roshanromance
کال
##jyo
##caanrc
haihar
##aldo
sehnaaz
##enquiry
istif
parat
##ols
chachu
aliks
khushkhabri
##wahan
##anaam
##istkaro
##sein
lip
nifi
janas
mustaf
##stars
##people
wekawe
akad
buena
hahahaa
bayalees
sahabi
lifetime
yaksar
ghanemat
intqal
dushwaar
mirip
tests
dekhegi
sangharsh
##frt
turun
yogiji
sukkur
articles
##film
sikoylz
##rikes
##cutta
سینڈرا
acabou
ترتیبات
jiomeet
singapore
85
aeh
qs
rung
rome
##pable
kiri
##aplog
saay
##khr
bok
itani
pry
mason
jioswitch
laati
chandio
btate
samajhti
ellahi
mauke
##ront
1000
rakhnaajay
chaheay
##talis
##ofindia
اسن
munafiqat
quiet
##dilkokaraaraaya
pyaaz
imrankhanpubgkholo
chapter
republicbharat
برون
jiobro
savage
badshahi
kagajscanner
##tizekhuj
instigate
boobs
elyments
jiobrowser
glam
hte
hing
kujh
mme
oqat
##laya
khbr
intaq
jawah
bedr
usually
##ubat
nige
nipat
mainbhi
arrahman
trading
saling
shokh
imdad
khotay
zarurt
suis
jalal
minaar
bandagi
lgne
jholi
aux
pahn
##mini
falaste
##twee
naseebi
tangan
akhirnya
qurbaan
khalistan
maangte
##hahahahaha
kalimat
##komt
##jamad
twiter
puedo
dukungbukalapak
weareoneexo
anjanaomkashyap
utaara
mujasma
khinchtaa
attempt
bkn
deek
egg
juma
##thin
##hae
kiay
##ables
##tav
lodhi
##lek
humm
banaras
lagda
##lives
moht
bareng
terjadi
liver
allahu
choari
chouhanshivraj
zarai
shipper
bandhi
ladayi
hatana
aql
sonho
dhaar
wrest
##یٹو
mumbaiwalapappu
pende
mitane
tangen
programming
##ducated
paintalis
oppo
transform
earning
speaks
resto
cozinha
laathi
gustakh
suffering
yaqoob
utrney
ketika
ghnta
wanita
paighambar
kehlaanay
sndrila
advertisement
allamti
indiastrikes
fazeelat
ksa
kvi
zbr
بیٹ
ڈون
##nde
##rage
##kd
##frat
##bam
##hade
haikal
##aksh
detention
##chop
khos
##apas
thal
affect
khayega
dial
hutiye
##kib
terry
terms
##cet
stre
##mann
##oora
sides
goals
chalati
##vities
##asif
baltistan
##vahi
mumasil
jeeto
vishesh
bhejte
dunyawi
poochh
##bullying
nashriyat
##khtaari
conversion
dhadkan
khoshion
resolve
resolution
agae
astaghfirullah
kasheedgi
nighdasht
dignity
khudmukhtaari
ove
راک
##vane
##kamaat
##یسٹر
##qbal
##inte
##asad
##abus
##abul
karim
tooo
khl
rahan
humri
difa
boil
bolain
dohr
prices
barsi
sakin
sakshi
shrif
nida
rakesh
rofl
condol
jitega
behne
haseena
chikna
##erim
pix
munjamad
blam
outros
##beta
##beda
deewan
ohoo
iqt
chhoda
bors
chodenge
bith
rhoge
balochi
##ticia
nsbta
khuram
muskurane
sekalian
pulang
tarfah
madhya
fazaiya
cricketers
dhundo
humayun
##bighit
benefits
rapper
54
mw
vd
##kai
##ours
##faiz
##pz
##qey
mesa
kajal
##aseem
##oshon
khumar
##icin
alr
behi
becoming
banenge
usnay
heer
doct
marln
sunaye
frq
##izindagi
awein
padai
thomson
bakar
##cou
##aanat
tempc
##یلہ
palm
yakja
morr
becharo
khilta
chodna
utarna
beeni
bazabta
hojaega
selama
korban
querendo
saahab
tumahri
adams
dakhlay
tunay
##uuuuu
concerned
ashish
khaanoon
taarif
hanif
narayan
chelsea
pasmandah
clothes
lk
udar
vh
##gori
##ntapostponejeeneet
korup
semb
khti
pars
chaud
chamat
thakey
jaab
unico
##redi
terey
hamas
pakanay
mannat
stak
nigal
##alities
##jaha
sarhadi
farinha
exerc
chips
samajwadi
nikalen
sanwi
##face
kintki
##jewala
##jhoot
sunaon
biki
kasm
calcutta
##pie
chune
##نگر
chatna
collect
bazari
karyakarta
##rafia
sajeela
##ويل
mohd
##upportasim
galaxy
musafiron
nagri
nagpur
##prime
##aliyaquat
nigehain
51
bent
dkho
nc
بول
وق
##vaise
##gest
##muj
##bhut
##eria
seht
isly
apmaan
##simo
##icks
bhaji
jawo
diab
banny
merci
##ulis
mous
soyd
req
rejected
samar
harny
janak
archi
chek
##sthe
goy
bhht
kahana
essas
##sofat
cheezian
chila
jaichand
angazi
sadness
smbhal
khee
appi
aasabi
bajanay
##assam
nisaab
kaif
ganj
justic
tennis
gulen
calendar
taught
talliyan
turned
اسٹری
tattu
querer
defending
uneducated
gauahar
micro
zikria
tazaeen
staystrongshehnaaz
rafique
darjanon
pajama
naxal
sintalis
diploma
ویروولف
##kijaanshehnaaz
##sofatg
jstn
nxt
##vest
##lye
##mgr
kimbl
##iles
dehl
injustice
chase
chakk
##ajj
##rios
redu
kamil
manenge
##cei
massive
adwaar
launder
shobo
basath
existe
chorar
sancha
brak
aagayi
dusare
btaa
starboyasim
mardangi
puchha
laiken
kasus
##ports
##lished
ahmedabad
sikhao
##jjjj
##اکی
karwata
tanhaji
tootne
dhoondata
seenon
victi
tirar
yanha
nmbr
sidharthshuk
sachinpilot
shatranj
imaarton
khraab
equipo
jalebi
dutch
sarparast
##فیلڈ
srayiki
kli
rz
جھ
##kak
##cop
##زم
##atr
##esar
##teach
##ires
inkay
thaanay
usee
hecho
mothers
##andhonest
sojao
orders
darood
samagh
##gii
ofcourse
teddy
musa
sidh
##toun
##tarfare
konri
girgit
chitra
tanah
chuppi
##mado
fazul
sorte
intizar
larkiya
spell
criana
olur
dabanay
muzak
churee
nikleen
guyz
ghoont
noticed
portr
beshaq
appreciated
constituency
swarg
employee
jarrain
batien
tubelight
companian
wnw
neighbo
naujawan
جولیٹ
bawjood
capacity
parlimani
mkrmh
luego
soydsh
dick
jila
موری
##lapan
##jv
##xf
##eren
kaasht
##hanallah
bawal
bhichar
leli
abub
##khn
walit
chron
##anahi
petition
hamey
jisam
taaq
taoon
dauran
ghadeer
bib
chele
liking
chalods
umpire
##baani
bhk
bhud
##tarfa
basharat
jinn
shikan
##mph
nayazi
aylit
chize
##ینر
cruel
sadqay
happynew
brings
bsnl
coron
musalmah
rajsthan
henry
jeetenge
faire
vehi
estas
bikta
##tumhare
##akahan
standards
pitai
wiladat
ginat
bhosda
rabia
1995
jrurt
reporters
obser
ashaab
sargarmi
kayaknya
bevkoof
limits
رینالڈس
aama
bly
hwin
reel
sult
vu
سا
ویمپ
ٹور
پن
##neet
##hb
##yp
##maj
##esweather
bao
##raani
heere
rahamere
walun
mujey
soja
terlihat
takar
aryan
mazza
cono
twice
##cipl
firshton
tasalli
fauran
buresweather
utra
##tram
##goyal
carrier
monas
jbhi
palne
##guine
auraton
memer
naqshay
fuera
##jjat
gunaho
pakarmy
loads
sudharne
pathano
chhatees
ijtima
qadiani
##bumps
makhloqaat
agenday
compromise
setiap
flipkart
##sofatgchennaiexpress
diyan
gati
kc
oven
odd
rant
reni
فلر
##jaji
##paya
kaur
kaale
##eeeen
##tido
apani
##irin
mudeer
ino
##hoz
banjar
moong
sunan
##many
matram
bachchon
ladenge
cance
ilaaqon
jhul
btai
auz
berubah
anytime
sorakhon
gene
##انے
qaari
saharay
decade
presidente
thakrey
quiere
supports
certified
qayam
jhang
nitin
sacche
fairandhonest
jaakarke
gulaam
tjhy
asbaq
powder
dating
mdr
pond
wud
ہر
##wes
##rum
##ruk
##taba
##cit
##zes
##پل
##haaa
##ayr
##erhe
hob
sehi
##abab
toy
isol
##ahu
##agle
saur
jaadu
krney
khaki
##gaari
ghuse
##lima
chung
prad
pradar
kamre
aisee
##there
umair
convince
faryad
aksr
awai
uppolice
ayam
lagaam
zaad
tanta
nazro
galoch
bhagaya
chupi
sikka
bulb
hathora
papi
intihai
##inthe
laity
chuney
pencil
jude
chahea
risala
shivika
dilaade
putri
regards
advis
madarse
##iiiiii
frankie
bajao
bangalore
sharmaa
raajneeti
guzaarna
chawalees
turner
##chandna
bebasi
##elections
mst3
tyagi
indiascreamscbissr
qadima
rohingya
anurodh
kartonon
ltif
mbar
sng
wang
zol
سوپ
##20
kichu
houlle
karway
##yahan
##chne
loga
abra
jaang
krst
meraintezaarkarna
hubby
soach
kyoon
manan
ekbar
chest
chegou
tienes
thhi
bhd
webs
awakhr
##dou
pigh
hadse
bram
##jodi
durbhagya
##venue
##eshani
jaygi
dharnay
mtt
##سٹرو
##ganti
##aghmakhan
saabat
kapda
kapre
gehlot
majboot
painsath
aayyo
##haqqat
doobe
nuskhay
karnama
waduh
##shameon
nichli
smoking
blagrz
mazzaq
لوگوسی
beloved
bedroom
ltifon
ble
lallu
zakat
##lang
##mayi
##qv
##qj
##arendramodi
kepada
meg
naas
napun
hous
##eema
muham
hacen
##kiyaat
maaz
hewan
chos
chhed
bolly
reward
##inden
##veja
ammen
tarre
tejas
chess
provin
madeen
zarayi
shine
quam
balad
cree
wars
mukka
mahool
mio
mojod
fim
kathin
disagree
toote
##imran
dyan
ganhar
##waseem
kasmain
begini
attached
rukhi
aitqaad
shabnam
dharmik
##poneneet
##thik
tells
sukriya
hataane
biscuit
kadang
adhikaar
کارٹ
astinle
especial
bmc
trabal
kafeel
declared
dhabba
rimnd
facility
aeinak
proposal
##izindagiikay
aali
cerita
iraad
nunggu
rv
yos
##aton
meli
naakh
##heh
holn
dehan
##esath
pares
##irah
raje
thaek
humsha
##inga
##araha
##cham
youm
pakeeza
bado
aach
sib
ends
##essr
shobha
bhuri
magfirat
##ongo
chizo
spider
fanoon
jayiye
shuklaji
jugar
realhimanshi
khilonay
ajae
wafad
shikni
##برک
rishtedar
##rrrrrrrr
growing
lagataar
kushal
##mmmmmmmm
wabastagi
yogdaan
nagrikta
ahoker
##republicforsushant
initiative
tonguetwistkaro
mutsadam
akht
fto
ole
qy
sv
ucc
##undi
apsy
bawah
##ooth
unstop
lagbhag
logh
boley
prayed
hamsa
##indh
darham
noke
stuck
laen
dinheiro
##ends
bharte
tasheeh
ayga
##trl
vimp
mura
spee
hato
raaton
chupaney
##یوان
fazlu
secron
tafweez
maanga
lykin
##yyyyy
amrik
##logical
defense
dastay
shikayaat
##ینڈر
faysal
pinned
catup
tharoor
telecast
correction
ایلیس
jhota
bgair
nnw
chalayein
earthqu
genuinely
owais
ltima
belongs
shuroo
dhanyawad
##dolillah
remake
lkhno
chourasi
43
aina
dore
elia
izaat
lb
sli
tsk
yag
ڈول
ہیو
##whi
##wese
##hur
##uw
##kitna
##most
##گز
##ھی
kade
toak
##unte
hizo
lovers
abyari
khushboo
maans
chons
soum
##mem
hamd
milad
milana
tarr
kabur
badtar
##rour
##mian
##sten
forgive
tradi
khudai
salgado
sarsari
ajzaa
##peace
atna
sochke
##wanya
nayab
minor
taraha
keray
withdra
bnke
charhne
luq
##govern
##icio
pankh
larkio
mrta
mirin
dukhad
khawand
haathon
utarne
partners
bankon
hojayegi
chahia
hotstar
##awaaz
ranaayyub
makhloot
rujhanaat
hearted
dgispr
rocky
imtehan
kanton
informa
cubby
kartarpur
baluchistan
iksath
bzy
jj
lung
sda
sle
sdd
wkt
میں
پال
ہا
##nail
##acha
##jani
##yes
##مس
##erra
koro
##ensa
##isyon
debo
paratha
chada
krl
betiya
terrist
kamate
darurat
milain
milenial
##dec
artinya
sifaat
tiap
mutwast
suck
changing
nyari
tamana
bakhabar
sadqy
amei
mimin
idara
peechhe
diss
ganwaa
veces
stopbullying
akhlaq
setuju
##یسن
poochta
##ikian
sikhati
siwae
##dilkomainedikasam
mesma
fakir
draw
mutalay
instant
ashokgehlot
jiddat
cachor
gulenaghmakhan
fairandhonestsid
chonsath
dase
lho
pind
riks
sail
sway
اگ
روچ
وہ
##tort
##lees
##kare
##oa
##zoo
hohum
rauf
##haran
yaas
##uts
doi
barking
pemana
##meye
steel
##anger
aaur
sunat
sarv
duga
maliyati
kirnay
tamiz
kerke
##orial
ramji
vib
appko
samajhdaar
compra
wazah
galay
izin
chupaya
##khawar
tafr
becho
camps
osy
##wasa
sahare
ijlas
begerat
ruknay
##anoe
shabaz
poochti
partly
horrible
opener
##jju
kaatne
faken
muzafati
zahree
badhte
privile
waseela
bringing
kenal
oonchai
aloodgi
murdabad
ghazabnak
ٹايٹینک
##colorstv
badastoor
aub
bdy
lbh
اب
سول
گور
ﷺکے
##imp
##pray
##poot
##qw
meem
kagh
ispar
##iyu
bhaiye
anthem
alarm
bhaichara
rahata
##astan
##shp
marney
percentage
##versi
##hentic
khudki
##baap
dose
enki
ende
salami
##town
faroo
qabul
jeep
##hrain
hojaty
spent
uthake
##assador
pichla
jurey
rupe
##یڈو
##qareeb
appear
##words
##وپی
aditi
athawan
kandhay
tilr
electronic
geladeira
##grover
antara
kkkkkkkkkkk
motorcycle
##huttozardari
lembro
ayyaam
goosebumps
canaddy
parliman
elo
jiri
qand
yard
zaka
##goo
##jits
##oosh
haibas
kite
medo
kaas
##asp
koyn
##adya
##adrish
karraha
baah
##hope
yaw
##ayaa
##limited
kamna
samundar
dilse
badhta
aajkl
##hamari
kahaani
behs
gharwale
wajid
esme
qabl
chorando
paiker
bakray
munkir
menye
resour
blky
ilaka
##icious
chhura
rajesh
sons
dasar
mrne
ladkio
captan
rabba
chatni
colleges
smjhti
cabe
metoo
sambhalay
zrurt
beij
nearly
anuragkashyap
infiradiat
curious
revolution
##yearsofsrk
meteobridge
مزاحی
bw
ena
eins
flim
oni
piss
rend
##dc
##jori
##pna
##aiti
##ayl
keht
kast
naveen
##ended
##usic
dept
chatt
hiten
thaaur
afwaah
dipak
banwaya
shaba
chole
##kao
pric
pedo
recon
##upe
sunty
##dekho
arbab
trj
chalak
##shish
kitta
basar
jinna
insti
sule
jaanat
cheezen
pairr
ladh
##qiq
dalalo
foz
pyaray
kano
jayaj
fatati
tabdili
counting
welldone
listrik
phek
rathee
gambar
deserved
jhand
stavan
ghalazat
vikram
bhukhe
muzammil
##thanks
matehat
remains
bolentertainment
organization
ancestors
janasheen
aee
jyega
vender
##rail
##jate
##ince
##akhilesh
isliya
baut
##olak
sahan
humili
usama
chheen
asmano
associ
jabray
##upat
##dew
combo
bahkan
conspiracy
ajaz
chuhe
awwwww
talve
##noa
shayron
patlon
mushri
dikhayega
##bras
charity
berbeda
tayyi
deewane
umeedwar
jarhiyat
palan
shadid
pagalon
oska
mabzol
rato
incr
qasm
ashray
dariya
lawde
advise
selmon
##kamra
aseer
albm
##uvaaripaat
engineers
centi
ktna
legends
tinka
sanathe
bmw
judicial
##happybirthday
jhagde
satisfy
vulgar
##kaweka
bevkuf
obrigada
sarparasti
demagh
abroad
##democracy
nacheez
immigr
untaalees
falasteeni
mst3k
eaanat
fn
kly
nce
##father
##athe
medan
nacha
karib
##naagin
##unci
khlal
parent
inhein
##leader
##omy
bekas
dije
##uls
shaqq
sokal
takr
aaegi
batayen
##edh
salle
btaiye
murt
iden
interior
yargham
rajats
jhootha
ghuss
larkiyo
soop
##tabhi
shaanti
mukhtar
muskurana
nashtay
sanihay
panjatan
انٹون
entertainersid
##proudof
activities
bigaad
garbage
eve
oj
ruth
sage
wire
تری
##vaa
##dili
##yati
##cendo
##zak
##zen
##ambar
kaus
naap
raahi
muth
sack
##sider
##law
aln
yehan
ghunda
hemil
sabd
prapt
dekhane
coas
chalai
faroshi
##chee
##mous
factor
qabron
bandon
##count
##thakur
chupana
khaasa
swati
veo
bhoolnay
bnaa
latt
rkhty
istmal
##bbwinner
kamzoor
seasons
maalum
ameeron
chunao
hablar
##atoday
beeswin
##ushantsinghraj
diyook
qatilana
bheria
pohnchain
dbng
babies
ڈیلن
postponed
zndgi
tuhanu
##phones
stopbullyingasim
57
doobi
hbl
jene
layenge
nurs
pnd
zro
ایری
##ghay
##mala
##cdp
##family
##zle
##arab
##hiday
haijai
##insha
##ering
kaati
##tact
isro
isase
deter
ansi
alab
altern
dijo
##arios
##shy
manisha
liga
libas
##entinha
jandaar
badam
##pek
named
##etum
##ongan
mina
chidiya
keras
crpf
jahanum
smh
rakhu
resort
blank
gaii
fell
fanaplog
kann
juan
jazair
lyk
liner
zewar
ehkamaat
chindi
devgan
headline
opinions
eian
tentalees
clock
customers
saudade
##uarjun
fielding
fanaplogose
74
jya
lke
tgfamily
شا
ہی
##wek
##disi
##zs
##bek
##يیر
kida
##chur
antin
behis
bannay
banty
##teria
honesty
dartay
sakon
takhall
##tyan
picnic
pahad
paso
##vij
pokok
puro
samjhenge
wasool
wasiyat
quanto
witness
angka
rashi
ikram
ilan
maqalah
fif
raatain
aukaad
collab
hazara
mnh
##gano
sentir
molk
understood
cried
##wadar
lassi
laraiyan
zakhair
noorani
tharak
##cricket
##devgn
gauhar
khutba
maghrour
ghuroob
precisa
hbds
ounchay
karnamon
jaishreeram
astagfirullah
thehray
فراہم
astitva
rubikaliyaquat
وقوف
jirimi
hemilton
takhallus
53
ezzat
iye
iht
jall
otha
pf
wade
yuz
ﮦat
##gunt
##wri
##cah
##fad
##hiti
haibhai
##amam
todi
topper
##ilal
##usne
ingin
##itis
anusar
krri
##inger
maeno
prs
barheen
reforms
ambi
mushaqqat
mazar
pervaiz
tras
dikhan
##target
##targets
purush
malem
shidat
khatna
##jio
utang
##ghr
lagae
patch
lgay
##ارو
safed
aula
disp
sikhana
jbki
bhoj
derr
justific
##taindia
sreesanth
##balik
sidnaazis
zulff
bhulad
##یسوڈ
programon
##یات
chehry
consum
authentic
##یيل
untung
sazaa
bhooton
1979
##penter
urrnay
chokidaar
bastante
##duniya
##hobbat
fidya
nuqsanaat
ishtiraaq
##vartan
knsas
68
hsas
ihs
osi
sket
tapp
جو
##gate
##pv
hairs
haikisi
kide
kela
kachay
topo
deja
neck
nego
necessary
thack
leag
jac
jaedad
unge
territ
ande
maina
##rof
arya
##miento
herkes
##gree
akkal
sataye
##berg
bux
bandish
sadiyoun
mengg
ilaaz
lute
##engey
mandal
fei
carpenter
kashmirio
fancy
##yshehnaaz
chandr
##colle
jumat
quraan
gunahgar
##rajya
##وٹا
campus
##sssss
chirak
gndi
nachnay
فلم
krdya
manuga
bagian
##uringsid
masomiyat
##judg
madhurima
weekendkavaarwiths
chhyalis
unchaas
discrimination
allegations
gorakhpur
catupiry
cia
pust
qr
sook
میپ
##vam
##cta
##گم
##inter
##abd
ista
bahal
chaon
chamach
beats
usar
##kiawaaz
shaaid
lime
takal
cheguei
rehkar
thx
shoping
kitana
##otas
upbr
balti
##zians
bakwass
hndost
mukab
byanoe
lgata
himlit
carbon
dhk
dhmak
pooj
descul
lehaz
##conne
stoptort
nationwithasim
moscow
rukne
engvpak
##dambar
arnabgoswami
rulaya
bhrosa
ghom
pawankalyan
madhosh
smiles
darshanraval
ttp
nakhre
##allaha
copian
dajjal
kemarenan
##subhanallah
karorron
fehmiyan
##atellite
vatsn
affairs
beberapa
hndostanyon
aasi
ere
eto
kull
oke
##huma
##jc
##fail
##فمین
keun
##urdu
##akon
##ahnay
hains
##iture
##sip
##sita
bhaya
##ainssrcase
##ultan
shash
wallace
chm
mohit
nichor
margin
##tyle
aawa
masak
format
jia
sharp
kitabi
polisi
burrows
timepass
mayos
vim
lamb
murammat
surgeon
outrage
kutt
sikhna
khaizi
aurato
tajaw
ganas
##ismati
zeist
aaney
dorr
ashdeep
tlp
headlines
rkhen
jorta
invitation
ailiya
##poserhe
murdered
darjeeling
dicen
##umkinhai
kandhe
barfani
jhelna
aastha
##mahagovt
bezti
gubhar
fonda
khainchti
daghdar
abubaker
##targetsasim
hsasit
bjay
slip
satellite
سوس
ہیڈ
##jali
##bare
haidar
seme
##eesha
##ikut
deakh
baeed
savi
wohe
##ichi
anne
jaada
kraya
alh
##inghearts
beja
users
##lover
bought
chullu
agents
##ateful
shugal
shwetasinghkirt
maru
rahun
sayah
##mpi
samjhy
##ostsid
ahti
patte
happyfriendshipday
blkul
##pppp
luc
buscar
kutay
passand
kuy
palti
##bohot
whopper
saima
calon
sharef
khairat
keyboard
rishtay
pehchane
taisi
cabelo
llor
chhorta
machaya
zruri
sundayswithamaal
experiment
choohon
poner
built
mehroomi
khwabon
madrasa
سايیک
ghutnon
samarthak
گریف
vagon
suspended
fuddu
construction
##dexposerhe
czn
junt
sre
tunggu
ہوم
##voo
##tur
##other
##mla
haig
naala
##akum
toma
razam
##neta
nechy
haari
##dii
##utter
humhe
dite
didu
hutiya
##riors
acara
bhaihbdmaheshbabu
movi
prank
amree
arnav
adw
##mita
##veria
butler
thhour
hera
pota
##hahai
gie
##ized
banaoge
##awaq
angin
hadir
munnay
rashan
khete
lgaye
payer
paying
aasteen
spt
gaie
bhagne
akelay
gola
##hasil
ikhte
publicly
khilony
boysssssss
rkhti
bewaqfoon
trains
obje
strongly
##villa
apnon
partido
kudos
yadavtejashwi
chirag
darwazon
muqarara
arakshan
nibba
hathiyar
##boxing
badshahat
mizaj
ranking
signif
masalas
parvarish
sadhvi
ایپیسوڈ
bajrangibhaijaan
iltija
percaya
sesuai
bndoqin
churrasco
faayda
dayriktrz
eke
fh
peed
reech
tni
wuz
##nation
##kane
##hado
haiallah
haiabhi
##atumhara
##inhas
##alist
##asana
##adit
##akang
##ehow
chapa
alvid
##ingi
##kies
mock
takeed
harna
tarw
paayi
rokay
##baari
denger
##tsoldout
khoty
jalwa
baka
mojud
gaiye
milaad
baraat
nathi
aanand
maangi
rangat
izzati
minds
bachiyon
sumameen
dakuon
taxes
cheeje
gareebon
##heeray
pinter
tariqa
tehattar
trpking
kaddu
segment
committed
rehnumao
##stoptargetingsid
heenks
meteoc
institutions
besharmo
corrente
anupam
arnold
bhateejay
cancelcompartmentexam
propeganda
krstina
earthquake
##adrishti
ava
bz
corao
gly
nica
olu
ریٹ
لنڈ
ونٹ
##lata
##kc
##ota
##mik
##qas
kiven
hoker
##hanks
##chna
mubas
##azon
##sih
lef
unos
behe
heal
chood
filks
prt
hameed
asla
jismon
taresath
daat
##roff
bahno
torne
##ooni
##hong
guards
##akhush
scary
ques
jaghen
##hron
lgsg
luga
teraaki
aliaa
daiwata
pakistanion
rajrz
phoonk
##hume
unite
##لیڈ
maregi
crimes
##نگس
fitna
ranjida
kaatna
karwaiyon
##hahahahahahahaha
chunaav
nosso
kulon
apnane
bhrasta
imagination
tazleel
1997
zrurat
aditirathore
mushahiday
islahi
kendi
existence
ceremony
dgnta
fabric
pratibha
satisfied
westandby
nafarmani
sargoshi
hypocrites
stoptorturingsid
98
clow
dado
grif
ghiza
haga
jgha
mga
plo
vp
yen
mese
nazim
parin
pardes
raay
mutaq
anum
krengy
als
alma
unwaan
##idhi
maadi
het
sabji
##niti
##sav
sotry
terappan
pehal
darindo
sakha
shwe
tarkin
arkan
sibuk
sifak
former
gobhi
jataa
dengi
sharmi
##chis
taqre
daylight
hms
nayak
jaleel
kasht
bnaty
##iyanus
bsm
illogical
sikhane
rajy
kui
##ورین
jazo
##guard
parhny
siyast
##oshit
##urrana
##لیہ
monthly
sapa
bahagia
confess
nalli
انف
aazam
ruby
appease
biswas
couples
##kadostsid
aandolan
clinic
ووڈس
bilawaja
philosophy
purchase
minutos
istifada
wekawekaweka
ftohat
upbringing
meteocat
sifakana
58
fash
jf
lz
nhee
##wray
##sters
##chir
haiphir
kaw
kaaj
##unj
##unches
##olr
##azads
anub
mero
##raut
kampan
##mafia
stun
sunu
adani
phirnay
aajati
##edgi
##hayad
cox
shari
frost
mutasib
scream
magarmach
sanad
shuruwat
sachcha
btati
composition
onek
offers
kuc
kuxh
anywhere
shani
##plan
sawalat
##lugu
qaabiz
penny
pensei
underrated
lgaa
performances
sinatra
footpath
##carry
kaaam
qurb
kamyabion
lehron
lalchi
franko
zakheeray
hijjay
alguma
اسپل
bhookhe
phenka
photosh
quarentena
fools
mehrban
oqiyanus
foster
zehniyat
bingung
reechh
62
aaq
aaind
bray
bche
esh
htum
jhi
mko
vamo
zindi
سیو
##nrc
##eta
##then
##fol
##pla
##bbra
##bles
kartin
deket
khne
parde
##iraj
##iyya
haap
loi
bhada
khaoge
lagt
boj
boya
moq
moga
darust
milla
milawat
manny
sholat
adeel
cheisat
pakistanarmy
##viz
dengy
atul
maliyat
##antr
tamir
multa
bataon
hattar
disso
bhojp
##licate
jaraseem
##boht
##ysy
farmata
lying
junto
amrica
saifi
kasab
naqais
##janas
ngap
humarey
sanskari
simran
##wadari
bdutt
pith
guftu
certeza
apradh
##donald
trem
##mnon
sufiyana
portugal
confirmed
##ابیل
##deshmukh
paryoon
license
jafferi
numainday
lavde
brhhawa
surbhichandna
civilians
mahfooz
caught
kasautiizindagiikay
ridicul
intaqal
naakhun
tarweej
##azadsln
bth
eyan
fone
faid
nude
oos
sma
uks
واي
##need
##jitna
##erd
kop
##eede
##iksha
##azhar
afwa
afzl
loya
jaaty
bezaar
banayega
hars
dava
waqif
phirte
##grade
twin
bashing
suja
##haib
kharap
drum
minist
##vaus
sadiyon
##prit
brono
maqabil
peeti
##yout
pagle
palta
dhobi
##kanwal
prima
flir
bhulna
karwaen
zalalat
##patti
انیم
lotney
##ويی
nishanain
culpa
pedaishi
extend
ghazlon
##burg
margaret
correntinha
##demandcbiforssr
wrestling
ovely
ungelian
##dexposerheainssrcase
73
cud
dhat
ech
fcil
lf
penge
pamaal
ruda
tng
اوس
ریس
میتھ
ڈوم
##lere
##long
##jnu
##خش
haisid
sedih
defa
baandh
rawadari
##olved
muht
inni
saaien
jawar
shaori
##loun
bogi
retwee
revenue
darny
shuj
dav
athanway
purn
paishi
esti
tashee
faul
##shahid
minton
thatta
hns
mahz
fof
charwaha
##quar
kuti
whoever
bunun
deshat
##ddd
genre
##urious
flor
tujhpe
rafeeq
rkhiye
kidher
ronaldo
shilpi
1996
jruri
segala
badlega
rashtrapati
females
##akshaykumar
pohanchna
fisher
unemployed
jadugarni
##rulinghearts
atiya
ghira
kuran
ksy
rc
اوٹ
##vable
##ete
##rf
##kla
##ھم
##خت
haiwaise
kawan
nass
sedha
##haro
##house
anqareeb
ghhoom
maff
moqay
motab
filmy
##waf
petaindia
kamana
##sebest
andray
stats
harasan
nifty
##alaunches
arah
advan
salmani
propi
khansi
chohtr
gharat
util
smule
##ggg
lucu
bajne
durga
tayees
##wewant
##ilekin
daalne
khuwahish
mangti
ishqsubhanallah
worlds
##contr
chamray
rabbani
baithne
bolege
sanskaar
sayahat
aaraaam
dastaan
badhao
badhawas
zahra
aunque
segundo
##sharmak
laalchi
##mediate
unsath
ravishndtv
sarkaruvaaripaataurstrulymahesh
antonio
سینڈلر
##vishwas
arrestrheachakraborty
reshmi
bepannaah
nojwan
superior
ghhoomti
fq
hpi
hjri
tissue
لیگ
##bans
##منٹ
##زن
haiand
kasha
karlena
##ils
baata
mudd
lagya
shave
##hattar
walking
sabia
##saad
##udan
noche
samil
kisanon
##after
mant
amid
shyam
taamul
maid
paayega
muskaan
congi
gele
##pez
##nyak
wegas
##iyaa
males
dekhai
kharb
choranway
quente
aadami
bajti
oneplus
qarzay
phoo
bulata
dafatir
##indiatv
whn
notebandi
brid
seekhi
##club
wisdom
cutest
pkka
speechless
difcil
refug
ارج
uddha
godimedia
violent
hehehehe
atifcam
trabajo
nakhun
tableeghi
chaplusi
hajaro
uratay
eviction
panchawan
unstoppable
sanathebbwinner
gagal
hne
hana
kall
maye
pch
rora
zda
##rol
##that
##px
##hini
hothon
##akapoor
ishaar
##irad
##iyeh
nepo
chapr
lei
walekum
chcha
pemil
##deki
chew
##mie
salee
khanna
##days
bharosha
logoko
suj
facing
burning
girane
chorni
balai
mamly
baksng
tmari
saddam
sadece
canal
vivi
achch
aagar
feast
##yogi
opini
tayyari
jeetain
desen
lafaf
plays
thikane
khilana
aarab
hardwork
homework
gaming
chutye
shehla
cerdas
##ويٹ
sambhale
##ssrkilledonjune
bismal
draft
faisalabad
sandesh
##rrrrr
##yearsofepicchakdeindia
haatho
holding
nimaz
yesss
weareproudof
qeht
feedback
restauran
prepare
satyame
angothay
mukhtasran
pehelvaan
patriotic
biasedbbtargetsasim
kanjoos
dki
faa
qnd
xtra
وکٹ
کیا
##sang
##amn
kob
##ened
##ussidnaaz
dej
dewar
khum
parveen
thaali
jogi
khae
lagra
shashi
mahana
##yet
filho
dohri
arbi
siway
checked
jiha
kabhie
imo
zindegi
billo
hindo
karengi
namoos
paiti
##ggers
bbshow
passando
bachaaya
bhokte
##assir
kanon
##yanway
desco
puchiye
##queen
parivartan
naqli
chatte
proudly
انت
tafseeli
##ومی
##restrhe
joined
bakhs
prayer
farzand
divya
heheh
##thoda
nibhana
refri
##sunny
turns
thekedar
yasooh
bidesh
shining
btsbighit
publish
shocking
chheyanway
jhonk
chahtin
esaiyat
kundali
shalwar
لیمون
laxmi
##bservers
happynewyear
tafreeq
alabama
aasim
eis
gli
tuch
vya
vek
کیگ
##يی
##ayt
##onti
napa
##tiva
depress
apana
khoso
paraye
##iyab
mukaam
bhal
khass
yey
##ardhara
##yek
rahana
##save
samo
asna
asool
aspir
manner
jant
pax
adami
symbol
behte
polo
larh
shippers
padd
bald
submit
broo
braber
batae
chahtey
shaher
lyty
getwellsoon
indus
##یما
uthne
taraqiyati
jhootay
shaitaan
shitty
1972
ujala
samjhega
topics
##abhoomi
tentar
justiceforzainab
inspirationasim
sources
ignored
taranah
لیونارڈ
muhtarma
msica
mahabharat
nazayaz
pradarshan
napunsak
67
bchi
radi
vry
yudh
لیل
پی
کٹ
گلو
##vard
##wid
##rg
##cplano
##aiat
haikahan
kibl
keye
##osto
mudah
nekal
saary
levan
##iyega
unlimited
pega
hams
samai
marja
sunder
batla
pash
mazalim
##zaade
maturity
##endment
sarai
ajdaad
tabish
sheela
bills
kona
myan
minnat
minimum
blagr
verde
ghairay
bataun
btain
udaan
dairy
katt
katha
baydaari
ultimate
helpless
anybody
##medesai
genoc
intak
##psc
gulf
beghar
rupya
turkoon
rumania
bhanji
##adarsh
saaday
##نسکی
developed
##ووا
##goswam
harusnya
competi
workshop
humaare
sintis
waapis
intolerance
atheist
paraschabbra
daruratcplano
eth
##gers
##nj
##resign
##cando
##لینگ
nadia
homo
##akuch
##isab
##aht
dehaat
khood
bajp
##neg
sawa
jawaa
khaar
unboxing
maata
doces
sogra
hamsafar
rekha
##isty
bahubali
perse
##stha
enke
entar
coke
cobra
twink
sochy
suvidha
talli
cres
mumma
##cover
maqaam
alig
monti
iblees
irony
howey
##uries
bikhat
bored
##piece
##راڈ
chodte
nanak
qasai
slash
shirts
heads
jordan
jatt
seeker
fasadaat
jhank
krien
anjali
dramon
##break
150
ikhtal
ghour
segunda
rakhiyega
recogni
behalf
seorang
shafeeq
kaghzat
rajatsharm
azar
beri
fathers
pdha
vand
vaisa
zaye
بد
##vation
##run
##jane
##cool
##bho
kece
kareena
##ahhh
thake
haciendo
jooray
##hatya
bodies
##liq
##chaudhry
sakein
##gies
lihaz
batne
waheed
troma
goons
faraghat
kitane
chop
mehta
talla
chile
balk
##tru
mahsoos
birds
ilmu
bbkijaanshehnaaz
sikhs
deepik
##kkkkk
palghar
keeda
poojan
stru
srkar
srkians
virtual
dikhnana
kholeen
silsil
juram
tangon
jhaank
rishab
jaatey
bewaqof
اسٹیف
chaie
putra
jesey
ertu
jhuthe
##hhhhhhhh
phenkna
hungami
khaima
tokyo
سلیوان
siyahi
buzurg
والکن
gairon
institution
kunalkamra
fingers
iqtisabaat
##amaadmi
sushma
keluarga
mortal
consegui
reached
naghmay
alfred
aprove
souteli
frinkln
divyadrishti
##khulwaopubg
78
cv
cdew
daka
ibaad
iftari
jfaa
nall
oka
pum
pene
zariya
پوٹ
کہ
##space
##mran
##ply
##been
##onon
hotee
istr
##eey
##ikin
deol
inven
sauda
##iton
jaar
krishn
humny
banoge
merce
ustu
maay
##arif
##indori
harap
rakna
aaunga
armed
confi
chalenge
ajate
thukla
gitaar
gharwalo
##zzle
majmu
munq
munda
menj
sanvidhan
aadesh
khena
bhagte
ourhero
discipl
ibham
kanhi
kanan
jarha
pooche
bechar
familia
##luck
laib
nuqoosh
solu
bhulo
bankers
khubsurti
##eeeb
mastung
tarjum
dheeray
muddo
deaths
habit
##hindustan
##united
kasihan
bhonkte
akkian
##nbhatt
tshirt
khincha
haikabhi
nashedi
fenk
lulli
hzari
angothi
zimadar
einstein
##awaqar
dube
kuld
tender
uq
wira
مر
##gne
##ration
##sis
##sham
##ugu
##pappu
##bf
##مو
##almente
##akakar
##ishing
##ussa
##unday
##uniya
aplogo
parar
sawer
java
krao
walla
filed
##andah
pei
milane
askal
manag
batad
sigue
perce
lachar
shelf
pataayi
akhiri
purey
##amahesh
poland
nambaron
burhan
bachhi
waran
jhol
wazarat
bbhuttozardari
makhoz
katoti
tajdeed
hansty
latayen
wafai
muqabil
bukhar
assass
##khabar
generals
susant
##ghair
relations
historia
hotta
shrad
beyhadh
##writing
abaadi
portal
##devgan
quota
seddiq
iqrarulhassan
dhadak
panjang
##anjali
ambassador
oncologie
automatically
biwiyan
rifle
dehleez
iraadon
tayyiba
edar
haba
jakh
jade
kane
mami
von
vans
wana
wjha
وايک
##oq
##fati
##bada
##فس
haitoh
haiwoh
##ayati
kiyat
karye
##iktr
khdayi
racist
aftaar
anubha
krishan
alright
machane
dop
##waadi
soyi
darinde
samp
pakdo
asp
takheer
##ukti
mariyam
siddar
cone
kaamo
salir
syasi
##tool
frmaye
chodi
essay
nayapakistan
modiha
##shaat
ayan
jaiy
##truth
brdasht
maqnat
votefors
makekarachianewprovince
chahunga
delusion
serius
malikan
##choices
vejo
qaabil
##راس
jumlon
anime
dubbed
##palji
sinto
wouldnt
accent
##ensation
kardena
welcom
empo
sambhav
jhutha
tutne
mbwind
chamakate
tulna
suruh
##wwwwwwww
misalon
1968
client
sedikit
qeematein
ghazwah
experts
follo
preshani
pavitra
bezati
hemsha
concentrate
##roborty
clerk
technique
##studentspm
unicode
sidnaazisrulinghearts
##janasanghi
cdewpoint
81
bki
jhad
odio
sina
snak
ٹمٹ
پار
##gain
##teshwar
##lando
##dst
##jul
##zx
##bli
##bute
sear
dewa
deber
##diz
lohay
krda
alwa
dixit
bhaion
sobr
kamaye
##mahira
dilata
amhigh
forest
congo
matr
enka
sarsath
merece
merepaastumho
poda
##tour
taqtee
wajeh
##ersin
exaexol
tasan
satat
haso
issy
bandhu
nikalenge
bycott
bnya
sachha
##job
ouron
disney
##diyaan
pedaos
pichlay
elaaj
zulfi
gandhiji
looh
cie
handles
aitbar
smjhna
banker
saarey
kbhe
nigam
antim
piyara
messenger
##وڈر
darjat
badhne
danishwer
1993
paicheedgi
happybirthdaysalmankhan
##adays
mehnati
velle
jahn
depends
hutch
tetangga
چھد
describe
senetor
bismillah
gentleman
syeda
shaayad
therapy
yarghamal
ahin
awaron
iki
mkal
nhon
ozaar
reet
sza
wukla
پشا
##gq
##tp
##own
##fill
##ashan
##asia
karati
khras
baahum
chaey
aftaari
##icant
khalo
yek
lagani
shabab
moving
##asto
darty
tution
takrao
niii
masajid
arms
row
rehtey
rahoon
khanzeer
abhiyan
athar
azeen
mutton
chiya
##ksk
##hotra
santo
ramu
cortar
likhny
kini
sikahnay
fazil
kaithi
mtnoa
##ttes
ganesh
rainbow
avn
kliye
aatm
rokti
collector
kunji
horse
pilla
failana
hardly
artists
laborat
##arohit
##وکی
haddiyan
##برن
darjah
lapet
##essive
totnay
bhikhar
daque
connected
saniha
christians
grig
billions
##mailcom
taaluq
sentiment
gregori
intrest
bhatija
cocok
mullon
sozinha
hammeed
bghdad
odeio
maksudnya
informacin
پشاچ
61
nost
pilihan
sory
ujar
yada
اش
بن
میری
چار
##gv
##ege
##uicide
##بیٹ
##atas
##atri
##alaman
debut
##chare
##este
rahane
lekh
##omorrow
krlia
dien
banaty
##astru
##saal
##kahin
barba
daring
marunga
badosh
##angir
musalat
sunata
##stream
ended
dikho
basit
malbay
sucha
talha
tamgha
munt
tmr
##preet
sanaullah
charag
##ارا
ids
intermediate
khilao
##krishn
secure
gadkari
##ولڈ
mahilao
##ikahan
bawajud
nations
kyonkr
shehnaazgiii
creativity
putla
shehnaazian
zayan
chahiey
danishmandi
dieta
1983
zrort
chudai
baabo
athasi
sanjayazadsln
bhonkne
wkv
pedaish
grijoy
completed
##amentos
luxury
receive
guilt
mohawra
arnst
fiqray
bhateeji
##fficeup
regional
cockroach
weapon
stroke
##apadukone
gunehgaar
gulukarah
himachal
madeeney
amrikyon
##sebesthai
##alaunchesnaagin
گلوور
##amaadmiparty
mkalmon
59
cpm
caanrc
dati
vrai
رینڈی
گیم
##gation
##aati
##liy
##mx
##zub
##pool
##hiqa
kasay
baak
##apaa
##neil
chaako
##itanya
thaaa
mawa
hebat
ghumsh
##kof
asaktay
zabard
##giya
musim
chey
goat
nahn
##mates
baarha
inspire
##apping
mutl
##mou
jalse
##fever
baker
waraq
brabr
zamir
passing
panic
chamka
capable
bitter
sadaf
ngeri
mahawray
##stances
karanjohar
mlas
baqaya
buraiyon
##guruinthe
grave
younger
zrorat
circum
kapilsharmak
tilawat
trouble
##ternal
ignorance
graduation
mubarkbad
soalnya
oppostion
dhinchak
ikawan
scope
pnsl
laundering
speeches
##government
bbshowussidnaaz
ustuwar
ourheroasim
fishan
ges
mshah
tqr
ایکس
##vali
##wwat
##rayi
##zaz
##کوف
haimain
##amas
kawi
##abardast
meiny
aurr
##ikon
dejar
deikh
hainye
hiding
aaplogo
anhazrat
bega
acabar
maadri
honda
##saaf
barma
asharam
mantr
nios
baadalon
matra
frente
suits
kharan
jeev
tambah
bhtttt
khiirad
hanse
sanab
resist
brbad
appar
##hsy
ishrafia
greed
mashaa
rahulkanwal
airforce
promoting
zoro
##larin
karaingay
ssrkilledonjun
pehchanney
bhadak
masiha
distra
retali
murderers
treated
phatnay
glori
sikhte
metade
londa
dhakke
telangana
##brothers
climax
##اہن
imtiazi
سملینگ
verify
grupo
sickul
collage
potential
##ushantsinghrajpoot
dhmakon
69
een
grey
vaal
waye
wudu
کوپ
ہیر
##dated
##math
##phi
##pyar
##aimed
kaeh
nacho
kotak
##adiyat
karab
##handi
khull
abrar
khakar
khasay
banaao
huhu
soun
siraap
##hiram
kissan
mairaaj
ghab
badt
##manan
rahib
rehni
waat
tres
trol
khudke
saleh
ajtak
poison
behuda
chodd
ghare
pole
##mpl
girey
liyaa
##chayi
bachoo
misl
##kson
##eshkar
qadyan
phor
aanch
##plant
serra
##vesse
damm
##farm
##bahot
rabnsn
sudhaar
manshoor
chodkar
mitro
shouldnt
aitraza
bhejen
beni
salahiyaten
##bbbb
holder
khalai
transpar
##class
properties
##blok
daqui
badnas
bhuke
haiisliye
charhao
creating
##photo
nokraani
bhayya
barkhast
qualities
extremist
keemiyai
pertanyaan
faarsi
murtakib
tasaneef
سملینگک
aitrazaat
bff
cik
fakh
gvt
hg
iza
jfb
lanch
vard
ملی
##luk
##mid
##pj
##bhu
##ہول
sequ
##eeta
khre
rafel
aftari
##dimag
leva
##ajab
krwata
alto
bebe
maun
moter
##shti
reais
daaman
jida
salmaan
taboot
syll
baste
urta
bandhay
showstop
canon
brind
nasam
hojayenge
##onaug
daimi
##ngz
feio
berb
elle
katam
tumhey
bayram
betaab
irre
pream
##asimnewsongtomorrow
virsa
fakeer
bawajod
##badshah
chodke
bithti
raped
ilmoon
trigger
zimme
jaayein
wakil
laser
pandya
alaa
puttar
guft
##pathi
boarding
asey
normally
kharida
jhutay
##amaattack
dates
aunties
##petent
adatees
duplicate
jidhar
nematon
suhaag
prepared
ٹرانس
trillion
##eshameonyou
ibadate
victims
##waseembadami
##sunnydry
casi
dagar
gtu
mcc
qazz
vyap
yz
نايٹ
ڈراي
کبرک
##hub
##mly
##ين
##hasim
seles
khham
##iras
chahal
lobby
jodh
anwaa
krwai
lagadi
##tered
sabes
itlaq
ghumate
soys
prakar
peli
mills
##arek
aspat
##upanti
haraya
taall
dawar
waqalat
maroo
arry
likhty
tiver
nail
sargod
athayin
awas
laro
scale
##fight
nikalega
##brt
aasha
##sonaro
maqbo
maqrooz
aqsa
##wei
kanp
bulati
##ological
justified
tenemos
sengar
karsakta
underwear
smjhdar
sardan
fuc
painful
jawanoo
fascist
empty
agreement
kasian
fixing
farig
mazdooron
claims
vakt
tranqu
separate
کاساو
qualified
##pandey
muhasra
کرنا
himalaya
pandemia
##indiascreamscbissr
travelling
annual
##dambaram
alvidah
pnslwanya
mbl
pss
qd
spa
شین
ہیریس
##vaya
##cq
##cay
##وی
##bata
keno
##akk
iskay
##orn
##agta
apai
paron
parantu
##apka
##ooon
thaki
usase
huin
##ariwala
bod
bolra
tert
pegi
sambal
sakuu
dekhun
mangg
badbakht
batch
arkad
ajk
dikhani
##mps
mulzi
compos
intezam
siksha
phu
##ورز
##سٹی
dhawan
thankyo
milege
srkian
udit
binkari
##acin
muchos
stopjudg
decades
raqeeb
tareefen
[...]
